#version: 0.2
Ġ Ġ
ĠĠ ĠĠ
Ġ t
Ġ a
i n
. .
h e
o n
r e
Ġ o
e r
t i
Ġt he
e n
- -
Ġ s
o r
e d
Ġ p
.. ..
e s
Ġ c
a l
Ġo f
a t
ti on
i s
a n
Ġa n
Ġ in
i t
Ġ f
a r
Ġ b
in g
Ġ 1
r o
Ġ w
i c
Ġt o
Ġ Ċ
Ġ d
en t
e c
Ġan d
Ġ m
-- --
Ġ re
Ġ 2
l e
0 0
a s
Ġ (
Ġ e
o u
Ġt h
â Ģ
Ġ S
Ġ C
Ġ A
o m
m ent
Ġ n
# #
c e
& #
i l
s t
Ġ .
Ġo r
v e
Ġf or
Ġb e
Ġ T
Ġ l
r a
Ġ h
i d
_ _
Ġp ro
Ġ 3
u n
u r
Ġ I
e t
o t
o l
c t
Ġ P
c h
Ġ is
Ġc on
l y
i m
s e
Ġs u
Ġ 0
at e
Ġa s
u t
Ġ F
p p
u l
it h
Ġ 4
a b
Ġ M
Ġ on
a y
Ġb y
Ġ D
i g
Ġ R
er s
q u
i on
Ġ g
t he
a g
e l
0 1
o w
Ġ N
Ġ E
i r
ec t
i f
o d
Ġ 5
t er
r i
re s
u s
e m
o s
* *
a m
it y
Ġs t
v er
Ġc om
d er
Ġe x
x D
es s
a d
an d
ĠĠ Ġ
Ġ un
Ġ1 9
Ġ 6
u m
Ġs h
re d
Ġ O
Ġ B
Ġ âĢ
Ġa re
Ġw h
is t
al l
o c
ĠĠ Ċ
a in
or t
__ __
ĠT he
an t
Ġ v
d u
en d
Ġp ar
Ġa pp
Ġd e
Ġa c
ou n
Ġa l
a c
Ġa t
; &#
u d
f f
Ġ U
es t
ĠI n
Ġn ot
at ed
Ġ r
Ġ 7
Ġ L
the r
t h
s p
ro m
ti c
u re
1 0
Ġ H
Ġsu b
## #
Ġ W
Ġ 8
ab le
p er
f or
Ġs ec
) ,
an ce
p l
Ġ it
Ġ 9
e re
ic h
il l
ou r
Ċ Ċ
Ġ y
i v
1 6
Ġ G
ag e
Ġan y
o re
c l
Ġp er
ti ve
âĢ Ļ
1 2
Ġ -
ar y
Ġ2 00
ĠS t
ar d
i al
1 9
i re
u b
ic a
ar t
Ġa d
Ġ he
e p
l a
Ġm ay
l d
2 0
g e
b er
o p
or d
ig h
i es
for m
ic e
a k
an s
Ġh a
r u
oun t
p os
e ar
1 1
Ġ en
Ġ1 0
e w
as e
âĢ Ķ
s ion
Ġc h
er v
00 0
Ġ u
2 3
Ġs p
9 5
i ti
i p
ti t
p h
l ow
m in
Ġ J
Ġ im
om m
ĠA ct
2 2
a p
9 6
Ġac c
v id
Ġ le
ou ld
Ġre g
Ġd is
cl ud
Ġm e
i ed
) (
Ġ **
2 00
u st
t ain
i a
) .
1 3
i z
a ct
ig n
Ġ2 01
O N
at er
Ġin t
e g
## ##
e e
at es
t s
ti f
as s
1 5
u al
u e
d i
du ct
in e
Ġw as
Ġa m
Ġw he
1 4
9 4
2 5
ul a
Ġa b
o g
Ġ us
e f
Ġ |
1 7
e x
ic al
2 4
T he
t ed
3 0
Ġh as
p le
on s
en ce
he r
Ġ V
E R
. &#
a il
ĠU n
a ch
i b
l l
2 01
er al
Ġre p
Ġ $
Ġp l
o st
9 9
Ġe m
v is
ri b
1 8
r y
âĢ Ŀ
ra ph
Ġa r
Ġ2 0
ou s
at or
en c
s ec
ve l
Ġp re
Ġre s
Ġa g
o se
ra m
a re
ĠâĢ ľ
Ġn o
T I
Ġp ur
igh t
Ġas s
l ic
Ġof f
ro u
as t
5 0
Ġ1 2
an c
g h
or k
Ġ Ù
Ġ &#
r ic
Ġre c
j ect
un d
ĠP ro
Ġ1 3
on d
h or
om e
ere n
Ġ1 4
16 0
I n
Ġw e
en s
Ġ Ø
âĢ ĵ
Ġal l
Ġ <
Ġt r
p e
2 6
Ġd et
Ġin c
c ess
m it
E N
o v
re e
at a
Ġ1 5
id e
y st
el l
Ġe ff
ou t
2 7
Ġ qu
2 8
4 0
Ġt im
o ver
s u
du c
Ġd es
o ve
Ġa ut
Ġ if
Ġ1 8
E S
on t
Ġ1 6
ĠâĢ Ķ
res s
g ram
an y
v i
9 0
o od
Ġre f
ĠS ec
Ġ k
o f
p ro
ul t
ec if
O R
Â §
on g
3 3
" ,
Ġc l
re n
Ġ i
Ġd o
ĠT h
ad e
it ed
= "
v en
I N
Ġ j
. ,
Ġon e
Ġc an
o y
Ġ1 7
9 7
is h
p t
on e
Ġin d
8 0
ing s
3 5
a x
Ù Ħ
c he
ar k
A R
Ġ1 1
2 1
s tit
ter n
ĠA n
c ent
e al
i ve
A L
ĠC h
Ġo ut
= =
", "
6 0
t y
A N
Ġit s
am e
s o
ti v
oc k
9 8
ak e
ab l
an ge
ac k
id en
ion s
Ġs o
Ġ K
Ġm an
a u
or s
ti m
ĠR eg
3 8
< /
Ġex p
3 4
Ġo b
7 0
i od
as ed
' s
in t
enc y
l ect
it s
ent s
a ce
f ter
s s
Ġ3 0
e ed
ĠN o
Ġf ol
u res
3 6
qu i
A T
Ġs a
8 2
Ġ [
4 5
w ith
Ġy ou
et h
is e
t e
ic es
l ica
3 7
l i
Ġf in
i ver
ro p
m s
pl oy
al ly
F R
Ġu se
it e
Ġm od
Ġde f
Ġim p
t o
y s
Ġ ro
ec h
Ġt ra
I S
an k
t ro
TI ON
or y
ow n
E C
S ch
8 6
Ø §
ti ce
âĢ ¢
5 5
n ot
per a
c es
Ġd ec
our t
i le
ir st
Ġ ,
P A
Ġin v
il d
ex t
ĠE n
Ġ2 4
âĢ ĺ
Ġv al
ab il
ol d
w e
a w
s h
Ġ2 5
an g
7 5
8 8
c c
l and
ol og
ĠA m
n ing
0 5
Ġ Y
ĠF or
2 9
Ġl i
Ġ est
oun d
st ru
Ġt er
ĠA d
p ar
4 4
Ġp r
ar g
i i
I C
E D
p r
sp ec
f ore
) **
re t
Ġg en
ib le
ĠC om
Ġp ay
Ġs e
Ġb ut
Ġn um
Ġc ar
v al
if f
Ġin s
c ed
Ġp ub
4 6
t en
Ġwh o
Ġl oc
Ġu p
ow er
m is
Ġc o
Ġc er
8 5
k e
Ġ ra
Ġp ol
he d
d e
Ċ Ġ
7 6
p art
A S
ord s
Ġ Â§
u le
w n
i x
3 1
w w
Ġ2 6
ul ar
ti al
t ra
.. .
c rib
ĠR e
ĠE x
Ġde v
Ġbe t
u c
r it
Ġ4 0
in a
7 4
la im
p ut
ear s
ant s
ĠC O
o b
re at
p any
ar ge
Ġre m
f er
Ġo p
a ir
Ġt y
3 9
k ed
ur al
ĠO F
vi ew
Ġm em
Ġp os
p or
v ed
0 6
7 7
Ġ2 1
er g
oc u
Ġa v
I T
ir c
Ġc ol
ard s
au se
Ġe qu
iz ed
n e
" >
ra c
Ġs c
in d
y l
Ġc or
5 6
m e
ay s
v ing
Ġre l
ĠS ch
we en
ti es
ech n
Ġ2 8
t t
Ġad d
ĠA r
Ġ "
3 2
ic i
o int
ce ed
U R
rou p
0 4
Ġs et
Ġs ur
9 2
7 8
ar i
ĠâĢ ĺ
ut ed
A C
ut e
c er
Ġ2 2
al s
9 3
I G
ĉ ĉ
Ġb ec
Ġm on
ĠA g
m an
iv id
) ;
R O
g an
00 00
tro l
ce pt
Ġl im
vid e
Ġc ap
t em
Ġ *
Ù Ĩ
8 4
9 1
un c
w o
EN T
ĠR es
ĠN a
5 4
8 1
Ġ2 7
Ġh is
Ù Ĭ
f t
Ġ2 3
in ed
a ti
in k
Ġ end
ĠĊ Ċ
Ġ &
er c
N ot
Ù ħ
Ġn ew
N D
Ġf l
as on
ĠD ep
m ed
6 6
ĠF R
8 7
it a
Ġ es
Ġe t
ĠF ed
in al
as es
le v
ren t
t ing
Ġn on
r ant
en ef
Ġp ri
iz a
ĠP l
i e
Ġar t
c on
ĊĊ Ċ
r an
Ġm in
Ġ5 0
m un
ac il
Ġt ax
Ġd ur
e b
i er
ĠâĢ ĵ
et y
o k
L E
al e
ot h
ort s
ĠO ff
Ġ :
, ,
c om
ur n
ir on
I I
he re
a v
Ċ ĠĠĠ
Ġc ur
Ġ3 1
8 9
Ġl ab
Ġ1 00
ĠA l
s id
e ver
Ġ ent
et s
7 2
Ġf il
Ġ ve
re g
6 5
g ov
he n
i el
Ġo ur
¿ ½
ï ¿½
Ġt wo
t in
Ġg iv
l t
Ġa ff
Ġe l
l ess
== ==
p a
ar ch
ĠA pp
Ġl o
ĠI N
n er
ti l
us in
u ro
U S
Ġp h
Ġ3 5
e red
Ġp e
in es
ĠC on
ĠE PA
N o
Ġh ad
ĠO r
6 4
0 7
0 2
| |
in c
a pp
i um
p on
Ġex t
t on
t al
em s
as h
ce iv
er a
od e
it t
ĠD ec
se l
iz e
v ent
u red
ĠI f
al if
0 9
ĠC o
4 7
Ġg ro
it le
r ate
8 3
l es
v ol
Ġa ct
c k
u es
ĠR ep
p s
ĠØ §
b od
Ġ Q
Ġl aw
ĠC l
ï ģ
iel d
0 3
Ġf e
Ġb as
l ed
o x
ver y
du le
et er
il y
u g
Ġo cc
Ġ2 9
Ġv i
n b
Ġk n
E L
Ġ3 6
ag es
b le
-- -
g et
T h
ot al
A n
it al
0 8
b ers
1 00
c il
r im
/ /
E M
nb sp
al ys
Ġ ed
ul es
Ġa ir
r on
Ġc al
) ","
ĠS u
rib u
ou se
oc i
Ġd i
ou gh
im um
it or
4 2
ĠW e
Ù ĩ
at h
7 9
. )
b e
Ġ #
ĠA ss
ire c
4 8
ect s
Ġ X
am p
b y
Ġn ec
if ic
ric t
en se
is k
Ġb l
ĠA s
ent a
5 9
Ġd el
n ual
o ol
Ġat t
: //
Ġg u
erg y
h ic
7 1
4 1
f act
I L
ĠM an
u a
S ec
Ġm at
Ġo wn
is c
f ace
l ies
23 3
S t
4 9
w ard
Ġ4 5
A M
4 3
7 3
Ġ Â
al th
c ont
or m
Ġs im
l ied
s ub
p ose
Ġt ak
T R
IN G
C O
m on
g a
ĠN O
C FR
c ri
Ġs am
Ġle g
th at
Ġ4 2
Ġs ee
i an
A P
Ġf ur
T H
i o
o ard
ĠA ND
Ġm ed
w ise
Ġst a
âĢ ľ
du st
Ġ6 0
ru st
Ġs m
Ø ±
n ed
S ub
s ide
ĠIn c
Ġh ow
f ety
ost s
ĠU S
Ġf ar
Ġn a
A A
m a
Ġ )
ru ct
ĠI t
Ġs ol
ĠC FR
n ess
Ġc le
ib il
Ġ3 9
U M
R E
ĠS p
5 8
Ġ3 2
ĠG en
f ul
os s
ra ft
200 9
al es
ul ts
h a
ct or
6 7
y ing
, &#
Ġv ol
Ġre t
ist r
bod i
re l
5 2
Ġm et
Ġs er
5 3
ĠN ew
h ip
Ġs el
un e
ĠT H
5 7
Ġp or
6 8
Ġg o
Ù Ī
Ġ4 1
ĠS c
pe an
an e
Ġt em
od y
Ġ3 3
Ġb u
w h
ĠM r
5 1
t ec
u el
ĠA c
m er
ww w
se qu
Ġp a
Ġ3 4
is s
en g
Ġc he
re in
Ġ /
ĠP ar
Ġin f
in s
Ġ ec
re c
ic k
I D
Ġl a
ol l
O L
ĠF in
Ġ4 4
u p
Ġ z
min a
ĠS ub
s erv
6 3
ic er
6 2
Ġ3 8
Ġ =
T A
Ġ4 3
und s
ÙĦ Ø
ic y
j ec
94 5
ort h
C H
Th is
y d
v es
w ork
e es
Ġ3 7
n ec
Ġm ak
6 9
Ġv ir
ĠS ep
Ġd ay
he s
ial s
r ing
ti s
a j
ĠI I
i ate
re qu
la ce
h old
Ġde b
re a
Ġsu m
Ġn et
ir d
ur y
ro ss
O C
T ext
n el
6 1
Ġf ul
ĠP ub
pl es
p re
Ġp ot
if e
w ay
d en
Ġe ar
on om
is ed
cri p
ĠC or
u ly
low s
Ġen g
um p
I V
C omm
N A
Ġad j
e ad
96 4
Ġre n
F or
s ist
p an
f o
pl i
s c
@ @
ri al
Ġt e
Ġ --
ou lt
Ġd em
ab ly
cl os
at us
E P
ĠA ll
ĠR ec
o in
D A
l ig
Ġm en
um an
ĠD e
ot e
ĠO ct
g en
99 9
I P
tic s
i ent
re ad
I R
ĊĊ ĊĊ
l or
ri es
ĠÙ Ī
Ġl ic
ro l
or n
Ġ er
Ġde p
Ø ¨
ĠD ef
ĠJ an
C C
g g
č Ċ
min e
g in
us ed
ĠM ay
u se
95 9
Ġt re
Ġs he
in i
T S
l u
r al
em p
O J
ĠI m
Ġp en
r ans
A D
ra in
Ġ4 9
ĠW h
m b
Ġet c
Ø ³
Ġ4 6
il ar
201 0
Ġs it
P ro
C h
. âĢĿ
5 00
n s
Ġ4 7
tif y
ĠA ir
re as
Ġ4 8
an sp
ĠS T
res p
Ġd id
ve y
al f
p ort
Ġ6 3
Ġ5 1
ou th
r id
h ib
95 3
S T
Ġm il
ĠF IG
cl us
are n
ce p
d ay
in ce
ud y
Ġ5 4
o h
ĠTH E
por a
ĠM ar
U N
Ġc op
Ġh im
h tt
Ġe it
th s
Ġ x
ĠH ow
ĠM in
Ġ5 5
as k
Ġs ep
Ġ5 2
ul ti
u ch
Ġl ay
U n
Ġ5 3
82 12
il ed
AT E
Ġd ue
est s
Ġs ch
ĠM em
U L
S E
ro w
T ER
ĠP er
Ġsh a
Ġn at
su ed
Ġ 00
um e
re f
Ġg as
tit y
er ic
Ġ6 4
Ġo pp
n ers
ĠA pr
M ENT
Ġen v
ĠF OR
le g
c ul
p ens
C E
per i
I F
pos i
Ġg re
Ġ0 1
` `
ĠA ut
op le
t ue
Ġad v
en e
Ġl ow
o ber
f e
ar m
Ø ¯
Ġen s
Ġ6 5
Ø ¹
pl ay
P P
is on
Ġj ud
re am
ĠâĢ Ŀ
our s
t or
and s
du ce
E x
94 9
c y
Ġv is
s ue
ĠT O
200 8
ĠI s
im al
M r
ïģ ²
p ly
ĠM e
ĠP t
ĠC ON
G E
ĉĉ ĉĉ
95 7
li e
ĠâĢ Ļ
Ġe le
ort a
act s
Ġ Z
se e
y n
i qu
ĠâĢ ¢
M M
201 8
Ġar r
l ine
n ect
oc a
od s
C R
ĠAn d
e qu
ĠA cc
ĠO n
ri ed
ec u
ra w
Ġ5 6
aj or
c us
I A
ru g
os p
ut y
Ġ6 1
v ers
ti ff
og n
ĠS h
l ec
sh ip
O D
Ġk e
ĠS ee
t ent
Ù Ĥ
22 5
ro x
ut es
ate g
ĠI II
Ġw ay
ac c
ĠP h
I f
u ra
ĠA ug
a tic
ĠT ra
ĠP ol
Ġhe r
n a
el s
uc a
G R
t le
ar b
M P
ct ed
ĠS a
Ġh ig
ct ly
Ġg ra
l o
ip al
s um
ĠC ol
op e
200 6
Ġ Î
su es
A l
Ġ6 2
ro ad
pr is
Ġ7 0
201 1
end s
om es
ĠG u
Ġm o
ĠA t
tin u
Ġ ill
iv il
f ig
ĠÙ ħ
ĠT o
O S
200 1
es ti
d ing
ĠP RO
t a
ch ap
ar s
is m
w are
Ø ª
ĠEn g
Ġ +
Ġty p
M A
er y
st an
2 000
Ġ8 0
l ing
irc u
Ġ5 9
u ary
C om
; &
T E
A pp
ti re
v est
ff ic
d ic
m ary
Ġ9 0
Â °
m l
ol u
C A
d es
Ġ5 7
Ġ5 8
ag ed
vel s
k s
ic s
) :
t ers
Ġhe l
S P
200 7
pp ly
l is
ĠD es
on al
ĠI D
Ġf ed
ES S
I tem
id a
ĠEn v
Ġ7 5
sp on
er t
ĠM ed
. ]
E T
v ate
Ġc a
Ġ â
s w
d o
Ġm is
al y
Ġ6 6
Ġd er
ur s
Ġs s
ĠN um
a ve
r or
i or
Ġm y
c omm
Ġb i
pp er
Ġs l
Ġd en
oc al
Ġl iv
200 5
C on
i red
Ġ ver
Ġc re
ĠF eb
Ġd ri
S A
200 2
ab or
er ia
Ġn e
). &#
) )
ail s
end a
ure r
Ġf ut
200 4
ol a
l ia
201 2
ac ed
N um
95 1
re of
ood s
201 3
ĠR E
Ù ĥ
ov ed
ati s
tim e
at s
eed s
E n
en ti
an a
96 1
P S
om s
lig a
Ù İ
ĠE m
b s
Ġs w
Ġm ax
Ġo il
ĠS en
ĠP M
st ra
t ect
ri a
200 3
o id
o ok
E U
Ġ1 10
Ġ '
96 3
ĠN A
96 0
le y
n o
ĠÙ İ
or ne
Ġc e
od if
d ers
um st
Ġw ar
o red
p d
R A
e ff
L L
ut ri
iv is
ĠP re
ab el
Ġp op
3 00
ti ll
tis f
Ġ ï¿½
ain s
ĠØ £
ar a
ĠR ef
k ing
ĠE N
ke ly
Ġ< /
ĠC ar
ow s
I ON
A d
ur b
c ons
M S
id es
ĠA D
ĠIn d
Ġf am
AR T
h alf
ii i
oc ia
c ass
i ous
Ġ1 01
ĠG e
pp le
ĠØ ¨
F IG
ĠL e
F OR
st s
t act
p res
Ø ©
Ġsu c
R es
Ġp at
ct s
Ġn ow
a z
R eg
re en
t ak
ĠN ot
Ġt en
th is
ix ed
ce ll
ĠØ ¹
A s
ol es
le ar
Ġh tt
Ġd am
4 00
ac es
ĠD is
24 3
ĠV al
Ġ Ã
ĠS ur
o ff
Ġn eg
pe ti
Ġs k
se mb
Ġh yd
, -
F F
S c
f rom
o le
is la
C L
ER S
Ġa ud
ĠÙ ģ
Ġ _
qu ir
Ġd u
am in
ag n
t r
i ef
|| |
val u
ro ll
ist s
Ġ %
Ġ3 81
is a
D E
s ed
is i
ĠT ax
m al
Ġb ud
Ġ !
ch ie
Ù ģ
Ġp p
ĠO R
96 2
che d
Ġa ge
ĠH e
O P
ĠÙ Ħ
19 96
one y
95 4
ĠC H
1 01
ove m
iv al
g u
l er
ĠD o
ot t
re ed
s ent
c re
C ont
Ġ __
ĠÎ ¼
R ef
I M
p ec
g o
Ġg l
Ġs al
A B
ĠS o
all s
on y
25 0
Ġ7 2
Ġ9 9
ĠR o
Ġde g
s ol
C ase
op ed
er ve
a h
y ear
Ġ1 20
ĠS e
Ġw a
V E
Ġf at
Ġen c
R e
ell s
AN D
Ġ6 8
m en
ad s
I B
at ut
1 10
or g
23 7
l ink
ual s
. âĢĶ
ĠA C
Ġr at
Ġ9 5
su ch
Ġ6 7
ĠĠ ĠĊ
m erc
d om
ru pt
. "
pd f
Ġ1 12
g t
sw er
li ef
ĠP r
C l
f ess
Ġ9 3
i en
ain t
N G
duc a
c o
m ark
ĠI re
5 94
ir m
y pe
E PA
Ġw ee
E A
ĠAn y
t ure
Ġto p
Ġ7 4
ĠS O
Ġg e
ĠC he
ĠM et
Ġ9 1
r and
ud e
or ld
Ġ9 8
S S
Ġin g
Ġf o
a ff
P age
er is
i pp
mit t
v ic
ĠIn t
ĠD C
gh t
W h
im in
Ġg et
95 6
F ed
Ġfl u
Ġco o
IT Y
par a
ĠS oc
ĠN or
ig in
T O
) -
96 5
he ad
s on
p ers
6 999
ra y
Ġ ..
Ġc y
201 4
ĠC D
Ġ1 11
f r
ic ro
38 1
Ġ7 1
ter m
. **
Ġt es
r ig
ĠD O
qu id
A r
d is
Â ·
ac y
' '
Ø§ ÙĦ
Ġ7 8
6 00
Ġ8 5
an el
ĠT R
A m
ur is
in fo
ĠP e
Ġan n
r ong
ree k
Ġc at
c le
U B
p ay
8 00
im e
a f
A G
Ġ8 4
ĠL aw
F ig
P R
d iv
g ro
ot or
Ġ1 30
r is
ĠN on
ill s
le t
Ġ7 7
** **
Ġ7 6
L C
b ina
ĠM on
Ġ6 9
Ī Ĵ
a ult
Ġ9 6
N O
ĠG as
or a
ed uc
, "
ĠP en
g ran
Ġb ur
ab it
iti z
S O
un g
k g
Ġm ar
Ġm g
t ext
ĠE qu
Ġ10 2
Ġp ow
C ON
p et
U D
of t
Y es
H S
iqu e
Ġ8 8
d em
m ing
ĠJ us
d s
f ol
Ġe v
ap e
eg r
ĠV ol
ail y
Ġv ar
ĠO p
y r
s et
eal s
om en
a ut
f it
Ġb ar
L A
Ġle t
ith d
Ġ7 3
id s
le x
Ġst e
W e
y m
ri er
20 2
Ġ0 5
P art
ep s
Ġ5 00
Ġin j
@@ @@
li er
s ur
um b
U C
Ø Ń
re et
T C
ĠB l
Ġt ru
on st
am es
23 0
en n
. ;
w ays
ic o
ĠD E
Ġ9 4
us es
AR Y
Ġ8 9
g age
00 1
in u
Ġr un
Ù ī
Ġn or
ans i
22 4
)** ,
m ak
a tiv
ra ct
Ġ10 6
m ay
Ġg r
Ġb re
ce ip
t d
)** ;
ĠS H
iv ed
Ġ10 4
k n
ĠT ex
ol s
Ġc ou
Ġ9 2
id el
Ġ ---
ĠS m
c v
, âĢĿ
b l
ĠN at
9 00
air s
b on
Ġ9 7
b ur
ĠI d
g es
c ur
O n
N E
e u
C S
Ġ3 00
o or
ĠE U
ur l
Ġm ix
.] &#
ĠA R
em ed
ĠB ut
Ġ8 7
22 8
Ġc ri
ĠJ ud
re by
ro wn
O M
ond s
Ġ ``
Ġb al
ĠC er
Ġ8 2
Ġ8 1
p ub
U T
ĠC ap
ank s
un t
h t
m y
ĠÎ¼ g
erv a
g y
os ed
s ult
ĠS um
ĠE ff
Ġ1 50
ĠÙ Ĭ
m ore
ĠB e
Ġ7 9
Ġb or
ĠC an
20 3
ĠC al
Ġf oc
ad o
b ut
il le
Ġd on
Sc ot
Ġ1 15
l ish
Ġl og
Ġag g
ĠF r
Ġs oc
em pt
Ġ ~
ang u
Ġ1 13
ĠC A
Ġke y
w he
7 00
95 5
ur ch
ot a
Ġ ;
P D
w th
ĠAn n
12 0
ti o
201 7
Ġj ob
ov al
en z
Ġo x
u ild
Ø £
il s
ust r
d ed
Ġ10 8
ter p
t rib
: :
re ct
sel f
ĠD IS
Ġb o
Ġ8 6
ad a
- .
ask a
ĠA M
ĠU N
Ġ8 3
Ġv ia
al ty
Ġd at
) âĢĶ
Ù Ĳ
ork s
AC T
__ _
m at
y p
m ar
re st
ul l
ot s
. âĢĻ
ĠA ff
Ġh ol
Ġc ut
on es
ĠR el
Ċ ĠĠ
ÙĦ Ùħ
ĠM od
it ch
Ġ ir
ĠA b
Ġe gg
EN D
anc y
Ġha z
00 2
Ġv es
ĠC ir
m et
Ġ10 3
ĠM c
ĠS E
1 12
Ġre d
Ġ10 7
e v
201 5
i k
mis s
ĠI V
ĠD r
em ic
Q U
ĠD oc
um n
Ġs ay
Ġd r
i tic
Ġ10 5
w ell
ĠA tt
Ġp le
O W
Ġs ix
A t
UR E
iod s
ĠA L
om ic
t u
ĠQ u
ll ed
ĠF ig
if t
Ġ0 2
b us
ĠY ou
ble m
Ġ1 14
if y
en ed
P ub
ol ly
j ud
o res
Ġf ew
il i
24 6
al k
Ġ1 18
Ġas p
D IV
A ll
her s
ĠJ oh
ck s
Ġb at
Ġ ri
pl ic
m es
Ġh ar
ple x
C u
ro le
F S
Ġw at
c ula
ĠP A
ĠA N
ĠA v
ĠT er
ark s
ĠP a
âĢĿ ,
25 2
ĠG A
i am
ĠO ne
ul f
Ġqu e
IC E
l ife
Ġa id
T T
il es
ob al
ĠE X
94 3
ll ll
R C
g ed
er at
Ġ0 3
ag er
IN E
om in
ep t
Ġ1 22
Ġup d
ĠY es
D ec
,, ,,
An y
Ġf ee
Ġt ub
ign a
C o
IL L
pp ed
os is
sc m
b ack
le ph
, âĢĻ
s ess
er n
P l
m od
Ġd ry
11 3
e ase
15 0
22 7
Ġm er
I AL
Ġ20 2
er o
Ġj us
ĠL o
am a
â ĪĴ
ĠD eb
ES T
Ġab s
D R
H ead
19 99
ĠS IF
ĠU se
ra p
it es
mit s
Ġf ig
ĠN ov
h ing
i ra
ou ra
M B
94 0
d ef
ĠF l
S C
ha ve
ĠB o
in o
AT ES
Ġ ...
u gh
w as
ĠF ur
ĠN E
Ġen h
01 0
Ġ0 9
T Y
Ġ ess
âĢ ²
v o
d ata
10 5
x ml
Ġ ur
aly z
Ġ1 25
I t
10 3
ĠP ri
rim e
Ġch o
ER V
) *
ĠS an
In fo
Ġra d
el ed
ĠB y
m ula
C P
ap s
i ber
P er
ĠP R
ĠSc i
ĠF AA
N a
rac y
Â «
Ġ >
Ġ1 16
iz es
ĠS he
D S
l f
Ø ¬
ed i
ĠN et
Ġe as
tit u
23 2
ock s
Ġa ro
ar ly
ren g
M E
RE F
ri ef
t age
Ġp ut
OR T
st ed
ĠP at
10 6
o ti
ar ms
um in
htt p
di an
Ø Į
ĠF Y
Ġf r
** ;
ĠO N
Ġp ip
ĠD et
ool s
Ġb ro
Ġs il
TI NG
p ri
ĠL LC
G en
Ġl es
10 2
qu e
ĠO ut
Ġ0 4
Ġ1 17
Ġ0 6
b it
Ġ1 23
Ġ2 22
TH ER
~ ~
S ee
ĠÂ ·
z one
ĠIN C
T o
ĠV ir
w ill
AT ED
s ign
96 9
m eth
Ġv ot
th an
Ċ ĠĊ
ĠB as
l in
ti sh
ĠB i
U E
N or
EC T
10 4
Ġm ob
ĠP L
âĢĿ )
al se
Ġl ot
ram e
R ec
ra d
c ol
t oc
B ER
Ġ0 8
A c
D D
Ġd ig
all a
. -
A g
o per
ll er
le ge
P M
Ġf it
og en
Ġsa v
ïģ ´
a der
ĠS er
oun g
P L
Ġ4 00
TA B
ER AL
23 1
. *
c r
O H
res h
om er
IS T
Ġ1 19
ïģ ¥
âĢľ (
Ġ2 50
ov a
ĠÂ °
R ep
âĢĺ (
Ġ il
11 5
3 17
ï Ĥ
Ġm ag
la w
ĠO b
10 7
201 6
ip a
12 5
R S
M e
r at
ĠV A
F O
P H
ec ti
13 0
b a
Ġm ov
s tim
; ,
Ġn it
97 2
: **
ĠL im
Ġ14 0
Ġ. &#
"> </
P RO
25 9
ĠE st
Ġn uc
Ch ap
el f
p are
Ġm m
Ġw it
U ND
11 1
s er
Ġ0 7
Ġ10 9
A Y
94 7
n al
N ew
ret a
82 17
cer n
od es
I E
il ot
\ /
m ost
ĠR ed
Ġpp m
x x
an ed
f ir
k er
Ġf ra
S s
im en
20 23
che s
ter y
26 9
Ġs eg
A cc
TI VE
am et
f its
Ġt ri
s yst
os i
Ġd iv
Ġf t
30 6
G A
94 8
Ġ1 24
1 19
ĠE di
ĠS EC
ĠSt a
ha vi
ĠD el
sid i
h as
II I
b re
c ast
un al
94 1
us h
ol ve
ra wn
G S
12 1
l ara
M arg
D L
E X
on a
ĠV OL
F orm
h ol
D ate
ic t
00 3
Ġl in
art s
an ia
ĠÙ Ĥ
20 5
ib r
Ġ5 90
ĠF L
1 000
u pa
m o
isk s
w ide
bod y
Ġc am
ĠR EP
H H
ĠB ec
ĠL G
sel s
ĠM ex
S D
at ur
n es
i res
um ed
ru p
O UR
F D
ĠT e
Ġ 000
ĠP ay
C D
ĠD ur
ĠS ol
3 19
Ø§ Ø
ĠSt e
Ġt w
H A
g ra
Ã ©
14 0
UM E
c ome
5 90
re es
D ep
Ġb r
b r
ty pe
g ing
d own
U P
us s
] ,
d in
Ġ3 17
EN S
B S
pl ed
UM M
ĠL a
13 6
** ,
% )
] &#
1 16
l im
Ġ18 0
Ø³ Ø³
ĠI S
im ar
ast e
01 5
ĠL eg
om a
35 3
O G
C Y
Ġs yn
al t
s a
op h
V ER
m ain
00 4
: *
Ġf av
p act
w est
IC A
d et
n on
Ġto x
ĠM o
00 5
19 97
94 2
ĠG l
Ġs om
ew s
ĠC ur
E AR
C T
10 8
P O
Ġr s
sp an
p id
ion e
Ġs la
âĢ Ĳ
ģ Ħ
AS A
p kg
he st
ĠS am
M AN
P ar
p ath
t ner
th ly
ul at
AL L
ÙĦ Ùĩ
ĠB ud
ĠR ES
i j
p ati
Ø °
18 0
Ġl as
ig ra
ex p
Ġc r
3 01
00 01
te in
F L
ĠA S
- (
an es
A ct
h yd
y ond
op s
ĠB L
Ġa x
Ġs od
Ġl at
V A
c or
P C
Ġh or
c arb
at t
z a
ic at
O O
f lic
ox y
uc k
10 9
) ;&#
is es
c al
Ø§ ÙĨ
ĠN ON
ĠC le
g er
W ith
Ġ id
d ep
35 4
20 8
r ast
B B
g l
TR IC
Ġ2 10
P ER
n um
ĠG r
f l
ĠL A
ĠH ar
Ġs y
hen s
d ist
ĠW ar
id d
12 2
i ec
c an
ĠD i
Ġ Ì
d ec
E E
s ump
] .
er m
ĠDO E
ĠS IP
' #
Ġ3 54
b or
J an
10 72
Ġ12 6
j ust
ĠB ar
Ġ12 1
14 7
01 1
11 4
12 3
P E
f in
c oh
lo ad
os ph
D I
23 4
e y
EL L
l der
TI C
om et
> <
IT ED
m and
a a
m ium
A F
S R
k i
l ong
B y
AS S
h r
Ġp ul
2 20
AN T
id th
I d
un ic
iti a
is ms
S p
Ġf a
Ġsc i
le ga
at o
S en
red i
el ec
P h
M ar
3 22
Ġo ld
id ed
Ġb ox
24 0
. :
ter a
ter f
ĠP O
20 20
ide o
ĠD a
Ġ3 25
ĠGA O
12 4
c i
Ġwh y
ĠA G
Ġto w
82 11
t ly
Ù Ģ
p ol
u ff
Ġs ex
ĠM O
t est
f ill
ĠS im
I ES
ĠØ ¥
Ã ³
C F
T ON
ĠØ ª
X X
S I
Ġ12 8
ĠM is
20 6
ĠA PP
p ass
23 8
U G
95 2
w ood
11 7
AS E
M T
ĠR et
ĠM ax
ĠS W
fe et
inc i
Ġ16 0
g ic
ÙĦ ÙĬ
id er
=" /
' t
se y
e hic
u ge
D ef
CO M
Ġ3 19
l s
ĠD L
c a
for d
12 7
O ct
14 6
ign s
B tu
n d
ĠB ay
as p
Ġ2 30
in f
D C
20 4
I O
n ow
Ġ ïģ²
Ġ15 5
I TI
z e
Ġ14 4
ĠÙ ı
a im
Ø µ
38 2
AN CE
S IS
)- (
AR D
19 92
> </
ht ml
Ġ ]
26 1
o o
3 80
am s
11 8
86 6
Ġb ed
di o
13 2
rop s
20 9
t es
ĠF AL
PA GE
at ch
Ġn d
13 3
Ġ13 2
), &#
Ġs qu
Ġ ^
am b
Ġan g
L Y
Ġp et
il ty
3 27
ĠÙ Ĵ
ĠM s
M s
) );
Ġ20 5
l ut
12 9
ip s
96 7
S h
. --
ĠC L
B R
Ġd ou
ad d
ĠU AS
A ss
20 7
an ti
Ġ6 00
r mal
20 21
ĠD R
Ġv ic
3 18
as is
ink s
19 98
ĠA T
Ùħ Ùħ
ĠÙ ĥ
S our
il er
Ġw ww
14 2
17 0
S u
Ġl b
Ġto o
v y
) ]
01 3
I Z
ĠE l
00 6
ari o
b and
% ,
E m
Ġb od
or al
14 8
sec u
Ġs an
a i
an n
Ġ13 4
Ġ20 4
AN S
rug s
ram s
f ile
ĠI ll
Ġl it
12 6
ÙĦ Ùī
um er
Ġ13 8
er ce
Ø ¥
M O
17 5
3 10
ĠEx p
19 95
ant a
Ġl os
Ġ \
ĠR em
n ova
hib i
I m
N ame
T AL
w ing
Ġn g
Ùħ Ø§
M ay
ĠM A
p ul
Ġ2 40
26 0
ĠI L
H R
22 2
B I
B A
ac i
Ġd ie
it em
ĠH er
19 91
O ff
Ġy et
S EC
om pl
ro de
Ġa u
UR T
Ġam b
ans f
or b
Ĺ ı
ib ra
AC K
re la
c ar
ru it
Ġc as
ĠN C
l an
ĠC OR
14 5
m osp
z en
201 9
G G
97 4
ird s
h ref
Ġ13 5
ens i
ĠU s
ĠÙ Ĩ
Ġd ed
13 4
Ġt ry
p ur
Ġ3 33
y e
Ġv ac
o pp
yl v
K E
ic an
b ook
y mer
30 3
Q S
il t
i et
â ģĦ
c are
ĠN Y
W A
ou is
12 8
ENT S
Ù ı
Ġ12 7
p o
M an
urn s
Ġ3 01
13 5
l oca
3 50
IG H
: &#
30 9
ro ve
men u
ĠO il
Ġ13 6
re to
ut or
30 5
m ust
Ġw et
24 5
P re
h our
10 80
g ate
25 3
A pr
ĠB R
Ġ3 18
ul ed
ĠA f
F C
ĠAd d
2 10
f low
19 93
W hen
ĉ Ċ
ĠO f
Ġ17 0
ĠE UR
ĠS w
d isc
O r
ĠS P
e at
Ġ14 2
Ġa qu
d scm
ĠR oy
14 4
Ġ14 5
Ġsp e
ĠM S
ïĤ ·
pl if
a e
u tic
19 94
ĠØ ±
7 50
ĠE L
k a
CC M
od a
h io
\ "
ĠM E
Ġt al
2 23
ĠCD P
D is
Ġex c
97 3
ock y
er k
15 1
Ġs ou
Ġ12 9
Ġm ol
Ġ ï
il it
ĠL i
J une
M R
M in
kn ow
b b
Ġ2 26
ÙĬ ÙĨ
En g
28 1
ĠC R
B O
ip at
9 17
AL E
15 7
w ere
D e
AT A
T N
Ġ13 9
AM E
i h
I s
26 3
m ul
h at
Ġf ir
ĠS al
ve re
ĠE d
av y
19 9
24 1
D es
22 6
ar c
m t
01 8
am ed
ĠH E
ri z
TR IB
19 0
or ic
re m
Ġo k
iv es
ĠE C
re w
14 9
Ġal k
Ġd a
0 50
01 7
ĠÙ ĩ
Ġ13 1
e a
ĠD em
PD F
ĠA ud
ĠE R
AC E
e ach
iv en
96 6
95 0
H O
b at
ĠJ er
k t
S erv
al le
W ash
; .
me as
Ġer r
Ġro t
D O
on or
Ã ¡
Ġc la
ne y
s ite
ĠP et
ĠM at
o ke
Ġ3 10
U TH
ĠG ra
ĠØ Ń
ak er
U LE
F A
Ø ®
27 0
Ġ8 00
M IN
g ies
am ic
Ġ {
and l
3 25
b ec
N S
ic on
c ap
l ist
ry st
ad es
ĠW eb
y ch
ĠB ox
35 5
ĠP ac
13 9
ff er
Ġ14 8
C ons
Ġ ul
Ġ2 20
Ġ2 12
AT ER
ĠV OC
00 7
M C
he m
ain e
ĠP ER
ĠM AR
4 50
uel s
J uly
d a
15 5
it an
ĠD ay
Ġ3 50
Ġ13 3
Ġ14 1
M I
ĠS CH
Ø ¶
Ġas k
Ġd il
Ġ2 25
Ġf ac
al og
o ir
is he
Ġm ap
AN C
N on
IS S
v ia
Ġ15 1
16 5
Ġ2 11
ak es
ind s
ĠB al
on ly
Ø «
Ġse a
EN CY
ĠO k
0 20
ĠT X
D UC
g ar
ĠP ur
p en
Ġem b
ĠB r
Ġb ul
ĠM ON
16 1
ogn i
3 40
ro s
put e
et te
AC H
ĠS UB
Ġa er
ĠC op
ĠO MB
N B
13 1
14 1
30 4
am m
su pp
ĠE EA
F eb
A mer
Ġs em
0 40
Ġl l
10 86
TI T
10 77
16 4
W R
13 7
22 9
Ġ3 11
ack s
3 60
2 90
28 0
ad y
ĠB ur
Ġ15 6
ĠN e
Ġn c
0 70
ru c
c rim
ar n
ĠI ND
24 4
ro y
t am
p ond
m ail
AD E
17 6
01 4
Ġf er
s m
o ked
Ġ3 27
15 8
z ing
h igh
ĠS C
ian a
d ens
ic it
r ite
19 8
ĠR ad
IT H
Ġ13 7
16 6
Ġ14 7
om b
24 8
if i
Ù ĳ
C or
F I
23 5
em pl
S ep
m ot
19 5
H Q
Ã Ń
ĠV I
15 2
Ġ20 3
Ġ16 1
ag o
b et
ĠAd v
SP EC
ĠI T
P AR
Ġe th
30 7
Z M
16 2
MM IT
13 8
TR A
34 5
u er
te es
H ow
IG N
TE E
C ol
T M
Ġ15 2
Ġf ro
le af
33 7
15 6
ce an
al i
30 2
ĠL et
D ER
Sub t
om el
ĠW il
pl an
14 3
f und
sp en
Ġ20 6
" :
Ġun d
Ġv an
ĠRE G
ĠS ou
0 60
US UM
o e
v ity
Ġm i
3 20
Ġ14 6
F in
vis e
w rit
ri e
re me
ĠV er
An d
Not e
le ad
25 7
be en
W S
um es
Ùĩ Ø§
w hen
33 3
ĠR EC
A ug
c ing
ÙĪ Ø§
r in
Ġ2 80
ĠR O
cus s
Ġim m
T RO
Ġ16 5
ĠC M
y er
â Ĺı
ĠO P
16 7
Ġ15 4
Ġh y
b an
** *
v a
el le
ke y
40 4
00 8
k en
10 85
23 6
r s
ro ac
33 5
24 9
ĠM D
ĠC T
Ġ2 27
g r
arg o
ĠB Y
ot og
16 9
ĠO ur
K S
Ġ2 28
15 9
c ase
Ġ ion
01 2
ĠÙ ĳ
V ol
ĠM R
m ote
un ch
f id
tiv a
h am
n et
40 2
IV ER
Ġa w
ox ic
30 8
15 3
st er
20 22
in st
ĠL E
3 13
15 4
3 12
24 2
Ġb it
AT EM
40 5
u Cu
ĠS pr
RO M
Ġ ide
Ø ´
94 6
C al
f lu
F T
Ġ( $
I X
S K
2 18
ĠL ow
su ff
10 90
ow ed
per t
Ġ14 3
ĠS A
P T
Ġp o
eg ra
) ).
H G
h al
b el
17 4
ot en
m ade
Ġ20 8
ti se
ĠG EN
Ġâ ģ
m ill
Ġm or
y cl
Ġl bs
ĠF DA
l b
e ly
Ġ3 60
ĠD EP
hip s
M D
16 8
B l
Ġ urb
Ġar g
Ġs en
Ġra w
p ost
22 1
3 11
Ġm us
p end
c ure
H E
19 6
p ell
ĠM or
Ġf em
ve ys
aw a
put s
27 5
M ed
27 9
Ġbe g
en ge
Ġ2 45
as c
F ood
ĠE D
Ġw in
u k
ĠOF F
UL T
34 7
Ġo d
Ġt on
p rom
Ġ16 2
. (
ÙĨ Ø§
Ġ7 00
18 6
Ġre v
Ġh ot
t re
S U
r ist
op ic
t ual
ĠB E
40 7
AA QS
m ort
val s
get a
" /
ĠNO X
ch as
|| ||
2 11
Ġf ix
B L
he l
ĠB ul
01 9
Ġt ag
Ġ q
B ut
ti ga
Ġ14 9
y gen
19 4
" )
Ġ3 55
ĠØ ³
ĠB O
N Y
j e
IC AL
Ġn t
n g
2 12
0 80
the y
Ġ18 2
ĠÂ ±
s ch
01 6
y le
Ġt ro
Ġm ut
ĠI C
ĠS ha
Ġ17 5
C oun
an o
w scm
G O
st a
Ġ ice
ig an
ĠB or
as ur
28 3
35 2
Ġ16 4
Ġ3 36
Ġy e
Ġp es
ap or
ĠH yd
Ġ16 8
Ġ17 2
d iff
W ord
op t
ĠN D
Ġ4 10
27 4
ĠF am
Ã³ n
E O
ĠJ ap
ht m
u is
70 3
Ġ3 20
if er
s im
Ġf la
Ġ15 3
40 9
) âĢľ
ak s
IN T
the s
Ġ19 0
AB LE
Ġt ur
Ġ2 16
und a
* (
ĠCO M
5 50
95 8
AS H
Ġ2 14
D ire
ĠW el
rac k
y ou
Ġm id
ĠV is
ĠB ro
ĠC AA
Ġ19 9
17 8
ĠO H
Ġc m
ns on
ĠC AR
le ly
d ire
s our
19 2
ĠG ro
R em
ĠEn d
v acy
r um
# '#
Ġ15 7
ĠD ry
ĠS us
m em
ĠS l
the n
Ġ18 3
st e
ig a
f irm
Ġs ti
st on
em is
f il
ra q
r d
S H
b i
70 6
rop a
z z
37 5
ĠG re
T ype
IS H
Ġ- .
G u
ĠP le
Ġf ly
"> <
`` ``
Ġ2 23
ĠT em
ĠNO T
37 1
19 82
d ocu
ĠS et
ĠS U
ĠH ol
C K
18 8
ĠN W
16 3
old s
Ġ17 8
ĠDe v
Ġ** *
TH E
D P
S B
4 13
f ish
Ġp ix
0 28
Ġ2 60
Ġse q
ke ep
t ors
et ra
ĠS Y
tra c
18 5
E EC
Î ¼
f ed
s k
L O
4 10
8 230
M on
25 5
f ort
19 1
Ġm a
18 7
n or
00 9
AN K
C ar
L P
. </
A IR
Ġn ar
L e
17 2
V IS
eb r
x im
P res
T X
2 14
T D
ipp i
IC ES
18 1
us al
ĠC at
Ġn om
Ġm ul
UN TY
pl it
ĠNO x
ĠE S
p y
35 1
l at
us a
"/ >
al so
m pt
17 7
OR S
Ġ17 1
ĠW he
Ġ15 9
om as
; %
4 70
17 1
17 3
qu es
2 13
ĠAn g
m sel
Ġp un
iz er
Ġf el
3 90
Ġd os
ce l
23 9
li ke
Ġ ut
19 7
ĠB ri
ĠF il
ĠM ic
est a
Ġ15 8
f s
Ġb us
Ġ18 8
OC K
4 20
nel s
26 7
9 80
8 40
Ġw el
. ),
D o
S pec
ĠG R
2 99
ÙĦ Ùĥ
a ver
D ist
ĠB el
N C
Ġh um
tem p
26 6
5 37
en a
IT A
EM IS
U s
4 60
pa id
Ġ3 14
f ree
Ø ·
av es
Ġ3 12
A b
D ata
Ġt i
5 39
h o
o ice
Ġ19 5
n ew
Ġ2 34
ti g
Ġe p
m ake
are a
24 7
ĠH az
Ġwe b
d el
Ġd om
Ġ< .
im a
ĠD ES
M is
Ġ4 01
GR AM
it er
or p
ĠS el
b rid
op y
Ġ4 50
d ate
ĠH is
ĠU r
UL A
b al
ad ed
tit a
26 4
25 4
J I
35 7
18 3
Ġc ov
ĠĊ Ġ
A ir
ER C
F E
Ġ16 3
4 80
in n
19 3
ad di
ra z
os a
18 9
ÙĦØ Ń
% %
M L
put a
ST EM
17 9
Ù Ĵ
ĠG o
P OS
ro ph
qu al
ot o
er pr
40 6
Ġ17 6
x A
ĠV i
ï Ģ
G D
Ġ18 4
Ġ17 3
V al
Ġ17 7
s ys
UN T
B C
ĠI R
Ġ2 13
Ġ9 99
Ġ16 6
S ON
m m
Ġf ab
p ite
Ġâģ ¢
A ut
Ġ2 70
3 28
ard i
ter T
Ġ19 8
Ġw or
ib ly
r ub
Ġ20 7
H OC
18 2
ĠF O
se w
ule L
Ġ30 2
] ]
P ART
fo ot
Ø ²
h y
ri x
b o
25 1
n ame
al er
ri ve
34 4
ĠUS A
6 50
18 4
S o
Ġar m
bur g
Ġm ot
Ã ®
0 90
M eth
h and
25 6
2 15
ĠS k
ING S
V I
lev a
Ġo w
b ef
4 23
AL S
26 5
ĠN M
b il
A tt
3 70
3 30
Ġ17 9
et ed
Ġp s
ĠR un
he ld
Ġ16 7
ĠN RC
ou ri
ĠM I
G e
u ity
ir th
B M
D eb
2 95
33 1
En v
Ġ2 15
Ġ18 5
B T
S che
0 30
al ed
ÙĦØ ¹
Ġ16 9
Ġ18 1
h ow
ri p
re p
Ġo u
F IN
28 8
in er
a el
M em
se as
ĠA P
Ġl ed
ĠP C
ĠJ r
; *
60 2
A FF
Ġm as
ep a
25 8
19 90
Ġf ri
5 10
Ġ ign
iec e
TI N
und w
ĠF IN
â ĸ
p ons
id ue
Ġ17 4
ĠN uc
th al
t ax
ran e
IT E
ĠM y
l ay
V EN
H z
r as
ex am
en ch
se ly
Ġc yl
Ġ3 16
ĠL ic
CR IP
te ly
OR Y
ĠÂ £
ĠA SS
4 01
ĠÙ Ĳ
Ġ ).
88 8
ĠL O
ĠT wo
ÙĬ Ø±
26 8
v ail
28 5
40 8
N I
ĠBL M
D ay
acc o
c oll
ĠI RS
G T
ï ĥ
70 7
C ES
Ex am
her y
á »
ol id
ÙĦØ ª
AS T
Ġs ew
ĠW y
ĠP IC
ÙĨ Ùĩ
ti le
ÙĦØ ³
ĠI r
el la
Ġd yn
In t
U AL
Ġâ ĪĴ
E ach
it ro
45 5
R ES
j unc
ĠC S
Ġ9 00
P OR
o z
ĠE v
ay ed
3 16
Ġ2 36
ĠW es
B ef
b t
a id
Ġ# :
ath s
s cri
O F
" .
et t
m i
o a
r us
ou d
EN CE
29 2
35 6
wh o
ĠN S
Â »
e tic
ĠP AR
Ġc um
ver t
Ġ30 6
s am
L R
et ts
Ġ ?
ER G
E uro
Ġ2 18
Ġ č
la h
5 60
ad v
Ġg ot
Ġ19 2
Ġn av
Ġk il
or ti
W N
3 24
28 9
8 70
Ġ( "
ac he
ĠN R
k el
-- |
Ġ: **
ĠU K
art y
ĠM AN
iv a
D EP
ta h
ĠG RO
ee k
27 8
ĠI P
, .
Ġ2 24
N one
Ġs ym
ĠH el
Ġ3 30
n orm
if th
ren d
ut s
ber g
27 7
en h
ot ed
ent h
Ġv ul
ĠC y
Ġa im
ĠM ob
em y
Ġ18 9
ON E
n i
d ur
Ġ2 38
27 6
Ġ19 7
T ra
UB L
8 80
Ø§ Ø±
ar r
ask s
ol ic
E d
Ġ2 75
Ġ3 22
tic a
[ [
Ġd ra
28 6
ĠO cc
ĠV II
50 4
Ġ Ð
10 88
s en
8 20
ĠP op
pl o
Ġ19 4
Z Z
f unc
H AP
Ġ19 6
Ġj u
T P
F P
L AND
Ġr ul
l og
N et
3 14
V er
Â £
R Y
ar ia
âĢĿ .
90 5
w a
* )
qu o
p es
c in
ati o
ĠM er
r ich
. ).
Ġ2 37
Ġr ig
Ġ30 3
ah o
ĠIN S
ĠP H
man u
B P
e it
v in
GR IC
ĠD ak
( "
os en
V AL
Ġ30 4
cl es
ĠD OD
ar if
m ers
H eal
33 6
50 3
ĠF A
26 2
r m
IC H
u i
36 5
33 9
Ġ3 13
34 8
F rom
J EC
50 5
n av
Ġ18 6
ent y
e ur
34 6
ĠT im
:: ::
ĠA er
ĠR at
O ne
Ġ2 19
ĠF e
Ġb ag
36 3
om an
ic he
m n
Ø° Ø§
ew al
ow a
5 80
ĠW H
39 1
Ġ19 3
Ġun a
j a
6 80
Ġ2 55
Ġs i
L ess
Ġ30 5
V ES
4 40
0 25
PP E
in sp
om y
b est
m g
ĠN H
rap y
ĠB at
38 6
36 7
z y
60 4
oc c
86 2
s he
ol i
L eg
ĠT ur
36 4
Ġ4 05
ĠE G
Ø¨ ÙĬ
ĠCo o
ĠD en
gh an
Ġ2 35
ub a
33 2
OL OG
ĠS R
B ILL
m ate
l oc
Ġc od
t op
Ġ18 7
ĠF E
45 6
ĠE ar
ric k
D r
36 6
ĠIm p
c ise
Ġ2 21
âĢĻ .
oti a
ĠP ow
O b
4 30
36 2
ur i
W K
97 0
Ġ`` (
ĠW A
ĠM id
IL I
27 3
N R
f ur
ĠN I
pul s
T ED
45 2
Ġ2 17
ew ed
ĠÂ ¶
ĠNE W
Ġf is
28 4
Y ear
Ġp H
ĠM as
B E
Ġa ce
Ġ6 01
c ium
2 16
um s
33 4
p hen
EC H
z er
Ġr is
eg u
27 2
m enc
f ood
Ġ3 15
2 98
4 12
oll u
ĠO S
ĠE c
Ġ vel
OR D
su er
d eg
4 16
AR E
lor o
Ġ20 9
M od
b as
em n
ip le
l la
27 1
C ent
33 8
29 1
38 5
3 15
2 19
S UMM
o ot
N M
Ġ2 32
Ġ2 88
Ġ2 90
Ġ19 1
P X
Ġp ic
og s
C M
Ġb ra
ch it
Ġ30 8
ÙĪ ÙĨ
u x
7 01
2 17
Ġ35 1
H igh
h ood
lo or
lf ur
u ous
E F
28 7
ĠH AR
37 8
P r
ĠR en
ĠP al
t wo
Î¼ g
D F
8 46
Ġm l
5 20
I AN
45 4
Ġbu y
29 3
ĠM al
g or
w in
60 3
el es
w s
70 4
tif i
V ery
ĠB S
L a
ĠÂ ©
ĠO wn
u rop
ĠB et
60 6
F ur
ĠF ol
ec ut
Ùĩ Ùħ
h is
4 90
Q ues
35 8
Ġ4 16
Ġo m
ĠP E
Ġ40 4
Ġ2 31
ĠA RE
pl os
W H
ĠH a
40 3
Ġp ig
ĠH z
P e
ĠS pe
' ,
) ),
ĠØ ¯
4 99
60 7
E ff
ch ar
Ġ30 7
ĠH IV
Ġa f
ĠSE Q
4 25
ION S
60 5
ĠU E
ru e
ĠG O
ĠM ag
34 2
UR ES
8 01
ĠS av
ut h
m ist
ĠB ef
EL D
W est
ĠM aj
C ap
n y
ub ic
ĠE IS
Ġ4 24
c m
v iv
34 9
A V
2 97
S M
es e
Ġ24 9
ĠØ µ
38 8
i os
50 6
ĠD u
0 55
Ġ27 9
ĠH O
G C
int o
u ar
ÙĦØ ¨
ĠB er
F ER
37 9
ĠN ev
86 8
k ins
g s
Ġb ig
le et
0 22
M Y
TI F
28 2
Ad di
en v
AP CL
S um
n ic
i ary
ĠM a
s ome
OR K
y es
5 40
pos s
rig a
36 9
8 203
ÙĪ ÙĦ
. &
el ig
80 7
Â ±
D ocu
p ow
Ġ24 2
me at
10 89
Ġ5 12
t ake
FO OD
rib e
0 75
0 74
Ġ30 9
ult y
35 9
Ã Ĺ
Me an
i ke
Y S
4 17
ĠIm m
ro g
ant e
38 7
Ġ25 2
36 8
che n
Ġ2 33
N H
Ġro b
Ġs on
P ri
22 22
c rit
R o
AN Y
50 2
em i
ad os
- |
Ġsu s
it o
ook s
c her
PRO D
C V
c d
o on
6 20
ĠE r
g n
19 74
A ver
98 5
44 4
ĠC AL
A K
Â· Â·
not e
34 1
Ġp an
Ġ24 1
ĠS M
ĠL iv
S m
ĊĊ Ġ
Ġ5 10
34 3
C ode
Ð ¾
la p
ĠS il
ĠT r
ĠH am
Ġa p
t ran
US E
ip i
M ax
P ol
ap ed
S W
90 7
p ack
A Z
Ø§Ø ¡
? ?
p rac
ĠC P
Ø§ Ø¨
est y
ĠE as
" (
T F
: \
os c
19 89
Ġm L
es ia
4 24
ent e
~ **
c ip
m ap
Ġun f
38 9
Ġ8 07
ĠM ad
99 0
b u
d ays
R TN
N ASA
Ġag o
36 1
Ġfl o
c as
ĠA LL
ID E
Ġ25 7
10 74
Ġ4 30
ĠD JI
Ġ4 23
90 6
he ar
38 4
if ts
sp ir
â Ķ
mb ol
k ans
; ]
g at
Ġun s
A GE
ĠO pp
du e
n at
05 4
46 5
ĠA re
Ġ24 6
l ar
39 2
u ed
In d
86 4
) âĢĿ
n eed
m d
Ġ ult
D ock
Ġth a
c is
x br
ru ck
OL D
) &#
ĠT ri
igh l
Cu Al
T ex
R ate
ĠM il
ra ul
on ed
8 50
at om
P a
ÙĦ ÙĤ
87 2
46 4
ro om
* "
a red
60 9
f all
D ATE
70 5
âĢ ķ
as ma
80 5
S e
op es
44 6
ĠØ ¬
st op
ru ed
R I
om o
Ġ3 56
ĠÂ «
Ġf i
R un
O ver
Ġ2 78
3 23
Ġb le
ĠV es
or o
re se
ĠC ER
âĸ ł
uck y
37 7
ĠC am
in ct
e le
ĠC a
Ġ27 1
Ġg at
IT S
Ġ2 74
4 15
ĠC la
it ud
ĠU p
C he
ĠS TR
37 6
Ġt un
99 8
ĠD SK
. '
vol u
Â ®
4 11
ry l
, ..
P ers
Y ou
Ġ3 40
i ans
TRO L
ĠW in
pl us
5 30
Ġj e
ĠD an
at in
p age
ĠK e
il a
b ar
Ġp ap
70 2
ed s
b oth
fe it
EM A
ss ue
Ġm al
Â Ń
l oss
ĠL og
Ġ3 26
ĠE P
Ġ40 2
ĠN UM
or ge
^ ^
19 88
ĠR A
9 20
80 8
Ġh yp
c ost
j u
37 4
w ar
O p
F ore
s l
R el
me an
u ish
um ul
50 8
b ank
Ġ2 98
Ġ2 29
b enz
de v
0 24
ep ti
ĠO x
25 00
Ġâ ī
ĠS i
V D
Ġm es
iti s
Ġ rou
ĠL os
7 20
ĠIn f
94 4
eg a
ĠF ut
Ġm ic
Ġh al
om ar
Ġ28 9
Ġt a
LE Y
c ove
96 8
r c
Ġr t
L and
Ġt or
Ġ4 20
44 3
c oun
min o
Wh at
Ġ25 6
3 21
Y E
45 8
iam s
Ġ26 3
Ġ24 8
97 5
Ġ4 25
c at
6 10
Ġ3 35
ĠIn s
C AP
Ġf ib
l ock
ee f
), *
ĠT yp
80 4
TI S
ĠA IR
Ġ2 85
3 26
90 4
S EL
45 7
; **
80 6
ru le
C ur
3 99
ĠR EL
ĊĊ ĠĊ
IN S
ID S
ĠT A
Ġ3 24
h aps
P t
44 8
ra g
ou l
ab s
ĠN G
": "
% .
37 3
ĠD am
Ġ24 7
Ġ5 01
Ġ2 77
M c
ĠS D
Ġ5 50
ĠL td
Ġd ro
ĠA F
Ġp in
c ita
tim s
âĶ Ĥ
Z A
6 40
Ġ25 1
IC S
t end
01 17
44 7
ĠC C
5 01
85 7
44 2
TER N
98 7
ÙĢ ÙĢ
45 3
Ń âĢķ
su it
ec im
ĠS N
50 7
os it
ĠDO T
38 3
Al th
do es
pp en
( #
v or
ĠF er
eg in
US T
ere e
Ġ35 2
k y
) [
Ġ8 20
Ġt ar
70 8
S an
isc o
che m
7 60
en er
98 2
le e
C er
Ġw es
ĠF UR
ag ne
Ġ3 34
Ġa st
0 76
h ind
u ent
ot he
S N
37 2
M iss
s U
55 5
ĠD at
čĊ čĊ
Ġ50 2
Ġb ad
46 9
Ġ25 4
u pon
z ed
ma j
b ic
S L
IGH T
c s
o tic
ĠB u
B OR
6 60
Ð µ
46 2
01 00
E G
D oc
4 88
ĠF re
* ,
AP H
al is
ER A
st at
V EL
Ġ ic
air y
PR I
75 7
9 10
F Y
ĠN OR
p ra
Ġ um
rad a
Ø± ÙĬ
V N
6 01
ro st
Ġ5 52
Ġ3 90
Ġ4 56
ĠW al
Ġb id
Â ¶
t ry
ph as
b ro
Me as
Q u
Ġ6 06
Ġ2 76
Ġau x
g i
ĠSe a
Ġk m
S a
c f
9 13
k ers
V P
Ġ2 39
n am
Ġ24 4
19 86
r ine
t ag
8 60
T ACT
ĠC MS
le ag
Ġ26 1
ar l
d rup
g reg
Ġ4 17
ĠS y
oc y
0 85
46 8
v ari
ab in
PH IS
Ġ. ,
r isk
f egu
k es
and a
p ing
19 85
S ur
re un
im b
ĠD SE
f am
87 1
ĠD ou
U F
98 6
F r
Ġ4 11
76 6
Ġ3 32
W ork
ĠW at
55 4
h ad
x y
r if
Ġt it
90 2
ac on
5 70
45 1
Ġg ap
y o
ro pl
L OR
or ph
45 9
= \"
Ġâ Ī
Ġo re
Ġg ly
p op
an ol
S ome
ci pl
Ġ26 4
Ġv it
2 96
R ule
Ġl if
ĠØ °
un it
AN GE
0 23
Ð °
ON S
T ime
ON T
IZ A
Ġre h
ay er
* .
f ire
ll or
ĠC F
TER S
eg o
Ġ2 86
Ġ3 31
46 3
Ġ5 30
; (
P V
p at
me et
! !
RE G
m ic
c all
u ct
N ov
Ġr ub
5 000
e as
. âĢ¢
o ch
ĠE M
E mis
g row
ĠH HS
Ġk g
7 80
5 12
J oh
T ax
un te
O K
39 3
Ġc ul
od ay
g res
rol s
AT T
ĠR F
de b
Ùħ ÙĨ
ĠD EC
Ġh am
ĠÌ Ī
ber t
â Ī
ra b
Ġ26 2
ĠØ ´
ir ty
ĠG HG
H a
Ġ2 92
a res
ĠD NA
n t
au gh
c red
ĠC r
99 3
ir ma
H e
ĠE ur
os es
Ġ__ _
se ll
j ury
w eal
5 75
L ES
Â ¥
op en
90 3
M AR
Ġm el
Ġ24 3
Ġor i
P G
Ã ¸
ĠC Y
AN A
0 72
Ġ26 5
Ġle a
Ġs n
44 9
46 7
Ġ @
ĠN ow
04 8
H C
ra pe
Ġ3 23
86 1
ĠV AL
UR CE
Ġ ïģ
S ign
l on
C ong
st ry
46 6
sp ic
Ġ4 27
id ad
6 30
55 8
ĠD HS
76 4
C an
ĉĉ ĉ
vi i
ro us
ĠM T
Ġn m
la re
Ġ3 29
ric s
Ġ3 91
te en
m ax
US DA
U H
ĠT en
rec i
ĠÃ Ĺ
Ġm om
Ġp as
PP LE
Ġ2 95
Ġ| |
" "
M ore
OR G
TR Y
Ġo z
Ġst r
3 29
Ġ3 21
B D
ĠÃ ¸
L ist
ĠS EN
Ġe ye
Ġro d
0 27
D ur
ri ke
l am
s ize
P AT
Ã ĭ
C U
ER E
Ġy es
ub e
we et
ĠB AS
ari e
8 12
AN G
b in
Ġ2 97
Ġ25 8
77 7
p ed
ĠÙ ĭ
re on
Ġc u
CO MP
78 4
oy s
h ous
s ens
Ġ3 65
ro ly
Ġ( *
Ġc av
Ġ2 82
AM P
88 5
ĠJ u
0 33
ĠF ee
c ust
Al Al
ub le
Ġ35 9
N N
W L
Ġ40 8
ÙĦ ÙĨ
c ked
Ġt s
le ts
AL TH
8 90
âĢĻ ,
O T
Ġto t
( ,..
ip el
20 24
19 80
70 9
AM S
98 9
um ps
86 5
er ts
ĠH UD
PX ZZ
c ut
ch or
0 26
Ġ26 6
or se
ĠØ «
u um
2 94
97 6
Ġen j
*" ##
b ed
cy cl
44 1
Ġ27 2
ĠH ig
Ġh om
19 81
V IR
ĠH on
88 4
Ġ3 80
oc ra
Ġ2 96
IS A
ĠW et
QU IR
ĠL LP
TA IN
g ent
tim a
St ep
and y
N at
Ġ7 50
ĠRe v
4 75
ĠG E
qu is
8 10
u ced
D IC
ÙĬ Ø©
ERG Y
Th at
7 40
n n
Ġ40 3
97 8
w es
ĠM ac
P I
t w
Ġc au
Ġ25 9
i at
Ġc fs
Ġ3 28
ud s
ĠG er
Ġ28 4
55 6
CK HH
06 9
on ic
Ġ36 2
st r
4 14
98 8
ĠS AF
76 5
ĠN J
W I
Ġ Ï
19 87
Y R
i as
S yst
97 7
98 4
Ġ2 94
C ITA
Ġ4 99
ĠA sh
Ġsa w
AN N
T est
id ge
ĠP s
V OC
L D
ri o
ĠS I
ect a
R ED
V ID
Ġy el
d d
U A
ol is
Ġ5 04
E l
Ġ25 3
Ð ¸
Ġv en
ĠUS C
gg es
s ect
6 90
0 35
W O
T ran
Ġ5 06
o oth
Ġsp a
pro p
ĠG U
e ip
54 9
54 8
6 25
re al
ĠL ED
46 1
Ġh at
ĠE F
G EN
AR DS
3 95
ore a
6 56
M et
U K
in ch
m p
ĠK ey
ad or
Ġw il
á º
99 1
7 10
6 95
f at
' -
do or
P ur
in at
om ew
Ġp ad
ĠĊ ĠĊ
rox y
ap es
` @
Ġ ##
ir it
ĠF AR
55 2
ov es
e vid
ol ar
9 16
ET Y
cer a
d oll
76 8
ro ck
Ġn an
Ġ4 70
Ġm ig
Ø§ Øª
L I
66 6
e or
R equ
Ġ40 6
3 000
t ons
ĠR T
art z
Ġ28 1
7 70
ĠU A
11 00
ĠD ue
e ing
Ġ3 70
h an
ĠG PS
50 9
W In
ĠA fr
Ġa i
U AS
ĠØ Į
M N
98 1
Ġ26 9
re y
ĠF CC
Ġin k
ĠS TA
H T
B ank
Ø§ Ùħ
enz a
d y
Ġ2 99
Ġp t
Ø¯ ÙĬ
b our
UR I
Ġ }
Ġas h
dic t
Ġc it
ĠT RE
Ġh o
Ġto b
ÙĦØ ¯
78 7
F l
75 1
S CR
12 00
it at
ĠJ un
74 7
76 9
80 3
Ġ ïģ´
MM UN
Ġ26 8
Ġo l
97 1
' re
O ut
W D
ar se
vo ke
60 8
ĠL ab
ir us
ĠR ob
ĠP ot
0 39
3 96
Ġh us
D el
id al
lo ok
6 70
ĠA B
82 9
15 00
ĠW AS
Y L
ĠAC T
CON T
ĠAm b
V L
H is
ĠV eg
un k
75 4
od ed
and o
st or
ou ts
V S
ren e
Ġ** (
am ps
Ġ5 05
un a
IC K
b ear
ol er
Ġ4 80
78 9
h ar
Ø º
f our
] [
19 78
ir al
ra is
G RO
4 45
Ġb on
Ġb in
75 8
74 1
c irc
. _
, **
M ark
Ġ26 7
it z
Ġ3 88
ÙĦ Ùģ
Ġ5 15
ĠV an
O per
Ġ3 37
Ġ4 40
n ews
Ġg ar
Ġ ),
Ġ5 20
Ġh ub
Su pp
L o
ĠU R
ĠR a
ab ol
Ġb io
z o
Ġp up
ip e
l n
B al
74 8
j s
ĠM us
Â ©
f ac
ĠF I
66 7
55 9
ĠP OL
S im
10 76
ĠD IR
B i
Ġ4 12
80 9
s ame
D IS
CR A
S am
** .
19 84
k o
ĠT N
Ġ3 42
,, ,
4 22
f i
ys i
ĠE le
ed y
an im
80 2
ĠB tu
000 5
G as
ĠK en
ĠE E
OR E
Ġ28 7
19 70
Ġg un
04 7
P en
p oin
n ce
ON D
Ġg am
e an
99 99
ĠD A
id ay
C ASE
Ġm ac
et he
ECH N
97 9
84 1
el ve
85 8
B ec
ĠS yn
. ''
TO G
T e
Pl an
re le
C ost
98 3
ĠB re
ĠV O
ĠI M
Ġc t
pl as
c ard
Ġl od
X T
ĠM C
M W
ĠA ve
Ġb il
N J
wh at
ad el
f us
Ġv s
ĠW a
9 28
C t
Ġ27 3
OR N
ud es
] .&#
Ġn s
G L
000 3
b ill
ĠI MP
ĠS f
0 36
AP P
W E
6 12
Ġst o
90 8
Ġ4 15
56 5
E qu
d oc
Ġcl i
O U
0 21
ĠI A
f ect
Ġ2 93
Ġ ïģ¥
Ġ3 85
ĠF ED
ĠA A
64 8
Ġro w
ÙĦØ ´
B Y
--- |
! (
en ic
56 6
Ġu g
99 2
= &
S CH
ed ly
ĠØ ®
Ġp y
xx xx
ti er
11 11
lu or
ed ia
88 9
ĠE s
, *
Ġ28 3
man n
b ox
0 45
j i
Ġh ab
E st
; ]&#
ĠK n
9 30
C ESS
Ġsu l
an ch
01 13
F G
ĠT ok
84 7
he x
p ect
O AR
ĠS CR
ac er
86 7
55 1
Ġ6 65
ĠU ND
5 22
ĠJ ul
74 9
ĠMc C
78 1
U se
m ods
ri an
06 2
ĠL ee
0 38
Ñ Ĥ
55 7
Ġt ab
D a
Ġ3 71
k in
RO E
IL LE
ĠO K
Ġ3 66
ĠC um
; -
75 6
EM S
7 30
r ang
74 2
th y
ĠA ST
77 2
du ra
00 15
og y
10 82
ĠT C
4 35
al iz
Ġ3 39
ur on
Ġ rib
k ly
Ġj o
y our
g as
Ġ3 43
H I
ĠS UR
ti d
99 7
Ġï ĥ
G l
9 94
4 32
S F
Q ual
4 85
f ers
ra ud
as er
77 8
G I
C red
ĠFr m
ĠJ kt
ill a
06 7
ĠC t
Ġo s
ĠF mt
M ont
ĠA TT
qu ot
8 30
ol o
, ]
5 16
ic ul
r un
UL L
an i
Ġ50 8
sa fe
Ġ# '#
au ce
bit r
ĠS F
z i
ĠS B
~~ ~~
76 1
ĠL OC
90 9
m ond
ph y
hal a
ag a
su c
J ECT
t led
; ;
in yl
čĊ č
hy de
76 7
Ġed i
+ +
ĠU pd
Ġp i
ĠI X
um ns
56 3
B e
he at
re ly
W ill
" ),
ĠR h
ĠI CR
EN TI
ĠH R
04 3
u til
c u
9 19
Ġ5 40
b ell
10 87
ac le
54 2
Ġo t
Ġ3 75
Ġw on
ĠA ge
TI CE
ps on
- ,
ith m
p ir
8 86
05 9
G P
R et
65 1
f a
he ma
Ġb ol
R ed
ĠP an
Ġun e
NO TE
W eb
5 15
et a
Ġt ip
ut a
74 3
w eek
Ġ3 64
M IT
S TR
O f
ĠS ex
Ġl y
s olu
Ø§ Ø¯
qu in
ĊĊ ĠĠ
87 9
IN D
Y Y
06 6
Ġ3 46
T er
ĠC LA
ĠI F
0 37
tic k
) &
C ENT
5 11
9 24
55 3
Ġ4 60
05 3
Ġ3 47
V EST
ĠT w
ĠL at
c our
al id
u ce
76 2
on ia
Ùģ ÙĬ
54 7
ĠDE F
Ø§Ø ¦
0 29
ĠS un
Ġph r
7 90
Ad d
Ġ2 91
Ġ3 38
W V
6 28
pl ac
4 33
B ud
ĠD IV
77 9
ĠAL J
ĠT Y
ĠÂ »
Ġt um
d uty
ĠH AP
AR A
9 22
Ġ5 64
4 72
g ery
n ear
19 00
ĠD ig
ph a
OP E
NE Y
AT OR
N ebr
10 83
Ġ4 14
ĠH A
ĠF AS
gl as
ult a
ad qu
in qu
Ġc oc
pp li
in ue
eed l
76 3
oy be
I ED
ĠR ay
b id
== =
S ept
av a
E Y
CH AP
0 34
4 18
ĠM ur
ra v
ĠH y
ĠP B
ĠW L
ion i
ok s
RE E
W Y
Ġc ot
54 1
ĠE QU
Ġe at
5 25
ĠM P
ĠR iv
84 8
ĠW I
84 9
75 9
D et
ĠI SO
b ase
66 4
on i
ort g
ĠN ES
it ly
56 2
000 4
06 5
y a
ĠC AP
ĠD on
om ob
ar p
ro e
IN A
Ġ6 30
Ġ6 05
V OL
d eal
er r
M ill
Ġ35 7
Ġa z
ĠN AT
pp m
ĠI ts
Ġp ed
US TR
5 85
( $
ĠR D
Ġ4 31
Ġs ir
4 26
ol f
Ġc c
Ġf re
hor s
v as
5 14
88 1
r t
ÙĦ ÙĪ
OM B
sp a
- [
) /
al a
K A
75 2
ĠW O
Ġre b
ĠP RE
ex es
ØŃ Ùħ
Ġ4 47
E V
L oca
W P
em a
Ġe e
ĠEN G
78 3
4 19
ĠD id
ĠT op
65 8
M o
sh op
ĠP SD
i ar
06 8
c ill
id o
xbr l
a ud
Ġ40 7
b ra
ĠB ou
H V
Ġt is
v ar
S l
U J
H ar
ap on
w ind
4 27
ĠUS E
4 34
9 31
0 31
an up
Ġ4 18
ĠC N
0 46
gu ed
the m
st ud
ich t
Ġ/ >
ĠÌ ģ
ti os
and w
ĠÎ¼ m
ĉ Ġ
t ate
Ġ4 44
Ġs un
0 44
Ġ4 22
iz on
56 7
Ġes c
Ġ3 45
pr im
4 28
W W
ĠD iv
ant o
04 9
66 5
Ġ50 7
77 3
ĠQ U
ĠF ac
Ġw is
ĠJ OH
ĠC AS
S In
ap ta
od er
)** (
ph ia
ĠB bl
un i
os me
Ġ6 10
6 85
Ð ½
C ENS
04 00
ĠW ed
04 2
r ide
zz le
F M
) âĢĵ
4 86
ĠB ig
ĠS ix
Ġw ir
05 6
47 9
W AY
lic k
ĠC as
Ġ3 78
PR M
In s
ut ch
ti a
ad in
g ets
ĠM ap
Ġï Ģ
07 1
Ġ6 02
at og
l ast
Ġ40 9
UD GE
ÙĦØ ¬
ĠM OD
ry p
Ġm ir
9 01
rom e
C ER
Ġ3 44
Ġ ram
Ġ8 01
ĠV a
Ġn i
R R
ĠD D
O B
000 2
ti an
f g
AP R
IN C
ĠM N
il ia
06 4
H F
c ens
f ind
Ġ4 32
h ist
7 55
PER A
85 3
Ġg al
ĠD RA
ĠM M
mul g
Ġb an
n ors
IE F
t ew
ĠF is
TI PS
ĠF BI
ĠL ew
6 15
C ity
O ur
D i
el d
ra di
Ġv on
P ort
Ġ5 60
N W
Un it
06 1
n ode
f uel
8 75
la ps
Ġ( -
Ġh i
3 94
H D
5 96
5 24
4 96
Ġt ex
4 38
N V
Ċ ĠĠĊ
ĠT B
ĠC E
os er
Ġun c
5 13
05 1
m il
Ġf ax
ĠB en
$ $
ĠP RA
em ia
UL ES
P UT
im p
Ġ4 21
84 2
64 1
CH AR
ĠA bs
Ġ8 62
Ġl ob
ul in
88 7
77 1
f ts
54 3
ÙĨ ÙĬ
19 83
ĠB ru
Ġ3 95
K ind
IM E
64 7
end e
EN N
l en
, #
** )
Ø ¸
' m
ĠA K
In c
th qu
; âĢĿ
ĠC V
og ue
yl um
ĠH or
ia z
5 17
0 86
p ful
5 28
ĠC IR
ĠEX P
he et
od d
ĠH en
6 26
F und
O FF
ac it
05 7
c b
9 15
w y
** (
ĠN os
Re v
ĠCD C
ven i
06 3
POR A
Ùħ Ø±
ĠP as
87 3
18 00
Ċ ĉĊ
VER N
OW ER
AC CP
88 3
ir y
ON G
F ax
5 44
T EC
c urs
Ġ4 13
ed er
ine a
ĠW ay
ĠT ER
R EC
D ry
ven e
ĠG a
ĠA Z
M ob
ĠAt l
ĠP es
AT H
85 6
st ep
l iv
ĠA CC
ĠE th
4 81
; '
ant h
7 12
04 1
4 21
t rue
Ġp iv
l if
IC AN
ĠDo D
ĠL C
L ow
S uch
ll s
ead y
C hem
ĠH g
9 32
id av
> >
ul um
F AA
Ġ8 70
Ġâ ģĦ
e k
G r
L S
ĠN V
07 3
7 13
56 4
M ED
ïģ Ŀ
ud ge
ov en
ĠM en
ĠP b
p i
ĠW E
C B
T enn
Ù ĭ
w ord
Ġw id
Ġ7 20
f ail
g al
ÙĦ Ø±
8 82
Ñ ģ
6 16
N P
5 46
Ġu pl
Ġ3 49
m end
47 1
85 2
110 3
ÙĦØ ©
AR S
" ).
yst s
47 3
Ġth i
K Y
Ġl en
it ry
PA C
5 92
4 37
56 8
ĠT E
ab et
Ġf an
ĠM Hz
ĠB RO
S UB
ĠCO C
64 2
9 25
le te
ĠÂ ¥
3 97
S te
ed ge
Ġon s
im et
Ġ7 67
h ig
Ġ7 30
i us
85 4
p x
ĠF CA
ĠB on
N T
se ud
ar it
Ġp od
ĠWh o
56 9
ĠA qu
law s
ĠJ ob
Ġ3 76
Ġ35 8
ĠMr s
66 2
s is
Ġd as
X ML
6 34
Ġ36 3
6 24
ĠS S
B as
p red
AN TS
Ġ35 3
ÙĦØ ®
P ay
s es
Un iv
Ġ4 35
Ã ¤
6 75
5 36
ad ow
pl om
IN ES
Ġ5 17
Ġ4 26
se x
ĠE A
in y
65 2
Ġ45 1
ym ph
AD DR
S IP
Ġo c
9 12
Ġ3 96
CO ME
Ġl um
y g
im er
W C
âĢĻ )
4 95
ĠV ic
Ġ6 20
or ie
IE W
Ġ3 41
8 28
K ER
o ic
P le
ĠB a
c op
> \
iti g
b ott
vi ii
v g
â ī
b es
ÙĦØ µ
ĠS qu
00 12
' .
le ic
ot es
s oc
9 27
ĠH o
ĠR EM
Ġ4 41
Ġ6 50
ĠW R
Ġ4 28
H P
ĠE ND
C ED
9 33
AC C
D M
c ue
Ġ4 45
0 32
ÙĤ Ø¯
ĠH ou
H U
d am
Ġro y
D isc
* #
ap t
ĠF F
d on
Ġ3 83
Ġo un
m ons
ĠX X
5 18
ĠH ay
S i
Ġ5 24
FIG S
b ud
om it
ul us
av or
ĠT ay
l arg
con f
7 28
00 14
ĠF ax
g re
J M
Q Q
Ġw er
Ġ8 88
h s
ĠH ot
ĠC e
m or
Ġt ac
7 25
9 35
l ama
Ø¥ ÙĨ
ie ve
ĠR od
5 38
Ð¾ Ð
] ;
j o
IT ER
Ġp la
Ġ6 04
5 19
ĠC I
ĠF S
f ici
sp i
ĠT S
ĠP o
5 33
k ra
ind r
on yl
4 94
Ġhe d
Ġ3 48
. /
Ġk id
or us
CO UN
w er
U U
4 36
ĠT ar
Ġ3 93
10 84
SE Q
Ġ36 8
Ġ5 21
6 13
M ain
O wn
IN O
6 14
8 92
L aw
d ale
10 79
IF IC
7 35
8 14
0 98
86 9
ĠT om
es n
ĠO ak
os ol
ĠP ap
og a
= '
ĠG ar
AG EM
5 27
og et
r ink
c ode
Ġqu i
Ã Ĩ
F ONT
fe ly
ĠP or
c it
ĠC AM
el o
ol y
Ġw t
ĠLA W
cil s
Ġr y
V C
Ġ5 11
Ġ3 82
Ġ3 84
ĠM IN
S er
ĠM ED
m as
B UR
ÙĪ Ø±
us er
) =
ag ue
] -
N AME
ĠU l
m ile
ĠC ro
EL EC
ĠNa v
h ma
Ġ4 98
19 72
6 36
N L
p m
4 84
ol n
; :
Ġ4 90
Ùħ Ø¹
0 83
ec k
Ġw o
66 8
4 31
M ich
ĠV AT
* &#
Ġh r
Joh n
ex pl
Ã ±
6 11
Ġ5 70
ĠC ri
i pl
86 3
5 23
W ASH
Ġ4 34
d ry
O ld
Ġ7 10
Ġ5 22
An n
5 45
Ġor g
ĠN AS
UR AL
tal y
05 8
0 95
J O
m L
Ġm ur
L U
D on
Ġ8 66
os h
Ġ5 14
DO E
64 9
000 7
ED IT
R IN
Ġra c
oh yd
= .
5 34
AM A
Ġ36 1
D W
s ing
Ġ5 13
ung s
Ġ7 01
5 26
âĢĻ ;
P rim
19 75
3 98
CO D
ĠA id
ra el
ful l
19 79
4 78
Ġs ac
00 10
P ac
w at
Ġ5 54
65 7
ĠF AC
ĠP UR
ph ys
AL Y
Ġ3 72
ip ro
ĠW IN
Ġ50 3
N OR
56 1
Ø³ Øª
ĠF M
5 35
4 76
6 27
ATE G
se m
ĠPA Y
um a
sh ow
Ġs id
ĠM ul
Ġs in
d ri
aim s
) "
B ack
an ot
g po
Ġ8 80
ĠT IT
D B
Ġ3 86
4 82
ile y
65 9
t ot
o il
Ġ3 74
T G
y ers
A not
s ul
, ''
âĢĶ (
0 94
A U
h ard
n as
Ġ3 73
Ġhe t
Ġa uc
Ġ4 19
V R
Ġw al
GA O
FOR E
0 93
Ġ00 1
0 77
C AL
O I
N ER
Å ½
Ġ4 38
to x
Ñ Ģ
Ġh un
t l
9 23
ĠO J
ĠO PP
I EC
4 77
Ġ5 96
ony m
ĠX XX
ĠD er
b ial
Ġ3 94
ĠS L
n c
19 69
f isc
ad l
Ġh ur
4 29
6 46
ĠL es
f ive
Q G
Ġde i
P ost
T L
6 17
ĠI SS
ĠEn h
ĠT ob
ENT A
ĠF lu
v an
ĠM W
Ġ4 36
ir t
Ø¨ Ø¯
5 99
ĠE Q
N e
ĠA p
19 76
ĠP ul
u ps
r r
ĠM IS
au x
ĠE gg
4 98
CL US
Ch ar
ĠG S
S al
6 18
ra ys
I OR
TI ES
7 15
ĠN SR
Ġ4 88
i ers
Ġ3 79
0 84
TIT U
Ġ45 7
ak en
` !
8 13
L ine
d ig
Ã ´
D ES
ti e
L im
5 97
000 6
Ġ4 37
ĠK el
Ġf f
f ine
8 78
Ġg el
C I
ĠS n
ĠN HS
` "
ess a
Ġb ot
AN SP
5 32
O UNT
red s
Ġal t
Ġ8 30
6 55
Ġp il
Ġ8 72
Ġli e
! --
Ġ5 16
7 44
Ġ4 55
ĠB ra
ac qu
4 92
Ġ8 86
Ġ4 76
ans l
ĠM EM
< \/
8 76
ĠJ O
Ġ8 50
ĠC B
Ġ3 99
4 87
ĠT M
Ġ8 90
ne um
5 86
Ġ( %)
19 77
Ġ** &
iam i
s ulf
it ol
r ut
OL L
ol v
. \
j us
ot os
Ġf if
RE EN
le ep
6 22
om al
ĠP S
05 2
Ġ4 43
8 23
Ġk it
11 10
d im
s E
ĠDE V
Ġ4 33
6 19
6 54
8 16
ed ed
C AS
Q L
7 85
B s
t mn
Ġt ap
Ġw i
** ~
75 3
al o
ti gu
5 76
Ùĥ Ø±
Ġb es
n ia
Ġo v
ct ua
7 22
6 38
on au
D OC
Ġ8 02
ig en
b urn
id uc
0 78
ood y
Ġ3 77
(" `@
6 23
ĠX I
Ġob s
N ON
Ġ4 84
Ġp us
4 97
M Wh
P ack
el a
66 9
) }
5 84
Ġo ak
ĠF ar
ĠP it
0 88
Ġ4 42
Ġ5 86
Ġp al
uc le
F GD
W il
i ro
: ]
U I
S w
7 36
7 21
our n
are r
Ġ3 97
put y
Y D
0 96
s che
sid y
Ġ4 46
Ġ( .
y an
Ġ4 77
ox in
r ons
F W
ĠO mb
ak ed
07 9
reg a
A ff
y t
Ġd in
Ġo o
5 21
IP S
Ġ8 97
0 82
F e
8 27
Ġ** #
Ġ6 40
Ġz a
4 93
um f
Ġ6 08
ĠH as
m id
Ġ5 25
Ġ36 7
Ġr id
/ #
ch a
CL UD
Ġ5 28
66 3
P F
Ġ4 65
b all
ĠAr t
ac re
au g
ĠRe h
IV E
ĠV E
Ġo le
ĠS BA
ĠM ot
Ġ8 68
IN AL
6 45
x i
V s
FOR M
p ace
at en
@ `
TS A
R IS
ch an
AT S
em an
p ula
r h
com p
19 73
ud ul
oc us
IL ED
ĠL IM
Ø¨ Ø±
D EC
64 3
5 31
Ġw ra
h ome
Ġ3 92
7 24
Ġ5 53
oy d
o en
Ġ3 89
8 35
8 98
4 74
5 95
- $
0 97
R D
F ED
44 44
D iff
6 88
pl er
Ã Ĳ
4 39
A UTH
ior a
Ġ3 98
Ġ6 15
Ġ4 75
0 89
Q A
ĠH P
h all
ag le
ĠI G
16 00
" '
ur g
EN SE
Ġd og
Ġ5 55
IT AL
8 77
ol ed
ĠE ll
R est
Ø¹ Ø¯
l ob
b orn
e z
ĠH un
0 87
ĠN F
g ue
Ġ7 02
ĠC ot
Ġ6 25
F act
Ġs or
v ial
) </
66 1
P ORT
5 72
Ġ7 77
Ġ4 48
S oft
ĠC u
Ø¨ ÙĪ
Ġ3 87
ĠM el
Ġ4 54
ab y
B U
S UM
ĠM CA
un n
OR TA
Ġ9 30
A W
ĠO IG
Ġs rc
H yd
85 9
4 83
E FF
ĠI ce
Ġ5 92
ĠG AS
6 29
TI M
rom o
Ġ[ <
ØŃ Ø¯
Ġ6 12
h l
own b
5 88
ĠL D
8 11
ĠA FF
Ġ5 41
ĠM it
ct ur
7 45
7 18
6 44
7 75
SP S
Ġ36 9
Ġ7 03
6 33
Øª Ùĩ
ick s
Ġ6 60
s us
ĠM L
s it
Ġ45 3
an z
V i
Ġj ur
iz z
Ġ4 66
Ġ4 29
ed e
ĠL P
L et
ĠG al
ĠG P
ĠC iv
EM P
b io
k m
- "
ĠS AL
di us
met a
8 25
re ce
G AN
e ven
ĠØ º
F ol
A EL
Q J
A I
Ġpp b
ĠP MA
CO MM
Ġn u
ĠS ER
er os
sol v
h i
00 26
B ar
5 79
6 32
Co al
ĠW as
8 15
pet e
n eg
85 1
Ġa ug
t ur
OS S
65 3
0 81
C le
A rea
6 71
ut er
G ood
v d
7 33
Ġan s
ĠH Q
qu ar
ĠT RA
or i
8 74
E ET
URE G
ĠPL T
8 95
ĠO ld
5 87
et al
Ġ ure
tit e
I OD
7 14
Ġ5 80
00 18
ĠN BS
ud ic
ĠC TA
m any
in ts
oph y
T W
00 11
ïĢ ©
ĠST E
on er
8 22
6 76
t ail
N UM
Ġ6 14
5 91
r ica
8 55
Ø¨ Ø§
Ġ ###
6 72
Ġal i
ĠC ut
b k
Ã £
g est
ĠB M
ag en
Ġ8 64
6 84
Ġ4 85
u ate
ic ts
8 31
er i
6 35
Pl us
HH HH
I ll
Ġh ay
V Y
; )
G M
at te
9 11
5 98
ĠI LL
ri ps
9 14
7 26
9 37
zy me
an it
6 98
5 83
8 26
r l
Ã ĩ
7 17
V O
ĠA w
5 78
Ġ5 18
6 99
ha z
F H
ĠB UR
9 21
Ġ45 8
ab b
G IN
ã Ģ
N ow
3 142
ĠT al
ĠK at
) âĢĻ
Ġ4 86
Ġg y
UN C
Ġ4 68
ĠO C
Î ±
gh ly
r n
em b
% #
\ `
M ass
Ġi i
in th
Ġm u
Ġ ith
Ùĥ Ùħ
ter o
Ġ6 07
Ġ4 82
r igh
s i
Ġ4 78
ĠE u
g le
G ra
ÙĬ Ø¯
Ġ4 64
sc i
ry pt
OR TS
Ġa y
est o
5 93
ĠB AR
5 71
ĠâĢ Ĳ
ge on
ĠH ON
6 37
ĠS ov
Ġ7 23
5 74
ĠR us
Ġ5 26
8 17
rel s
R F
7 19
Ġ8 09
Ø¨ ÙĨ
C hic
yn ch
le ft
Ġ8 10
sh ar
ĠM SA
Ġ5 66
are h
ĠC BO
6 74
A ud
8 37
C at
ĠAr c
a us
ĠâĢ ²
âĢ ı
ag s
S ite
ĠP ak
Â§ Â§
US A
9 26
F uel
ĠB ot
ip io
7 11
ĠL T
7 86
Ġ50 9
5 73
Ġï £
8 18
0 91
S oc
ĠR om
ro id
OS H
ĠK il
ug ar
ĠM es
ĠF la
m ise
ow l
EP T
Ġ5 34
ys is
5 77
EC D
Ġ8 83
8 33
Ø§ Ùĩ
Ġ6 03
Ġ7 04
Ġ45 2
ĠI l
f arm
Ġ4 92
I den
r ill
C AR
Ġ5 56
0 99
Ø ¡
8 99
c ook
U p
Ġa fo
5 29
7 34
ÙĦØ «
ID A
Ġr c
k et
Ġe en
6 97
ĠJ o
P et
Ġ8 82
ĠA I
ĠE T
UG H
og ic
V ir
Ġ8 04
out e
oid s
ĠMc K
ĠS AN
h ole
ĠN i
Ġb ru
ir ms
ĠA Q
e val
ug i
ÙĦØ °
aj o
N ET
B ro
u ine
ïĤ §
r ift
. );
Ġ5 23
un s
qu an
Ġ5 35
Ã ı
ĠWh y
4 89
ĠL u
Ġsu g
7 23
Ġ5 74
ew er
) #
Ġ7 47
B ur
6 31
Ġ4 72
ad op
ad i
ĠT EX
7 97
6 92
ĠL I
ĠR H
C N
a it
Ġ4 39
G B
9 95
; /
ul ly
Ġ4 62
Ġ4 97
T erm
T wo
Ġs pp
01 01
5 89
St a
Ġâ Ĺı
Ġ4 63
T em
IA B
B ure
7 92
ch o
Ġe f
Ġj et
6 86
En d
Ġ5 75
ist a
e en
U GS
ĠF at
ĠD OC
Ġ4 49
%% %%
in ic
Ġl ip
of ar
w ash
Ro ad
L IN
B ACK
t z
Ġ7 15
Cu Cu
V IEW
Ġ5 47
6 94
Ġ5 19
ĠD M
em it
FOR D
6 87
âĢĶ -
Ġ5 44
84 3
ĠL en
NG L
et pl
M y
en ne
air c
em ph
Ad v
V T
ida e
ĠE FF
g ood
ro ch
ĠC MA
Ġ6 70
ĠH I
hed s
Ġr u
ec e
Ġ4 95
c au
C oll
Ġ5 62
E con
us da
7 46
ant y
own s
j et
; $
6 96
Ġh on
com b
w all
Ġc i
) {
ĠT a
ĠF H
9 18
C G
19 71
Ġ4 74
T el
s oft
TH OD
B ase
6 78
ĠO l
CU IT
ĠP P
ĠS eg
Ġ7 40
Ġg i
ĠP D
R EL
L ake
US S
Ġc ru
w an
P at
l eng
6 21
ri um
St ud
TI FF
7 16
S OL
O TH
Ġb ip
M ISS
an na
E ast
L ong
ing e
Ġ8 12
ĠU P
e ti
R M
Y N
8 24
A Q
TI V
ll l
NE X
e iv
7 37
J J
Ġ7 60
4 91
ĠM IL
ERV A
eg er
p ent
ĠS CC
ĠD EL
O PP
ed u
ox id
el t
UND S
E ALS
Ġh it
ĠM g
8 97
h id
U r
g ers
NE I
6 77
oci o
Ġf u
ĠB B
p us
ost a
ĠR ED
ol in
ro te
ef t
č ĊĠ
NE W
Ġ5 79
8 38
ret t
, '
Ġ6 75
Ġ4 96
ĠH aw
ĠU T
9 38
Ġf as
V is
Ġg au
D ear
ro ut
g ive
Ġ4 61
UR R
Ø ¦
ĠR am
Ġra b
w p
100 1
REE K
Ġ8 03
OS I
0 92
Ġ6 99
gu id
ĠS ac
id if
jud g
ro ga
7 95
es U
p ot
ĠM AT
7 27
S ID
V II
ĠL L
p u
pt y
Ġl id
Ġ čĊ
Ġ4 93
Ġ5 65
ĠL am
5 82
Ġh ir
Pe ti
ĠE AS
ĠK Y
Ġ6 11
im es
Ġin n
ter g
n ell
o alk
Ġ5 51
ĠO O
M at
ĠR C
d at
t te
AR P
' ve
8 44
ĠR I
ud i
d id
7 32
Ġt ed
SE E
Ġe a
Ġ7 06
c en
ĠC BI
J A
am i
ĠB EN
10 73
k ee
Ġ6 67
ĠB UL
ke ys
OM E
f as
c z
Ġ4 87
n ie
Ġ7 46
iff s
$ /
Ġis t
P s
Ġv ig
g om
f ied
Ġ5 45
7 38
pro b
6 73
su p
9 34
H ood
ig er
Ġp ra
du it
Ġ7 70
Ġ5 36
h n
Ġâ ĸ
ob ic
vi an
TO M
R NA
ĠL in
ïĢ ł
Ċ ĉ
C ust
H IB
op in
f ut
ĠS AM
ĠC ou
Ġ8 60
t arg
Ġp el
FIN I
ĠS SA
im m
Ġle v
L ast
Ġ5 37
mun e
or ig
Ġ5 46
Ġbe l
ĠL AB
O UT
10 75
Ġ4 71
G ro
I l
ĠN ET
Ġ5 33
ĠN it
Ġ6 22
l as
13 00
L V
Ġ4 94
F lor
10 98
Ġ5 27
8 32
7 94
7 76
t own
ÙĪ Ùħ
d est
8 96
T B
7 96
K G
6 82
Ġ4 81
la x
l ter
Ġz u
21 00
Ġ `
Ġc es
Ġb er
R ich
ĠH ur
IT T
Ġ7 35
Sc i
rew s
Ġ7 07
Ġ5 83
Ġ4 59
Ex p
Ġo sc
ĠTA X
S od
ug al
Ġc ad
ĠØ ·
Ġ6 13
7 93
y eth
L ISH
8 45
ĠG T
7 98
19 68
on av
in su
p oll
Ġm am
aw ay
Ġ5 29
F am
row s
or ce
Ġ4 67
H M
ĠB lu
b ul
âĢĿ ;
tem s
ĠE FS
ĠF el
- _
Ġv a
5 81
ii an
7 99
8 94
Ġ5 31
D V
Ġhe x
XX X
14 00
ĠR ub
m ix
> .
Ġ5 49
TR AC
R en
ER Y
6 39
ĠB ow
ad en
Ġ4 69
st en
er as
d ock
Ùĩ ÙĪ
Ġr d
9 96
ver n
00 30
Ġ6 36
Com p
ÙĤ ÙĬ
; </
im g
Ġ5 32
Â ¿
ĠE SP
Ġ ect
oc at
N RC
Ġ, "
Ġ6 16
or ms
ĠG DP
S he
0 200
IS O
} ,
J OH
F re
01 31
8 34
ĠĊ ĊĊ
re v
W ar
; \
om is
Ġal s
Ġl ap
ont e
Ġ5 42
ro ke
ĠQ ue
ell o
Al so
a is
ĠK ar
8 21
H er
le tt
th a
on na
/ .
Ġem p
n ity
6 93
ec ur
BB B
pp or
ĠA V
Ġ5 88
L ICA
N av
ĠF C
on o
ile t
m erg
vi er
} .
Ġr in
ĠF ab
ĠB A
b ury
AB IL
Ġ7 37
W M
ĠM ut
N F
Ġad s
ĠC RA
ĠE O
6 89
ga ap
re pl
a o
Ġ5 72
ĠR M
ĠR S
ro d
ĠR ap
c end
st al
F il
Ġ- $
ĠR d
Ġ6 64
S el
Ġ6 17
Ġ å
S AN
Ġ4 83
ĠR og
8 19
ĠÎ ´
o j
Ã ī
Ġ7 05
HE AD
G H
RE T
ĠE IA
ĠT un
Th us
Ġ9 50
C LE
et or
ĠEx t
AR C
ĠM ol
ur st
Ġ ud
AN E
ĠD ow
D ATA
ĠAN N
ĠT V
re ll
ĠB us
Ġ4 73
Ġ9 10
c n
9 29
O V
ĠR MP
ati l
ary l
8 93
ES C
ĠE MP
Ġ7 25
Ġ4 79
ra ge
Ġ6 80
pp y
p el
K R
f eed
pe a
ĠE V
f are
G N
m ont
âĢ² -
Ġ5 43
M ex
Ġc up
Ġ iv
ĠC W
Ġ8 13
ILL I
Ġar c
am pa
ort e
Ġd im
T on
ĠM i
AR ES
Ġ Ä
g iv
a ul
Ġ8 92
ĠC CR
ĠO t
Ġ4 89
D RA
M ost
7 88
7 82
Ġ6 24
ĠH um
ĠB ag
6 79
Ġ8 74
K ey
ad as
on el
k u
Ġ5 48
s ale
M ON
o es
b les
; "
Ġp u
E UR
EN C
F s
ing h
Ġo pt
al d
Ġ5 38
R P
8 36
IS E
ĠÎ ±
S Y
Ġ6 28
Ġ5 39
ĠS uc
UL F
7 74
Ċ ĉĉ
ĠH M
V ari
ĠD I
ĠE mb
iod e
9 36
Ġ6 68
ĠB io
EP H
ĠK it
Ġ5 85
PD ES
Ġat e
TI CS
B EL
H ous
ĠN eg
Ġe g
Ġo ve
IT Z
ĠO CS
Ġ5 61
ÙĬ Ùĩ
C are
ir k
MM ON
d ot
_ `
t el
Å Ĥ
EL S
L i
H ist
m og
AA AA
le as
U V
s vg
Ġ8 40
ĠN PS
K L
ut en
ĠP FF
ur se
ĠF GD
m ob
IC O
Ø± Ø¬
ST E
`` `
ĠO w
ĠCO L
m ode
BER T
7 31
g rid
l it
Ġ5 78
Q R
ĠW r
V ers
ĠT P
iv an
ve al
ĠM AY
6 83
P ot
ĠH D
ĠI RA
ĠA u
Ø± Ø¨
W et
Ġ5 76
Ġ5 82
y cle
ĠÂ ¿
ed a
Ġ5 58
00 23
Ġ7 28
Ø§ Ø¹
ĠY ES
se en
Ġ7 08
ĠF o
8 39
Ġ7 12
Ġ6 09
Ġ5 59
ĠF IR
ĠI CE
ra ce
F ile
ir s
a er
. )(
ĠS OP
( '
Ġl ub
6 91
Ġ5 57
are l
ol at
=" #
Ġl ar
ĠO WN
ĠL oc
Ġ8 08
ĠB US
ĠS od
O mit
il ib
reg s
Ġ8 76
ĠNE I
uff s
u it
Man u
Ġr H
\/ \/
Ø± Ø©
oir s
d ise
d raw
Ġl am
ra x
Ġ6 26
r red
6 81
an et
ĠY el
ĠT ow
F AC
Ð »
Ġe in
T r
Å ĵ
K H
Ġ6 18
w et
x t
ĠW AT
ob e
Ġ6 27
ĠG il
AR ED
Ġco h
Ø£ ÙĨ
Ġ6 23
im iz
ĠT or
Ġ7 45
ch i
p ag
c ond
N ext
Ġ6 32
The y
m us
ĠR NA
s ets
aw s
ĠB AY
S elf
ol ia
Ġf un
Ġ6 76
/ "
G o
17 45
IZ E
z ero
en es
m u
co al
Ġf us
Ġc os
Ġv ou
c ity
mun i
_ .
00 13
000 8
V U
P rop
ĠO W
l ays
u iti
B r
Ø§ Ùģ
ĠT i
IB ER
Ġ9 11
EN E
ĠT F
Ġd ip
Ġem o
ÙĦØ ·
h im
ĠD yn
L AS
ro b
ĠD FO
P RE
ĠC RO
ĠJ im
Ġc ig
ĠP LA
Ġg ir
IB LE
B o
Ġ9 01
ned y
)** )
EC A
Ġd ia
end o
raq i
F air
Ġ9 20
LE TE
ĠL as
Ġin h
m st
ĠT ru
S pr
7 29
' d
ol ph
ĠW Y
N ING
et o
WK H
Ġ8 06
Ġ7 13
Ã Ŀ
Ġ7 21
R isk
Ġ6 96
Ġ6 35
Ġp it
22 00
In st
ĠM AC
tr us
c ss
Ġ6 90
FR A
P ERS
t ri
Ġ8 11
Ġg er
St at
ĠF ly
Ġ-- >
F AR
Ġ6 21
ĠAR P
k l
Ġj un
ĠÃ Ĩ
s la
ĠE sc
ĠD eg
Ġ7 14
AA A
st o
we b
S ou
O ST
ĠR u
ra il
t les
K ING
ob s
Ġ5 94
8 91
H AL
IP AL
Ã Ī
Ġi o
il ic
7 91
qu er
Ġ6 55
ed en
CF SP
S ol
ĠC AC
; #
ĠO UT
On ly
Q C
Ġ6 48
( (
Ø ¤
AM ES
Ġ5 95
der g
b ine
s ure
ĠM IC
] :
C arb
Ã ł
RE EM
Ġ5 63
ock p
ĠO s
G AL
Ġ9 40
Ġ6 66
Ġ6 37
O cc
' ll
w it
Ġ9 02
Ġe re
Ġ8 84
EN G
ĠF em
Ġ8 78
H Y
F ort
ĠM ak
a ire
Ġ4 91
Ġl n
ĠM ER
ĠT uc
O X
Ġc en
as ts
st he
G U
ed by
im o
se ed
Ġ7 16
led g
Ġ5 73
ÙĪ Ø¯
Ġ8 14
ĠC BP
ole t
AT US
ter l
ĠG ib
Ġ9 04
ĠT es
Ġ6 45
: .
Ġm it
d ose
ĠJ ac
th ur
P UBL
Ġ5 99
H AM
tin c
Ġ5 71
ĠM CC
CO L
B el
17 00
W he
ir ie
M or
em en
in ua
Ġ7 27
V ED
NO x
9 39
F em
ĠJ oa
ar ry
ig r
ha us
A IDS
ĠS AC
EP I
c ou
et ch
ĠAN Y
V V
Ġ" [
L T
Ġ5 91
Ġe y
ve ll
4 000
cl im
O s
ĠP I
T ur
ĠC z
ph ur
Ġ0 80
w ant
Ġg ri
IF E
Ġ6 56
he ls
s qu
OL U
enz o
E IS
ro v
OR A
ĠA W
m uch
ĠUp b
id in
ul s
A E
ĠT SA
AP PL
t ty
19 67
Ġ6 54
ĠL ib
ĠAd m
ro t
Ġv o
ex ch
23 00
H am
Ø¹ Ø¹
ĠG L
c ore
p in
n l
Ġs at
7 39
V III
an er
Ã Ħ
p rec
NO T
Ġ5 84
ath y
re ts
ĠN ic
D AT
ĠCP U
ik a
ĠW AR
LR Q
12 90
f ic
AS K
ĠF EM
Ġ6 38
Ġf ru
ĠS ET
pt on
CL A
ĠM u
SE TS
T U
A ge
ĠBO X
ag on
ĠE t
ru gg
ĠØ ²
ac f
ll o
sp e
Ġ5 68
M ary
Ar t
ĠP DF
ty p
re li
R ad
H ere
tiv o
Ġ5 77
AL DE
ä ¸
se a
Ùİ Ùĳ
as et
ef in
OG O
L AN
01 10
PP ER
G UE
Ġ6 33
Ġ0 10
ĠL y
ĠO B
C a
I r
Ġ9 06
ĠÃ Ĭ
( &
OR DS
Ġs pl
) +
Ġh op
END S
ass y
n ial
ot oc
Ġsp r
BB BB
Ġ7 22
ĠR IN
re r
Ġus a
OC A
ĠM B
ax is
Ã °
ĠE p
Q P
ĠY et
Ġ9 24
u cl
Ġ6 81
R UP
Ã º
20 30
Ġ00 2
N ESS
h osp
A O
ĠM ET
st ac
Ġ8 05
s ix
Ġ7 18
Ġ5 87
Ġm fg
; _
ĠC re
ĠW V
Ġs z
Ġ9 41
: -
NS ON
ĠP V
ĠD P
VA IL
Ġ5 98
S tro
ĠD AY
ĠP la
n ih
' &#
Ġ6 46
B US
Ġ6 84
ic ed
l ot
ap ac
C r
M id
00 58
Ġ6 19
Ġ7 90
le b
Ġ5 67
f ix
6 000
b ow
Ġ** $
ro sc
Ġ7 80
F ire
Ġ6 41
R ock
ER T
D em
ĠL uc
ĠA SC
Ġt il
ï £
ĠO IL
UR Y
ĠUn i
F B
ber y
ro tt
ĠW it
u j
ĠĠĊ Ċ
AR K
ill i
w ear
ES ID
p g
TR UC
ĠS ud
V M
cre p
ĠS ti
p yr
Ġ7 24
M any
r g
ke le
ĠÂ Ń
v inc
O pen
c ash
â Ĺ
ĠR io
ĠØ ¶
ĠL ik
O il
N ES
ĠW IL
ĠD DD
ĠS ym
ĠS UP
100 3
ĠIn g
Ġ6 88
H az
UM AN
ĠU J
ĠO GO
IM AL
ĠH C
H on
DA Y
ÙĬ Ùħ
ere r
M er
ph al
g un
U EL
so il
ĠB ed
ĠI g
b ust
J un
ĠJ R
l ers
Ġ7 11
WO OD
R AL
ĠPs N
r maj
Ġ6 62
] **
O k
Ġ6 74
E Q
Ġ5 97
- '
ex ed
n it
Ġ5 93
sa id
te b
Ġ7 31
v at
t our
ĠC CS
F EN
S il
Ġ ub
y th
m ol
F isc
Ġ9 80
og le
ĠP ut
Ġ6 77
L oss
DO T
l ate
ĠA sp
Ġ6 94
ĠN N
ĠN P
est e
he t
ĠV AR
NO X
ĠD EN
m ech
yl am
U pon
QU E
ĠL U
Ġ8 22
i Ã³n
b ind
b one
fas b
I MS
m ov
Ġme g
p ine
: &
sp er
b en
K K
Ġ6 95
ru al
Ġn ut
ĠP i
A f
as i
T V
; ?
ĠF a
ro it
P rin
] )
aw n
** -
s al
Ġ6 34
O l
um en
LL C
M art
Ġ7 44
Ġ6 85
- #
ĠD EA
Ã© s
j ug
F WS
, &
Ġ ers
L B
U CA
ut o
\ ">
b ate
{ "
Ġ6 42
19 65
ĠO NE
T rib
ĠB U
P B
ĠI TA
ĠK S
Ġr m
Ġ8 25
m ove
ac ua
f air
C s
ĠN MR
ĠW ID
id ly
Do es
ur an
Ġt ie
IC Y
yl es
ĠP AC
F DA
ne ys
ĠK G
c os
P o
W ell
l bs
Ġ era
L ex
ac a
Ġ! **
Ġ9 28
W EST
R H
ĠÂ ®
Ġo g
F ISH
Ġ6 52
O US
H ol
up y
Ġ5 69
S k
10 95
Ġb ay
en yl
reg n
00 25
B ox
la pp
U ED
ĠH an
AN CH
L ink
ĠF IL
in ar
Ø± Ø§
ĠG M
ĠH CF
ĠAl b
Ġ5 89
Ġh an
81 01
ut ar
Ô ½
n os
00 20
S G
. #
ol k
S ha
UD G
C rim
ÙĦØ º
V AC
Ġd ic
cf m
Ġ7 36
J ul
D en
Ġ6 29
ĠR os
Ġ9 90
19 30
Ġt t
Ġ6 53
ĠNI H
ÙĤ ÙĪ
: '
s il
U Z
Ġp ou
Ġ7 75
O E
B et
Ġd B
ĠE SA
ĠT on
Ġ6 31
ĠĠ č
ĠO L
p one
M OD
A er
TC Y
11 12
ĠT AP
ĠR P
ĠD or
u at
Ġ iz
Ġp ag
P ON
IT OR
ĠS it
Ġ6 44
Ġ9 22
Ġ9 45
Ġ7 32
Ã ¶
. ~
( )
Ġt in
ĠV IS
om ed
Ġof a
re ac
W ood
8 208
oc oc
SE T
ver g
C op
B or
d n
Ġ7 26
\ \
S ear
ĠG SA
ĠA U
ub il
IL Y
EC U
D G
Mr s
Ġ6 78
z t
ing f
& &
TI LL
Ġed s
Ġsu d
Ġâī ¤
Ġau f
ĠF TC
re pe
i u
ĠT ak
ar th
Ġ7 52
Ġ7 51
Ġ7 86
Ġp on
" ;
OR IG
C W
F ACE
R at
hyd r
ÙĨ Ø©
ĠV ER
M F
Ġ5 81
Ġ7 98
Ġ6 61
ud a
Ġc ro
ĠP G
ĠO CC
( *
ot te
S X
ĠZ IP
ĠAP I
Ġ( Â§
C RO
Ġsh i
L Q
! #
Ġ7 55
Ġ8 24
t urn
Ġ9 15
g ium
t ex
k ind
Ġ7 34
Ġ á»
ck er
V ice
Ġs q
VE Y
Ġ6 39
9 000
D T
Ġ6 98
cd c
Ġ æ
ĠM ix
P OL
ĠU C
T op
UR ED
J ack
Z B
' )
Ġ6 79
Ġ6 58
off s
ĠP AT
op a
ĠS em
ĠC CP
On ce
. [
fe at
E le
ĠC ra
Ġ6 82
Ġ8 32
ĠP DP
Ø ¢
ĠB os
ok er
v il
p ad
ĠG am
IZ ED
A H
B IA
F unc
Ġ6 51
ind a
ĠA PC
d rug
Ġb is
Ġ6 43
23 23
BT OR
cl in
ĠB ol
S us
K e
P ES
ĠB OD
ĠG i
Ġ** .
10 59
ok es
m ut
C AA
Ġon t
ĠC J
ĠP ts
Ġâī ¥
ĠR R
Ø± Ùģ
u cc
D EN
H g
Ù į
ĠF ri
Ġ9 60
LE X
Ġ8 15
Ġ7 17
b ran
ĠD ri
ÙĦ ÙĦ
im is
et ry
m ass
ri le
G AG
ar on
orm w
ps um
100 4
Ġe ll
Ġ( **
ĠMc D
Ġd ot
G s
ĠL l
@ ?
Ġ7 09
ian o
ĠB AL
h m
ĠIN T
B N
W F
Ġ6 47
ĠMc G
ry s
10 91
H and
ĉĠ ĉĠ
lo an
ĠC AN
ĠL NG
W ild
00 34
Ġ8 28
Ġ9 12
ers u
Ġz e
Ph il
pl or
F ree
Ġb a
ĠU L
Ġn el
Ġ8 41
Ġp ie
an ar
W es
f ont
20 34
r int
Ġ8 18
Ġ00 3
m arg
ĠR OD
Ø° Ùĩ
f ast
EC C
15 25
H our
Sub T
ar at
ĠN T
Ġr r
H ome
ore n
Ġn as
Ġ7 68
ig e
th yl
Ġ7 33
Ġch a
Ġ6 93
Ġ7 87
ac id
n is
Ã ¥
ial e
Ġ7 57
/ (
Ã ¨
ĠH Y
Ġs we
ĠE ST
o i
f m
) ?
ĠK u
S IC
l ich
CE ED
ow e
Ø¹ Ø©
ĠT Wh
V ENT
te br
ĠP un
on z
ĠS AR
ol en
uge e
H B
be am
Ġ0 60
bor o
Ġ6 63
' "
ĠD ar
ï Ļ
Ġ9 13
C OR
s z
FR I
or um
Ġ8 23
n one
m ats
em e
ÙĬ ÙĦ
ĠM AG
ÃĦ ÃĦ
c ult
- +
es E
ire f
E v
H AR
es h
am an
ah l
00 40
le a
TX T
Q I
Ġn r
IL D
ĠL ie
IC I
R L
Ġ8 27
ast a
ĠP PE
Ġ7 65
Ġ9 07
12 01
om ly
r ins
Ġh os
ĠW i
B AS
00 22
v ard
om on
Ġ8 26
M ech
ç Ķ
ĠA DA
ĠF D
00 16
ĠO BS
ĠE AR
ph os
es is
Ġ9 66
Ø¨ Ø©
C MS
Ġ8 95
t ar
ĠT SD
ĠD ra
/ -
Ġ6 86
Ġa us
; [
M ap
Ar my
n ut
l os
in us
ãĢ Ĥ
f ri
ĠC ru
Ġ9 14
ft c
ĠAR B
V K
Ġ~ ~
O MM
Ġha v
P op
ĠA le
ĠC IA
ch t
ĠÎ ²
Ex ch
ĠN EC
at al
Ġ9 08
S et
00 50
id as
kt op
Ġ6 89
Ġ7 74
Ġ8 35
Ġs ed
C um
ond a
W G
o ct
Ġ7 88
ĠB ob
U l
is su
% ).
le ys
Ġ6 57
o hex
Ùģ Ø±
P N
co o
( ^
EE E
F our
f urn
M al
Y our
vi ve
ØŃ ÙĬ
ĠM Y
ĠW IT
ĠT AC
@ &
rom a
ag g
R T
ĠS ME
f lex
EAR S
ĠE CF
ON AL
22 12
hel p
d um
ĠK im
HA EL
OO K
Ġ ity
Ġ6 72
ç ļ
is en
J D
Ġ7 48
d f
ÙĨ Ø¯
00 36
TI P
Ġ8 75
Ġt u
12 20
F ID
Ph ys
id at
ep ly
US GS
is er
le en
low n
Ġ7 81
Ġ7 85
ĠA st
IN I
ĠA MP
Ġc et
_ **
US C
oy l
N orm
ĠPh D
ĠSC I
çļ Ħ
B W
12 50
ul os
ĠU V
Ġ( <
In sp
cl u
ĠB in
M ER
ĠG az
ĠN ar
ed ar
w i
ĠH S
Ġ6 87
op ol
od ge
ĠC U
z n
at on
h u
Ġd ye
ÙĦØ ²
r mo
Ø± Ùĥ
Ġ7 42
ru ce
Co o
t ree
Ġ ia
ĠAr r
ĠR aw
Ġh og
ĠF IF
O x
ĠH ub
oth y
S pre
whe l
Ġd op
u pp
E TH
G W
ĠA VE
Ġ6 92
000 9
g all
id ic
c ind
S yn
ty l
Ġ7 56
v s
Ġ" "
Ġ8 33
ĠS r
Ġ6 73
Ġ6 91
ĠÌ §
am os
Ġ7 19
00 17
ry os
ÙĤ Ø§
L M
Ġa o
EC F
anc o
c ool
Ad op
L iv
ic ia
ĠO AR
and p
Ġ8 16
ĠF ro
of s
ĠQ A
UL TS
=" "
IR S
Ġr im
Ġr n
or it
ĠT I
P U
D OD
De le
el in
10 30
ĠV ot
Q W
Ġ6 49
ĠH al
ĠW TO
w r
C X
Ġ7 63
el er
A ust
Ø¨ Ø¨
GR AN
ĠS OC
H s
ti st
Ġan t
: (
U til
ĠS DR
V IN
M ail
O reg
Ġ8 39
F arm
" !
Ġ9 25
Ġ9 70
Ġ. **
ON LY
Ġ9 26
Ġ8 37
11 01
MA Y
iv o
H IP
PT VN
Ġ7 95
t n
p aga
Ġ7 49
ĠX II
Ø± ÙĪ
Ġ9 16
F ish
Ġin m
Ġ7 99
Ġ6 59
L ife
F EM
H OL
ĠP ra
Ġ7 54
cl at
Ãı Ãı
Ġ7 64
ĠC ad
Ġan c
O A
# :
Ġ ig
arg u
M il
Ġ8 42
12 12
Me at
ria z
7 000
Ġ( +
Ġ9 95
ov o
19 06
05 37
Con f
00 45
Ġi ii
ĠD B
12 30
W el
H el
M ad
Ġ6 97
G IS
m ia
Ġ7 38
S ing
Ġs is
ĠL is
OD E
% &
ĠD un
F DS
ene z
ull s
Ġl ag
oc on
G V
c opy
B ay
L ER
Ġ7 94
19 60
ear n
Ġu pt
Ġ7 92
ĠA li
Sh ow
ĠR ET
Ġ8 21
ĠL B
] ;&#
PA CE
Ġ8 71
am pl
ĠB od
Ġ8 46
ĠL ux
re b
BL M
Ġ6 71
ue b
Me et
ĠE gy
n h
ĠC LE
N TIS
Ġg es
Ġ9 58
s od
Ġ8 29
Ġ8 34
~~ ~
ot as
Ġ[ (
K ET
Ġl ig
)( *
Ġ8 44
i op
ĠR ox
U ser
ĠR AD
HR Q
M H
ĠIn b
19 64
00 24
ag an
be an
ig ge
R ent
ĠJ P
B ill
EN UM
d t
ĠB P
05 46
ĠJ on
K D
m os
Ġ9 05
ĠK y
B AL
Ġr an
L ond
ĠS G
ĠI E
Ġ9 98
K I
Ġ7 41
V W
ĠT ai
ĠW HO
ard y
ĠCO A
Ġl ac
ĠF T
ud en
di e
n m
li o
L os
ĠL yn
ĠF lo
ief s
ij a
Ġis n
igh s
ĠC EO
um et
ond o
H HS
X Y
ĠA NG
la ke
ĠA BS
M ET
K O
Ġ9 17
air w
Ġ6 83
Ġm s
P ark
Ġ7 61
e h
Ġ9 19
Ġm ud
F i
)( )
Ġp ec
ĠS OL
ĠN IA
Ġ8 38
J V
E B
T s
08 00
ĠQ C
ĠH ud
iv i
âĢ² ,
00 55
Ġ7 43
ĠD LA
Ġâģ ¡
d r
ro in
W in
R h
et e
Ġli k
IC ER
c ord
C ash
AN TI
D ev
Ġ8 19
ĠB MP
r ina
C am
AC I
P ass
ud ed
ĠS CO
d ump
do i
Í ²
ym es
T ier
ĉ ĊĊ
00 19
DD D
Ġ6 69
G F
ĠØ ©
S AC
T VN
Ġ9 21
ĠS IC
ĠB ry
ro c
Ġt am
"> &
O hio
f en
CD C
ab a
F TA
P osi
G PS
de em
ph ib
Ġo ct
ĠH Cl
J eff
Ġl d
Ġ8 17
M ale
c ies
ĠC od
ĠG C
l ass
Ġz o
s and
Ġd b
tra k
UD Y
Ġ7 73
ĠA ce
ad ul
iz ab
ich i
V ERS
r il
p yl
f ted
U ES
J us
Gu am
âĪ ļ
and e
c anc
ine z
A riz
ong o
ĠFR A
ĠC PS
di am
d ish
22 23
p ric
MIN A
ut t
B AN
Ġ7 76
G ES
ÙĬ Ø¹
er ly
ore r
ĠH u
DE TA
ĠS ar
ĠI O
d rop
Ġr h
F N
Ġ7 96
UR N
in ee
05 00
N IST
Ġb ov
Ġ7 29
ĠL au
Ġ8 81
= $
Q BM
ID EL
Ġf ec
IS ON
du ly
Ġh in
% ;
S TS
ER CE
ub s
Ġk in
Ġsh o
Ġ ech
JOH N
ĠâĢ ł
ody n
s r
05 45
Ġ7 53
sed i
Ġ9 09
AG O
Ġâī ¡
ĠÄ ĳ
Ġt et
ĠT ub
ĠØ ¢
vi ol
k ov
B oth
OM AS
Ġ9 03
pe o
F CA
E val
R ail
[ &
ch ae
ĠH op
O OL
ss en
l ibr
ld g
r ors
/ ?
Ġb ir
Ġ8 77
20 25
B LE
al g
Ã Ĭ
101 0
[ (
ĠC ab
F ull
ĠD S
ĠT ES
Ġ9 54
ug g
u v
pro g
Ġ9 88
Ġ7 58
S ERV
Ġ7 97
ĠB DL
Ġp m
33 33
00 21
Y ork
Bi om
ac o
I MP
ĠI U
Ùĥ Ùĥ
V AN
W y
Ġ7 91
tt es
RO AD
ĠR AM
ĠT ox
Ġâĸ ł
f ax
Rel a
am o
W ORK
E Z
Ġ7 66
ell i
v ae
H L
us cb
ĉ ĊĠ
TH OR
Ġs ig
ĠAl t
r ass
ici o
b ird
Ġ7 93
ĠR IS
f old
ĠB il
ĠS EA
Ġ00 5
un if
Ã ¼
J ap
ĠV IR
ALL Y
< .
LE T
H AS
ĠP ed
19 66
Ġ9 51
b ing
ĠNS F
M a
)** .
ĠÃ ł
ĠR OW
sp ap
ob il
ly n
ĠEd w
u z
ĠS ir
ay a
ev in
ĠF ox
Ġn in
06 00
ĠP F
A X
ĠI TS
Ġ8 45
EN DA
Ġ0 90
Ġd it
der w
BER G
Ġ7 83
ĠPC B
Ġ ïĤ
Ġg a
d l
AC HS
J H
H OLD
Ã ļ
Ġ7 72
D U
ĠÙ Į
ip ul
ĠA k
Ġl ad
ul i
Ġ7 62
an as
Ġ7 39
10 94
Ġ( (
j ur
b is
00 46
ĠM MB
Ġn ts
w t
Ġ7 71
G CC
L ead
03 00
P al
Ġ9 32
/ &
ĠS PR
T OR
p b
ĠL t
av as
ee ks
Ġ8 55
Ġ% ,
00 27
M ort
01 23
P Y
oc he
ÃŃ a
E W
tr if
h g
ĠÎ ¸
L OS
W ind
c rop
d ra
y b
ĠV ar
# *#
ac ec
Ġ7 82
ĠM DL
it ar
Ġ9 18
T Btu
D er
Ġ( &#
Ġbl u
% ),
101 6
V X
ÙĬ Ø§
35 38
ĠT ro
Ġ7 69
Ġ7 78
ĠB ER
j n
s y
ĠK a
Ġ8 53
L ING
ij e
ÙĬ Øª
Ã ¦
L s
ĠL it
ug s
v ens
ĠV ul
Ùħ Ø©
S ent
Ġd if
n age
acc u
Ñ ĥ
ĠB le
= #
C la
O Y
~ .
au c
A irc
M erg
10 78
t ow
ĠB an
se p
R a
am en
ib an
Ġ8 98
UL AR
12 11
Ġ8 61
ff ee
Ġ9 23
p ac
Ġ8 47
LR B
Ġ );
TI L
du p
ĠM ir
Ġ7 84
ĠâĪ Ĥ
AT Z
ill o
100 2
at he
B ul
I UM
Ġg li
16 30
ib li
ĠV en
PL ES
ore g
ĠC f
S EN
yp es
n ik
ĠW OR
Ġ9 72
ti r
N i
ĠZ ip
Ġn ce
l ab
Ġal b
ĠD om
Ġ8 31
a qu
ĠI PP
ĠH ER
ĠDo e
CL OS
D rug
ro el
TY PE
ar an
ĠB it
19 50
Øª Ùī
c ia
s ust
Ġ9 31
Ġ8 57
Ġ7 59
Ġ8 94
Æ °
W B
la v
) '
xx x
Ġt ut
iz za
I J
ga e
ĠEC B
RA Y
AIR S
01 30
ce al
Ġh id
; ^
Ġ9 52
E s
Ġ9 78
EC K
qu it
Ġ9 44
Ġb ow
i ors
Ġr v
ĠY e
od i
ĠP EN
re z
ag u
Ġ8 56
âĢ ł
Ġ0 11
Al ab
ĠEs q
Ø¯ Ø«
ev a
Ġ9 49
Ġ8 65
B ri
Ġm M
Ã §
Ġn il
Ġ8 79
t at
S TA
B u
au er
n og
Å ł
ĠÎ Ķ
IP M
; @
h ub
U X
ĠQ BM
ad em
oc l
00 33
ĠK al
Ġc n
Q s
n ega
ĠI B
L H
H ER
M IS
Ã ª
) ],
F IR
t xt
w ers
ĠF SA
Ġ9 65
, </
Ġre e
Ġ9 96
p ila
ly mp
E QU
Im p
V EM
M AL
Ùģ Ø³
ĠT el
b ond
ĠS or
ÙĪ Ø¬
UN G
K ent
ĠL eb
ab ul
su gg
ga o
19 62
Ġ8 85
ĠEG U
00 35
- >
ĠT W
ĠU AV
ent r
B ERS
Ø¨ Ùĩ
it en
D u
Ge og
N eit
on ce
Ġ8 36
23 30
Ġ8 51
ĠG y
ĠP CT
ĠC FC
ĠS K
R U
Ġ0 56
ĠW AL
N AS
Q E
Ġ(- )
J S
oo oo
ĠR FP
F K
Ġ9 75
Ġ0 46
Ð º
Ġt io
12 34
TS D
Õ Į
B er
Ġs es
raw s
n an
cl ic
CS C
D ou
ĠE B
ĠL IB
ĠP AP
ul d
13 01
F low
AR GE
av an
[ &#
Ġen l
19 61
ĠU TF
d c
Q a
Ġ8 52
12 22
Ġ9 36
H IV
ce ls
f c
m ach
Ġte a
A mb
čĊ ĉ
T AC
* :
ida z
L og
TO IA
ĠA la
ro at
ov ol
ĠY OU
Ġth y
12 10
Ġ9 33
Ġ ich
00 28
116 7
Ø§ Ø¬
W The
Ġ9 27
E arn
00 37
oc o
mit e
M en
Ġ0 66
Ġe q
ol as
Q D
Ġd t
24 00
Ã¡ s
ĠD EM
at so
hor n
Ġ9 38
ha ul
t abl
and f
E ven
Re le
19 63
Ġ8 54
w ick
FS IS
TM L
Ø³ Ùħ
10 20
ĠG Hz
IN DI
ĠJ UN
Ġ9 55
u ti
R V
:: :
19 57
gh um
l j
AN O
ro se
doc s
ur ry
ĠF IS
ĠL RA
se es
ak a
he a
ĠS EP
19 59
d os
ĠB C
ock v
pr us
Ġ9 86
t ech
ry o
K ans
Ùĩ ÙĦ
ĠC i
D NA
rag m
Ġo ro
,# `
im i
ph is
Ġ00 4
ne ap
Q M
is l
it os
hen y
ĠM OS
Ġ8 91
ere g
p ool
ÙĤ Øª
ĠN L
M idd
C ir
19 58
ĠH at
18 40
AP X
di er
Vi ew
se g
Ġ8 96
Ġ9 35
h um
ĠOF T
RO VE
Ġ //
IT EM
Q F
BR W
H W
Ġ7 79
J C
he im
W isc
; =
ĠÃ ©
So il
Ġ9 56
ĠA O
ĠV P
ers a
05 38
19 55
ĠS ew
( -
b c
lo om
h on
Ġd s
Ġ9 46
Ġr ic
DUC T
Ġ9 37
F OL
Ã ĳ
DOC S
12 04
H UD
M AC
SK I
ou x
In di
b eg
% -
s end
ÙĬ Ø³
Ġâ İ
B G
Ġ8 99
] +
IT C
11 30
ec i
Ġ7 89
Ġb un
ĠO U
cer t
du al
Ø¹ ÙĦ
' /
ĠL ot
_ ,
ĠS EL
Ġm os
T im
Ġt py
O TA
ĠL OD
er ge
S and
at ts
ĠB N
H eat
h ang
Ġ9 42
R EM
mb H
ĠM G
ĠL AN
: !
h ot
Ġd oc
ĠS AS
> ,
fol k
ov ak
pr in
op ar
li um
in fr
ac ia
ON ES
Ġ9 34
B F
M ag
t lor
ark e
ĠD OJ
T i
im pl
ĠC CD
Î ²
* %#
D IR
AT O
ED S
L at
G re
H y
E as
Ġy r
00 60
c g
D an
t un
ĠA z
AM ER
L IC
em at
20 27
Ġi od
100 5
L AM
ĠO M
N EL
O VER
t rim
Op in
ple t
ITI Z
; !
00 38
IAL S
Q T
ĠR OM
or re
ort o
# )#
Ġa ry
Ġ9 89
Ġb ub
ķ Ĳ
L in
E AS
Ġc ab
D OM
f ec
ond e
f d
ĠS om
ed in
8 000
ĠL EA
Ġ9 94
ĠD il
S pe
M ALE
Ġf le
ĠA PR
Ã¡ n
ĠJ a
M as
gu ar
D ead
'' .
Ġ8 93
is ia
ock w
w ild
ĠL TD
Ġ8 58
Ø¹ Ùħ
oy ed
tic o
y y
ĠB AT
ĠG od
r z
IV ID
C EM
F AS
Ġ8 43
Z E
is o
h art
U ER
ur t
Ġbe e
v ir
Ġ9 59
ot er
C MA
` &
* Â«
ĠÌ Ħ
NO AA
h ire
Ġ00 9
f ar
ĠAr m
Ùħ Ø³
ĠT ot
ĠL R
44 33
ĠC IV
ĠP y
L ic
l ag
ST D
M g
s n
b ri
ĠM ID
Ø¹ ÙĬ
'' ''
z ers
on c
Ġ9 83
10 49
m el
Ġum a
Ġn am
v ary
ox yl
AD O
ge og
19 40
Ġ8 49
17 51
ĠR wy
, (
ĠR ou
Ġv ap
Ï ģ
ed es
Ġ8 87
Ġt l
j ac
M IC
ĠÃ ĩ
Ø¬ ÙĦ
ĠEX C
Com b
Ã ½
ok en
R IA
ĠK er
Ġt b
Ġ8 63
I RE
. ",
od al
ĠJ oe
ĠSk y
ON Y
ra it
L eng
"," $
us on
z m
ĠG ab
Ñ ĭ
ĠS ut
ĠF HA
ĠK os
the w
- ^
u f
ĠP AL
f ram
Ġ" '
to o
du a
d ou
F AL
Ġ8 48
n om
19 45
UP F
asp x
K NO
ĠH ug
RE AD
ist e
R ead
Ġps i
F ind
Ġj a
00 64
an ie
: ,
l ant
ĠT re
w hic
ing o
AS C
Ġ9 63
io id
W al
L b
pl at
CC C
ar ri
PP LY
C USS
ic em
00 44
11 50
p H
ĠP RC
S up
Ð ¼
AC M
if or
sp ot
qu en
wn s
Ø¹ ÙĨ
V J
ve x
Z L
Ġde e
am y
k on
o is
ĠN GO
ĠR DI
Ġ8 89
ak is
ĠL CC
Ġp g
Ġ9 39
ĠH ep
EX AM
tr l
Ġ9 85
IM UM
Ġu ph
ns ic
.* )
Y ES
MA X
ĠÌ ĥ
10 46
Ġen z
~ -
f ro
" ^
ĠG et
de z
el ch
ĠP in
le m
;. '
Ñ ı
Ġk et
ra pp
ĠA ER
ard o
R uss
rop y
Ġat h
ust s
Ð ²
Ġc ir
19 47
Ġn os
Ġk o
OO O
uel a
/ '
< !--
ĠM t
Ġg ag
y ard
19 11
19 41
\ +
ĠM oh
Ġur g
Ġco b
19 12
ĠB I
KE Y
Ġ9 29
Ø³ ÙĨ
R ICH
N ev
ti um
75 00
or ia
ar is
Ġ8 59
t urb
ix on
F ET
v acc
âī ¤
c ong
D ich
er iz
G a
m iti
UC T
Ġ ïĤ·
E IA
ĠN as
G AT
Ġn th
UR ON
05 40
st em
ĠO TC
ĊĠĊ Ġ
# (#
Ġ9 74
AN I
Ġh t
ĠAD R
f is
h d
ued e
b ly
ĠïĢ ©
T en
Ġ9 87
Ġ rom
B K
ĠS SI
ĠU I
Ġ9 47
uc ks
Ġ9 97
ĠB og
TR E
C AM
ri j
s ou
Ġl un
w ave
IN F
Bl r
F ail
lu x
ĠS la
rad y
sh al
, ]&#
m ati
qu or
ĠB oy
J P
Ġz ur
ĠP T
GR A
m ant
ET TE
C i
Ġo ph
US ES
w l
il os
10 50
Fe et
22 11
so le
UR EM
H us
Ġk W
Ġ9 48
EA U
p ast
â ķĲ
Ġ9 53
. '#
Ġ ies
Ġhe a
f ly
id os
T Wh
Ġ9 68
K g
D own
k W
Ġ8 67
ĠD G
Wh o
; +
Ô ¹
IB IL
AC A
ĠF UT
Ġl ia
is ch
W OR
D Y
g ly
ĠC AT
ĠT ac
W T
p he
S un
Ġa an
C e
10 42
ra vi
t one
Ġ( #
ob by
Ġ9 91
g on
L AB
ect r
j oni
ĠC ob
13 30
19 49
PP D
d as
AR AC
W a
ÙĨ Øª
Ġv ag
ue z
Ġ9 76
n ext
n ar
z es
Ġ iti
N ERS
! **
an aw
H ard
ĠH IS
y c
" ?
L itt
Ġg h
p ore
ĠF WS
M G
Ġm ph
Ġ$ (
Ùĥ Øª
G old
al ia
ĠH FC
S V
le vi
l r
ĠE LE
UR A
LO Y
ter t
. !
ĠM UN
W AL
ĠE q
l igh
ep w
Ġi e
Ø¹ Ø§
W ARD
' &
R AM
f oc
Ġl s
SE Y
we at
re ch
V an
Y B
M V
u fac
uro s
L ED
čĊ ĉĉ
E I
J ud
ag ic
med i
rim p
K n
Ġ9 43
ĠC li
ph ab
an ne
ĠAR T
Î µ
w alk
A lt
s ki
ĠD OL
M J
R eal
PA Y
ĠM AP
al in
ĠB EL
ip es
Ġl av
b led
112 6
od on
Ġïĥ ¼
Ġ umb
Ġb en
MS O
h om
M AT
Ġ8 73
AD R
Ġ ip
f aa
art e
Ġ9 64
b urs
us gs
Ø¯ Ø©
ab e
V ot
EN A
ĠG RE
ĠJ et
R X
Ġo we
Ġm uc
ĠO PM
17 30
\ '
ĠUr b
Ġ9 57
ĠL PG
H awa
19 54
Ġw ax
Ġy s
Ã Ł
l c
Ġ9 93
Ġ9 84
et r
sh ot
H SA
Ġ áº
U ARY
Ac qu
ops y
ĠP CR
ati a
P uer
op ts
Ġ0 33
ĠM UR
ÙĤ Ø±
IF F
h us
: "
t f
ĠC WA
ĠB es
ll i
Å ¡
f ees
Ro om
l ive
Ġc v
V ent
et c
h hs
19 37
n iv
Q V
Ġ9 71
ĠA MS
/ &#
h p
il ly
ĠV T
x s
n uc
ia e
R ICK
AS KA
he it
AR I
W LRQ
ĠUR L
aw k
ĠIs l
act o
id ar
p tic
ve t
W ELL
on n
14 30
TI O
ĠT an
ĠT EM
00 56
ĠU M
ĠAn a
ĠO T
ts on
Ġt an
y ph
vis o
w ire
Ġ. -
s mo
p ane
ĠH us
ĠT am
ĠO D
** Â§
ure n
ĠR G
Ġa in
12 13
Ġc ow
c gi
Ġt au
di et
ĠF P
eg en
ST ON
ism o
ib us
L iqu
, âĢĶ
B eef
b ors
Ø´ Ø±
ĠR ow
20 45
un to
" #
ĠG PO
Ġ9 73
>> >>
MP U
13 97
Ġ8 69
). ]
J K
ĠEm p
F IL
J R
ĠFL O
A UG
G AS
ĠM OR
ĠD ub
ĠV it
ĠOn t
Ġl u
ox o
ar us
L F
eg g
b lic
Ä ŀ
05 47
01 11
Ġ ib
100 7
l g
S The
eg gs
ÙĪ Ø³
ĠG W
ĠI SA
se al
EC R
ĠC it
Õ ĩ
B est
ĠR OC
ĠH ad
l amm
8 103
Ġ9 92
un ta
ew el
r ary
r ats
il ip
er on
ĠP PS
ĠP el
OCK Y
ĠS IM
l ng
Ġ )(
P oll
ĠJ e
21 12
J AN
red a
ÙĤ Ø©
Ġ9 81
P ow
ĠX IV
ÙĬ Ø¨
l ite
ĠH i
pub s
ĠS in
07 00
Ġ9 82
QU ES
pe z
11 58
we ig
B AR
ĠR IA
Ġ9 77
T ri
UM P
Ġth o
Ùĥ ÙĨ
ĠC EM
ep h
=" _
UL D
AC Y
YD RO
? âĢĿ
t ank
ut on
D uty
ĠFA X
ĠO d
- &#
Cl os
f u
ad al
Ø¨ ÙĦ
f em
tr ud
Ġn y
ĠG ul
der l
Ġf um
M ac
W ay
d iss
al de
Ø§ ØŃ
f eld
ĠW W
Ĩ Ĵ
us k
TE X
M SA
DE F
ĠÙ į
ON IL
ĠTO G
N SR
he z
Ġa k
110 8
T arg
+ ,
ch is
H o
ut z
Ġn al
ĠB IT
= (
k ill
110 7
12 06
ĠM ae
tle f
# /#
ED ED
ĠS pa
00 31
L ACE
ak i
12 86
Ġd d
z on
v age
j ob
P YR
Ġa ft
Ġo ch
Ġ0 28
ĠIn v
ä º
u plo
CH R
pt om
C all
ĠT SL
01 12
C AN
M ES
S AR
* &
B ART
it us
Ġp yr
> -
ĠH H
X I
ĠL ou
Ġ ĉ
in el
F oss
ah n
ĠT ag
li k
f ee
P AN
e ast
ĠI FR
l le
: ~
G age
A sh
ĠM am
Pe ak
l ad
ĠC G
vi e
son v
l v
Ġ0 20
ĠR i
p ic
13 07
Z D
OL A
b oxy
D one
00 43
Ġh ip
OC I
10 40
d ums
H IC
U tah
10 21
d z
th or
Ġ9 79
op ul
A v
ĠEn c
ec ia
Ø¹ Ø¶
10 25
el ly
f D
Y ING
Gu id
be it
M EM
TR ON
ĠA FR
ĠG B
s or
OM IC
Ġ9 69
j an
ic z
E vid
ĠW S
ER K
T abl
et ta
$ #
Ġ9 67
ĠG RA
RO S
. |
t ab
05 39
ĠO ST
Î ¿
Ġ è
t ats
ĠD ie
* -
00 65
B ig
S ize
CO DE
ĠG ly
SN CR
? )
ĠE TC
a uty
N uc
ĠH EL
Ġ9 62
ĠTh i
NA l
d one
ic ot
W AR
ĠO h
K IN
ra de
C ens
IR A
ĠD U
C amp
re ty
ri k
c am
ĠC PT
tra p
ĠV MT
ĠS on
J L
Õ ģ
ĠR ip
ĠV EG
; `
05 48
Ġa e
19 48
ĠP OR
yst e
C y
s in
Ġ0 30
us c
.** *
rit a
St ar
ĠEl k
ij k
ox am
" -
ĠAC S
ĠV ac
ire r
ä ½
r ise
or ab
ag us
sh ut
Ġd y
ĠR OS
) %
ith u
Ġ9 61
m ans
Ġb ic
f re
ĠS ug
ĠP ic
AD D
? &
iti o
R N
ĠH CP
ĠMO E
ĠL ar
IG A
H EAR
ol yl
x ell
ob ut
s om
U IS
101 4
ĠâĢ ¡
d x
ot om
ĠI TE
ij n
J er
ey e
ĠJ AN
Õ Ĩ
ib l
M IL
In b
Ġt ui
ĠAl f
M ING
Ġl t
D EL
Ġ( )
Ġ** -
f y
ĠL IN
th og
11 13
ĠR B
$ &
e in
Q H
Ġk er
19 39
ĠUS B
ĠE CR
c ave
erv o
00 66
st ar
49 11
c ion
u o
Z one
ov an
LC S
ĠR ig
ĠT ab
b rou
19 35
un es
AF T
Ġe ve
/ )
f el
re ck
ĠA TS
+ &
ĠM ig
å ħ
ĠA E
u est
Ø§Ø ¶
ĠO re
ĠD F
RA E
10 45
19 34
ID GE
AG ES
10 97
Bl ue
eed y
19 25
20 33
ĠEr n
ul u
Â ¢
S n
ĠC CC
al it
D HS
Ġ0 15
IC R
ard a
Ġo h
s ic
s of
S AL
k om
- &
v ati
15 30
p ipe
ĠB IA
ĠK o
ag in
ot pr
W ed
32 13
any l
ĠL ia
ĠL S
U NA
E r
Ġr if
Ġ0 63
an za
Z C
E FD
P LA
Ø£ Ø®
" );
ĠG IS
M n
Ġg la
C BI
ĠSR M
Ø§Ø µ
v w
Ġm p
19 56
37 00
20 35
on di
ĠA TC
bor h
ĠK in
V es
ĠR ot
per b
de bt
I K
J U
T ask
EL ES
Ġr al
nas a
Ġb om
Ġa le
ĠB ir
Ġon b
Ġ0 70
i ot
d ich
V H
W IS
Ġ( Â°
S ulf
ON A
ĠT IM
ĠH og
LL ED
15 03
Ġd ol
k il
t om
10 26
Ġ$ /
or f
00 57
ĠL um
ĠP PM
X L
19 23
EP S
: ;
s yn
fe as
R AD
ĠV el
co at
ash v
** $
ĠT AN
ina e
Ġ00 7
ĠMA X
M U
Ġp ac
Ġ0 14
01 03
ĠMc N
Ġn ie
D oll
ĠM os
ph an
ĠB id
oun s
An g
ĠA BO
un o
in v
H IGH
Cor p
101 5
' ;
ĠU D
C orn
ĠB la
Ar ch
c ro
ĠM n
ĠD V
Ñģ ÑĤ
~ ,
ĠE MB
ĠN TI
Ø¹ Øª
ĠÐ ¿
g ins
k k
C iv
_ -
Ġ( >
an on
H osp
sc f
H ear
ĠN HR
Ġe w
ÙĪ ÙĬ
ĠB ah
** [
f ew
10 60
15 22
ar o
R B
k Wh
n ary
z M
P ath
OW S
12 23
ĠA CH
Ã ²
19 20
az z
ĠI AC
Ġ0 12
[ ]
G AA
Ã ĵ
m c
t ub
Í ĺ
Ġk a
Ġra y
ĠM MS
S UP
p ix
ou ch
ILL S
Ġt as
: âĢĶ
B rus
\ &
ou la
au f
Ġn ed
ĠT D
ys il
H ill
Ġd th
k end
ĠF TA
all o
26 00
g ray
!! !!
Ġin b
iti e
il or
ly l
ĠA X
S y
Ġd al
ĠW or
Pa ul
Ġ** !
v ron
' ^
ĠA EO
27 00
New s
Ø§Ø ²
ĠL M
ne j
bi om
ĠD AV
Ġ0 50
ĠÌ ĭ
D ig
f owl
ĠS AB
âĪ Ĥ
G AR
! &
ĠW ol
100 8
19 51
H ex
b ia
c um
Ġd ar
F U
E lig
P oor
10 93
K ing
AT C
ĠTo o
GA GE
Ġc iv
19 46
ont o
ĠP ad
ĠP ET
ach s
ĠX VI
C J
th in
f rac
Ġr he
ĠP u
ĠP OP
ĠL ag
z ion
N ULL
ĠP IN
Ġor b
ed to
ec a
IS I
rub s
D ue
ip ha
an is
ĠG AR
09 00
ĠN u
fil m
I owa
In f
ĠF i
100 9
ĠE SR
ĠO ri
' _
h ill
ES A
es c
Ġ( *)
> &
ØŃ Ø§
Ġ. "
ian e
ĠEX T
ĠH F
19 09
C ond
01 06
Ø± Ø¶
g if
ĠT CE
18 30
Ġk on
IS TR
ER ED
", ,,
/ ">
th ri
Ð ´
ĠC ub
V eg
ne a
\" :
Ġf ic
Ġ0 40
OC IA
qu ef
FR OM
vel t
e i
ĠJ UL
12 26
ĠD kt
Ø§Ø ·
K W
d b
ul ui
es po
88 88
ot on
ĠAn t
19 36
ĠP PP
da q
z u
G ER
Ġy o
Z O
w au
IT ES
00 47
H ay
w eed
Ġs of
10 81
ak h
mid t
ĠA x
U Q
IO X
P IC
, !
OC T
EO F
B ra
ES E
n old
ĠS CA
čĊĠ č
? "
Ġ0 25
13 08
ĠH AM
ec os
ĠN om
OO OO
B a
110 2
R ob
ĠCo x
R s
ĠC SA
% (
ĠS IS
$ )
ĠÃ Ĥ
ĠN ec
ĠC US
p her
C Z
20 67
Ġph y
Ex pl
B at
IAN A
W ER
ĠN WR
Ùģ Ø¹
Ġ ç
Ġh oc
ta ic
IR D
Ġc em
ĠR ac
ri el
il is
00 39
L INE
n u
ĠC os
ĠH ex
ne ut
z in
BI LE
H ou
ĠCh o
ĠG I
U TE
gr p
re th
ong a
ri pp
anc i
ĠB UT
ev it
K N
AP I
Ġ- **
N PRM
00 29
ac ic
ĠâĢ ķ
ĠE PS
ol t
ĠF t
Q MD
ĠK le
j our
- {
v ac
20 29
en o
Ġz on
The n
UT Y
ÙĪ ÙĤ
ĠJ os
0 201
oc co
Ġ00 6
Ġo st
Ã© n
ĠT VA
is ot
ig ma
J u
ĠN SA
PO SE
19 44
M X
yl on
ĠA AA
O g
s ume
Ġ Åĵ
10 22
R IPM
ire t
TC T
Ġu it
J T
m ess
33 01
w is
12 14
-( (
R Q
ĠH om
an u
pl en
ar ma
N s
or in
w al
Lo ad
Ġ$ .
n r
Ġra z
Ġ0 85
ĠAC P
n en
O t
yn yl
es a
Ġhe n
ies e
Ġp ly
all i
ii ii
Ġro o
Ġc el
M erc
v ot
er or
x ls
ĠS z
J E
ĠB ad
Ġs ie
ĠM ov
pl a
ĠT AB
' :
ĠL ay
ĠW is
L ibr
m w
ir ts
ck et
ĠAD J
T ech
ust a
Wy om
ra k
Ġth r
ĠV in
Ġc ra
03 30
ass a
Î Ķ
ĠM ah
Øµ ÙĦ
Ġc ry
- *
ĠT UR
at um
ä »
L es
Ġïģ Ŀ
ĠD im
19 52
19 15
Ġ0 21
Ġre a
Ġv or
nc ia
ĠR is
are t
b res
V Q
R G
Z I
oll s
( .
ĠN ig
* ),
ĠAC I
P rec
ĠZ n
Ġ0 73
Ġin a
on ge
00 48
m agn
8 221
ĠAS H
i enc
Ġ0 13
10 29
ed it
ĠL OW
y w
j pg
CH ES
AS ON
MAR K
19 53
âĢ¢ .
K M
10 28
ĠD ET
EN SA
G TT
e q
13 20
ĠP W
f ron
ru es
N EC
Ġd um
C ot
G TR
lt on
" ]
31 00
ĠO bs
ĠM AL
Ġhe m
ug es
ĠS TI
Ġi ve
ĠC au
an ic
00 54
ur ia
ĠS EM
n ish
110 6
G ulf
ĠA BC
B EN
oh l
12 03
ts v
Ġno v
ĠF TE
it he
Ø± Ø³
Ġdo i
'' ;
Y G
ST ER
op ro
og o
AY S
ĠR L
ĠA ld
z h
or iz
01 07
ĠA H
J UL
Ġad m
t b
ĠM EE
ĠA CO
l O
ĠP AN
TI ME
ah r
iti m
ron y
A ven
pt ly
-[ (
AR KS
Ø± Ùī
110 4
ĠL AS
od ec
01 04
Ġ ial
Ġl ly
c and
su le
Ġd an
19 38
00 75
Y M
10 66
11 14
11 49
ĠJ ar
alf a
id i
yl in
Ø¨ Øª
om p
Ã į
10 27
P SE
as m
h und
AM QQ
L ab
Ġon d
FO IA
ĠL AA
TH LY
D X
am ma
Ġ' "
10 24
ĠJ US
D iv
at z
Ġ($ )
Ġsp i
b ore
k h
UND A
Ġun o
s av
17 50
O rig
ap a
ĠAm p
EM E
T ot
27 12
et z
IN ST
ur as
y ure
Ã ŀ
ĠA ck
ĠC ow
ĠU B
ear c
327 2
g ot
TS B
cl er
c ock
P b
18 20
sh a
T own
M OR
H TML
M and
Ġm ad
! .
b ach
01 08
O ak
ĠJ ur
v ine
ĠD al
oh n
OR GE
E lec
v end
V ic
amb i
i ety
PS D
290 5
ĠK ol
$$ $$
UT F
P rac
pt or
ĠS ab
ED I
_ &
not a
ĠG ov
At l
Ġ: :
iet n
K T
05 30
in os
im at
ne z
ÙĪ Ùĩ
Ġw y
J our
ul o
M el
M ul
Ġ0 17
Ùĥ Ø§
â İ
se re
e ive
19 33
W rit
sk in
AM C
in as
] &
b ace
ĠM un
ĠV S
Ġ ",
ĠK re
net t
Ġst y
). **
ÙĬ Ø®
D IME
Ġ0 31
22 50
min d
ĠF it
ĠI AS
Ġk i
ĠH em
J o
ild s
av ia
ĠÃ ¦
ĠS SC
th i
ĠH AS
b ab
. Â·
oy er
Ġn au
f ab
^ -
ar ic
ĠH OL
es y
ont a
S ea
ens a
k ows
ĠS IL
CO A
rit t
H en
Ġ" (
D om
Ġin e
K en
N PS
Ï ĥ
mon y
per m
EC TS
Ġ à
ion a
ar in
ĠII U
u M
% $
is op
RO W
20 50
Ġan a
iti v
fl at
C ri
13 12
I ER
ang l
# &
10 96
ung i
Ġm b
Õ Ĭ
G HG
ĠUn d
Ġ0 39
la z
al b
T Z
ir l
25 01
Ġn n
13 23
ĠOR D
ĠAT F
Ġsu e
Ġ' '
S av
RE A
ĠL EE
] âĢĶ
h alt
H ig
ĠR OG
G AC
ĠDR V
ĠS ie
O LE
ĠC d
ure l
rm oc
la ct
- ~
12 21
wa it
G erm
T ons
an us
TH YL
b ag
C our
AND S
ĠJ en
iss a
Ġd ir
ĠB ET
ĠP il
ie j
D EM
un ct
r ank
es i
J ust
C as
) --
12 36
p ng
Ġt ic
se q
ig s
CR IB
ary n
Ġor d
W IN
13 16
ix es
aj a
ĠØ ¦
F ar
Ġd l
D ept
ĠL ak
D s
**( *
M i
å ı
19 08
R ay
ÙĨ Ø³
00 41
am as
AR CH
F EMA
Em ph
MP LA
( %)
ĠJ TD
eip t
Ùģ Ø§
Ï Ħ
cd n
A re
K C
Ġne o
J l
ff s
to ok
âĹ ĭ
p al
sur g
ox yp
99 30
Z X
19 01
ĠF ul
** &
l itt
cer y
Ñ Į
ĠD AM
ÙĪ Øª
zo el
le es
Ġon w
ĠA y
ot ts
ri va
F lu
f ere
H un
F ut
re pt
M CR
E c
ĠW ag
p ark
el as
F oot
S EP
ĠI CP
Ùģ Ø©
TO X
pl ot
VY T
Ċ ĉĉĉ
ĠJ A
res a
20 60
Sc en
19 14
Ġ% .
Ġn h
ĠF al
Ġh rs
Ġ0 27
B ON
M ur
od at
IN ED
R ON
Ø£ ÙĬ
Ġc z
a que
vi um
POS I
Ġh p
ĠR V
10 55
sc en
v ec
Ġc f
!( !(
I H
CON S
T ake
p il
ĠI PM
B re
ĠP IP
yg on
I LE
ĠĠĊ Ġ
ro ge
19 42
ane y
01 02
wh y
ew ay
Ġl ib
< ?
B H
ĠP SI
P or
Ġto u
Cl im
Ġa ti
Ġ_ .
) ].
FI ED
am er
Ġt at
c p
H ON
E IGN
ĠO mn
m ens
ep ro
ze z
St or
l ack
ĠA UD
Ġx x
101 1
B ost
19 29
io ac
h arm
Cl in
); "
9 944
36 36
Ë Ĩ
sp ar
53 12
s old
J W
Î ¹
e uro
CH EM
m ier
S ix
ĠN B
08 30
d il
An ti
+ #
FA X
U pd
ĠL if
Ðµ Ð½
D im
log o
w el
fer c
p ump
Up b
S EM
10 56
ĠĠĠ č
ĠCO P
ou p
ĠP AS
Y EAR
s an
in en
ĠL af
un iv
UT ES
. âĢĵ
at r
pp e
G al
E IV
^ &
Q Y
Ġch i
ĠS aw
l m
ĠCV J
% `
T yp
IP P
Ùħ ÙĦ
y vin
NM FS
âĢ ĸ
t et
ĠAF B
.. .,
33 76
04 30
Ġes p
Ġ0 18
ĠE ug
Ġno x
Ġk s
i y
24 01
t m
11 15
} }
, \
ib a
F er
di og
H AN
ast y
ĠA CE
bl ue
ĠN AD
sk y
Att n
Qu an
ĠS ON
z el
Î ¸
t ren
S UR
U O
| --|
Ġa a
ĠSE E
ly m
AP S
06 30
5 455
317 8
pp l
Ùĩ Ø±
S ITE
ĠL ex
10 43
ent o
n eal
t og
ĠF IP
d L
T a
c ov
ĠM UL
ÙĦØ ¶
: /
ĠD UR
ĠO tt
on f
> ]
j oin
na ph
ĠT it
Ġz ip
UL AT
S ER
l by
ĠV HF
ik es
y en
S tra
ĠL IS
J B
J ose
Y A
J UN
ĠC IS
ĠCT G
Ä Ļ
ul g
70 72
Ġu pr
ork p
0 230
15 37
ĠC PA
AC CO
OW N
Å ¶
ĠF ay
y et
ER EN
P i
W at
ĠK EY
2 230
t ask
om ac
ĠB OR
X V
12 95
ees e
AN ES
P ul
ĠÏ Ĩ
met r
B IN
B ELL
C EN
ĠC el
ĠO V
IL S
ĠR on
ĠJ am
ĠT u
c im
ïģ ½
) |
ĠS IG
PA CT
R SP
Ä Ĥ
ĠF MC
ra f
Ġ00 8
Ã Ķ
ĠV L
ĠI HS
Ø³ Ø¥
P TO
ge ar
tt a
z ine
D Q
Ø§Ø ´
ĠS at
Ġl O
12 40
! '
ox az
ĠÎ »
Æ ļ
ad ic
ĠR UN
P it
Ā Ā
te le
Ġo i
a ph
t os
s alt
EC O
ĠM d
cal a
PR ES
OL ES
13 04
33 00
160 5
/" ]
12 31
Õ ĭ
ĠM H
ri pt
ĠM SC
17 97
p ill
. âĢı
g c
Ã ¬
ĠF ER
ĠD IP
ĠP ag
ĠE H
Ġc s
od ib
ot od
ĠA ra
ma ha
Ġr g
ti k
ĠÃ į
l end
ĠH AZ
J OR
Î ½
ĠTR I
Ġre w
Ø± Ùħ
Wh y
ĠAR M
ĠK an
Ġbe i
ĠAv g
g ep
he ne
ĠÏ ĥ
ro ot
v it
ĠJ OS
F rid
æ ľ
ĠPO T
N Q
ĠUS D
p as
v ul
en as
D ies
12 05
p ile
Ġl an
w ast
ti ti
L AR
ET T
ĠF AM
ĠC FP
b ad
W HO
PR IA
Ġes e
Ġsu a
AS ES
BO E
# ,#
15 35
ĠIN G
t ota
an wh
ĠC ry
15 20
ĠA ux
G CT
ĠB D
j grp
ĠÐ ²
c ott
ĠY O
c orn
ol ec
ĠAG L
Ø¨ Ø¹
ĠâĪ ĳ
A via
ĠE IN
ic op
19 10
ĠA Y
G row
V G
Ġj am
10 23
et le
ĠD TC
PO T
18 04
ĠL an
* .&#
Ġ. _
~ '
id an
ok a
Ġ0 23
anc a
19 43
ĠER V
35 00
ĠR ut
ĠE CA
en i
ar f
ex ec
ĠM F
00 70
OP ER
n ick
16 01
| /
00 53
34 28
gh s
ĠE it
es v
C irc
m idd
K B
Ñ Ħ
:// /
Ġon l
ct l
Ġm aj
EX PL
K INS
ĠE IB
y on
J F
Ġ0 24
Ø± Ùĩ
Ä ħ
Ġl ug
Ġs ic
ost o
12 25
Ġs iz
ard w
ĠE CC
ce ae
ĠT s
18 18
ĠNA V
ĠP OW
D N
on as
W TH
13 15
an os
ong s
O IG
le l
00 63
Ø± Ø¯
ĠS id
ĠL ub
Ļ ¦
ĠCh i
ĠA UG
M ond
100 6
w il
âĢĶ ,
e qui
] (
ur ic
ĠV o
ara h
C rit
y el
37 77
D LE
T ANA
w ich
PO UL
AN SI
ack w
ug et
h in
Ġ($ /
15 11
ĠP FC
T ues
XX XX
* [
: #
ik i
N ONE
ĠA MM
c od
ĠST P
ate l
rm om
TS S
AC S
SA s
20 40
Ĥ ¬
di ox
w id
ĠG ED
ĠL H
AM I
v oid
CH ER
ĠSh o
ati e
ĠR Y
16 96
Ġs au
Un kn
M us
k r
ĠK om
ur us
R are
ang s
Ġo mb
ĠU F
Ġm t
Y ea
na h
J G
to k
C ard
Ġt ec
31 10
ĠM SP
03 22
01 19
ow dy
89 25
M CA
ĠTO X
SE A
11 19
ta i
ĠR PS
t um
Ġ0 51
ĠF ra
M EN
s ay
âĢľ [
ers U
} -
Ã Ģ
IF T
ĠK ir
ĠN ac
ĊĊ č
AS TM
Ġg im
2 130
IL A
15 99
de ad
et us
Ġd ys
w eg
01 16
ug a
T OP
) _
ss on
32 12
ĠC ul
ĠT RO
Ġbl o
ĠS TS
Ġn ac
ph c
O MA
Øª ØŃ
fr m
S ex
C ELL
ĠM U
Ġn od
IO US
lor a
p it
ĠR oc
r v
Ġ0 19
b eef
g ain
ier a
P ONS
Q N
17 73
Ġ0 22
ĠG H
301 9
D all
12 56
ĠO UR
od ic
01 05
F ly
^ .
gen y
ĠB ak
ĠAg u
Ġp he
no aa
ĠI o
y uns
17 25
A lex
Øª ÙĬ
ca us
T ank
ĠTH O
ĠT y
M ach
ac u
ĠR ul
Lo an
m Con
a ven
I U
28 96
Wh it
Ġ( %
F ees
tin s
S AM
01 88
Ġ0 65
ĠR y
ĠT ah
ear l
ĠV e
Ġ# (#
C URR
Q uar
15 26
ĠTH C
ad ru
FL U
Ġa ch
art a
áº ¿
F t
der p
l age
ĠP SE
ĠK ur
h ide
": {"
IS CO
M ACT
ĠE LL
N U
Ġk Hz
K V
MP LI
101 2
01 25
Ġpr z
H old
ec on
Ad m
j j
os ti
Ġf en
ucc a
er in
S CO
ri ot
11 45
M ent
BUR G
EL A
WA II
- :
15 21
pe ak
00 49
27 27
ĠH OW
ĠG un
R IC
ter i
ÙĪ Ø¹
Do D
ĠM Pa
ĠÎ ³
ĠK az
ol an
Ñ ĩ
39 00
P UR
Øµ ØŃ
Ġn em
we bs
OC s
M OND
gl ut
l ang
07 30
ĠT T
o ac
Ġa il
ĠD AS
Ġ, ,
Å Ŀ
ES I
44 00
pp b
ĠW ES
ph yl
ĠM ik
Z ONE
ĠX V
Ġow l
IG NA
ul er
+ /
01 22
10 65
u u
R oy
Ġ0 26
ÑĢ Ð°
% "><
ĠA IM
on am
DE A
OS P
01 14
ĠAM R
is se
ĠAl k
ĠO g
ĠE CL
G er
EO US
19 22
h att
e res
ĠT L
oc om
Ġl oy
101 9
st et
Ġ0 16
enn y
R EN
ord o
ĠB ac
do e
ĠS PA
ex a
ĠM eg
23 24
m ac
ĠR ab
N BS
ĠL Y
19 05
09 30
c ine
ĠM IT
Ġ0 97
Ġu st
not s
). )
D IF
m ag
ĠS AP
13 50
r anc
Ar r
Ø¯ Ø§
" &
14 04
x on
Ġ0 37
B en
P ont
A bs
P rel
Ùĥ ÙĦ
re ar
Ĥ ¨
ĠK IL
Un if
he pt
ÙĬ ÙĤ
ĠD W
D kt
+ )
ĠF c
z d
ne k
Ġc ui
R ING
Ġ é
Ġj aw
36 00
ist o
ep am
K ANS
ÙĪ Ø¨
on en
ĠG Wh
old t
AD S
ec ue
28 00
i ant
in fl
W all
ĠÃ ¡
Ã± o
ĠJ ER
P rom
Ġs li
Î »
ĠO ph
L ew
- )
ĠJ ay
00 67
W X
ti za
mun o
ĠM CL
ĠK am
Ġ0 83
ĠD aw
P an
Ġm ai
s ti
EX P
ĠJ ew
ĠG N
ĠAR C
ĠH yp
ph p
ĠF W
U Y
S CC
A p
N it
oy le
10 57
ak o
ew a
S her
ĠGe o
he ll
ĠL ac
b aj
n ist
# $
E ur
M ONT
110 5
B enz
ĠC s
n der
ĠT SF
15 06
10 35
ĠA uc
st ay
ĠW HE
b ig
g rou
Ġ0 35
b ee
E TI
SH IP
11 16
ĠA AC
ord a
ĠN DA
D K
[ "
Ã ĺ
ĠE ve
20 28
ĠAR S
15 14
F CC
Ġv ed
ĠQ J
h man
ie v
ĠA CR
ep id
ĠO CT
ĠL em
Ġj ed
18 90
ĠA ub
19 19
d ro
lo at
Ġu e
APH Y
, )
ID ES
ĠA TE
ign i
L ee
ne v
ten u
? .
ĠR ib
TR I
U DE
pet r
ies U
34 95
ĠAr k
12 17
ĠF FD
AT CH
bo at
ot to
ĠV R
ĠS PS
el aw
G RE
G Wh
x ii
ĠO ND
17 11
ĠV HA
ĠT ap
ri os
ĠBL S
ĠD ic
C and
ĊĊ ĉ
ĠI H
Ġ Å
PH Y
Ġa j
ES P
Øµ Ø±
ĠB yr
T om
ĠH il
11 75
Ġv at
= -
37 01
âĢĻ :
ĠP od
ess o
00 59
Ch an
tw it
K P
ĠI CC
ĠP TC
10 92
Ġc is
160 4
ĠR FS
M ID
Ġg n
e igh
01 26
V ING
RO P
Q O
ĠK N
M AP
m ega
ild f
Ġu c
up d
@@ @?
33 35
UR S
AC O
x ies
ĠR IV
ĠG es
15 70
k ish
ĠØ ¸
ĠOr d
Ġb DD
ĠY ak
Ġa ve
ug os
ĠC RE
ĠR FA
ĠM IR
ĠG SE
Ġ% )
ĠD VD
% "
ĠI CD
I tal
P RA
ĠA SP
R ace
Ùħ Ùĩ
ÙĬ Ùģ
\ .
ag i
)= >
N PO
ĠB OP
AR B
01 50
pro v
$ !
ti vi
an il
il iz
B J
p rel
ĠAD V
il st
ign e
ĠâĢ °
ma f
ex us
H ot
F a
I PA
Ġph c
uch y
N SI
11 17
ER IC
TS F
M agn
ch y
C ell
\"> \
Î ³
? **
23 40
d win
' (
K ES
os in
ef s
? ,
ã ģ
ie u
es se
28 60
ĠA GE
fl ag
n ak
Ġ, .
ĠF le
ĠF EE
Ġ0 71
MR ID
Ġg ut
is ti
L G
.. &
00 32
12 15
ĠP U
ĠP PL
Ġv id
TH S
UN TS
J N
ĠH RS
% *
MP ON
h app
D ri
uc i
B ea
ĠA us
G ly
mil k
qu a
220 9
b ted
y am
ĠP CC
J UD
T EM
P ati
ĠO X
ĠRE F
ĠC oc
Ġo th
Ġf ry
ĠR US
ĠP os
ĠA NO
ĠO A
Ġa es
"? >
oll o
ort f
W ECC
l ift
: âĢı
p un
on it
ar ca
00 88
P ast
ĠF if
D ura
R OR
ÙĪ Ø²
y la
S hip
23 27
19 31
Ġp au
22 01
ĠS SM
ef ul
und o
Â° ,
c ope
p f
Ġd Ã©
ĠA GA
ĠP LC
' !
Ġpl c
OD S
12 93
ĠF us
M ari
ĠM az
ĠO BD
ĠW TC
ĠT oy
00 90
Ġc in
00 68
ĠZ o
` %
Ġun t
19 13
B IL
yl er
ĠB PA
M ic
13 09
GO V
Ã Į
Øª Ø¹
Ï Ģ
K EN
/ ).
B ran
30 55
ÙĤ Ùĩ
s v
F eed
g el
g ia
19 28
TR UM
.. -
O pp
P red
ĠC IF
ĠC CT
Ùħ ÙĬ
ĠN ut
ĠB W
OS HA
A sp
C ut
ti z
UG I
ĠSt d
] =
T w
he v
), (
34 01
G REG
at y
TI GA
j en
L J
S ac
ĠD ON
ST AR
K IND
ĠCh a
E u
Ġ0 64
20 54
ïģ ¬
G Y
22 13
ĠO TA
ĠC ov
d B
ĠH ed
10 44
10 54
ĠW P
Ġor t
12 28
, _
ĠE ss
r k
P es
S ame
L IST
: </
* !
em na
A gg
00 73
rec y
E th
LA KE
Ġt n
Ø± Ø£
d ent
ĠC em
s ate
W IDE
ĠK E
18 02
Ġk Wh
E gg
Ø¬ Ø¯
] </
00 86
B on
ve e
M UN
Ġv ib
âĢ ŀ
c ers
t j
Ġ0 41
16 67
S ect
N ED
F X
Ġ0 29
i og
ĠG LO
F ab
00 76
EC s
Â° .
Ùİ Ùİ
D iss
13 05
i per
T K
ĠA PA
@@ ?
g ag
N avy
os ci
M CC
** );
% /
ĠB F
eg al
C ool
q s
12 45
12 07
S OC
Î º
Ġx t
ĠO sw
ĠG AL
19 07
98 76
Ġr k
D id
R igh
ĠM V
. +
ĠP SC
n ine
10 47
@ #
\ ",
w d
æ Ī
11 54
x iii
Gu ar
tis m
ank r
14 52
ĠS SN
M Z
13 13
ĠS US
aut o
12 18
Ġel k
or id
I g
01 46
?? ?
W IL
16 40
al ph
OD I
WE EN
f av
** &#
e av
ĠL OS
b ol
ĠD ER
L W
p oor
06 25
Ġe ld
ere y
k it
ĠS RS
290 6
Ø® Øª
ĠAT P
Ġ! (
ĠM EP
abl o
, ~
V erm
Ġ0 88
h ost
red e
AM ID
ĠÃ ¢
ĠH EA
Ġ) )
ĠD ed
M K
A vg
Y ER
OP IN
N AT
ĠP GI
01 62
ĠD in
ĠH OR
ure a
^^ ^
NO W
ĠE MS
Ø¬ Ùĩ
ØŃ Øª
ĠL OG
U W
h yp
12 74
ĠO TS
AB B
TH IS
air b
D H
u y
ĠS V
ĠG F
ĠP CS
ĠH DD
V ote
NO V
h of
z he
r H
Ġw ed
UC K
ĠA i
PL AN
ge e
ip it
ope z
Y H
ĠB G
W An
ĠIR B
Ġl is
23 50
Ø± Øª
14 55
GR J
i est
s ipa
15 50
re te
96 43
ol la
Equ a
Ġod d
pol y
Ġ$ -
ew p
ÙĪ Ø¶
ĠV C
ER VE
101 8
T rim
ĠFR M
Ġ. )
de le
ov i
ĠJ J
Ġk t
01 18
12 79
00 74
** :
OUR S
w ife
PH O
at ar
ĠBu y
Ġl uc
15 86
ĠC SI
12 55
Ġro z
Ġ0 77
Ġsk i
iel s
IG AN
ĠT IP
18 50
ver r
lo op
ĠM au
ÃŃ s
PAR A
sur f
C ler
in ia
Ġe u
O ECD
01 29
of ol
ĠZ Z
op or
Ø³ Ø§
ĠO E
04 95
13 11
CH S
c ite
ENT H
C ycl
82 20
can o
ĠP f
re x
ĠP on
th us
ĠH B
OR P
Ġ* (
ap le
B io
S eg
ĠS ul
C TS
Cl ay
10 36
ĠÃ Ī
Y O
Ġâ Ĺ
p ren
T AM
ĠL EX
l op
AL TY
( [
v r
Ġ! !
m ere
ĠF ix
ĠâĪ ļ
ĠF an
ced e
Ġ0 79
ĠIS R
âī ¥
Ġof t
c ox
Ġi le
Ġde x
Ø¹ Ùĩ
DE Q
22 44
101 3
b act
13 03
ĠD SI
t olu
ĠG ap
ĠQ a
m j
ĠL ip
ar ce
ĠAT M
riz z
ri ev
D ie
g z
Ġe ac
ïĢ ģ
u as
ĠB H
TI NE
ĠN FS
orm a
uk on
d ies
d an
s S
ĠIn n
ĠST D
45 00
C AT
en um
X J
ĠAb d
CO T
al en
ĠEn t
Ġ" $
ers E
mal a
Z H
F Q
Ø Ł
Ġ0 55
z za
mem b
L ARA
a per
f n
as se
PE G
çĶ µ
ĠD IA
P W
ab en
ect o
B ou
b ts
TO WN
un re
Ġi h
Ġd ib
Ġ0 53
NS F
C d
T EN
ĠH ED
10 41
Ġo ce
ĠL ut
Ã ¢
Ġsp o
Æ° á»
Ġa pr
Ġsk y
Ġx ml
ĠS PE
( âĢľ
Ġf od
10 48
( !
en na
G CA
T ube
m ica
Ġa se
13 29
HO UT
el i
b ru
pl is
ĠA h
ĠP BS
ĠW T
13 64
16 18
equ a
st ad
25 99
ĠT ib
LE V
03 29
ĠN ik
en ia
Ġun i
En h
101 7
ĠE CO
che t
B arb
ĠMO U
15 18
d if
M it
h oe
00 94
at ta
S uff
R W
Ġd v
Ġ0 54
tt n
ÙĬ Ø¡
12 65
19 27
ĠC RC
ĠD ew
do j
50 26
v u
ĠI SC
ot ol
sec s
ES H
is le
EA K
red o
ĠP EP
ĠW AY
01 15
00 80
der c
se il
t ube
k ens
ĠB T
33 45
PO ST
Ġn ou
ip h
L K
01 20
ro ec
om i
ĠFR E
ing U
14 37
ĠL NB
14 75
R ank
min y
E US
t ac
01 34
b abb
Ġsu p
Ġ0 59
re im
EN RY
B RA
ĠP ie
PU FF
10 58
k ept
19 26
t ru
( âķĲ
O AS
Ġ( ``
l ord
ead s
al um
ĠG EO
ic us
ol ym
Ġs oy
og an
l ac
os pa
EC IF
s ac
~ :
PD O
19 16
Ġ0 38
ua z
å Ī
19 18
Ġe k
NA J
oo o
ĠP WR
ĠF u
Ð¾Ð ²
o C
at th
a ids
OC S
C amb
z eg
ÙĤ ÙĦ
ĠW o
cl o
27 14
Ġul d
Ġ0 36
ti ed
C od
C ult
Ġb oy
VL AP
b ark
ĠJ EW
I W
e j
Z n
g m
ine y
R AP
L OCA
N AC
_ |
or is
E K
c id
Re pl
- **
âĢĶ *
p ap
ĠC MP
15 04
ELL Y
f ing
c ms
b d
Ġ0 43
ĠÏ ģ
C US
F all
ĠH OM
H i
ĠD T
ĠR N
ĠE W
? :
us z
19 32
Ġ0 86
cc i
ĠÐ ¸
è ¡
A FS
ĠH ab
Ġ0 68
ĠR ee
ĠP OS
Ø¯ Ùĩ
d le
ah u
ĠÃ £
ĠG D
V it
Z K
] /
ĠN CA
ĠPM N
J DP
11 37
15 15
` *
bet a
ie i
ĠÎ¼ L
X P
G SA
, :
Ġ0 67
p ts
= +
a fe
J ACK
ĠS AT
11 77
al ic
oc ul
Ġr hy
14 01
ne it
g rat
Ġn ep
ĠH U
12 68
Ġav g
l ip
A la
B ell
Ke ep
Ġc d
U AV
m r
11 51
ĠT ul
IF O
Ġ0 49
ĠP am
Ġre q
ĠL N
Ø¯ Ø±
ĠO EM
c fr
ĠL ud
Ġal c
49 00
b ot
Ġf og
ip m
ĠGu y
G et
w ra
Sk ip
ir i
ec o
ĠK i
ĠC EA
al m
der a
ĠÏ Ģ
1 120
Ġ0 34
isk y
12 99
26 17
ĠC NG
I ron
el en
ĠR WY
ale z
am us
B rid
D OJ
11 18
Ġ0 76
ag or
ver a
L uc
_ \`
F ac
y ah
/ ^
th o
S BA
tr ig
Ġ0 57
13 10
16 58
t ens
14 17
ud io
V IA
W ide
29 13
c fs
CO s
112 9
ĠD ir
Ġ0 45
ĠT ug
her t
E H
Ġ0 69
ĠB RE
ĠĊ ĠĠ
ĠL AT
ĠW er
AM M
vo ir
14 23
" @
EM ES
Æ Į
bel t
ONE Y
ĠL un
HR I
ĠP GS
pe ia
TA H
ĠD J
ite h
19 21
' *
h h
ÙĪ Ùģ
Ġ' .
il o
18 06
Ġd uc
SS I
di um
Z T
S it
ĠI DA
hr s
01 27
Å ¾
ÙĪ Ùī
Ġu pp
ĠF AB
LL EC
BL S
F lex
H all
AP OL
c av
13 06
pro d
% **
17 05
ĠSE F
PG I
og g
che z
{ }.
p ush
Ø Ľ
12 44
g ap
24 39
ĠC RS
ĠL TE
Y el
p ock
00 84
d yn
u ay
S edi
p ion
ĠM EX
Ġ ire
/ ,
ĠGU I
ĠX L
w ort
E sc
K a
A qu
.. ,
W ES
/ _
Ġ0 89
S em
13 14
w or
.. _
ad ia
Ġg ov
Ġ0 47
ĠC CH
ĠR AC
ad ly
C NS
F ESS
er d
ct al
TER M
sp ro
15 01
Ù Į
ab we
12 09
12 27
Ġto e
00 85
). (
am ar
â ĺ
ore m
che e
ĠS ay
Ġâ ĺ
M t
que z
ĠW WW
317 3
T ob
12 08
ĠG ay
10 32
d v
3 201
ĠA IF
ĠÃ ħ
F ill
ues e
ĠF ou
IN TS
05 44
ou ds
Ġt el
l ens
at b
ti p
ank a
B RO
30 67
01 35
19 17
112 2
" }
b old
m ale
g ren
Ġ0 95
ĠG UE
AP PE
og ly
Ġar d
. ^
ĠP IL
Ġpe o
T es
X l
ose x
L l
TT T
ij i
H art
S eat
Ġd c
ĠP EC
pan i
ĠOH V
Ġp om
12 02
11 39
A IM
CC P
B ern
ĠZ e
ĠDC N
ĠĠ čĊ
ĠP HO
22 88
IP O
CP O
bus h
D ON
ĠÃ ĥ
D ise
J ean
me a
ĠC ec
ĠA ro
ag ul
N AN
al te
st ri
>< \/
00 95
C ast
s d
Ùħ Ø´
ĠC ED
Ùħ Øª
T TE
F is
Y C
Ð ¿
ing a
98 70
v l
ot in
ch l
D J
ĠI on
13 88
le w
00 96
ise b
32 11
300 1
er ra
Ġs v
it te
ĠC IO
au k
) ..
h ab
IC T
Ø§ Ø³
M u
RO LL
Ġ0 99
ĠM AS
el se
N MR
20 37
Ġk om
X M
P MA
10 34
az on
od el
d ol
er ks
Ġo va
C ore
J e
FL OW
13 35
enc i
, $
3 266
E t
ĠES F
25 02
b ons
Ġ0 84
ĠN PL
h oun
Ġr Ã©
P y
ĠO pt
n rc
MA IL
ĠAb u
Ġw ol
S uc
ĠC EN
Ġ. :
24 36
DA Q
le z
ĠS ES
L inc
Ġy a
ĠSO U
ĠH TT
i age
ĠA FS
ac in
se ar
ĠD as
ĠPC M
ith i
Air w
RE P
'' )
)) ))
OP EN
ĠÐ ½
Pro g
ĠTR T
EL Y
GG T
160 6
99 20
ĠP g
F UND
Ġn ue
; <
O Ac
S r
16 61
ĠP CA
? _
ĠK ay
P as
10 64
ĠI CA
Ùĩ Ø¯
v our
an an
Ġis o
OP R
ĠL or
++ ++
Ġl ys
Ġïģ ¯
t as
Ġ0 32
ĠN ap
ĠSH O
AP CD
x es
x l
11 44
Ġit e
T ES
k le
ĠDC M
az a
01 56
s ort
ĠA IG
20 26
11 57
NR EL
'' ,
yl s
in ac
24 02
11 76
N EPA
ou g
ĠL CD
ĠS UN
âĢ ¡
em o
00 42
Ġv om
% !
b ay
w k
get t
- /
ĠD og
Ġ Ñģ
ad ec
ĠO AS
Z G
u art
ner y
are k
V F
12 88
AL EX
ĠP N
ĠI SP
m eal
ĠH MO
rou g
Ġg um
ĠT EN
ĠM EN
C ita
ĠU IF
X W
Ġ0 78
Ġh ac
ĠF ru
Ġv in
C it
is ol
n ap
N K
21 01
ĠE ro
ask i
s ip
B DA
ĠC ay
20 31
ER O
q q
ip b
ĠJ oy
rom b
15 76
L as
Ġ( &
I AR
Ġer y
Ġ0 61
UM IN
IF OS
li j
l us
01 44
E AL
V ern
or ah
ĠE RC
112 3
to ol
pre f
m om
ĠF B
min s
al c
ĠK h
ĠP II
St k
yst y
Ġf ou
Ġ0 42
Ġb ak
I Q
03 10
20 39
29 01
07 01
ver d
w elf
] ,&#
Ġg ht
ib ou
l iti
F urn
l ib
Ġs ia
Ġc ub
Ð ·
ĠS IN
^ ,
TH EN
Ø« ÙĦ
QU ID
Â ¡
S alt
b low
tr as
Ø¶ ÙĬ
Ġ0 44
ĠS MP
' ).
D PC
... ]
. <
S ens
B ed
CC T
ĠC ed
G all
pl ar
m uta
Ġz z
ork g
ĠO st
Ġ0 93
ace a
55 00
ĠN PR
16 20
19 24
' >
A TI
Ġ0 74
F ace
ĠG G
ĠT SP
13 47
ĠA CA
ase y
v n
LA F
T ay
.** ;
01 99
ĠD y
Ġï Ļ
N SPS
Ï Ĥ
18 75
ze k
R aw
Ø¬ Ø¨
P ara
X R
ann i
G ED
. $
ĠH RI
J i
ĠIM F
f b
ĠK on
ĠU G
D eg
s b
un sw
B ark
Ø¬ Ø±
. ?
f la
ĠR ol
16 11
iz i
ĠC PP
! ,
LE E
20 42
M ak
j l
ĠP VC
PA A
ar ns
ad ig
13 78
' ~
R and
ALL S
ĠG ir
d og
ch am
12 89
oly b
ĠI BM
yl en
ĠIs d
p ick
12 16
PS I
R oll
DR EN
B ANK
OL S
TE A
RE W
ce m
C ook
am ie
ro cy
Jud g
S ett
ph ic
ĠZ im
f enc
ĠAN C
E ar
Ã ģ
ct r
O i
aa aa
C re
und y
ĠED F
pa i
å ľ
112 5
T J
ĠAC K
l ain
j er
ak th
Ùħ Ø¯
ĠN AC
ĠR TR
ĠC av
f on
bt n
j on
A ck
Ġ0 87
ĠI Q
St op
T urn
L AC
P ent
Ġ0 75
18 91
16 17
20 59
Ġv y
ĠH wy
ack l
Å ¼
00 83
r ar
ran z
J EFF
ĠU g
e ous
wh om
Ġâ ľ
u je
A id
Sub s
E J
it ax
d ip
ĠE PC
ĠW IC
.'' .
FO A
sc an
ÙĤ Ø·
LE AR
Ġqu o
min i
Ġb if
ĠDO B
B raz
F IP
14 93
ri or
10 53
OR M
ĠE HR
id iz
ĠG el
ĠW M
; ),
Ġl or
ĠE is
17 48
ĠI CS
ĠH UB
N ODE
ĠAl g
" `
30 68
317 5
A u
o ons
ri ka
BT U
sh i
p c
ĠC IT
71 10
ĠCD R
ĠR oh
IC s
' \
I AC
f es
W eek
12 98
n ula
mat o
CH E
322 9
Ġu a
18 81
77 77
Ch am
ĠL V
@ ,
+ $
OP YR
ad ro
10 38
Ġ ==
Ġo pe
ik en
ĠG h
-- >
ĠB eg
ang o
Ø£ Ùħ
ere o
Ø¨ ØŃ
H ED
NA V
ĠÎ¼ M
ĠS ny
n app
ĠS ed
23 82
ĠïĢ ģ
)) )
ĠDO I
Ġg eb
ĠFR L
ba um
ĠSt r
FF IC
12 37
V a
66 67
uc at
C f
J ac
^ /
Ø« Ø±
EL ER
ĠR U
10 33
Ġs ap
01 45
IV AN
AN DA
ĠR id
W r
rid s
ĠNC I
ip ed
UB A
A z
OR NE
ĠM EL
IM O
ĠC n
26 57
ec d
ND IC
ch b
11 86
ad ap
AD EL
ĠE SC
ĠO c
34 00
I TIC
T or
on ne
P end
â ľ
X Q
14 02
Ġc k
Ġ. ]
n k
Ġv oy
? \
( %
co pl
U sed
CD F
v ill
ĠU d
ure U
F AM
ĠXX I
N ay
ĠA NA
ĠM ln
Ro of
ĠSA E
Ġde w
13 22
( '-
æ ĸ
ĠEx h
s ym
l te
N AM
ĠN U
12 52
17 03
18 35
ĠMc L
Ġ0 91
18 13
co a
ĠC AB
^ '
A ce
orn s
am on
Le an
ĠB SA
ĠAD C
â ĨĴ
ME F
M ode
ÑĤ Ðµ
M HT
ag na
are z
S J
Ġth u
IS M
di os
ah y
ĠF IB
r ul
Ġp is
ch iv
P K
à ¸
Ġh n
ch in
13 33
X O
h ler
Õ Ħ
V AT
ob l
st in
[ =
ar iz
ĠT FT
19 03
14 05
ENT O
11 72
10 71
ĠB t
R iv
ĠH ob
Ġo ss
he id
j as
ĠR ah
( ){
Â· -
âī ¦
), ]
12 19
ate e
ĠK or
ĠS eb
B oe
Ġg az
âĢĺ [
F la
Ġr pm
el n
ĠBO E
p ork
es an
13 21
a ac
æ Ķ
áº £
11 55
OR AT
p n
Ã£ o
E IP
TA X
H as
Ġ0 81
[ /
e o
te am
E VP
17 14
Z Y
et on
W i
10 39
der n
ĠM DR
An th
P Q
od o
31 01
ic c
ĠL AM
R u
g ard
ĠH ir
hd ad
W as
ĠD ol
Ð ¹
he ed
x v
ĠP ig
A h
ĠD os
FE B
ar om
ec an
ĠB ON
Ã© d
15 05
à ¯
28 92
% ]
4 162
j or
16 50
ti la
ĠA ES
ĠCH P
Ġb ri
ĠE RS
l ide
z ar
~ %
80 37
çĶ ¨
Ġbi j
ĠL av
ĠB SE
ĠK R
z k
ĠV M
WL ED
TT ON
., .
t c
ĠG ob
z ia
ĠJ U
b ip
Ġt ib
ĠK ra
ĠØ Ł
Ġ0 94
ĠE ye
+ .
Ġec o
: _
K F
E AST
59 22
ch ip
bl og
Æ Ĳ
? âĢĻ
18 01
N AL
10 67
15 02
Ġ0 72
Ø± ÙĤ
iam o
Ġof w
ra ti
ĠÎ¼ l
ĠR fD
12 75
x a
12 49
p is
u an
ĠO ce
Ġ erv
lt r
O ral
M ade
ĠK as
ĠOF A
TI U
ĠT ON
ere l
Ġn ap
ĠA SE
ob ac
01 37
ar st
14 18
re ro
Â ¬
ĠR TC
ĠE VP
C opy
). *
Ġe j
Ġne i
ect e
ĠÂ ¡
t g
ĠEC U
R app
Ġin o
ĠT DD
ĠM DA
01 24
_ "
Ġa DD
al an
an ut
Ġy rs
ĠCP I
Ô ¼
ĠG WP
Ã ĸ
10 31
' ]
u ing
ĠI CT
Z J
D am
ĠB un
30 27
.) )
M ot
ĠV FR
13 38
y ll
Ġ. '
Î ·
et na
10 69
11 73
Ġw ie
b ard
Ġi x
01 54
C anc
27 11
in ol
ĠE EC
qu et
Ġbe z
ĠM ts
O TE
ĠJ M
ĠC PL
m ath
es p
s f
Ñ ħ
re h
