{
  "version": "1.0",
  "truncation": null,
  "padding": {
    "strategy": "BatchLongest",
    "direction": "Left",
    "pad_to_multiple_of": null,
    "pad_id": 2,
    "pad_type_id": 0,
    "pad_token": "<|pad|>"
  },
  "added_tokens": [
    {
      "id": 0,
      "content": "<|start|>",
      "single_word": false,
      "lstrip": false,
      "rstrip": false,
      "normalized": false,
      "special": true
    },
    {
      "id": 1,
      "content": "<|end|>",
      "single_word": false,
      "lstrip": false,
      "rstrip": false,
      "normalized": false,
      "special": true
    },
    {
      "id": 2,
      "content": "<|pad|>",
      "single_word": false,
      "lstrip": false,
      "rstrip": false,
      "normalized": false,
      "special": true
    },
    {
      "id": 3,
      "content": "<|unk|>",
      "single_word": false,
      "lstrip": false,
      "rstrip": false,
      "normalized": false,
      "special": true
    },
    {
      "id": 4,
      "content": "<|sep|>",
      "single_word": false,
      "lstrip": false,
      "rstrip": false,
      "normalized": false,
      "special": true
    },
    {
      "id": 5,
      "content": "<|cls|>",
      "single_word": false,
      "lstrip": false,
      "rstrip": false,
      "normalized": false,
      "special": true
    },
    {
      "id": 6,
      "content": "<|mask|>",
      "single_word": false,
      "lstrip": false,
      "rstrip": false,
      "normalized": false,
      "special": true
    },
    {
      "id": 7,
      "content": "<|system|>",
      "single_word": false,
      "lstrip": false,
      "rstrip": false,
      "normalized": false,
      "special": true
    },
    {
      "id": 8,
      "content": "</|system|>",
      "single_word": false,
      "lstrip": false,
      "rstrip": false,
      "normalized": false,
      "special": true
    },
    {
      "id": 9,
      "content": "<|user|>",
      "single_word": false,
      "lstrip": false,
      "rstrip": false,
      "normalized": false,
      "special": true
    },
    {
      "id": 10,
      "content": "</|user|>",
      "single_word": false,
      "lstrip": false,
      "rstrip": false,
      "normalized": false,
      "special": true
    },
    {
      "id": 11,
      "content": "<|instruction|>",
      "single_word": false,
      "lstrip": false,
      "rstrip": false,
      "normalized": false,
      "special": true
    },
    {
      "id": 12,
      "content": "</|instruction|>",
      "single_word": false,
      "lstrip": false,
      "rstrip": false,
      "normalized": false,
      "special": true
    },
    {
      "id": 16371,
      "content": "  ",
      "single_word": false,
      "lstrip": false,
      "rstrip": false,
      "normalized": true,
      "special": false
    },
    {
      "id": 16372,
      "content": "\n\n",
      "single_word": false,
      "lstrip": false,
      "rstrip": false,
      "normalized": true,
      "special": false
    },
    {
      "id": 16373,
      "content": "   ",
      "single_word": false,
      "lstrip": false,
      "rstrip": false,
      "normalized": true,
      "special": false
    },
    {
      "id": 16374,
      "content": "\n\n\n",
      "single_word": false,
      "lstrip": false,
      "rstrip": false,
      "normalized": true,
      "special": false
    },
    {
      "id": 16375,
      "content": "    ",
      "single_word": false,
      "lstrip": false,
      "rstrip": false,
      "normalized": true,
      "special": false
    },
    {
      "id": 16376,
      "content": "\n\n\n\n",
      "single_word": false,
      "lstrip": false,
      "rstrip": false,
      "normalized": true,
      "special": false
    },
    {
      "id": 16377,
      "content": "     ",
      "single_word": false,
      "lstrip": false,
      "rstrip": false,
      "normalized": true,
      "special": false
    },
    {
      "id": 16378,
      "content": "\n\n\n\n\n",
      "single_word": false,
      "lstrip": false,
      "rstrip": false,
      "normalized": true,
      "special": false
    },
    {
      "id": 16379,
      "content": "      ",
      "single_word": false,
      "lstrip": false,
      "rstrip": false,
      "normalized": true,
      "special": false
    },
    {
      "id": 16380,
      "content": "\n\n\n\n\n\n",
      "single_word": false,
      "lstrip": false,
      "rstrip": false,
      "normalized": true,
      "special": false
    },
    {
      "id": 16381,
      "content": "       ",
      "single_word": false,
      "lstrip": false,
      "rstrip": false,
      "normalized": true,
      "special": false
    },
    {
      "id": 16382,
      "content": "\n\n\n\n\n\n\n",
      "single_word": false,
      "lstrip": false,
      "rstrip": false,
      "normalized": true,
      "special": false
    },
    {
      "id": 16383,
      "content": "        ",
      "single_word": false,
      "lstrip": false,
      "rstrip": false,
      "normalized": true,
      "special": false
    }
  ],
  "normalizer": {
    "type": "Sequence",
    "normalizers": [
      {
        "type": "NFKC"
      }
    ]
  },
  "pre_tokenizer": {
    "type": "ByteLevel",
    "add_prefix_space": false,
    "trim_offsets": true,
    "use_regex": true
  },
  "post_processor": {
    "type": "ByteLevel",
    "add_prefix_space": true,
    "trim_offsets": false,
    "use_regex": true
  },
  "decoder": {
    "type": "ByteLevel",
    "add_prefix_space": true,
    "trim_offsets": true,
    "use_regex": true
  },
  "model": {
    "type": "BPE",
    "dropout": null,
    "unk_token": null,
    "continuing_subword_prefix": null,
    "end_of_word_suffix": null,
    "fuse_unk": false,
    "byte_fallback": false,
    "ignore_merges": false,
    "vocab": {
      "<|start|>": 0,
      "<|end|>": 1,
      "<|pad|>": 2,
      "<|unk|>": 3,
      "<|sep|>": 4,
      "<|cls|>": 5,
      "<|mask|>": 6,
      "<|system|>": 7,
      "</|system|>": 8,
      "<|user|>": 9,
      "</|user|>": 10,
      "<|instruction|>": 11,
      "</|instruction|>": 12,
      "\u0000": 13,
      "\u0001": 14,
      "\u0002": 15,
      "\u0003": 16,
      "\u0004": 17,
      "\u0005": 18,
      "\u0006": 19,
      "\u0007": 20,
      "\b": 21,
      "\t": 22,
      "\n": 23,
      "\u000b": 24,
      "\f": 25,
      "\r": 26,
      "\u000e": 27,
      "\u000f": 28,
      "\u0010": 29,
      "\u0011": 30,
      "\u0012": 31,
      "\u0013": 32,
      "\u0014": 33,
      "\u0015": 34,
      "\u0016": 35,
      "\u0017": 36,
      "\u0018": 37,
      "\u0019": 38,
      "\u001a": 39,
      "\u001b": 40,
      "\u001c": 41,
      "\u001d": 42,
      "\u001e": 43,
      "\u001f": 44,
      " ": 45,
      "!": 46,
      "\"": 47,
      "#": 48,
      "$": 49,
      "%": 50,
      "&": 51,
      "'": 52,
      "(": 53,
      ")": 54,
      "*": 55,
      "+": 56,
      ",": 57,
      "-": 58,
      ".": 59,
      "/": 60,
      "0": 61,
      "1": 62,
      "2": 63,
      "3": 64,
      "4": 65,
      "5": 66,
      "6": 67,
      "7": 68,
      "8": 69,
      "9": 70,
      ":": 71,
      ";": 72,
      "<": 73,
      "=": 74,
      ">": 75,
      "?": 76,
      "@": 77,
      "A": 78,
      "B": 79,
      "C": 80,
      "D": 81,
      "E": 82,
      "F": 83,
      "G": 84,
      "H": 85,
      "I": 86,
      "J": 87,
      "K": 88,
      "L": 89,
      "M": 90,
      "N": 91,
      "O": 92,
      "P": 93,
      "Q": 94,
      "R": 95,
      "S": 96,
      "T": 97,
      "U": 98,
      "V": 99,
      "W": 100,
      "X": 101,
      "Y": 102,
      "Z": 103,
      "[": 104,
      "\\": 105,
      "]": 106,
      "^": 107,
      "_": 108,
      "`": 109,
      "a": 110,
      "b": 111,
      "c": 112,
      "d": 113,
      "e": 114,
      "f": 115,
      "g": 116,
      "h": 117,
      "i": 118,
      "j": 119,
      "k": 120,
      "l": 121,
      "m": 122,
      "n": 123,
      "o": 124,
      "p": 125,
      "q": 126,
      "r": 127,
      "s": 128,
      "t": 129,
      "u": 130,
      "v": 131,
      "w": 132,
      "x": 133,
      "y": 134,
      "z": 135,
      "{": 136,
      "|": 137,
      "}": 138,
      "~": 139,
      "": 140,
      "": 141,
      "": 142,
      "": 143,
      "": 144,
      "": 145,
      "": 146,
      "": 147,
      "": 148,
      "": 149,
      "": 150,
      "": 151,
      "": 152,
      "": 153,
      "": 154,
      "": 155,
      "": 156,
      "": 157,
      "": 158,
      "": 159,
      "": 160,
      "": 161,
      "": 162,
      "": 163,
      "": 164,
      "": 165,
      "": 166,
      "": 167,
      "": 168,
      "": 169,
      "": 170,
      "": 171,
      "": 172,
      " ": 173,
      "¡": 174,
      "¢": 175,
      "£": 176,
      "¤": 177,
      "¥": 178,
      "¦": 179,
      "§": 180,
      "¨": 181,
      "©": 182,
      "ª": 183,
      "«": 184,
      "¬": 185,
      "­": 186,
      "®": 187,
      "¯": 188,
      "°": 189,
      "±": 190,
      "²": 191,
      "³": 192,
      "´": 193,
      "µ": 194,
      "¶": 195,
      "·": 196,
      "¸": 197,
      "¹": 198,
      "º": 199,
      "»": 200,
      "¼": 201,
      "½": 202,
      "¾": 203,
      "¿": 204,
      "À": 205,
      "Á": 206,
      "Â": 207,
      "Ã": 208,
      "Ä": 209,
      "Å": 210,
      "Æ": 211,
      "Ç": 212,
      "È": 213,
      "É": 214,
      "Ê": 215,
      "Ë": 216,
      "Ì": 217,
      "Í": 218,
      "Î": 219,
      "Ï": 220,
      "Ð": 221,
      "Ñ": 222,
      "Ò": 223,
      "Ó": 224,
      "Ô": 225,
      "Õ": 226,
      "Ö": 227,
      "×": 228,
      "Ø": 229,
      "Ù": 230,
      "Ú": 231,
      "Û": 232,
      "Ü": 233,
      "Ý": 234,
      "Þ": 235,
      "ß": 236,
      "à": 237,
      "á": 238,
      "â": 239,
      "ã": 240,
      "ä": 241,
      "å": 242,
      "æ": 243,
      "ç": 244,
      "è": 245,
      "é": 246,
      "ê": 247,
      "ë": 248,
      "ì": 249,
      "í": 250,
      "î": 251,
      "ï": 252,
      "ð": 253,
      "ñ": 254,
      "ò": 255,
      "ó": 256,
      "ô": 257,
      "õ": 258,
      "ö": 259,
      "÷": 260,
      "ø": 261,
      "ù": 262,
      "ú": 263,
      "û": 264,
      "ü": 265,
      "ý": 266,
      "þ": 267,
      "Ā": 268,
      "ā": 269,
      "Ă": 270,
      "ă": 271,
      "Ą": 272,
      "ą": 273,
      "Ć": 274,
      "ć": 275,
      "Ĉ": 276,
      "ĉ": 277,
      "Ċ": 278,
      "ċ": 279,
      "Č": 280,
      "č": 281,
      "Ď": 282,
      "ď": 283,
      "Đ": 284,
      "đ": 285,
      "Ē": 286,
      "ē": 287,
      "Ĕ": 288,
      "ĕ": 289,
      "Ė": 290,
      "ė": 291,
      "ę": 292,
      "Ě": 293,
      "ě": 294,
      "Ĝ": 295,
      "ĝ": 296,
      "Ğ": 297,
      "ğ": 298,
      "Ġ": 299,
      "ġ": 300,
      "Ģ": 301,
      "ģ": 302,
      "Ĥ": 303,
      "ĥ": 304,
      "Ħ": 305,
      "ħ": 306,
      "Ĩ": 307,
      "ĩ": 308,
      "Ī": 309,
      "ī": 310,
      "Ĭ": 311,
      "ĭ": 312,
      "Į": 313,
      "į": 314,
      "İ": 315,
      "ı": 316,
      "Ĳ": 317,
      "ĳ": 318,
      "Ĵ": 319,
      "ĵ": 320,
      "Ķ": 321,
      "ķ": 322,
      "ĸ": 323,
      "Ĺ": 324,
      "ĺ": 325,
      "Ļ": 326,
      "ļ": 327,
      "Ľ": 328,
      "ľ": 329,
      "Ŀ": 330,
      "ŀ": 331,
      "Ł": 332,
      "ł": 333,
      "Ń": 334,
      "ĠĠ": 335,
      "ĠĠĠĠ": 336,
      "Ġt": 337,
      "Ġa": 338,
      "in": 339,
      "..": 340,
      "he": 341,
      "on": 342,
      "re": 343,
      "Ġo": 344,
      "er": 345,
      "ti": 346,
      "Ġthe": 347,
      "en": 348,
      "--": 349,
      "Ġs": 350,
      "or": 351,
      "ed": 352,
      "Ġp": 353,
      "....": 354,
      "es": 355,
      "Ġc": 356,
      "al": 357,
      "Ġof": 358,
      "at": 359,
      "tion": 360,
      "is": 361,
      "an": 362,
      "Ġan": 363,
      "Ġin": 364,
      "it": 365,
      "Ġf": 366,
      "ar": 367,
      "Ġb": 368,
      "ing": 369,
      "Ġ1": 370,
      "ro": 371,
      "Ġw": 372,
      "ic": 373,
      "Ġto": 374,
      "ĠĊ": 375,
      "Ġd": 376,
      "ent": 377,
      "ec": 378,
      "Ġand": 379,
      "Ġm": 380,
      "----": 381,
      "Ġre": 382,
      "Ġ2": 383,
      "le": 384,
      "00": 385,
      "as": 386,
      "Ġ(": 387,
      "Ġe": 388,
      "ou": 389,
      "Ġth": 390,
      "âĢ": 391,
      "ĠS": 392,
      "ĠC": 393,
      "ĠA": 394,
      "om": 395,
      "ment": 396,
      "Ġn": 397,
      "##": 398,
      "ce": 399,
      "&#": 400,
      "il": 401,
      "st": 402,
      "Ġ.": 403,
      "Ġor": 404,
      "ve": 405,
      "Ġfor": 406,
      "Ġbe": 407,
      "ĠT": 408,
      "Ġl": 409,
      "ra": 410,
      "Ġh": 411,
      "id": 412,
      "__": 413,
      "Ġpro": 414,
      "Ġ3": 415,
      "un": 416,
      "ur": 417,
      "ĠI": 418,
      "et": 419,
      "ot": 420,
      "ol": 421,
      "ct": 422,
      "ĠP": 423,
      "ch": 424,
      "Ġis": 425,
      "Ġcon": 426,
      "ly": 427,
      "im": 428,
      "se": 429,
      "Ġsu": 430,
      "Ġ0": 431,
      "ate": 432,
      "Ġas": 433,
      "ut": 434,
      "ĠF": 435,
      "pp": 436,
      "ul": 437,
      "ith": 438,
      "Ġ4": 439,
      "ab": 440,
      "ĠM": 441,
      "Ġon": 442,
      "ay": 443,
      "Ġby": 444,
      "ĠD": 445,
      "ig": 446,
      "ĠR": 447,
      "ers": 448,
      "qu": 449,
      "ion": 450,
      "Ġg": 451,
      "the": 452,
      "ag": 453,
      "el": 454,
      "01": 455,
      "ow": 456,
      "ĠN": 457,
      "ĠE": 458,
      "ir": 459,
      "ect": 460,
      "if": 461,
      "od": 462,
      "Ġ5": 463,
      "ter": 464,
      "ri": 465,
      "res": 466,
      "us": 467,
      "em": 468,
      "os": 469,
      "**": 470,
      "am": 471,
      "ity": 472,
      "Ġst": 473,
      "ver": 474,
      "Ġcom": 475,
      "der": 476,
      "Ġex": 477,
      "xD": 478,
      "ess": 479,
      "ad": 480,
      "and": 481,
      "ĠĠĠ": 482,
      "Ġun": 483,
      "Ġ19": 484,
      "Ġ6": 485,
      "um": 486,
      "Ġsh": 487,
      "red": 488,
      "ĠO": 489,
      "ĠB": 490,
      "ĠâĢ": 491,
      "Ġare": 492,
      "Ġwh": 493,
      "ist": 494,
      "all": 495,
      "oc": 496,
      "ĠĠĊ": 497,
      "ain": 498,
      "ort": 499,
      "____": 500,
      "ĠThe": 501,
      "ant": 502,
      "Ġv": 503,
      "du": 504,
      "end": 505,
      "Ġpar": 506,
      "Ġapp": 507,
      "Ġde": 508,
      "Ġac": 509,
      "oun": 510,
      "Ġal": 511,
      "ac": 512,
      "Ġat": 513,
      ";&#": 514,
      "ud": 515,
      "ff": 516,
      "ĠU": 517,
      "est": 518,
      "ĠIn": 519,
      "Ġnot": 520,
      "ated": 521,
      "Ġr": 522,
      "Ġ7": 523,
      "ĠL": 524,
      "ther": 525,
      "th": 526,
      "sp": 527,
      "rom": 528,
      "tic": 529,
      "ure": 530,
      "10": 531,
      "ĠH": 532,
      "Ġsub": 533,
      "###": 534,
      "ĠW": 535,
      "Ġ8": 536,
      "able": 537,
      "per": 538,
      "for": 539,
      "Ġsec": 540,
      "),": 541,
      "ance": 542,
      "pl": 543,
      "Ġit": 544,
      "Ġ9": 545,
      "ere": 546,
      "ich": 547,
      "ill": 548,
      "our": 549,
      "ĊĊ": 550,
      "Ġy": 551,
      "iv": 552,
      "16": 553,
      "ĠG": 554,
      "age": 555,
      "Ġany": 556,
      "ore": 557,
      "cl": 558,
      "Ġper": 559,
      "tive": 560,
      "âĢĻ": 561,
      "12": 562,
      "Ġ-": 563,
      "ary": 564,
      "Ġ200": 565,
      "ĠSt": 566,
      "ard": 567,
      "ial": 568,
      "19": 569,
      "ire": 570,
      "ub": 571,
      "ica": 572,
      "art": 573,
      "Ġad": 574,
      "Ġhe": 575,
      "ep": 576,
      "la": 577,
      "Ġmay": 578,
      "ld": 579,
      "20": 580,
      "ge": 581,
      "ber": 582,
      "op": 583,
      "ord": 584,
      "igh": 585,
      "ies": 586,
      "form": 587,
      "ice": 588,
      "ak": 589,
      "ans": 590,
      "Ġha": 591,
      "ru": 592,
      "ount": 593,
      "pos": 594,
      "ear": 595,
      "11": 596,
      "Ġen": 597,
      "Ġ10": 598,
      "ew": 599,
      "ase": 600,
      "âĢĶ": 601,
      "sion": 602,
      "Ġch": 603,
      "erv": 604,
      "000": 605,
      "Ġu": 606,
      "23": 607,
      "Ġsp": 608,
      "95": 609,
      "iti": 610,
      "ip": 611,
      "tit": 612,
      "ph": 613,
      "low": 614,
      "min": 615,
      "ĠJ": 616,
      "Ġim": 617,
      "omm": 618,
      "ĠAct": 619,
      "22": 620,
      "ap": 621,
      "96": 622,
      "Ġacc": 623,
      "vid": 624,
      "Ġle": 625,
      "ould": 626,
      "Ġreg": 627,
      "Ġdis": 628,
      "clud": 629,
      "Ġme": 630,
      "ied": 631,
      ")(": 632,
      "Ġ**": 633,
      "200": 634,
      "ust": 635,
      "tain": 636,
      "ia": 637,
      ").": 638,
      "13": 639,
      "iz": 640,
      "act": 641,
      "ign": 642,
      "Ġ201": 643,
      "ON": 644,
      "ater": 645,
      "Ġint": 646,
      "eg": 647,
      "####": 648,
      "ee": 649,
      "ates": 650,
      "ts": 651,
      "tif": 652,
      "ass": 653,
      "15": 654,
      "ual": 655,
      "ue": 656,
      "di": 657,
      "duct": 658,
      "ine": 659,
      "Ġwas": 660,
      "Ġam": 661,
      "Ġwhe": 662,
      "14": 663,
      "94": 664,
      "25": 665,
      "ula": 666,
      "Ġab": 667,
      "og": 668,
      "Ġus": 669,
      "ef": 670,
      "Ġ|": 671,
      "17": 672,
      "ex": 673,
      "ical": 674,
      "24": 675,
      "The": 676,
      "ted": 677,
      "30": 678,
      "Ġhas": 679,
      "ple": 680,
      "ons": 681,
      "ence": 682,
      "her": 683,
      "ĠV": 684,
      "ER": 685,
      ".&#": 686,
      "ail": 687,
      "ĠUn": 688,
      "ach": 689,
      "ib": 690,
      "ll": 691,
      "201": 692,
      "eral": 693,
      "Ġrep": 694,
      "Ġ$": 695,
      "Ġpl": 696,
      "ost": 697,
      "99": 698,
      "Ġem": 699,
      "vis": 700,
      "rib": 701,
      "18": 702,
      "ry": 703,
      "âĢĿ": 704,
      "raph": 705,
      "Ġar": 706,
      "Ġ20": 707,
      "ous": 708,
      "ator": 709,
      "enc": 710,
      "sec": 711,
      "vel": 712,
      "Ġpre": 713,
      "Ġres": 714,
      "Ġag": 715,
      "ose": 716,
      "ram": 717,
      "are": 718,
      "ĠâĢľ": 719,
      "Ġno": 720,
      "TI": 721,
      "Ġpur": 722,
      "ight": 723,
      "Ġass": 724,
      "lic": 725,
      "Ġoff": 726,
      "rou": 727,
      "ast": 728,
      "50": 729,
      "Ġ12": 730,
      "anc": 731,
      "gh": 732,
      "ork": 733,
      "ĠÙ": 734,
      "Ġ&#": 735,
      "ric": 736,
      "Ġrec": 737,
      "ject": 738,
      "und": 739,
      "ĠPro": 740,
      "Ġ13": 741,
      "ond": 742,
      "hor": 743,
      "ome": 744,
      "eren": 745,
      "Ġ14": 746,
      "160": 747,
      "In": 748,
      "Ġwe": 749,
      "ens": 750,
      "ĠØ": 751,
      "âĢĵ": 752,
      "Ġall": 753,
      "Ġ<": 754,
      "Ġtr": 755,
      "pe": 756,
      "26": 757,
      "Ġdet": 758,
      "Ġinc": 759,
      "cess": 760,
      "mit": 761,
      "EN": 762,
      "ov": 763,
      "ree": 764,
      "ata": 765,
      "Ġ15": 766,
      "ide": 767,
      "yst": 768,
      "ell": 769,
      "Ġeff": 770,
      "out": 771,
      "27": 772,
      "Ġqu": 773,
      "28": 774,
      "40": 775,
      "Ġtim": 776,
      "over": 777,
      "su": 778,
      "duc": 779,
      "Ġdes": 780,
      "ove": 781,
      "Ġaut": 782,
      "Ġif": 783,
      "Ġ18": 784,
      "ES": 785,
      "ont": 786,
      "Ġ16": 787,
      "ĠâĢĶ": 788,
      "ress": 789,
      "gram": 790,
      "any": 791,
      "vi": 792,
      "90": 793,
      "ood": 794,
      "Ġref": 795,
      "ĠSec": 796,
      "Ġk": 797,
      "of": 798,
      "pro": 799,
      "ult": 800,
      "ecif": 801,
      "OR": 802,
      "Â§": 803,
      "ong": 804,
      "33": 805,
      "\",": 806,
      "Ġcl": 807,
      "ren": 808,
      "Ġi": 809,
      "Ġdo": 810,
      "ĠTh": 811,
      "ade": 812,
      "ited": 813,
      "=\"": 814,
      "ven": 815,
      "IN": 816,
      "Ġj": 817,
      ".,": 818,
      "Ġone": 819,
      "Ġcan": 820,
      "oy": 821,
      "Ġ17": 822,
      "97": 823,
      "ish": 824,
      "pt": 825,
      "one": 826,
      "Ġind": 827,
      "80": 828,
      "ings": 829,
      "35": 830,
      "ax": 831,
      "ÙĦ": 832,
      "che": 833,
      "ark": 834,
      "AR": 835,
      "Ġ11": 836,
      "21": 837,
      "stit": 838,
      "tern": 839,
      "ĠAn": 840,
      "cent": 841,
      "eal": 842,
      "ive": 843,
      "AL": 844,
      "ĠCh": 845,
      "Ġout": 846,
      "==": 847,
      "\",\"": 848,
      "60": 849,
      "ty": 850,
      "AN": 851,
      "Ġits": 852,
      "ame": 853,
      "so": 854,
      "tiv": 855,
      "ock": 856,
      "98": 857,
      "ake": 858,
      "abl": 859,
      "ange": 860,
      "ack": 861,
      "iden": 862,
      "ions": 863,
      "Ġso": 864,
      "ĠK": 865,
      "Ġman": 866,
      "au": 867,
      "ors": 868,
      "tim": 869,
      "ĠReg": 870,
      "38": 871,
      "</": 872,
      "Ġexp": 873,
      "34": 874,
      "Ġob": 875,
      "70": 876,
      "iod": 877,
      "ased": 878,
      "'s": 879,
      "int": 880,
      "ency": 881,
      "lect": 882,
      "its": 883,
      "ents": 884,
      "ace": 885,
      "fter": 886,
      "ss": 887,
      "Ġ30": 888,
      "eed": 889,
      "ĠNo": 890,
      "Ġfol": 891,
      "ures": 892,
      "36": 893,
      "qui": 894,
      "AT": 895,
      "Ġsa": 896,
      "82": 897,
      "Ġ[": 898,
      "45": 899,
      "with": 900,
      "Ġyou": 901,
      "eth": 902,
      "ise": 903,
      "te": 904,
      "ices": 905,
      "lica": 906,
      "37": 907,
      "li": 908,
      "Ġfin": 909,
      "iver": 910,
      "rop": 911,
      "ms": 912,
      "ploy": 913,
      "ally": 914,
      "FR": 915,
      "Ġuse": 916,
      "ite": 917,
      "Ġmod": 918,
      "Ġdef": 919,
      "Ġimp": 920,
      "to": 921,
      "ys": 922,
      "Ġro": 923,
      "ech": 924,
      "Ġtra": 925,
      "IS": 926,
      "ank": 927,
      "tro": 928,
      "TION": 929,
      "ory": 930,
      "own": 931,
      "EC": 932,
      "Sch": 933,
      "86": 934,
      "Ø§": 935,
      "tice": 936,
      "âĢ¢": 937,
      "55": 938,
      "not": 939,
      "pera": 940,
      "ces": 941,
      "Ġdec": 942,
      "ourt": 943,
      "ile": 944,
      "irst": 945,
      "Ġ,": 946,
      "PA": 947,
      "Ġinv": 948,
      "ild": 949,
      "ext": 950,
      "ĠEn": 951,
      "Ġ24": 952,
      "âĢĺ": 953,
      "Ġval": 954,
      "abil": 955,
      "old": 956,
      "we": 957,
      "aw": 958,
      "sh": 959,
      "Ġ25": 960,
      "ang": 961,
      "75": 962,
      "88": 963,
      "cc": 964,
      "land": 965,
      "olog": 966,
      "ĠAm": 967,
      "ning": 968,
      "05": 969,
      "ĠY": 970,
      "ĠFor": 971,
      "29": 972,
      "Ġli": 973,
      "Ġest": 974,
      "ound": 975,
      "stru": 976,
      "Ġter": 977,
      "ĠAd": 978,
      "par": 979,
      "44": 980,
      "Ġpr": 981,
      "arg": 982,
      "ii": 983,
      "IC": 984,
      "ED": 985,
      "pr": 986,
      "spec": 987,
      "fore": 988,
      ")**": 989,
      "ret": 990,
      "Ġgen": 991,
      "ible": 992,
      "ĠCom": 993,
      "Ġpay": 994,
      "Ġse": 995,
      "Ġbut": 996,
      "Ġnum": 997,
      "Ġcar": 998,
      "val": 999,
      "iff": 1000,
      "Ġins": 1001,
      "ced": 1002,
      "Ġpub": 1003,
      "46": 1004,
      "ten": 1005,
      "Ġwho": 1006,
      "Ġloc": 1007,
      "Ġup": 1008,
      "ower": 1009,
      "mis": 1010,
      "Ġco": 1011,
      "Ġcer": 1012,
      "85": 1013,
      "ke": 1014,
      "Ġra": 1015,
      "Ġpol": 1016,
      "hed": 1017,
      "de": 1018,
      "ĊĠ": 1019,
      "76": 1020,
      "part": 1021,
      "AS": 1022,
      "ords": 1023,
      "ĠÂ§": 1024,
      "ule": 1025,
      "wn": 1026,
      "ix": 1027,
      "31": 1028,
      "ww": 1029,
      "Ġ26": 1030,
      "ular": 1031,
      "tial": 1032,
      "tra": 1033,
      "...": 1034,
      "crib": 1035,
      "ĠRe": 1036,
      "ĠEx": 1037,
      "Ġdev": 1038,
      "Ġbet": 1039,
      "uc": 1040,
      "rit": 1041,
      "Ġ40": 1042,
      "ina": 1043,
      "74": 1044,
      "laim": 1045,
      "put": 1046,
      "ears": 1047,
      "ants": 1048,
      "ĠCO": 1049,
      "ob": 1050,
      "reat": 1051,
      "pany": 1052,
      "arge": 1053,
      "Ġrem": 1054,
      "fer": 1055,
      "Ġop": 1056,
      "air": 1057,
      "Ġty": 1058,
      "39": 1059,
      "ked": 1060,
      "ural": 1061,
      "ĠOF": 1062,
      "view": 1063,
      "Ġmem": 1064,
      "Ġpos": 1065,
      "por": 1066,
      "ved": 1067,
      "06": 1068,
      "77": 1069,
      "Ġ21": 1070,
      "erg": 1071,
      "ocu": 1072,
      "Ġav": 1073,
      "IT": 1074,
      "irc": 1075,
      "Ġcol": 1076,
      "ards": 1077,
      "ause": 1078,
      "Ġequ": 1079,
      "ized": 1080,
      "ne": 1081,
      "\">": 1082,
      "rac": 1083,
      "Ġsc": 1084,
      "ind": 1085,
      "yl": 1086,
      "Ġcor": 1087,
      "56": 1088,
      "me": 1089,
      "ays": 1090,
      "ving": 1091,
      "Ġrel": 1092,
      "ĠSch": 1093,
      "ween": 1094,
      "ties": 1095,
      "echn": 1096,
      "Ġ28": 1097,
      "tt": 1098,
      "Ġadd": 1099,
      "ĠAr": 1100,
      "Ġ\"": 1101,
      "32": 1102,
      "ici": 1103,
      "oint": 1104,
      "ceed": 1105,
      "UR": 1106,
      "roup": 1107,
      "04": 1108,
      "Ġset": 1109,
      "Ġsur": 1110,
      "92": 1111,
      "78": 1112,
      "ari": 1113,
      "ĠâĢĺ": 1114,
      "uted": 1115,
      "AC": 1116,
      "ute": 1117,
      "cer": 1118,
      "Ġ22": 1119,
      "als": 1120,
      "93": 1121,
      "IG": 1122,
      "ĉĉ": 1123,
      "Ġbec": 1124,
      "Ġmon": 1125,
      "ĠAg": 1126,
      "man": 1127,
      "ivid": 1128,
      ");": 1129,
      "RO": 1130,
      "gan": 1131,
      "0000": 1132,
      "trol": 1133,
      "cept": 1134,
      "Ġlim": 1135,
      "vide": 1136,
      "Ġcap": 1137,
      "tem": 1138,
      "Ġ*": 1139,
      "ÙĨ": 1140,
      "84": 1141,
      "91": 1142,
      "unc": 1143,
      "wo": 1144,
      "ENT": 1145,
      "ĠRes": 1146,
      "ĠNa": 1147,
      "54": 1148,
      "81": 1149,
      "Ġ27": 1150,
      "Ġhis": 1151,
      "ÙĬ": 1152,
      "ft": 1153,
      "Ġ23": 1154,
      "ined": 1155,
      "ati": 1156,
      "ink": 1157,
      "Ġend": 1158,
      "ĠĊĊ": 1159,
      "Ġ&": 1160,
      "erc": 1161,
      "Not": 1162,
      "Ùħ": 1163,
      "Ġnew": 1164,
      "ND": 1165,
      "Ġfl": 1166,
      "ason": 1167,
      "ĠDep": 1168,
      "med": 1169,
      "66": 1170,
      "ĠFR": 1171,
      "87": 1172,
      "ita": 1173,
      "Ġes": 1174,
      "Ġet": 1175,
      "ĠFed": 1176,
      "inal": 1177,
      "ases": 1178,
      "lev": 1179,
      "rent": 1180,
      "ting": 1181,
      "Ġnon": 1182,
      "rant": 1183,
      "enef": 1184,
      "Ġpri": 1185,
      "iza": 1186,
      "ĠPl": 1187,
      "ie": 1188,
      "Ġart": 1189,
      "con": 1190,
      "ĊĊĊ": 1191,
      "ran": 1192,
      "Ġmin": 1193,
      "Ġ50": 1194,
      "mun": 1195,
      "acil": 1196,
      "Ġtax": 1197,
      "Ġdur": 1198,
      "eb": 1199,
      "ier": 1200,
      "ĠâĢĵ": 1201,
      "ety": 1202,
      "ok": 1203,
      "LE": 1204,
      "ale": 1205,
      "oth": 1206,
      "orts": 1207,
      "ĠOff": 1208,
      "Ġ:": 1209,
      ",,": 1210,
      "com": 1211,
      "urn": 1212,
      "iron": 1213,
      "II": 1214,
      "here": 1215,
      "av": 1216,
      "ĊĠĠĠ": 1217,
      "Ġcur": 1218,
      "Ġ31": 1219,
      "89": 1220,
      "Ġlab": 1221,
      "Ġ100": 1222,
      "ĠAl": 1223,
      "sid": 1224,
      "ever": 1225,
      "Ġent": 1226,
      "ets": 1227,
      "72": 1228,
      "Ġfil": 1229,
      "Ġve": 1230,
      "reg": 1231,
      "65": 1232,
      "gov": 1233,
      "hen": 1234,
      "iel": 1235,
      "Ġour": 1236,
      "¿½": 1237,
      "ï¿½": 1238,
      "Ġtwo": 1239,
      "tin": 1240,
      "Ġgiv": 1241,
      "lt": 1242,
      "Ġaff": 1243,
      "Ġel": 1244,
      "less": 1245,
      "====": 1246,
      "pa": 1247,
      "arch": 1248,
      "ĠApp": 1249,
      "Ġlo": 1250,
      "ĠIN": 1251,
      "ner": 1252,
      "til": 1253,
      "usin": 1254,
      "uro": 1255,
      "US": 1256,
      "Ġph": 1257,
      "Ġ35": 1258,
      "ered": 1259,
      "Ġpe": 1260,
      "ines": 1261,
      "ĠCon": 1262,
      "ĠEPA": 1263,
      "No": 1264,
      "Ġhad": 1265,
      "ĠOr": 1266,
      "64": 1267,
      "07": 1268,
      "02": 1269,
      "||": 1270,
      "inc": 1271,
      "app": 1272,
      "ium": 1273,
      "pon": 1274,
      "Ġext": 1275,
      "ton": 1276,
      "tal": 1277,
      "ems": 1278,
      "ash": 1279,
      "ceiv": 1280,
      "era": 1281,
      "ode": 1282,
      "itt": 1283,
      "ĠDec": 1284,
      "sel": 1285,
      "ize": 1286,
      "vent": 1287,
      "ured": 1288,
      "ĠIf": 1289,
      "alif": 1290,
      "09": 1291,
      "ĠCo": 1292,
      "47": 1293,
      "Ġgro": 1294,
      "itle": 1295,
      "rate": 1296,
      "83": 1297,
      "les": 1298,
      "vol": 1299,
      "Ġact": 1300,
      "ck": 1301,
      "ues": 1302,
      "ĠRep": 1303,
      "ps": 1304,
      "ĠØ§": 1305,
      "bod": 1306,
      "ĠQ": 1307,
      "Ġlaw": 1308,
      "ĠCl": 1309,
      "ïģ": 1310,
      "ield": 1311,
      "03": 1312,
      "Ġfe": 1313,
      "Ġbas": 1314,
      "led": 1315,
      "ox": 1316,
      "very": 1317,
      "dule": 1318,
      "eter": 1319,
      "ily": 1320,
      "ug": 1321,
      "Ġocc": 1322,
      "Ġ29": 1323,
      "Ġvi": 1324,
      "nb": 1325,
      "Ġkn": 1326,
      "EL": 1327,
      "Ġ36": 1328,
      "ages": 1329,
      "ble": 1330,
      "---": 1331,
      "get": 1332,
      "Th": 1333,
      "otal": 1334,
      "An": 1335,
      "ital": 1336,
      "08": 1337,
      "bers": 1338,
      "100": 1339,
      "cil": 1340,
      "rim": 1341,
      "//": 1342,
      "EM": 1343,
      "nbsp": 1344,
      "alys": 1345,
      "Ġed": 1346,
      "ules": 1347,
      "Ġair": 1348,
      "ron": 1349,
      "Ġcal": 1350,
      ")\",\"": 1351,
      "ĠSu": 1352,
      "ribu": 1353,
      "ouse": 1354,
      "oci": 1355,
      "Ġdi": 1356,
      "ough": 1357,
      "imum": 1358,
      "itor": 1359,
      "42": 1360,
      "ĠWe": 1361,
      "Ùĩ": 1362,
      "ath": 1363,
      "79": 1364,
      ".)": 1365,
      "be": 1366,
      "Ġ#": 1367,
      "ĠAss": 1368,
      "irec": 1369,
      "48": 1370,
      "ects": 1371,
      "ĠX": 1372,
      "amp": 1373,
      "by": 1374,
      "Ġnec": 1375,
      "ific": 1376,
      "rict": 1377,
      "ense": 1378,
      "isk": 1379,
      "Ġbl": 1380,
      "ĠAs": 1381,
      "enta": 1382,
      "59": 1383,
      "Ġdel": 1384,
      "nual": 1385,
      "ool": 1386,
      "Ġatt": 1387,
      "://": 1388,
      "Ġgu": 1389,
      "ergy": 1390,
      "hic": 1391,
      "71": 1392,
      "41": 1393,
      "fact": 1394,
      "IL": 1395,
      "ĠMan": 1396,
      "ua": 1397,
      "Sec": 1398,
      "Ġmat": 1399,
      "Ġown": 1400,
      "isc": 1401,
      "face": 1402,
      "lies": 1403,
      "233": 1404,
      "St": 1405,
      "49": 1406,
      "ward": 1407,
      "Ġ45": 1408,
      "AM": 1409,
      "43": 1410,
      "73": 1411,
      "ĠÂ": 1412,
      "alth": 1413,
      "cont": 1414,
      "orm": 1415,
      "Ġsim": 1416,
      "lied": 1417,
      "sub": 1418,
      "pose": 1419,
      "Ġtak": 1420,
      "TR": 1421,
      "ING": 1422,
      "CO": 1423,
      "mon": 1424,
      "ga": 1425,
      "ĠNO": 1426,
      "CFR": 1427,
      "cri": 1428,
      "Ġsam": 1429,
      "Ġleg": 1430,
      "that": 1431,
      "Ġ42": 1432,
      "Ġsee": 1433,
      "ian": 1434,
      "AP": 1435,
      "Ġfur": 1436,
      "TH": 1437,
      "io": 1438,
      "oard": 1439,
      "ĠAND": 1440,
      "Ġmed": 1441,
      "wise": 1442,
      "Ġsta": 1443,
      "âĢľ": 1444,
      "dust": 1445,
      "Ġ60": 1446,
      "rust": 1447,
      "Ġsm": 1448,
      "Ø±": 1449,
      "ned": 1450,
      "Sub": 1451,
      "side": 1452,
      "ĠInc": 1453,
      "Ġhow": 1454,
      "fety": 1455,
      "osts": 1456,
      "ĠUS": 1457,
      "Ġfar": 1458,
      "Ġna": 1459,
      "AA": 1460,
      "ma": 1461,
      "Ġ)": 1462,
      "ruct": 1463,
      "ĠIt": 1464,
      "Ġsol": 1465,
      "ĠCFR": 1466,
      "ness": 1467,
      "Ġcle": 1468,
      "ibil": 1469,
      "Ġ39": 1470,
      "UM": 1471,
      "RE": 1472,
      "ĠSp": 1473,
      "58": 1474,
      "Ġ32": 1475,
      "ĠGen": 1476,
      "ful": 1477,
      "oss": 1478,
      "raft": 1479,
      "2009": 1480,
      "ales": 1481,
      "ults": 1482,
      "ha": 1483,
      "ctor": 1484,
      "67": 1485,
      "ying": 1486,
      ",&#": 1487,
      "Ġvol": 1488,
      "Ġret": 1489,
      "istr": 1490,
      "bodi": 1491,
      "rel": 1492,
      "52": 1493,
      "Ġmet": 1494,
      "Ġser": 1495,
      "53": 1496,
      "ĠNew": 1497,
      "hip": 1498,
      "Ġsel": 1499,
      "une": 1500,
      "ĠTH": 1501,
      "57": 1502,
      "Ġpor": 1503,
      "68": 1504,
      "Ġgo": 1505,
      "ÙĪ": 1506,
      "Ġ41": 1507,
      "ĠSc": 1508,
      "pean": 1509,
      "ane": 1510,
      "Ġtem": 1511,
      "ody": 1512,
      "Ġ33": 1513,
      "Ġbu": 1514,
      "wh": 1515,
      "ĠMr": 1516,
      "51": 1517,
      "tec": 1518,
      "uel": 1519,
      "ĠAc": 1520,
      "mer": 1521,
      "www": 1522,
      "sequ": 1523,
      "Ġpa": 1524,
      "Ġ34": 1525,
      "iss": 1526,
      "eng": 1527,
      "Ġche": 1528,
      "rein": 1529,
      "Ġ/": 1530,
      "ĠPar": 1531,
      "Ġinf": 1532,
      "ins": 1533,
      "Ġec": 1534,
      "rec": 1535,
      "ick": 1536,
      "ID": 1537,
      "Ġla": 1538,
      "oll": 1539,
      "OL": 1540,
      "ĠFin": 1541,
      "Ġ44": 1542,
      "up": 1543,
      "Ġz": 1544,
      "mina": 1545,
      "ĠSub": 1546,
      "serv": 1547,
      "63": 1548,
      "icer": 1549,
      "62": 1550,
      "Ġ38": 1551,
      "Ġ=": 1552,
      "TA": 1553,
      "Ġ43": 1554,
      "unds": 1555,
      "ÙĦØ": 1556,
      "icy": 1557,
      "jec": 1558,
      "945": 1559,
      "orth": 1560,
      "CH": 1561,
      "This": 1562,
      "yd": 1563,
      "ves": 1564,
      "work": 1565,
      "ees": 1566,
      "Ġ37": 1567,
      "nec": 1568,
      "Ġmak": 1569,
      "69": 1570,
      "Ġvir": 1571,
      "ĠSep": 1572,
      "Ġday": 1573,
      "hes": 1574,
      "ials": 1575,
      "ring": 1576,
      "tis": 1577,
      "aj": 1578,
      "ĠII": 1579,
      "iate": 1580,
      "requ": 1581,
      "lace": 1582,
      "hold": 1583,
      "Ġdeb": 1584,
      "rea": 1585,
      "Ġsum": 1586,
      "Ġnet": 1587,
      "ird": 1588,
      "ury": 1589,
      "ross": 1590,
      "OC": 1591,
      "Text": 1592,
      "nel": 1593,
      "61": 1594,
      "Ġful": 1595,
      "ĠPub": 1596,
      "ples": 1597,
      "pre": 1598,
      "Ġpot": 1599,
      "ife": 1600,
      "way": 1601,
      "den": 1602,
      "Ġear": 1603,
      "onom": 1604,
      "ised": 1605,
      "crip": 1606,
      "ĠCor": 1607,
      "uly": 1608,
      "lows": 1609,
      "Ġeng": 1610,
      "ump": 1611,
      "IV": 1612,
      "Comm": 1613,
      "NA": 1614,
      "Ġadj": 1615,
      "ead": 1616,
      "964": 1617,
      "Ġren": 1618,
      "For": 1619,
      "sist": 1620,
      "pan": 1621,
      "fo": 1622,
      "pli": 1623,
      "sc": 1624,
      "@@": 1625,
      "rial": 1626,
      "Ġte": 1627,
      "Ġ--": 1628,
      "oult": 1629,
      "Ġdem": 1630,
      "ably": 1631,
      "clos": 1632,
      "atus": 1633,
      "EP": 1634,
      "ĠAll": 1635,
      "ĠRec": 1636,
      "oin": 1637,
      "DA": 1638,
      "lig": 1639,
      "Ġmen": 1640,
      "uman": 1641,
      "ĠDe": 1642,
      "ote": 1643,
      "ĠOct": 1644,
      "gen": 1645,
      "999": 1646,
      "IP": 1647,
      "tics": 1648,
      "ient": 1649,
      "read": 1650,
      "IR": 1651,
      "ĊĊĊĊ": 1652,
      "lor": 1653,
      "ries": 1654,
      "ĠÙĪ": 1655,
      "Ġlic": 1656,
      "rol": 1657,
      "orn": 1658,
      "Ġer": 1659,
      "Ġdep": 1660,
      "Ø¨": 1661,
      "ĠDef": 1662,
      "ĠJan": 1663,
      "CC": 1664,
      "gg": 1665,
      "čĊ": 1666,
      "mine": 1667,
      "gin": 1668,
      "used": 1669,
      "ĠMay": 1670,
      "use": 1671,
      "959": 1672,
      "Ġtre": 1673,
      "Ġshe": 1674,
      "ini": 1675,
      "TS": 1676,
      "lu": 1677,
      "ral": 1678,
      "emp": 1679,
      "OJ": 1680,
      "ĠIm": 1681,
      "Ġpen": 1682,
      "rans": 1683,
      "AD": 1684,
      "rain": 1685,
      "Ġ49": 1686,
      "ĠWh": 1687,
      "mb": 1688,
      "Ġetc": 1689,
      "Ø³": 1690,
      "Ġ46": 1691,
      "ilar": 1692,
      "2010": 1693,
      "Ġsit": 1694,
      "Pro": 1695,
      "Ch": 1696,
      ".âĢĿ": 1697,
      "500": 1698,
      "ns": 1699,
      "Ġ47": 1700,
      "tify": 1701,
      "ĠAir": 1702,
      "reas": 1703,
      "Ġ48": 1704,
      "ansp": 1705,
      "ĠST": 1706,
      "resp": 1707,
      "Ġdid": 1708,
      "vey": 1709,
      "alf": 1710,
      "port": 1711,
      "Ġ63": 1712,
      "Ġ51": 1713,
      "outh": 1714,
      "rid": 1715,
      "hib": 1716,
      "953": 1717,
      "ST": 1718,
      "Ġmil": 1719,
      "ĠFIG": 1720,
      "clus": 1721,
      "aren": 1722,
      "cep": 1723,
      "day": 1724,
      "ince": 1725,
      "udy": 1726,
      "Ġ54": 1727,
      "oh": 1728,
      "ĠTHE": 1729,
      "pora": 1730,
      "ĠMar": 1731,
      "UN": 1732,
      "Ġcop": 1733,
      "Ġhim": 1734,
      "htt": 1735,
      "Ġeit": 1736,
      "ths": 1737,
      "Ġx": 1738,
      "ĠHow": 1739,
      "ĠMin": 1740,
      "Ġ55": 1741,
      "ask": 1742,
      "Ġsep": 1743,
      "Ġ52": 1744,
      "ulti": 1745,
      "uch": 1746,
      "Ġlay": 1747,
      "Un": 1748,
      "Ġ53": 1749,
      "8212": 1750,
      "iled": 1751,
      "ATE": 1752,
      "Ġdue": 1753,
      "ests": 1754,
      "Ġsch": 1755,
      "ĠMem": 1756,
      "UL": 1757,
      "SE": 1758,
      "row": 1759,
      "TER": 1760,
      "ĠPer": 1761,
      "Ġsha": 1762,
      "Ġnat": 1763,
      "sued": 1764,
      "Ġ00": 1765,
      "ume": 1766,
      "ref": 1767,
      "Ġgas": 1768,
      "tity": 1769,
      "eric": 1770,
      "Ġ64": 1771,
      "Ġopp": 1772,
      "ners": 1773,
      "ĠApr": 1774,
      "MENT": 1775,
      "Ġenv": 1776,
      "ĠFOR": 1777,
      "leg": 1778,
      "cul": 1779,
      "pens": 1780,
      "CE": 1781,
      "peri": 1782,
      "IF": 1783,
      "posi": 1784,
      "Ġgre": 1785,
      "Ġ01": 1786,
      "``": 1787,
      "ĠAut": 1788,
      "ople": 1789,
      "tue": 1790,
      "Ġadv": 1791,
      "ene": 1792,
      "Ġlow": 1793,
      "ober": 1794,
      "fe": 1795,
      "arm": 1796,
      "Ø¯": 1797,
      "Ġens": 1798,
      "Ġ65": 1799,
      "Ø¹": 1800,
      "play": 1801,
      "PP": 1802,
      "ison": 1803,
      "Ġjud": 1804,
      "ream": 1805,
      "ĠâĢĿ": 1806,
      "ours": 1807,
      "tor": 1808,
      "ands": 1809,
      "duce": 1810,
      "Ex": 1811,
      "949": 1812,
      "cy": 1813,
      "Ġvis": 1814,
      "sue": 1815,
      "ĠTO": 1816,
      "2008": 1817,
      "ĠIs": 1818,
      "imal": 1819,
      "Mr": 1820,
      "ïģ²": 1821,
      "ply": 1822,
      "ĠMe": 1823,
      "ĠPt": 1824,
      "ĠCON": 1825,
      "GE": 1826,
      "ĉĉĉĉ": 1827,
      "957": 1828,
      "lie": 1829,
      "ĠâĢĻ": 1830,
      "Ġele": 1831,
      "orta": 1832,
      "acts": 1833,
      "ĠZ": 1834,
      "see": 1835,
      "yn": 1836,
      "iqu": 1837,
      "ĠâĢ¢": 1838,
      "MM": 1839,
      "2018": 1840,
      "Ġarr": 1841,
      "line": 1842,
      "nect": 1843,
      "oca": 1844,
      "ods": 1845,
      "CR": 1846,
      "ĠAnd": 1847,
      "equ": 1848,
      "ĠAcc": 1849,
      "ĠOn": 1850,
      "ried": 1851,
      "ecu": 1852,
      "raw": 1853,
      "Ġ56": 1854,
      "ajor": 1855,
      "cus": 1856,
      "IA": 1857,
      "rug": 1858,
      "osp": 1859,
      "uty": 1860,
      "Ġ61": 1861,
      "vers": 1862,
      "tiff": 1863,
      "ogn": 1864,
      "ĠSh": 1865,
      "lec": 1866,
      "ship": 1867,
      "OD": 1868,
      "Ġke": 1869,
      "ĠSee": 1870,
      "tent": 1871,
      "ÙĤ": 1872,
      "225": 1873,
      "rox": 1874,
      "utes": 1875,
      "ateg": 1876,
      "ĠIII": 1877,
      "Ġway": 1878,
      "acc": 1879,
      "ĠPh": 1880,
      "If": 1881,
      "ura": 1882,
      "ĠAug": 1883,
      "atic": 1884,
      "ĠTra": 1885,
      "ĠPol": 1886,
      "Ġher": 1887,
      "na": 1888,
      "els": 1889,
      "uca": 1890,
      "GR": 1891,
      "tle": 1892,
      "arb": 1893,
      "MP": 1894,
      "cted": 1895,
      "ĠSa": 1896,
      "Ġhig": 1897,
      "ctly": 1898,
      "Ġgra": 1899,
      "lo": 1900,
      "ipal": 1901,
      "sum": 1902,
      "ĠCol": 1903,
      "ope": 1904,
      "2006": 1905,
      "ĠÎ": 1906,
      "sues": 1907,
      "Al": 1908,
      "Ġ62": 1909,
      "road": 1910,
      "pris": 1911,
      "Ġ70": 1912,
      "2011": 1913,
      "ends": 1914,
      "omes": 1915,
      "ĠGu": 1916,
      "Ġmo": 1917,
      "ĠAt": 1918,
      "tinu": 1919,
      "Ġill": 1920,
      "ivil": 1921,
      "fig": 1922,
      "ĠÙħ": 1923,
      "ĠTo": 1924,
      "OS": 1925,
      "2001": 1926,
      "esti": 1927,
      "ding": 1928,
      "ĠPRO": 1929,
      "ta": 1930,
      "chap": 1931,
      "ars": 1932,
      "ism": 1933,
      "ware": 1934,
      "Øª": 1935,
      "ĠEng": 1936,
      "Ġ+": 1937,
      "Ġtyp": 1938,
      "MA": 1939,
      "ery": 1940,
      "stan": 1941,
      "2000": 1942,
      "Ġ80": 1943,
      "ling": 1944,
      "ircu": 1945,
      "Ġ59": 1946,
      "uary": 1947,
      "Com": 1948,
      ";&": 1949,
      "TE": 1950,
      "App": 1951,
      "tire": 1952,
      "vest": 1953,
      "ffic": 1954,
      "dic": 1955,
      "mary": 1956,
      "Ġ90": 1957,
      "Â°": 1958,
      "ml": 1959,
      "olu": 1960,
      "CA": 1961,
      "des": 1962,
      "Ġ57": 1963,
      "Ġ58": 1964,
      "aged": 1965,
      "vels": 1966,
      "ks": 1967,
      "ics": 1968,
      "):": 1969,
      "ters": 1970,
      "Ġhel": 1971,
      "SP": 1972,
      "2007": 1973,
      "pply": 1974,
      "lis": 1975,
      "ĠDes": 1976,
      "onal": 1977,
      "ĠID": 1978,
      "Ġfed": 1979,
      "ESS": 1980,
      "Item": 1981,
      "ida": 1982,
      "ĠEnv": 1983,
      "Ġ75": 1984,
      "spon": 1985,
      "ert": 1986,
      "ĠMed": 1987,
      ".]": 1988,
      "ET": 1989,
      "vate": 1990,
      "Ġca": 1991,
      "Ġâ": 1992,
      "sw": 1993,
      "do": 1994,
      "Ġmis": 1995,
      "aly": 1996,
      "Ġ66": 1997,
      "Ġder": 1998,
      "urs": 1999,
      "Ġss": 2000,
      "ĠNum": 2001,
      "ave": 2002,
      "ror": 2003,
      "ior": 2004,
      "Ġmy": 2005,
      "comm": 2006,
      "Ġbi": 2007,
      "pper": 2008,
      "Ġsl": 2009,
      "Ġden": 2010,
      "ocal": 2011,
      "Ġliv": 2012,
      "2005": 2013,
      "Con": 2014,
      "ired": 2015,
      "Ġver": 2016,
      "Ġcre": 2017,
      "ĠFeb": 2018,
      "Ġdri": 2019,
      "SA": 2020,
      "2002": 2021,
      "abor": 2022,
      "eria": 2023,
      "Ġne": 2024,
      ").&#": 2025,
      "))": 2026,
      "ails": 2027,
      "enda": 2028,
      "urer": 2029,
      "Ġfut": 2030,
      "2004": 2031,
      "ola": 2032,
      "lia": 2033,
      "2012": 2034,
      "aced": 2035,
      "Num": 2036,
      "951": 2037,
      "reof": 2038,
      "oods": 2039,
      "2013": 2040,
      "ĠRE": 2041,
      "Ùĥ": 2042,
      "oved": 2043,
      "atis": 2044,
      "time": 2045,
      "ats": 2046,
      "eeds": 2047,
      "En": 2048,
      "enti": 2049,
      "ana": 2050,
      "961": 2051,
      "PS": 2052,
      "oms": 2053,
      "liga": 2054,
      "Ùİ": 2055,
      "ĠEm": 2056,
      "bs": 2057,
      "Ġsw": 2058,
      "Ġmax": 2059,
      "Ġoil": 2060,
      "ĠSen": 2061,
      "ĠPM": 2062,
      "stra": 2063,
      "tect": 2064,
      "ria": 2065,
      "2003": 2066,
      "oid": 2067,
      "ook": 2068,
      "EU": 2069,
      "Ġ110": 2070,
      "Ġ'": 2071,
      "963": 2072,
      "ĠNA": 2073,
      "960": 2074,
      "ley": 2075,
      "no": 2076,
      "ĠÙİ": 2077,
      "orne": 2078,
      "Ġce": 2079,
      "odif": 2080,
      "ders": 2081,
      "umst": 2082,
      "Ġwar": 2083,
      "ored": 2084,
      "pd": 2085,
      "RA": 2086,
      "eff": 2087,
      "LL": 2088,
      "utri": 2089,
      "ivis": 2090,
      "ĠPre": 2091,
      "abel": 2092,
      "Ġpop": 2093,
      "300": 2094,
      "till": 2095,
      "tisf": 2096,
      "Ġï¿½": 2097,
      "ains": 2098,
      "ĠØ£": 2099,
      "ara": 2100,
      "ĠRef": 2101,
      "king": 2102,
      "ĠEN": 2103,
      "kely": 2104,
      "Ġ</": 2105,
      "ĠCar": 2106,
      "ows": 2107,
      "ION": 2108,
      "Ad": 2109,
      "urb": 2110,
      "cons": 2111,
      "MS": 2112,
      "ides": 2113,
      "ĠAD": 2114,
      "ĠInd": 2115,
      "Ġfam": 2116,
      "ART": 2117,
      "half": 2118,
      "iii": 2119,
      "ocia": 2120,
      "cass": 2121,
      "ious": 2122,
      "Ġ101": 2123,
      "ĠGe": 2124,
      "pple": 2125,
      "ĠØ¨": 2126,
      "FIG": 2127,
      "ĠLe": 2128,
      "FOR": 2129,
      "sts": 2130,
      "tact": 2131,
      "pres": 2132,
      "Ø©": 2133,
      "Ġsuc": 2134,
      "Res": 2135,
      "Ġpat": 2136,
      "cts": 2137,
      "Ġnow": 2138,
      "az": 2139,
      "Reg": 2140,
      "reen": 2141,
      "tak": 2142,
      "ĠNot": 2143,
      "Ġten": 2144,
      "this": 2145,
      "ixed": 2146,
      "cell": 2147,
      "ĠØ¹": 2148,
      "As": 2149,
      "oles": 2150,
      "lear": 2151,
      "Ġhtt": 2152,
      "Ġdam": 2153,
      "400": 2154,
      "aces": 2155,
      "ĠDis": 2156,
      "243": 2157,
      "ĠVal": 2158,
      "ĠÃ": 2159,
      "ĠSur": 2160,
      "off": 2161,
      "Ġneg": 2162,
      "peti": 2163,
      "Ġsk": 2164,
      "semb": 2165,
      "Ġhyd": 2166,
      ",-": 2167,
      "FF": 2168,
      "Sc": 2169,
      "from": 2170,
      "ole": 2171,
      "isla": 2172,
      "CL": 2173,
      "ERS": 2174,
      "Ġaud": 2175,
      "ĠÙģ": 2176,
      "Ġ_": 2177,
      "quir": 2178,
      "Ġdu": 2179,
      "amin": 2180,
      "agn": 2181,
      "tr": 2182,
      "ief": 2183,
      "|||": 2184,
      "valu": 2185,
      "roll": 2186,
      "ists": 2187,
      "Ġ%": 2188,
      "Ġ381": 2189,
      "isa": 2190,
      "DE": 2191,
      "sed": 2192,
      "isi": 2193,
      "ĠTax": 2194,
      "mal": 2195,
      "Ġbud": 2196,
      "Ġ!": 2197,
      "chie": 2198,
      "Ùģ": 2199,
      "Ġpp": 2200,
      "ĠOR": 2201,
      "962": 2202,
      "ched": 2203,
      "Ġage": 2204,
      "ĠHe": 2205,
      "OP": 2206,
      "ĠÙĦ": 2207,
      "1996": 2208,
      "oney": 2209,
      "954": 2210,
      "ĠCH": 2211,
      "101": 2212,
      "ovem": 2213,
      "ival": 2214,
      "gu": 2215,
      "ler": 2216,
      "ĠDo": 2217,
      "ott": 2218,
      "reed": 2219,
      "sent": 2220,
      "cre": 2221,
      "Cont": 2222,
      "Ġ__": 2223,
      "ĠÎ¼": 2224,
      "Ref": 2225,
      "IM": 2226,
      "pec": 2227,
      "go": 2228,
      "Ġgl": 2229,
      "Ġsal": 2230,
      "AB": 2231,
      "ĠSo": 2232,
      "alls": 2233,
      "ony": 2234,
      "250": 2235,
      "Ġ72": 2236,
      "Ġ99": 2237,
      "ĠRo": 2238,
      "Ġdeg": 2239,
      "sol": 2240,
      "Case": 2241,
      "oped": 2242,
      "erve": 2243,
      "ah": 2244,
      "year": 2245,
      "Ġ120": 2246,
      "ĠSe": 2247,
      "Ġwa": 2248,
      "VE": 2249,
      "Ġfat": 2250,
      "Ġenc": 2251,
      "Re": 2252,
      "ells": 2253,
      "AND": 2254,
      "Ġ68": 2255,
      "men": 2256,
      "ads": 2257,
      "IB": 2258,
      "atut": 2259,
      "110": 2260,
      "org": 2261,
      "237": 2262,
      "link": 2263,
      "uals": 2264,
      ".âĢĶ": 2265,
      "ĠAC": 2266,
      "Ġrat": 2267,
      "Ġ95": 2268,
      "such": 2269,
      "Ġ67": 2270,
      "ĠĠĠĊ": 2271,
      "merc": 2272,
      "dom": 2273,
      "rupt": 2274,
      ".\"": 2275,
      "pdf": 2276,
      "Ġ112": 2277,
      "gt": 2278,
      "swer": 2279,
      "lief": 2280,
      "ĠPr": 2281,
      "Cl": 2282,
      "fess": 2283,
      "Ġ93": 2284,
      "ien": 2285,
      "aint": 2286,
      "NG": 2287,
      "duca": 2288,
      "co": 2289,
      "mark": 2290,
      "ĠIre": 2291,
      "594": 2292,
      "irm": 2293,
      "ype": 2294,
      "EPA": 2295,
      "Ġwee": 2296,
      "EA": 2297,
      "ĠAny": 2298,
      "ture": 2299,
      "Ġtop": 2300,
      "Ġ74": 2301,
      "ĠSO": 2302,
      "Ġge": 2303,
      "ĠChe": 2304,
      "ĠMet": 2305,
      "Ġ91": 2306,
      "rand": 2307,
      "ude": 2308,
      "orld": 2309,
      "Ġ98": 2310,
      "SS": 2311,
      "Ġing": 2312,
      "Ġfo": 2313,
      "aff": 2314,
      "Page": 2315,
      "eris": 2316,
      "ipp": 2317,
      "mitt": 2318,
      "vic": 2319,
      "ĠInt": 2320,
      "ĠDC": 2321,
      "ght": 2322,
      "Wh": 2323,
      "imin": 2324,
      "Ġget": 2325,
      "956": 2326,
      "Fed": 2327,
      "Ġflu": 2328,
      "Ġcoo": 2329,
      "ITY": 2330,
      "para": 2331,
      "ĠSoc": 2332,
      "ĠNor": 2333,
      "igin": 2334,
      "TO": 2335,
      ")-": 2336,
      "965": 2337,
      "head": 2338,
      "son": 2339,
      "pers": 2340,
      "6999": 2341,
      "ray": 2342,
      "Ġ..": 2343,
      "Ġcy": 2344,
      "2014": 2345,
      "ĠCD": 2346,
      "Ġ111": 2347,
      "fr": 2348,
      "icro": 2349,
      "381": 2350,
      "Ġ71": 2351,
      "term": 2352,
      ".**": 2353,
      "Ġtes": 2354,
      "rig": 2355,
      "ĠDO": 2356,
      "quid": 2357,
      "Ar": 2358,
      "dis": 2359,
      "Â·": 2360,
      "acy": 2361,
      "''": 2362,
      "Ø§ÙĦ": 2363,
      "Ġ78": 2364,
      "600": 2365,
      "Ġ85": 2366,
      "anel": 2367,
      "ĠTR": 2368,
      "Am": 2369,
      "uris": 2370,
      "info": 2371,
      "ĠPe": 2372,
      "Ġann": 2373,
      "rong": 2374,
      "reek": 2375,
      "Ġcat": 2376,
      "cle": 2377,
      "UB": 2378,
      "pay": 2379,
      "800": 2380,
      "ime": 2381,
      "af": 2382,
      "AG": 2383,
      "Ġ84": 2384,
      "ĠLaw": 2385,
      "Fig": 2386,
      "PR": 2387,
      "div": 2388,
      "gro": 2389,
      "otor": 2390,
      "Ġ130": 2391,
      "ris": 2392,
      "ĠNon": 2393,
      "ills": 2394,
      "let": 2395,
      "Ġ77": 2396,
      "****": 2397,
      "Ġ76": 2398,
      "LC": 2399,
      "bina": 2400,
      "ĠMon": 2401,
      "Ġ69": 2402,
      "ĪĴ": 2403,
      "ault": 2404,
      "Ġ96": 2405,
      "NO": 2406,
      "ĠGas": 2407,
      "ora": 2408,
      "educ": 2409,
      ",\"": 2410,
      "ĠPen": 2411,
      "gran": 2412,
      "Ġbur": 2413,
      "abit": 2414,
      "itiz": 2415,
      "SO": 2416,
      "ung": 2417,
      "kg": 2418,
      "Ġmar": 2419,
      "Ġmg": 2420,
      "text": 2421,
      "ĠEqu": 2422,
      "Ġ102": 2423,
      "Ġpow": 2424,
      "CON": 2425,
      "pet": 2426,
      "UD": 2427,
      "oft": 2428,
      "Yes": 2429,
      "HS": 2430,
      "ique": 2431,
      "Ġ88": 2432,
      "dem": 2433,
      "ming": 2434,
      "ĠJus": 2435,
      "ds": 2436,
      "fol": 2437,
      "Ġev": 2438,
      "ape": 2439,
      "egr": 2440,
      "ĠVol": 2441,
      "aily": 2442,
      "Ġvar": 2443,
      "ĠOp": 2444,
      "yr": 2445,
      "set": 2446,
      "eals": 2447,
      "omen": 2448,
      "aut": 2449,
      "fit": 2450,
      "Ġbar": 2451,
      "LA": 2452,
      "Ġlet": 2453,
      "ithd": 2454,
      "Ġ73": 2455,
      "ids": 2456,
      "lex": 2457,
      "Ġste": 2458,
      "We": 2459,
      "ym": 2460,
      "rier": 2461,
      "202": 2462,
      "Ġ05": 2463,
      "Part": 2464,
      "eps": 2465,
      "Ġ500": 2466,
      "Ġinj": 2467,
      "@@@@": 2468,
      "lier": 2469,
      "sur": 2470,
      "umb": 2471,
      "UC": 2472,
      "ØŃ": 2473,
      "reet": 2474,
      "TC": 2475,
      "ĠBl": 2476,
      "Ġtru": 2477,
      "onst": 2478,
      "ames": 2479,
      "230": 2480,
      "enn": 2481,
      ".;": 2482,
      "ways": 2483,
      "ico": 2484,
      "ĠDE": 2485,
      "Ġ94": 2486,
      "uses": 2487,
      "ARY": 2488,
      "Ġ89": 2489,
      "gage": 2490,
      "001": 2491,
      "inu": 2492,
      "Ġrun": 2493,
      "Ùī": 2494,
      "Ġnor": 2495,
      "ansi": 2496,
      "224": 2497,
      ")**,": 2498,
      "mak": 2499,
      "ativ": 2500,
      "ract": 2501,
      "Ġ106": 2502,
      "may": 2503,
      "Ġgr": 2504,
      "Ġbre": 2505,
      "ceip": 2506,
      "td": 2507,
      ")**;": 2508,
      "ĠSH": 2509,
      "ived": 2510,
      "Ġ104": 2511,
      "kn": 2512,
      "ĠTex": 2513,
      "ols": 2514,
      "Ġcou": 2515,
      "Ġ92": 2516,
      "idel": 2517,
      "Ġ---": 2518,
      "ĠSm": 2519,
      "cv": 2520,
      ",âĢĿ": 2521,
      "bl": 2522,
      "ĠNat": 2523,
      "900": 2524,
      "airs": 2525,
      "bon": 2526,
      "Ġ97": 2527,
      "bur": 2528,
      "ĠId": 2529,
      "ges": 2530,
      "cur": 2531,
      "On": 2532,
      "NE": 2533,
      "eu": 2534,
      "CS": 2535,
      "Ġ300": 2536,
      "oor": 2537,
      "ĠEU": 2538,
      "url": 2539,
      "Ġmix": 2540,
      ".]&#": 2541,
      "ĠAR": 2542,
      "emed": 2543,
      "ĠBut": 2544,
      "Ġ87": 2545,
      "228": 2546,
      "Ġcri": 2547,
      "ĠJud": 2548,
      "reby": 2549,
      "rown": 2550,
      "OM": 2551,
      "onds": 2552,
      "Ġ``": 2553,
      "Ġbal": 2554,
      "ĠCer": 2555,
      "Ġ82": 2556,
      "Ġ81": 2557,
      "pub": 2558,
      "UT": 2559,
      "ĠCap": 2560,
      "anks": 2561,
      "unt": 2562,
      "ht": 2563,
      "my": 2564,
      "ĠÎ¼g": 2565,
      "erva": 2566,
      "gy": 2567,
      "osed": 2568,
      "sult": 2569,
      "ĠSum": 2570,
      "ĠEff": 2571,
      "Ġ150": 2572,
      "ĠÙĬ": 2573,
      "more": 2574,
      "ĠBe": 2575,
      "Ġ79": 2576,
      "Ġbor": 2577,
      "ĠCan": 2578,
      "203": 2579,
      "ĠCal": 2580,
      "Ġfoc": 2581,
      "ado": 2582,
      "but": 2583,
      "ille": 2584,
      "Ġdon": 2585,
      "Scot": 2586,
      "Ġ115": 2587,
      "lish": 2588,
      "Ġlog": 2589,
      "Ġagg": 2590,
      "ĠFr": 2591,
      "Ġsoc": 2592,
      "empt": 2593,
      "Ġ~": 2594,
      "angu": 2595,
      "Ġ113": 2596,
      "ĠCA": 2597,
      "Ġkey": 2598,
      "whe": 2599,
      "700": 2600,
      "955": 2601,
      "urch": 2602,
      "ota": 2603,
      "Ġ;": 2604,
      "PD": 2605,
      "wth": 2606,
      "ĠAnn": 2607,
      "120": 2608,
      "tio": 2609,
      "2017": 2610,
      "Ġjob": 2611,
      "oval": 2612,
      "enz": 2613,
      "Ġox": 2614,
      "uild": 2615,
      "Ø£": 2616,
      "ils": 2617,
      "ustr": 2618,
      "ded": 2619,
      "Ġ108": 2620,
      "terp": 2621,
      "trib": 2622,
      "::": 2623,
      "rect": 2624,
      "self": 2625,
      "ĠDIS": 2626,
      "Ġbo": 2627,
      "Ġ86": 2628,
      "ada": 2629,
      "-.": 2630,
      "aska": 2631,
      "ĠAM": 2632,
      "ĠUN": 2633,
      "Ġ83": 2634,
      "Ġvia": 2635,
      "alty": 2636,
      "Ġdat": 2637,
      ")âĢĶ": 2638,
      "ÙĲ": 2639,
      "orks": 2640,
      "ACT": 2641,
      "___": 2642,
      "mat": 2643,
      "yp": 2644,
      "mar": 2645,
      "rest": 2646,
      "ull": 2647,
      "ots": 2648,
      ".âĢĻ": 2649,
      "ĠAff": 2650,
      "Ġhol": 2651,
      "Ġcut": 2652,
      "ones": 2653,
      "ĠRel": 2654,
      "ĊĠĠ": 2655,
      "ÙĦÙħ": 2656,
      "ĠMod": 2657,
      "itch": 2658,
      "Ġir": 2659,
      "ĠAb": 2660,
      "Ġegg": 2661,
      "END": 2662,
      "ancy": 2663,
      "Ġhaz": 2664,
      "002": 2665,
      "Ġves": 2666,
      "ĠCir": 2667,
      "met": 2668,
      "Ġ103": 2669,
      "ĠMc": 2670,
      "ĠSE": 2671,
      "112": 2672,
      "Ġred": 2673,
      "Ġ107": 2674,
      "ev": 2675,
      "2015": 2676,
      "ik": 2677,
      "miss": 2678,
      "ĠIV": 2679,
      "ĠDr": 2680,
      "emic": 2681,
      "QU": 2682,
      "ĠDoc": 2683,
      "umn": 2684,
      "Ġsay": 2685,
      "Ġdr": 2686,
      "itic": 2687,
      "Ġ105": 2688,
      "well": 2689,
      "ĠAtt": 2690,
      "Ġple": 2691,
      "OW": 2692,
      "Ġsix": 2693,
      "At": 2694,
      "URE": 2695,
      "iods": 2696,
      "ĠAL": 2697,
      "omic": 2698,
      "tu": 2699,
      "ĠQu": 2700,
      "lled": 2701,
      "ĠFig": 2702,
      "ift": 2703,
      "Ġ02": 2704,
      "bus": 2705,
      "ĠYou": 2706,
      "blem": 2707,
      "Ġ114": 2708,
      "ify": 2709,
      "ened": 2710,
      "Pub": 2711,
      "olly": 2712,
      "jud": 2713,
      "ores": 2714,
      "Ġfew": 2715,
      "ili": 2716,
      "246": 2717,
      "alk": 2718,
      "Ġ118": 2719,
      "Ġasp": 2720,
      "DIV": 2721,
      "All": 2722,
      "hers": 2723,
      "ĠJoh": 2724,
      "cks": 2725,
      "Ġbat": 2726,
      "Ġri": 2727,
      "plic": 2728,
      "mes": 2729,
      "Ġhar": 2730,
      "plex": 2731,
      "Cu": 2732,
      "role": 2733,
      "FS": 2734,
      "Ġwat": 2735,
      "cula": 2736,
      "ĠPA": 2737,
      "ĠAN": 2738,
      "ĠAv": 2739,
      "ĠTer": 2740,
      "arks": 2741,
      "ĠPa": 2742,
      "âĢĿ,": 2743,
      "252": 2744,
      "ĠGA": 2745,
      "iam": 2746,
      "ĠOne": 2747,
      "ulf": 2748,
      "Ġque": 2749,
      "ICE": 2750,
      "life": 2751,
      "Ġaid": 2752,
      "TT": 2753,
      "iles": 2754,
      "obal": 2755,
      "ĠEX": 2756,
      "943": 2757,
      "llll": 2758,
      "RC": 2759,
      "ged": 2760,
      "erat": 2761,
      "Ġ03": 2762,
      "ager": 2763,
      "INE": 2764,
      "omin": 2765,
      "ept": 2766,
      "Ġ122": 2767,
      "Ġupd": 2768,
      "ĠYes": 2769,
      "Dec": 2770,
      ",,,,": 2771,
      "Any": 2772,
      "Ġfee": 2773,
      "Ġtub": 2774,
      "igna": 2775,
      "Co": 2776,
      "ILL": 2777,
      "pped": 2778,
      "osis": 2779,
      "scm": 2780,
      "back": 2781,
      "leph": 2782,
      ",âĢĻ": 2783,
      "sess": 2784,
      "ern": 2785,
      "Pl": 2786,
      "mod": 2787,
      "Ġdry": 2788,
      "113": 2789,
      "ease": 2790,
      "150": 2791,
      "227": 2792,
      "Ġmer": 2793,
      "IAL": 2794,
      "Ġ202": 2795,
      "ero": 2796,
      "Ġjus": 2797,
      "ĠLo": 2798,
      "ama": 2799,
      "âĪĴ": 2800,
      "ĠDeb": 2801,
      "EST": 2802,
      "Ġabs": 2803,
      "DR": 2804,
      "Head": 2805,
      "1999": 2806,
      "ĠSIF": 2807,
      "ĠUse": 2808,
      "rap": 2809,
      "ites": 2810,
      "mits": 2811,
      "Ġfig": 2812,
      "ĠNov": 2813,
      "hing": 2814,
      "ira": 2815,
      "oura": 2816,
      "MB": 2817,
      "940": 2818,
      "def": 2819,
      "ĠFl": 2820,
      "SC": 2821,
      "have": 2822,
      "ĠBo": 2823,
      "ino": 2824,
      "ATES": 2825,
      "Ġ...": 2826,
      "ugh": 2827,
      "was": 2828,
      "ĠFur": 2829,
      "ĠNE": 2830,
      "Ġenh": 2831,
      "010": 2832,
      "Ġ09": 2833,
      "TY": 2834,
      "Ġess": 2835,
      "âĢ²": 2836,
      "vo": 2837,
      "data": 2838,
      "105": 2839,
      "xml": 2840,
      "Ġur": 2841,
      "alyz": 2842,
      "Ġ125": 2843,
      "It": 2844,
      "103": 2845,
      "ĠPri": 2846,
      "rime": 2847,
      "Ġcho": 2848,
      "ERV": 2849,
      ")*": 2850,
      "ĠSan": 2851,
      "Info": 2852,
      "Ġrad": 2853,
      "eled": 2854,
      "ĠBy": 2855,
      "mula": 2856,
      "CP": 2857,
      "aps": 2858,
      "iber": 2859,
      "Per": 2860,
      "ĠPR": 2861,
      "ĠSci": 2862,
      "ĠFAA": 2863,
      "Na": 2864,
      "racy": 2865,
      "Â«": 2866,
      "Ġ>": 2867,
      "Ġ116": 2868,
      "izes": 2869,
      "ĠShe": 2870,
      "DS": 2871,
      "lf": 2872,
      "Ø¬": 2873,
      "edi": 2874,
      "ĠNet": 2875,
      "Ġeas": 2876,
      "titu": 2877,
      "232": 2878,
      "ocks": 2879,
      "Ġaro": 2880,
      "arly": 2881,
      "reng": 2882,
      "ME": 2883,
      "REF": 2884,
      "rief": 2885,
      "tage": 2886,
      "Ġput": 2887,
      "ORT": 2888,
      "sted": 2889,
      "ĠPat": 2890,
      "106": 2891,
      "oti": 2892,
      "arms": 2893,
      "umin": 2894,
      "http": 2895,
      "dian": 2896,
      "ØĮ": 2897,
      "ĠFY": 2898,
      "Ġfr": 2899,
      "**;": 2900,
      "ĠON": 2901,
      "Ġpip": 2902,
      "ĠDet": 2903,
      "ools": 2904,
      "Ġbro": 2905,
      "Ġsil": 2906,
      "TING": 2907,
      "pri": 2908,
      "ĠLLC": 2909,
      "Gen": 2910,
      "Ġles": 2911,
      "102": 2912,
      "que": 2913,
      "ĠOut": 2914,
      "Ġ04": 2915,
      "Ġ117": 2916,
      "Ġ06": 2917,
      "bit": 2918,
      "Ġ123": 2919,
      "Ġ222": 2920,
      "THER": 2921,
      "~~": 2922,
      "See": 2923,
      "ĠÂ·": 2924,
      "zone": 2925,
      "ĠINC": 2926,
      "To": 2927,
      "ĠVir": 2928,
      "will": 2929,
      "ATED": 2930,
      "sign": 2931,
      "969": 2932,
      "meth": 2933,
      "Ġvot": 2934,
      "than": 2935,
      "ĊĠĊ": 2936,
      "ĠBas": 2937,
      "lin": 2938,
      "tish": 2939,
      "ĠBi": 2940,
      "UE": 2941,
      "Nor": 2942,
      "ECT": 2943,
      "104": 2944,
      "Ġmob": 2945,
      "ĠPL": 2946,
      "âĢĿ)": 2947,
      "alse": 2948,
      "Ġlot": 2949,
      "rame": 2950,
      "Rec": 2951,
      "rad": 2952,
      "col": 2953,
      "toc": 2954,
      "BER": 2955,
      "Ġ08": 2956,
      "Ac": 2957,
      "DD": 2958,
      "Ġdig": 2959,
      "alla": 2960,
      ".-": 2961,
      "Ag": 2962,
      "oper": 2963,
      "ller": 2964,
      "lege": 2965,
      "PM": 2966,
      "Ġfit": 2967,
      "ogen": 2968,
      "Ġsav": 2969,
      "ïģ´": 2970,
      "ader": 2971,
      "ĠSer": 2972,
      "oung": 2973,
      "PL": 2974,
      "Ġ400": 2975,
      "TAB": 2976,
      "ERAL": 2977,
      "231": 2978,
      ".*": 2979,
      "cr": 2980,
      "OH": 2981,
      "resh": 2982,
      "omer": 2983,
      "IST": 2984,
      "Ġ119": 2985,
      "ïģ¥": 2986,
      "âĢľ(": 2987,
      "Ġ250": 2988,
      "ova": 2989,
      "ĠÂ°": 2990,
      "Rep": 2991,
      "âĢĺ(": 2992,
      "Ġil": 2993,
      "115": 2994,
      "317": 2995,
      "ïĤ": 2996,
      "Ġmag": 2997,
      "law": 2998,
      "ĠOb": 2999,
      "107": 3000,
      "2016": 3001,
      "ipa": 3002,
      "125": 3003,
      "RS": 3004,
      "Me": 3005,
      "rat": 3006,
      "ĠVA": 3007,
      "FO": 3008,
      "PH": 3009,
      "ecti": 3010,
      "130": 3011,
      "ba": 3012,
      "Ġmov": 3013,
      "stim": 3014,
      ";,": 3015,
      "Ġnit": 3016,
      "972": 3017,
      ":**": 3018,
      "ĠLim": 3019,
      "Ġ140": 3020,
      "Ġ.&#": 3021,
      "\"></": 3022,
      "PRO": 3023,
      "259": 3024,
      "ĠEst": 3025,
      "Ġnuc": 3026,
      "Chap": 3027,
      "elf": 3028,
      "pare": 3029,
      "Ġmm": 3030,
      "Ġwit": 3031,
      "UND": 3032,
      "111": 3033,
      "ser": 3034,
      "Ġ07": 3035,
      "Ġ109": 3036,
      "AY": 3037,
      "947": 3038,
      "nal": 3039,
      "New": 3040,
      "reta": 3041,
      "8217": 3042,
      "cern": 3043,
      "odes": 3044,
      "IE": 3045,
      "ilot": 3046,
      "\\/": 3047,
      "most": 3048,
      "ĠRed": 3049,
      "Ġppm": 3050,
      "xx": 3051,
      "aned": 3052,
      "fir": 3053,
      "ker": 3054,
      "Ġfra": 3055,
      "Ss": 3056,
      "imen": 3057,
      "2023": 3058,
      "ches": 3059,
      "tery": 3060,
      "269": 3061,
      "Ġseg": 3062,
      "Acc": 3063,
      "TIVE": 3064,
      "amet": 3065,
      "fits": 3066,
      "Ġtri": 3067,
      "syst": 3068,
      "osi": 3069,
      "Ġdiv": 3070,
      "Ġft": 3071,
      "306": 3072,
      "GA": 3073,
      "948": 3074,
      "Ġ124": 3075,
      "119": 3076,
      "ĠEdi": 3077,
      "ĠSEC": 3078,
      "ĠSta": 3079,
      "havi": 3080,
      "ĠDel": 3081,
      "sidi": 3082,
      "has": 3083,
      "III": 3084,
      "bre": 3085,
      "cast": 3086,
      "unal": 3087,
      "941": 3088,
      "ush": 3089,
      "olve": 3090,
      "rawn": 3091,
      "GS": 3092,
      "121": 3093,
      "lara": 3094,
      "Marg": 3095,
      "DL": 3096,
      "EX": 3097,
      "ona": 3098,
      "ĠVOL": 3099,
      "Form": 3100,
      "hol": 3101,
      "Date": 3102,
      "ict": 3103,
      "003": 3104,
      "Ġlin": 3105,
      "arts": 3106,
      "ania": 3107,
      "ĠÙĤ": 3108,
      "205": 3109,
      "ibr": 3110,
      "Ġ590": 3111,
      "ĠFL": 3112,
      "1000": 3113,
      "upa": 3114,
      "mo": 3115,
      "isks": 3116,
      "wide": 3117,
      "body": 3118,
      "Ġcam": 3119,
      "ĠREP": 3120,
      "HH": 3121,
      "ĠBec": 3122,
      "ĠLG": 3123,
      "sels": 3124,
      "ĠMex": 3125,
      "SD": 3126,
      "atur": 3127,
      "nes": 3128,
      "ires": 3129,
      "umed": 3130,
      "rup": 3131,
      "OUR": 3132,
      "FD": 3133,
      "ĠTe": 3134,
      "Ġ000": 3135,
      "ĠPay": 3136,
      "CD": 3137,
      "ĠDur": 3138,
      "ĠSol": 3139,
      "319": 3140,
      "Ø§Ø": 3141,
      "ĠSte": 3142,
      "Ġtw": 3143,
      "HA": 3144,
      "gra": 3145,
      "Ã©": 3146,
      "140": 3147,
      "UME": 3148,
      "come": 3149,
      "590": 3150,
      "rees": 3151,
      "Dep": 3152,
      "Ġbr": 3153,
      "br": 3154,
      "type": 3155,
      "ging": 3156,
      "down": 3157,
      "UP": 3158,
      "uss": 3159,
      "],": 3160,
      "din": 3161,
      "Ġ317": 3162,
      "ENS": 3163,
      "BS": 3164,
      "pled": 3165,
      "UMM": 3166,
      "ĠLa": 3167,
      "136": 3168,
      "**,": 3169,
      "%)": 3170,
      "]&#": 3171,
      "116": 3172,
      "lim": 3173,
      "Ġ180": 3174,
      "Ø³Ø³": 3175,
      "ĠIS": 3176,
      "imar": 3177,
      "aste": 3178,
      "015": 3179,
      "ĠLeg": 3180,
      "oma": 3181,
      "353": 3182,
      "OG": 3183,
      "CY": 3184,
      "Ġsyn": 3185,
      "alt": 3186,
      "sa": 3187,
      "oph": 3188,
      "VER": 3189,
      "main": 3190,
      "004": 3191,
      ":*": 3192,
      "Ġfav": 3193,
      "pact": 3194,
      "west": 3195,
      "ICA": 3196,
      "det": 3197,
      "non": 3198,
      "Ġtox": 3199,
      "ĠMo": 3200,
      "005": 3201,
      "1997": 3202,
      "942": 3203,
      "ĠGl": 3204,
      "Ġsom": 3205,
      "ews": 3206,
      "ĠCur": 3207,
      "EAR": 3208,
      "CT": 3209,
      "108": 3210,
      "PO": 3211,
      "Ġrs": 3212,
      "span": 3213,
      "pid": 3214,
      "ione": 3215,
      "Ġsla": 3216,
      "âĢĲ": 3217,
      "ģĦ": 3218,
      "ASA": 3219,
      "pkg": 3220,
      "hest": 3221,
      "ĠSam": 3222,
      "MAN": 3223,
      "Par": 3224,
      "path": 3225,
      "tner": 3226,
      "thly": 3227,
      "ulat": 3228,
      "ALL": 3229,
      "ÙĦÙĩ": 3230,
      "ĠBud": 3231,
      "ĠRES": 3232,
      "ij": 3233,
      "pati": 3234,
      "Ø°": 3235,
      "180": 3236,
      "Ġlas": 3237,
      "igra": 3238,
      "exp": 3239,
      "Ġcr": 3240,
      "301": 3241,
      "0001": 3242,
      "tein": 3243,
      "FL": 3244,
      "ĠAS": 3245,
      "-(": 3246,
      "anes": 3247,
      "Act": 3248,
      "hyd": 3249,
      "yond": 3250,
      "ops": 3251,
      "ĠBL": 3252,
      "Ġax": 3253,
      "Ġsod": 3254,
      "Ġlat": 3255,
      "VA": 3256,
      "cor": 3257,
      "PC": 3258,
      "Ġhor": 3259,
      "carb": 3260,
      "att": 3261,
      "za": 3262,
      "icat": 3263,
      "OO": 3264,
      "flic": 3265,
      "oxy": 3266,
      "uck": 3267,
      "109": 3268,
      ");&#": 3269,
      "ises": 3270,
      "cal": 3271,
      "Ø§ÙĨ": 3272,
      "ĠNON": 3273,
      "ĠCle": 3274,
      "ger": 3275,
      "With": 3276,
      "Ġid": 3277,
      "dep": 3278,
      "354": 3279,
      "208": 3280,
      "rast": 3281,
      "BB": 3282,
      "gl": 3283,
      "TRIC": 3284,
      "Ġ210": 3285,
      "PER": 3286,
      "num": 3287,
      "ĠGr": 3288,
      "fl": 3289,
      "ĠLA": 3290,
      "ĠHar": 3291,
      "Ġsy": 3292,
      "hens": 3293,
      "dist": 3294,
      "ĠWar": 3295,
      "idd": 3296,
      "122": 3297,
      "iec": 3298,
      "can": 3299,
      "ĠDi": 3300,
      "ĠÌ": 3301,
      "dec": 3302,
      "EE": 3303,
      "sump": 3304,
      "].": 3305,
      "erm": 3306,
      "ĠDOE": 3307,
      "ĠSIP": 3308,
      "'#": 3309,
      "Ġ354": 3310,
      "bor": 3311,
      "Jan": 3312,
      "1072": 3313,
      "Ġ126": 3314,
      "just": 3315,
      "ĠBar": 3316,
      "Ġ121": 3317,
      "147": 3318,
      "011": 3319,
      "114": 3320,
      "123": 3321,
      "PE": 3322,
      "fin": 3323,
      "coh": 3324,
      "load": 3325,
      "osph": 3326,
      "DI": 3327,
      "234": 3328,
      "ey": 3329,
      "ELL": 3330,
      "lder": 3331,
      "TIC": 3332,
      "omet": 3333,
      "><": 3334,
      "ITED": 3335,
      "mand": 3336,
      "aa": 3337,
      "mium": 3338,
      "AF": 3339,
      "SR": 3340,
      "ki": 3341,
      "long": 3342,
      "By": 3343,
      "ASS": 3344,
      "hr": 3345,
      "Ġpul": 3346,
      "220": 3347,
      "ANT": 3348,
      "idth": 3349,
      "Id": 3350,
      "unic": 3351,
      "itia": 3352,
      "isms": 3353,
      "Sp": 3354,
      "Ġfa": 3355,
      "Ġsci": 3356,
      "lega": 3357,
      "ato": 3358,
      "Sen": 3359,
      "redi": 3360,
      "elec": 3361,
      "Ph": 3362,
      "Mar": 3363,
      "322": 3364,
      "Ġold": 3365,
      "ided": 3366,
      "Ġbox": 3367,
      "240": 3368,
      ".:": 3369,
      "tera": 3370,
      "terf": 3371,
      "ĠPO": 3372,
      "2020": 3373,
      "ideo": 3374,
      "ĠDa": 3375,
      "Ġ325": 3376,
      "ĠGAO": 3377,
      "124": 3378,
      "ci": 3379,
      "Ġwhy": 3380,
      "ĠAG": 3381,
      "Ġtow": 3382,
      "8211": 3383,
      "tly": 3384,
      "ÙĢ": 3385,
      "pol": 3386,
      "uff": 3387,
      "Ġsex": 3388,
      "ĠMO": 3389,
      "test": 3390,
      "fill": 3391,
      "ĠSim": 3392,
      "IES": 3393,
      "ĠØ¥": 3394,
      "Ã³": 3395,
      "CF": 3396,
      "TON": 3397,
      "ĠØª": 3398,
      "XX": 3399,
      "SI": 3400,
      "Ġ128": 3401,
      "ĠMis": 3402,
      "206": 3403,
      "ĠAPP": 3404,
      "pass": 3405,
      "238": 3406,
      "UG": 3407,
      "952": 3408,
      "wood": 3409,
      "117": 3410,
      "ASE": 3411,
      "MT": 3412,
      "ĠRet": 3413,
      "ĠMax": 3414,
      "ĠSW": 3415,
      "feet": 3416,
      "inci": 3417,
      "Ġ160": 3418,
      "gic": 3419,
      "ÙĦÙĬ": 3420,
      "ider": 3421,
      "=\"/": 3422,
      "'t": 3423,
      "sey": 3424,
      "ehic": 3425,
      "uge": 3426,
      "Def": 3427,
      "COM": 3428,
      "Ġ319": 3429,
      "ls": 3430,
      "ĠDL": 3431,
      "ca": 3432,
      "ford": 3433,
      "127": 3434,
      "Oct": 3435,
      "146": 3436,
      "igns": 3437,
      "Btu": 3438,
      "nd": 3439,
      "ĠBay": 3440,
      "asp": 3441,
      "Ġ230": 3442,
      "inf": 3443,
      "DC": 3444,
      "204": 3445,
      "IO": 3446,
      "now": 3447,
      "Ġïģ²": 3448,
      "Ġ155": 3449,
      "ITI": 3450,
      "ze": 3451,
      "Ġ144": 3452,
      "ĠÙı": 3453,
      "aim": 3454,
      "Øµ": 3455,
      "382": 3456,
      "ANCE": 3457,
      "SIS": 3458,
      ")-(": 3459,
      "ARD": 3460,
      "1992": 3461,
      "></": 3462,
      "html": 3463,
      "Ġ]": 3464,
      "261": 3465,
      "oo": 3466,
      "380": 3467,
      "ams": 3468,
      "118": 3469,
      "866": 3470,
      "Ġbed": 3471,
      "dio": 3472,
      "132": 3473,
      "rops": 3474,
      "209": 3475,
      "tes": 3476,
      "ĠFAL": 3477,
      "PAGE": 3478,
      "atch": 3479,
      "Ġnd": 3480,
      "133": 3481,
      "Ġ132": 3482,
      "),&#": 3483,
      "Ġsqu": 3484,
      "Ġ^": 3485,
      "amb": 3486,
      "Ġang": 3487,
      "LY": 3488,
      "Ġpet": 3489,
      "ilty": 3490,
      "327": 3491,
      "ĠÙĴ": 3492,
      "ĠMs": 3493,
      "Ms": 3494,
      "));": 3495,
      "Ġ205": 3496,
      "lut": 3497,
      "129": 3498,
      "ips": 3499,
      "967": 3500,
      "Sh": 3501,
      ".--": 3502,
      "ĠCL": 3503,
      "BR": 3504,
      "Ġdou": 3505,
      "add": 3506,
      "ĠUAS": 3507,
      "Ass": 3508,
      "207": 3509,
      "anti": 3510,
      "Ġ600": 3511,
      "rmal": 3512,
      "2021": 3513,
      "ĠDR": 3514,
      "Ġvic": 3515,
      "318": 3516,
      "asis": 3517,
      "inks": 3518,
      "1998": 3519,
      "ĠAT": 3520,
      "ÙħÙħ": 3521,
      "ĠÙĥ": 3522,
      "Sour": 3523,
      "iler": 3524,
      "Ġwww": 3525,
      "142": 3526,
      "170": 3527,
      "Su": 3528,
      "Ġlb": 3529,
      "Ġtoo": 3530,
      "vy": 3531,
      ")]": 3532,
      "013": 3533,
      "IZ": 3534,
      "ĠEl": 3535,
      "006": 3536,
      "ario": 3537,
      "band": 3538,
      "%,": 3539,
      "Em": 3540,
      "Ġbod": 3541,
      "oral": 3542,
      "148": 3543,
      "secu": 3544,
      "Ġsan": 3545,
      "ai": 3546,
      "ann": 3547,
      "Ġ134": 3548,
      "Ġ204": 3549,
      "ANS": 3550,
      "rugs": 3551,
      "rams": 3552,
      "file": 3553,
      "ĠIll": 3554,
      "Ġlit": 3555,
      "126": 3556,
      "ÙĦÙī": 3557,
      "umer": 3558,
      "Ġ138": 3559,
      "erce": 3560,
      "Ø¥": 3561,
      "MO": 3562,
      "175": 3563,
      "310": 3564,
      "ĠExp": 3565,
      "1995": 3566,
      "anta": 3567,
      "Ġlos": 3568,
      "Ġ\\": 3569,
      "ĠRem": 3570,
      "nova": 3571,
      "hibi": 3572,
      "Im": 3573,
      "Name": 3574,
      "TAL": 3575,
      "wing": 3576,
      "Ġng": 3577,
      "ÙħØ§": 3578,
      "May": 3579,
      "ĠMA": 3580,
      "pul": 3581,
      "Ġ240": 3582,
      "260": 3583,
      "ĠIL": 3584,
      "HR": 3585,
      "222": 3586,
      "BI": 3587,
      "BA": 3588,
      "aci": 3589,
      "Ġdie": 3590,
      "item": 3591,
      "ĠHer": 3592,
      "1991": 3593,
      "Off": 3594,
      "Ġyet": 3595,
      "SEC": 3596,
      "ompl": 3597,
      "rode": 3598,
      "Ġau": 3599,
      "URT": 3600,
      "Ġamb": 3601,
      "ansf": 3602,
      "orb": 3603,
      "Ĺı": 3604,
      "ibra": 3605,
      "ACK": 3606,
      "rela": 3607,
      "car": 3608,
      "ruit": 3609,
      "Ġcas": 3610,
      "ĠNC": 3611,
      "lan": 3612,
      "ĠCOR": 3613,
      "145": 3614,
      "mosp": 3615,
      "zen": 3616,
      "2019": 3617,
      "GG": 3618,
      "974": 3619,
      "irds": 3620,
      "href": 3621,
      "Ġ135": 3622,
      "ensi": 3623,
      "ĠUs": 3624,
      "ĠÙĨ": 3625,
      "Ġded": 3626,
      "134": 3627,
      "Ġtry": 3628,
      "pur": 3629,
      "Ġ333": 3630,
      "ye": 3631,
      "Ġvac": 3632,
      "opp": 3633,
      "ylv": 3634,
      "KE": 3635,
      "ican": 3636,
      "book": 3637,
      "ymer": 3638,
      "303": 3639,
      "QS": 3640,
      "ilt": 3641,
      "iet": 3642,
      "âģĦ": 3643,
      "care": 3644,
      "ĠNY": 3645,
      "WA": 3646,
      "ouis": 3647,
      "128": 3648,
      "ENTS": 3649,
      "Ùı": 3650,
      "Ġ127": 3651,
      "po": 3652,
      "Man": 3653,
      "urns": 3654,
      "Ġ301": 3655,
      "135": 3656,
      "loca": 3657,
      "350": 3658,
      "IGH": 3659,
      ":&#": 3660,
      "309": 3661,
      "rove": 3662,
      "menu": 3663,
      "ĠOil": 3664,
      "Ġ136": 3665,
      "reto": 3666,
      "utor": 3667,
      "305": 3668,
      "must": 3669,
      "Ġwet": 3670,
      "245": 3671,
      "Pre": 3672,
      "hour": 3673,
      "1080": 3674,
      "gate": 3675,
      "253": 3676,
      "Apr": 3677,
      "ĠBR": 3678,
      "Ġ318": 3679,
      "uled": 3680,
      "ĠAf": 3681,
      "FC": 3682,
      "ĠAdd": 3683,
      "210": 3684,
      "flow": 3685,
      "1993": 3686,
      "When": 3687,
      "ĉĊ": 3688,
      "ĠOf": 3689,
      "Ġ170": 3690,
      "ĠEUR": 3691,
      "ĠSw": 3692,
      "disc": 3693,
      "Or": 3694,
      "ĠSP": 3695,
      "eat": 3696,
      "Ġ142": 3697,
      "Ġaqu": 3698,
      "dscm": 3699,
      "ĠRoy": 3700,
      "144": 3701,
      "Ġ145": 3702,
      "Ġspe": 3703,
      "ĠMS": 3704,
      "ïĤ·": 3705,
      "plif": 3706,
      "ae": 3707,
      "utic": 3708,
      "1994": 3709,
      "ĠØ±": 3710,
      "750": 3711,
      "ĠEL": 3712,
      "ka": 3713,
      "CCM": 3714,
      "oda": 3715,
      "hio": 3716,
      "\\\"": 3717,
      "ĠME": 3718,
      "Ġtal": 3719,
      "223": 3720,
      "ĠCDP": 3721,
      "Dis": 3722,
      "Ġexc": 3723,
      "973": 3724,
      "ocky": 3725,
      "erk": 3726,
      "151": 3727,
      "Ġsou": 3728,
      "Ġ129": 3729,
      "Ġmol": 3730,
      "Ġï": 3731,
      "ilit": 3732,
      "ĠLi": 3733,
      "June": 3734,
      "MR": 3735,
      "Min": 3736,
      "know": 3737,
      "bb": 3738,
      "Ġ226": 3739,
      "ÙĬÙĨ": 3740,
      "Eng": 3741,
      "281": 3742,
      "ĠCR": 3743,
      "BO": 3744,
      "ipat": 3745,
      "917": 3746,
      "ALE": 3747,
      "157": 3748,
      "were": 3749,
      "De": 3750,
      "ATA": 3751,
      "TN": 3752,
      "Ġ139": 3753,
      "AME": 3754,
      "ih": 3755,
      "Is": 3756,
      "263": 3757,
      "mul": 3758,
      "hat": 3759,
      "Ġfir": 3760,
      "ĠSal": 3761,
      "vere": 3762,
      "ĠEd": 3763,
      "avy": 3764,
      "199": 3765,
      "241": 3766,
      "Des": 3767,
      "226": 3768,
      "arc": 3769,
      "mt": 3770,
      "018": 3771,
      "amed": 3772,
      "ĠHE": 3773,
      "riz": 3774,
      "TRIB": 3775,
      "190": 3776,
      "oric": 3777,
      "rem": 3778,
      "Ġok": 3779,
      "ives": 3780,
      "ĠEC": 3781,
      "rew": 3782,
      "149": 3783,
      "Ġalk": 3784,
      "Ġda": 3785,
      "050": 3786,
      "017": 3787,
      "ĠÙĩ": 3788,
      "Ġ131": 3789,
      "ea": 3790,
      "ĠDem": 3791,
      "PDF": 3792,
      "ĠAud": 3793,
      "ĠER": 3794,
      "ACE": 3795,
      "each": 3796,
      "iven": 3797,
      "966": 3798,
      "950": 3799,
      "HO": 3800,
      "bat": 3801,
      "ĠJer": 3802,
      "kt": 3803,
      "Serv": 3804,
      "alle": 3805,
      "Wash": 3806,
      ";.": 3807,
      "meas": 3808,
      "Ġerr": 3809,
      "Ġrot": 3810,
      "DO": 3811,
      "onor": 3812,
      "Ã¡": 3813,
      "Ġcla": 3814,
      "ney": 3815,
      "site": 3816,
      "ĠPet": 3817,
      "ĠMat": 3818,
      "oke": 3819,
      "Ġ310": 3820,
      "UTH": 3821,
      "ĠGra": 3822,
      "ĠØŃ": 3823,
      "aker": 3824,
      "ULE": 3825,
      "FA": 3826,
      "Ø®": 3827,
      "270": 3828,
      "Ġ800": 3829,
      "MIN": 3830,
      "gies": 3831,
      "amic": 3832,
      "Ġ{": 3833,
      "andl": 3834,
      "325": 3835,
      "bec": 3836,
      "NS": 3837,
      "icon": 3838,
      "cap": 3839,
      "list": 3840,
      "ryst": 3841,
      "ades": 3842,
      "ĠWeb": 3843,
      "ych": 3844,
      "ĠBox": 3845,
      "355": 3846,
      "ĠPac": 3847,
      "139": 3848,
      "ffer": 3849,
      "Ġ148": 3850,
      "Cons": 3851,
      "Ġul": 3852,
      "Ġ220": 3853,
      "Ġ212": 3854,
      "ATER": 3855,
      "ĠVOC": 3856,
      "007": 3857,
      "MC": 3858,
      "hem": 3859,
      "aine": 3860,
      "ĠPER": 3861,
      "ĠMAR": 3862,
      "450": 3863,
      "uels": 3864,
      "July": 3865,
      "da": 3866,
      "155": 3867,
      "itan": 3868,
      "ĠDay": 3869,
      "Ġ350": 3870,
      "Ġ133": 3871,
      "Ġ141": 3872,
      "MI": 3873,
      "ĠSCH": 3874,
      "Ø¶": 3875,
      "Ġask": 3876,
      "Ġdil": 3877,
      "Ġ225": 3878,
      "Ġfac": 3879,
      "alog": 3880,
      "oir": 3881,
      "ishe": 3882,
      "Ġmap": 3883,
      "ANC": 3884,
      "Non": 3885,
      "ISS": 3886,
      "via": 3887,
      "Ġ151": 3888,
      "165": 3889,
      "Ġ211": 3890,
      "akes": 3891,
      "inds": 3892,
      "ĠBal": 3893,
      "only": 3894,
      "Ø«": 3895,
      "Ġsea": 3896,
      "ENCY": 3897,
      "ĠOk": 3898,
      "020": 3899,
      "ĠTX": 3900,
      "DUC": 3901,
      "gar": 3902,
      "ĠPur": 3903,
      "pen": 3904,
      "Ġemb": 3905,
      "ĠBr": 3906,
      "Ġbul": 3907,
      "ĠMON": 3908,
      "161": 3909,
      "ogni": 3910,
      "340": 3911,
      "ros": 3912,
      "pute": 3913,
      "ette": 3914,
      "ACH": 3915,
      "ĠSUB": 3916,
      "Ġaer": 3917,
      "ĠCop": 3918,
      "ĠOMB": 3919,
      "NB": 3920,
      "131": 3921,
      "141": 3922,
      "304": 3923,
      "amm": 3924,
      "supp": 3925,
      "ĠEEA": 3926,
      "Feb": 3927,
      "Amer": 3928,
      "Ġsem": 3929,
      "040": 3930,
      "Ġll": 3931,
      "1086": 3932,
      "TIT": 3933,
      "1077": 3934,
      "164": 3935,
      "WR": 3936,
      "137": 3937,
      "229": 3938,
      "Ġ311": 3939,
      "acks": 3940,
      "360": 3941,
      "290": 3942,
      "280": 3943,
      "ady": 3944,
      "ĠBur": 3945,
      "Ġ156": 3946,
      "ĠNe": 3947,
      "Ġnc": 3948,
      "070": 3949,
      "ruc": 3950,
      "crim": 3951,
      "arn": 3952,
      "ĠIND": 3953,
      "244": 3954,
      "roy": 3955,
      "tam": 3956,
      "pond": 3957,
      "mail": 3958,
      "ADE": 3959,
      "176": 3960,
      "014": 3961,
      "Ġfer": 3962,
      "sm": 3963,
      "oked": 3964,
      "Ġ327": 3965,
      "158": 3966,
      "zing": 3967,
      "high": 3968,
      "ĠSC": 3969,
      "iana": 3970,
      "dens": 3971,
      "icit": 3972,
      "rite": 3973,
      "198": 3974,
      "ĠRad": 3975,
      "ITH": 3976,
      "Ġ137": 3977,
      "166": 3978,
      "Ġ147": 3979,
      "omb": 3980,
      "248": 3981,
      "ifi": 3982,
      "Ùĳ": 3983,
      "Cor": 3984,
      "FI": 3985,
      "235": 3986,
      "empl": 3987,
      "Sep": 3988,
      "mot": 3989,
      "195": 3990,
      "HQ": 3991,
      "ÃŃ": 3992,
      "ĠVI": 3993,
      "152": 3994,
      "Ġ203": 3995,
      "Ġ161": 3996,
      "ago": 3997,
      "bet": 3998,
      "ĠAdv": 3999,
      "SPEC": 4000,
      "ĠIT": 4001,
      "PAR": 4002,
      "Ġeth": 4003,
      "307": 4004,
      "ZM": 4005,
      "162": 4006,
      "MMIT": 4007,
      "138": 4008,
      "TRA": 4009,
      "345": 4010,
      "uer": 4011,
      "tees": 4012,
      "How": 4013,
      "IGN": 4014,
      "TEE": 4015,
      "Col": 4016,
      "TM": 4017,
      "Ġ152": 4018,
      "Ġfro": 4019,
      "leaf": 4020,
      "337": 4021,
      "156": 4022,
      "cean": 4023,
      "ali": 4024,
      "302": 4025,
      "ĠLet": 4026,
      "DER": 4027,
      "Subt": 4028,
      "omel": 4029,
      "ĠWil": 4030,
      "plan": 4031,
      "143": 4032,
      "fund": 4033,
      "spen": 4034,
      "Ġ206": 4035,
      "\":": 4036,
      "Ġund": 4037,
      "Ġvan": 4038,
      "ĠREG": 4039,
      "ĠSou": 4040,
      "060": 4041,
      "USUM": 4042,
      "oe": 4043,
      "vity": 4044,
      "Ġmi": 4045,
      "320": 4046,
      "Ġ146": 4047,
      "Fin": 4048,
      "vise": 4049,
      "writ": 4050,
      "rie": 4051,
      "reme": 4052,
      "ĠVer": 4053,
      "And": 4054,
      "Note": 4055,
      "lead": 4056,
      "257": 4057,
      "been": 4058,
      "WS": 4059,
      "umes": 4060,
      "ÙĩØ§": 4061,
      "when": 4062,
      "333": 4063,
      "ĠREC": 4064,
      "Aug": 4065,
      "cing": 4066,
      "ÙĪØ§": 4067,
      "rin": 4068,
      "Ġ280": 4069,
      "ĠRO": 4070,
      "cuss": 4071,
      "Ġimm": 4072,
      "TRO": 4073,
      "Ġ165": 4074,
      "ĠCM": 4075,
      "yer": 4076,
      "âĹı": 4077,
      "ĠOP": 4078,
      "167": 4079,
      "Ġ154": 4080,
      "Ġhy": 4081,
      "ban": 4082,
      "***": 4083,
      "va": 4084,
      "elle": 4085,
      "key": 4086,
      "404": 4087,
      "008": 4088,
      "ken": 4089,
      "1085": 4090,
      "236": 4091,
      "rs": 4092,
      "roac": 4093,
      "335": 4094,
      "249": 4095,
      "ĠMD": 4096,
      "ĠCT": 4097,
      "Ġ227": 4098,
      "gr": 4099,
      "argo": 4100,
      "ĠBY": 4101,
      "otog": 4102,
      "169": 4103,
      "ĠOur": 4104,
      "KS": 4105,
      "Ġ228": 4106,
      "159": 4107,
      "case": 4108,
      "Ġion": 4109,
      "012": 4110,
      "ĠÙĳ": 4111,
      "Vol": 4112,
      "ĠMR": 4113,
      "mote": 4114,
      "unch": 4115,
      "fid": 4116,
      "tiva": 4117,
      "ham": 4118,
      "net": 4119,
      "402": 4120,
      "IVER": 4121,
      "Ġaw": 4122,
      "oxic": 4123,
      "308": 4124,
      "153": 4125,
      "ster": 4126,
      "2022": 4127,
      "inst": 4128,
      "ĠLE": 4129,
      "313": 4130,
      "154": 4131,
      "312": 4132,
      "242": 4133,
      "Ġbit": 4134,
      "ATEM": 4135,
      "405": 4136,
      "uCu": 4137,
      "ĠSpr": 4138,
      "ROM": 4139,
      "Ġide": 4140,
      "Ø´": 4141,
      "946": 4142,
      "Cal": 4143,
      "flu": 4144,
      "FT": 4145,
      "Ġ($": 4146,
      "IX": 4147,
      "SK": 4148,
      "218": 4149,
      "ĠLow": 4150,
      "suff": 4151,
      "1090": 4152,
      "owed": 4153,
      "pert": 4154,
      "Ġ143": 4155,
      "ĠSA": 4156,
      "PT": 4157,
      "Ġpo": 4158,
      "egra": 4159,
      ")).": 4160,
      "HG": 4161,
      "hal": 4162,
      "bel": 4163,
      "174": 4164,
      "oten": 4165,
      "made": 4166,
      "Ġ208": 4167,
      "tise": 4168,
      "ĠGEN": 4169,
      "Ġâģ": 4170,
      "mill": 4171,
      "Ġmor": 4172,
      "ycl": 4173,
      "Ġlbs": 4174,
      "ĠFDA": 4175,
      "lb": 4176,
      "ely": 4177,
      "Ġ360": 4178,
      "ĠDEP": 4179,
      "hips": 4180,
      "MD": 4181,
      "168": 4182,
      "Bl": 4183,
      "Ġurb": 4184,
      "Ġarg": 4185,
      "Ġsen": 4186,
      "Ġraw": 4187,
      "post": 4188,
      "221": 4189,
      "311": 4190,
      "Ġmus": 4191,
      "pend": 4192,
      "cure": 4193,
      "HE": 4194,
      "196": 4195,
      "pell": 4196,
      "ĠMor": 4197,
      "Ġfem": 4198,
      "veys": 4199,
      "awa": 4200,
      "puts": 4201,
      "275": 4202,
      "Med": 4203,
      "279": 4204,
      "Ġbeg": 4205,
      "enge": 4206,
      "Ġ245": 4207,
      "asc": 4208,
      "Food": 4209,
      "ĠED": 4210,
      "Ġwin": 4211,
      "uk": 4212,
      "ĠOFF": 4213,
      "ULT": 4214,
      "347": 4215,
      "Ġod": 4216,
      "Ġton": 4217,
      "prom": 4218,
      "Ġ162": 4219,
      ".(": 4220,
      "ÙĨØ§": 4221,
      "Ġ700": 4222,
      "186": 4223,
      "Ġrev": 4224,
      "Ġhot": 4225,
      "tre": 4226,
      "SU": 4227,
      "rist": 4228,
      "opic": 4229,
      "tual": 4230,
      "ĠBE": 4231,
      "407": 4232,
      "AAQS": 4233,
      "mort": 4234,
      "vals": 4235,
      "geta": 4236,
      "\"/": 4237,
      "ĠNOX": 4238,
      "chas": 4239,
      "||||": 4240,
      "211": 4241,
      "Ġfix": 4242,
      "BL": 4243,
      "hel": 4244,
      "ĠBul": 4245,
      "019": 4246,
      "Ġtag": 4247,
      "Ġq": 4248,
      "But": 4249,
      "tiga": 4250,
      "Ġ149": 4251,
      "ygen": 4252,
      "194": 4253,
      "\")": 4254,
      "Ġ355": 4255,
      "ĠØ³": 4256,
      "ĠBO": 4257,
      "NY": 4258,
      "je": 4259,
      "ICAL": 4260,
      "Ġnt": 4261,
      "ng": 4262,
      "212": 4263,
      "080": 4264,
      "they": 4265,
      "Ġ182": 4266,
      "ĠÂ±": 4267,
      "sch": 4268,
      "016": 4269,
      "yle": 4270,
      "Ġtro": 4271,
      "Ġmut": 4272,
      "ĠIC": 4273,
      "ĠSha": 4274,
      "Ġ175": 4275,
      "Coun": 4276,
      "ano": 4277,
      "wscm": 4278,
      "GO": 4279,
      "sta": 4280,
      "Ġice": 4281,
      "igan": 4282,
      "ĠBor": 4283,
      "asur": 4284,
      "283": 4285,
      "352": 4286,
      "Ġ164": 4287,
      "Ġ336": 4288,
      "Ġye": 4289,
      "Ġpes": 4290,
      "apor": 4291,
      "ĠHyd": 4292,
      "Ġ168": 4293,
      "Ġ172": 4294,
      "diff": 4295,
      "Word": 4296,
      "opt": 4297,
      "ĠND": 4298,
      "Ġ410": 4299,
      "274": 4300,
      "ĠFam": 4301,
      "Ã³n": 4302,
      "EO": 4303,
      "ĠJap": 4304,
      "htm": 4305,
      "uis": 4306,
      "703": 4307,
      "Ġ320": 4308,
      "ifer": 4309,
      "sim": 4310,
      "Ġfla": 4311,
      "Ġ153": 4312,
      "409": 4313,
      ")âĢľ": 4314,
      "aks": 4315,
      "INT": 4316,
      "thes": 4317,
      "Ġ190": 4318,
      "ABLE": 4319,
      "Ġtur": 4320,
      "Ġ216": 4321,
      "unda": 4322,
      "*(": 4323,
      "ĠCOM": 4324,
      "550": 4325,
      "958": 4326,
      "ASH": 4327,
      "Ġ214": 4328,
      "Dire": 4329,
      "ĠWel": 4330,
      "rack": 4331,
      "you": 4332,
      "Ġmid": 4333,
      "ĠVis": 4334,
      "ĠBro": 4335,
      "ĠCAA": 4336,
      "Ġ199": 4337,
      "178": 4338,
      "ĠOH": 4339,
      "Ġcm": 4340,
      "nson": 4341,
      "ĠCAR": 4342,
      "lely": 4343,
      "dire": 4344,
      "sour": 4345,
      "192": 4346,
      "ĠGro": 4347,
      "Rem": 4348,
      "ĠEnd": 4349,
      "vacy": 4350,
      "rum": 4351,
      "#'#": 4352,
      "Ġ157": 4353,
      "ĠDry": 4354,
      "ĠSus": 4355,
      "mem": 4356,
      "ĠSl": 4357,
      "then": 4358,
      "Ġ183": 4359,
      "ste": 4360,
      "iga": 4361,
      "firm": 4362,
      "Ġsti": 4363,
      "ston": 4364,
      "emis": 4365,
      "fil": 4366,
      "raq": 4367,
      "rd": 4368,
      "SH": 4369,
      "bi": 4370,
      "706": 4371,
      "ropa": 4372,
      "zz": 4373,
      "375": 4374,
      "ĠGre": 4375,
      "Type": 4376,
      "ISH": 4377,
      "Ġ-.": 4378,
      "Gu": 4379,
      "ĠPle": 4380,
      "Ġfly": 4381,
      "\"><": 4382,
      "````": 4383,
      "Ġ223": 4384,
      "ĠTem": 4385,
      "ĠNOT": 4386,
      "371": 4387,
      "1982": 4388,
      "docu": 4389,
      "ĠSet": 4390,
      "ĠSU": 4391,
      "ĠHol": 4392,
      "CK": 4393,
      "188": 4394,
      "ĠNW": 4395,
      "163": 4396,
      "olds": 4397,
      "Ġ178": 4398,
      "ĠDev": 4399,
      "Ġ***": 4400,
      "THE": 4401,
      "DP": 4402,
      "SB": 4403,
      "413": 4404,
      "fish": 4405,
      "Ġpix": 4406,
      "028": 4407,
      "Ġ260": 4408,
      "Ġseq": 4409,
      "keep": 4410,
      "tors": 4411,
      "etra": 4412,
      "ĠSY": 4413,
      "trac": 4414,
      "185": 4415,
      "EEC": 4416,
      "Î¼": 4417,
      "fed": 4418,
      "sk": 4419,
      "LO": 4420,
      "410": 4421,
      "8230": 4422,
      "Mon": 4423,
      "255": 4424,
      "fort": 4425,
      "191": 4426,
      "Ġma": 4427,
      "187": 4428,
      "nor": 4429,
      "009": 4430,
      "ANK": 4431,
      "Car": 4432,
      "LP": 4433,
      ".</": 4434,
      "AIR": 4435,
      "Ġnar": 4436,
      "Le": 4437,
      "172": 4438,
      "VIS": 4439,
      "ebr": 4440,
      "xim": 4441,
      "Pres": 4442,
      "TX": 4443,
      "214": 4444,
      "TD": 4445,
      "ippi": 4446,
      "ICES": 4447,
      "181": 4448,
      "usal": 4449,
      "ĠCat": 4450,
      "Ġnom": 4451,
      "Ġmul": 4452,
      "UNTY": 4453,
      "plit": 4454,
      "ĠNOx": 4455,
      "ĠES": 4456,
      "py": 4457,
      "351": 4458,
      "lat": 4459,
      "usa": 4460,
      "\"/>": 4461,
      "also": 4462,
      "mpt": 4463,
      "177": 4464,
      "ORS": 4465,
      "Ġ171": 4466,
      "ĠWhe": 4467,
      "Ġ159": 4468,
      "omas": 4469,
      ";%": 4470,
      "470": 4471,
      "171": 4472,
      "173": 4473,
      "ques": 4474,
      "213": 4475,
      "ĠAng": 4476,
      "msel": 4477,
      "Ġpun": 4478,
      "izer": 4479,
      "Ġfel": 4480,
      "390": 4481,
      "Ġdos": 4482,
      "cel": 4483,
      "239": 4484,
      "like": 4485,
      "Ġut": 4486,
      "197": 4487,
      "ĠBri": 4488,
      "ĠFil": 4489,
      "ĠMic": 4490,
      "esta": 4491,
      "Ġ158": 4492,
      "fs": 4493,
      "Ġbus": 4494,
      "Ġ188": 4495,
      "OCK": 4496,
      "420": 4497,
      "nels": 4498,
      "267": 4499,
      "980": 4500,
      "840": 4501,
      "Ġwel": 4502,
      ".),": 4503,
      "Do": 4504,
      "Spec": 4505,
      "ĠGR": 4506,
      "299": 4507,
      "ÙĦÙĥ": 4508,
      "aver": 4509,
      "Dist": 4510,
      "ĠBel": 4511,
      "NC": 4512,
      "Ġhum": 4513,
      "temp": 4514,
      "266": 4515,
      "537": 4516,
      "ena": 4517,
      "ITA": 4518,
      "EMIS": 4519,
      "Us": 4520,
      "460": 4521,
      "paid": 4522,
      "Ġ314": 4523,
      "free": 4524,
      "Ø·": 4525,
      "aves": 4526,
      "Ġ312": 4527,
      "Ab": 4528,
      "Data": 4529,
      "Ġti": 4530,
      "539": 4531,
      "ho": 4532,
      "oice": 4533,
      "Ġ195": 4534,
      "new": 4535,
      "Ġ234": 4536,
      "tig": 4537,
      "Ġep": 4538,
      "make": 4539,
      "area": 4540,
      "247": 4541,
      "ĠHaz": 4542,
      "Ġweb": 4543,
      "del": 4544,
      "Ġdom": 4545,
      "Ġ<.": 4546,
      "ima": 4547,
      "ĠDES": 4548,
      "Mis": 4549,
      "Ġ401": 4550,
      "GRAM": 4551,
      "iter": 4552,
      "orp": 4553,
      "ĠSel": 4554,
      "brid": 4555,
      "opy": 4556,
      "Ġ450": 4557,
      "date": 4558,
      "ĠHis": 4559,
      "ĠUr": 4560,
      "ULA": 4561,
      "bal": 4562,
      "aded": 4563,
      "tita": 4564,
      "264": 4565,
      "254": 4566,
      "JI": 4567,
      "357": 4568,
      "183": 4569,
      "Ġcov": 4570,
      "ĠĊĠ": 4571,
      "Air": 4572,
      "ERC": 4573,
      "FE": 4574,
      "Ġ163": 4575,
      "480": 4576,
      "inn": 4577,
      "193": 4578,
      "addi": 4579,
      "raz": 4580,
      "osa": 4581,
      "189": 4582,
      "ÙĦØŃ": 4583,
      "%%": 4584,
      "ML": 4585,
      "puta": 4586,
      "STEM": 4587,
      "179": 4588,
      "ÙĴ": 4589,
      "ĠGo": 4590,
      "POS": 4591,
      "roph": 4592,
      "qual": 4593,
      "oto": 4594,
      "erpr": 4595,
      "406": 4596,
      "Ġ176": 4597,
      "xA": 4598,
      "ĠVi": 4599,
      "ïĢ": 4600,
      "GD": 4601,
      "Ġ184": 4602,
      "Ġ173": 4603,
      "Val": 4604,
      "Ġ177": 4605,
      "sys": 4606,
      "UNT": 4607,
      "BC": 4608,
      "ĠIR": 4609,
      "Ġ213": 4610,
      "Ġ999": 4611,
      "Ġ166": 4612,
      "SON": 4613,
      "mm": 4614,
      "Ġfab": 4615,
      "pite": 4616,
      "Ġâģ¢": 4617,
      "Aut": 4618,
      "Ġ270": 4619,
      "328": 4620,
      "ardi": 4621,
      "terT": 4622,
      "Ġ198": 4623,
      "Ġwor": 4624,
      "ibly": 4625,
      "rub": 4626,
      "Ġ207": 4627,
      "HOC": 4628,
      "182": 4629,
      "ĠFO": 4630,
      "sew": 4631,
      "uleL": 4632,
      "Ġ302": 4633,
      "]]": 4634,
      "PART": 4635,
      "foot": 4636,
      "Ø²": 4637,
      "hy": 4638,
      "rix": 4639,
      "bo": 4640,
      "251": 4641,
      "name": 4642,
      "aler": 4643,
      "rive": 4644,
      "344": 4645,
      "ĠUSA": 4646,
      "650": 4647,
      "184": 4648,
      "So": 4649,
      "Ġarm": 4650,
      "burg": 4651,
      "Ġmot": 4652,
      "Ã®": 4653,
      "090": 4654,
      "Meth": 4655,
      "hand": 4656,
      "256": 4657,
      "215": 4658,
      "ĠSk": 4659,
      "INGS": 4660,
      "VI": 4661,
      "leva": 4662,
      "Ġow": 4663,
      "bef": 4664,
      "423": 4665,
      "ALS": 4666,
      "265": 4667,
      "ĠNM": 4668,
      "bil": 4669,
      "Att": 4670,
      "370": 4671,
      "330": 4672,
      "Ġ179": 4673,
      "eted": 4674,
      "Ġps": 4675,
      "ĠRun": 4676,
      "held": 4677,
      "Ġ167": 4678,
      "ĠNRC": 4679,
      "ouri": 4680,
      "ĠMI": 4681,
      "Ge": 4682,
      "uity": 4683,
      "irth": 4684,
      "BM": 4685,
      "Deb": 4686,
      "295": 4687,
      "331": 4688,
      "Env": 4689,
      "Ġ215": 4690,
      "Ġ185": 4691,
      "BT": 4692,
      "Sche": 4693,
      "030": 4694,
      "aled": 4695,
      "ÙĦØ¹": 4696,
      "Ġ169": 4697,
      "Ġ181": 4698,
      "how": 4699,
      "rip": 4700,
      "rep": 4701,
      "Ġou": 4702,
      "FIN": 4703,
      "288": 4704,
      "iner": 4705,
      "ael": 4706,
      "Mem": 4707,
      "seas": 4708,
      "ĠAP": 4709,
      "Ġled": 4710,
      "ĠPC": 4711,
      "ĠJr": 4712,
      ";*": 4713,
      "602": 4714,
      "AFF": 4715,
      "Ġmas": 4716,
      "epa": 4717,
      "258": 4718,
      "1990": 4719,
      "Ġfri": 4720,
      "510": 4721,
      "Ġign": 4722,
      "iece": 4723,
      "TIN": 4724,
      "undw": 4725,
      "ĠFIN": 4726,
      "âĸ": 4727,
      "pons": 4728,
      "idue": 4729,
      "Ġ174": 4730,
      "ĠNuc": 4731,
      "thal": 4732,
      "tax": 4733,
      "rane": 4734,
      "ITE": 4735,
      "ĠMy": 4736,
      "lay": 4737,
      "VEN": 4738,
      "Hz": 4739,
      "ras": 4740,
      "exam": 4741,
      "ench": 4742,
      "sely": 4743,
      "Ġcyl": 4744,
      "Ġ316": 4745,
      "ĠLic": 4746,
      "CRIP": 4747,
      "tely": 4748,
      "ORY": 4749,
      "ĠÂ£": 4750,
      "ĠASS": 4751,
      "401": 4752,
      "ĠÙĲ": 4753,
      "Ġ).": 4754,
      "888": 4755,
      "ĠLO": 4756,
      "ĠTwo": 4757,
      "ÙĬØ±": 4758,
      "268": 4759,
      "vail": 4760,
      "285": 4761,
      "408": 4762,
      "NI": 4763,
      "ĠBLM": 4764,
      "Day": 4765,
      "acco": 4766,
      "coll": 4767,
      "ĠIRS": 4768,
      "GT": 4769,
      "ïĥ": 4770,
      "707": 4771,
      "CES": 4772,
      "Exam": 4773,
      "hery": 4774,
      "á»": 4775,
      "olid": 4776,
      "ÙĦØª": 4777,
      "AST": 4778,
      "Ġsew": 4779,
      "ĠWy": 4780,
      "ĠPIC": 4781,
      "ÙĨÙĩ": 4782,
      "tile": 4783,
      "ÙĦØ³": 4784,
      "ĠIr": 4785,
      "ella": 4786,
      "Ġdyn": 4787,
      "Int": 4788,
      "UAL": 4789,
      "ĠâĪĴ": 4790,
      "Each": 4791,
      "itro": 4792,
      "455": 4793,
      "RES": 4794,
      "junc": 4795,
      "ĠCS": 4796,
      "Ġ900": 4797,
      "POR": 4798,
      "oz": 4799,
      "ĠEv": 4800,
      "ayed": 4801,
      "316": 4802,
      "Ġ236": 4803,
      "ĠWes": 4804,
      "Bef": 4805,
      "bt": 4806,
      "aid": 4807,
      "Ġ#:": 4808,
      "aths": 4809,
      "scri": 4810,
      "OF": 4811,
      "\".": 4812,
      "ett": 4813,
      "mi": 4814,
      "oa": 4815,
      "rus": 4816,
      "oud": 4817,
      "ENCE": 4818,
      "292": 4819,
      "356": 4820,
      "who": 4821,
      "ĠNS": 4822,
      "Â»": 4823,
      "etic": 4824,
      "ĠPAR": 4825,
      "Ġcum": 4826,
      "vert": 4827,
      "Ġ306": 4828,
      "sam": 4829,
      "LR": 4830,
      "etts": 4831,
      "Ġ?": 4832,
      "ERG": 4833,
      "Euro": 4834,
      "Ġ218": 4835,
      "Ġč": 4836,
      "lah": 4837,
      "560": 4838,
      "adv": 4839,
      "Ġgot": 4840,
      "Ġ192": 4841,
      "Ġnav": 4842,
      "Ġkil": 4843,
      "orti": 4844,
      "WN": 4845,
      "324": 4846,
      "289": 4847,
      "870": 4848,
      "Ġ(\"": 4849,
      "ache": 4850,
      "ĠNR": 4851,
      "kel": 4852,
      "--|": 4853,
      "Ġ:**": 4854,
      "ĠUK": 4855,
      "arty": 4856,
      "ĠMAN": 4857,
      "iva": 4858,
      "DEP": 4859,
      "tah": 4860,
      "ĠGRO": 4861,
      "eek": 4862,
      "278": 4863,
      "ĠIP": 4864,
      ",.": 4865,
      "Ġ224": 4866,
      "None": 4867,
      "Ġsym": 4868,
      "ĠHel": 4869,
      "Ġ330": 4870,
      "norm": 4871,
      "ifth": 4872,
      "rend": 4873,
      "uts": 4874,
      "berg": 4875,
      "277": 4876,
      "enh": 4877,
      "oted": 4878,
      "enth": 4879,
      "Ġvul": 4880,
      "ĠCy": 4881,
      "Ġaim": 4882,
      "ĠMob": 4883,
      "emy": 4884,
      "Ġ189": 4885,
      "ONE": 4886,
      "ni": 4887,
      "dur": 4888,
      "Ġ238": 4889,
      "276": 4890,
      "Ġ197": 4891,
      "Tra": 4892,
      "UBL": 4893,
      "880": 4894,
      "Ø§Ø±": 4895,
      "arr": 4896,
      "asks": 4897,
      "olic": 4898,
      "Ed": 4899,
      "Ġ275": 4900,
      "Ġ322": 4901,
      "tica": 4902,
      "[[": 4903,
      "Ġdra": 4904,
      "286": 4905,
      "ĠOcc": 4906,
      "ĠVII": 4907,
      "504": 4908,
      "ĠÐ": 4909,
      "1088": 4910,
      "sen": 4911,
      "820": 4912,
      "ĠPop": 4913,
      "plo": 4914,
      "Ġ194": 4915,
      "ZZ": 4916,
      "func": 4917,
      "HAP": 4918,
      "Ġ196": 4919,
      "Ġju": 4920,
      "TP": 4921,
      "FP": 4922,
      "LAND": 4923,
      "Ġrul": 4924,
      "log": 4925,
      "Net": 4926,
      "314": 4927,
      "Ver": 4928,
      "Â£": 4929,
      "RY": 4930,
      "aria": 4931,
      "âĢĿ.": 4932,
      "905": 4933,
      "wa": 4934,
      "*)": 4935,
      "quo": 4936,
      "pes": 4937,
      "cin": 4938,
      "atio": 4939,
      "ĠMer": 4940,
      "rich": 4941,
      ".).": 4942,
      "Ġ237": 4943,
      "Ġrig": 4944,
      "Ġ303": 4945,
      "aho": 4946,
      "ĠINS": 4947,
      "ĠPH": 4948,
      "manu": 4949,
      "BP": 4950,
      "eit": 4951,
      "vin": 4952,
      "GRIC": 4953,
      "ĠDak": 4954,
      "(\"": 4955,
      "osen": 4956,
      "VAL": 4957,
      "Ġ304": 4958,
      "cles": 4959,
      "ĠDOD": 4960,
      "arif": 4961,
      "mers": 4962,
      "Heal": 4963,
      "336": 4964,
      "503": 4965,
      "ĠFA": 4966,
      "262": 4967,
      "rm": 4968,
      "ICH": 4969,
      "ui": 4970,
      "365": 4971,
      "339": 4972,
      "Ġ313": 4973,
      "348": 4974,
      "From": 4975,
      "JEC": 4976,
      "505": 4977,
      "nav": 4978,
      "Ġ186": 4979,
      "enty": 4980,
      "eur": 4981,
      "346": 4982,
      "ĠTim": 4983,
      "::::": 4984,
      "ĠAer": 4985,
      "ĠRat": 4986,
      "One": 4987,
      "Ġ219": 4988,
      "ĠFe": 4989,
      "Ġbag": 4990,
      "363": 4991,
      "oman": 4992,
      "iche": 4993,
      "mn": 4994,
      "Ø°Ø§": 4995,
      "ewal": 4996,
      "owa": 4997,
      "580": 4998,
      "ĠWH": 4999,
      "391": 5000,
      "Ġ193": 5001,
      "Ġuna": 5002,
      "ja": 5003,
      "680": 5004,
      "Ġ255": 5005,
      "Ġsi": 5006,
      "Less": 5007,
      "Ġ305": 5008,
      "VES": 5009,
      "440": 5010,
      "025": 5011,
      "PPE": 5012,
      "insp": 5013,
      "omy": 5014,
      "best": 5015,
      "mg": 5016,
      "ĠNH": 5017,
      "rapy": 5018,
      "ĠBat": 5019,
      "386": 5020,
      "367": 5021,
      "zy": 5022,
      "604": 5023,
      "occ": 5024,
      "862": 5025,
      "she": 5026,
      "oli": 5027,
      "Leg": 5028,
      "ĠTur": 5029,
      "364": 5030,
      "Ġ405": 5031,
      "ĠEG": 5032,
      "Ø¨ÙĬ": 5033,
      "ĠCoo": 5034,
      "ĠDen": 5035,
      "ghan": 5036,
      "Ġ235": 5037,
      "uba": 5038,
      "332": 5039,
      "OLOG": 5040,
      "ĠSR": 5041,
      "BILL": 5042,
      "mate": 5043,
      "loc": 5044,
      "Ġcod": 5045,
      "top": 5046,
      "Ġ187": 5047,
      "ĠFE": 5048,
      "456": 5049,
      "ĠEar": 5050,
      "rick": 5051,
      "Dr": 5052,
      "366": 5053,
      "ĠImp": 5054,
      "cise": 5055,
      "Ġ221": 5056,
      "âĢĻ.": 5057,
      "otia": 5058,
      "ĠPow": 5059,
      "Ob": 5060,
      "430": 5061,
      "362": 5062,
      "uri": 5063,
      "WK": 5064,
      "970": 5065,
      "Ġ``(": 5066,
      "ĠWA": 5067,
      "ĠMid": 5068,
      "ILI": 5069,
      "273": 5070,
      "NR": 5071,
      "fur": 5072,
      "ĠNI": 5073,
      "puls": 5074,
      "TED": 5075,
      "452": 5076,
      "Ġ217": 5077,
      "ewed": 5078,
      "ĠÂ¶": 5079,
      "ĠNEW": 5080,
      "Ġfis": 5081,
      "284": 5082,
      "Year": 5083,
      "ĠpH": 5084,
      "ĠMas": 5085,
      "BE": 5086,
      "Ġace": 5087,
      "Ġ601": 5088,
      "cium": 5089,
      "216": 5090,
      "ums": 5091,
      "334": 5092,
      "phen": 5093,
      "ECH": 5094,
      "zer": 5095,
      "Ġris": 5096,
      "egu": 5097,
      "272": 5098,
      "menc": 5099,
      "food": 5100,
      "Ġ315": 5101,
      "298": 5102,
      "412": 5103,
      "ollu": 5104,
      "ĠOS": 5105,
      "ĠEc": 5106,
      "Ġvel": 5107,
      "ORD": 5108,
      "suer": 5109,
      "deg": 5110,
      "416": 5111,
      "ARE": 5112,
      "loro": 5113,
      "Ġ209": 5114,
      "Mod": 5115,
      "bas": 5116,
      "emn": 5117,
      "iple": 5118,
      "lla": 5119,
      "271": 5120,
      "Cent": 5121,
      "338": 5122,
      "291": 5123,
      "385": 5124,
      "315": 5125,
      "219": 5126,
      "SUMM": 5127,
      "oot": 5128,
      "NM": 5129,
      "Ġ232": 5130,
      "Ġ288": 5131,
      "Ġ290": 5132,
      "Ġ191": 5133,
      "PX": 5134,
      "Ġpic": 5135,
      "ogs": 5136,
      "CM": 5137,
      "Ġbra": 5138,
      "chit": 5139,
      "Ġ308": 5140,
      "ÙĪÙĨ": 5141,
      "ux": 5142,
      "701": 5143,
      "217": 5144,
      "Ġ351": 5145,
      "High": 5146,
      "hood": 5147,
      "loor": 5148,
      "lfur": 5149,
      "uous": 5150,
      "EF": 5151,
      "287": 5152,
      "ĠHAR": 5153,
      "378": 5154,
      "Pr": 5155,
      "ĠRen": 5156,
      "ĠPal": 5157,
      "two": 5158,
      "Î¼g": 5159,
      "DF": 5160,
      "846": 5161,
      "Ġml": 5162,
      "520": 5163,
      "IAN": 5164,
      "454": 5165,
      "Ġbuy": 5166,
      "293": 5167,
      "ĠMal": 5168,
      "gor": 5169,
      "win": 5170,
      "603": 5171,
      "eles": 5172,
      "ws": 5173,
      "704": 5174,
      "tifi": 5175,
      "Very": 5176,
      "ĠBS": 5177,
      "La": 5178,
      "ĠÂ©": 5179,
      "ĠOwn": 5180,
      "urop": 5181,
      "ĠBet": 5182,
      "606": 5183,
      "Fur": 5184,
      "ĠFol": 5185,
      "ecut": 5186,
      "ÙĩÙħ": 5187,
      "his": 5188,
      "490": 5189,
      "Ques": 5190,
      "358": 5191,
      "Ġ416": 5192,
      "Ġom": 5193,
      "ĠPE": 5194,
      "Ġ404": 5195,
      "Ġ231": 5196,
      "ĠARE": 5197,
      "plos": 5198,
      "WH": 5199,
      "ĠHa": 5200,
      "403": 5201,
      "Ġpig": 5202,
      "ĠHz": 5203,
      "Pe": 5204,
      "ĠSpe": 5205,
      "',": 5206,
      ")),": 5207,
      "ĠØ¯": 5208,
      "499": 5209,
      "607": 5210,
      "Eff": 5211,
      "char": 5212,
      "Ġ307": 5213,
      "ĠHIV": 5214,
      "Ġaf": 5215,
      "ĠSEQ": 5216,
      "425": 5217,
      "IONS": 5218,
      "605": 5219,
      "ĠUE": 5220,
      "rue": 5221,
      "ĠGO": 5222,
      "ĠMag": 5223,
      "342": 5224,
      "URES": 5225,
      "801": 5226,
      "ĠSav": 5227,
      "uth": 5228,
      "mist": 5229,
      "ĠBef": 5230,
      "ELD": 5231,
      "West": 5232,
      "ĠMaj": 5233,
      "Cap": 5234,
      "ny": 5235,
      "ubic": 5236,
      "ĠEIS": 5237,
      "Ġ424": 5238,
      "cm": 5239,
      "viv": 5240,
      "349": 5241,
      "AV": 5242,
      "297": 5243,
      "SM": 5244,
      "ese": 5245,
      "Ġ249": 5246,
      "ĠØµ": 5247,
      "388": 5248,
      "ios": 5249,
      "506": 5250,
      "ĠDu": 5251,
      "055": 5252,
      "Ġ279": 5253,
      "ĠHO": 5254,
      "GC": 5255,
      "into": 5256,
      "uar": 5257,
      "ÙĦØ¨": 5258,
      "ĠBer": 5259,
      "FER": 5260,
      "379": 5261,
      "ĠNev": 5262,
      "868": 5263,
      "kins": 5264,
      "gs": 5265,
      "Ġbig": 5266,
      "leet": 5267,
      "022": 5268,
      "MY": 5269,
      "TIF": 5270,
      "282": 5271,
      "Addi": 5272,
      "env": 5273,
      "APCL": 5274,
      "Sum": 5275,
      "nic": 5276,
      "iary": 5277,
      "ĠMa": 5278,
      "some": 5279,
      "ORK": 5280,
      "yes": 5281,
      "540": 5282,
      "poss": 5283,
      "riga": 5284,
      "369": 5285,
      "8203": 5286,
      "ÙĪÙĦ": 5287,
      ".&": 5288,
      "elig": 5289,
      "807": 5290,
      "Â±": 5291,
      "Docu": 5292,
      "pow": 5293,
      "Ġ242": 5294,
      "meat": 5295,
      "1089": 5296,
      "Ġ512": 5297,
      "take": 5298,
      "FOOD": 5299,
      "ribe": 5300,
      "075": 5301,
      "074": 5302,
      "Ġ309": 5303,
      "ulty": 5304,
      "359": 5305,
      "ÃĹ": 5306,
      "Mean": 5307,
      "ike": 5308,
      "YS": 5309,
      "417": 5310,
      "ĠImm": 5311,
      "rog": 5312,
      "ante": 5313,
      "387": 5314,
      "Ġ252": 5315,
      "368": 5316,
      "chen": 5317,
      "Ġ233": 5318,
      "NH": 5319,
      "Ġrob": 5320,
      "Ġson": 5321,
      "Pri": 5322,
      "2222": 5323,
      "crit": 5324,
      "Ro": 5325,
      "ANY": 5326,
      "502": 5327,
      "emi": 5328,
      "ados": 5329,
      "-|": 5330,
      "Ġsus": 5331,
      "ito": 5332,
      "ooks": 5333,
      "cher": 5334,
      "PROD": 5335,
      "CV": 5336,
      "cd": 5337,
      "oon": 5338,
      "620": 5339,
      "ĠEr": 5340,
      "gn": 5341,
      "1974": 5342,
      "Aver": 5343,
      "985": 5344,
      "444": 5345,
      "ĠCAL": 5346,
      "AK": 5347,
      "Â·Â·": 5348,
      "note": 5349,
      "341": 5350,
      "Ġpan": 5351,
      "Ġ241": 5352,
      "ĠSM": 5353,
      "ĠLiv": 5354,
      "Sm": 5355,
      "ĊĊĠ": 5356,
      "Ġ510": 5357,
      "343": 5358,
      "Code": 5359,
      "Ð¾": 5360,
      "lap": 5361,
      "ĠSil": 5362,
      "ĠTr": 5363,
      "ĠHam": 5364,
      "Ġap": 5365,
      "tran": 5366,
      "USE": 5367,
      "ipi": 5368,
      "Max": 5369,
      "Pol": 5370,
      "aped": 5371,
      "SW": 5372,
      "907": 5373,
      "pack": 5374,
      "AZ": 5375,
      "Ø§Ø¡": 5376,
      "??": 5377,
      "prac": 5378,
      "ĠCP": 5379,
      "Ø§Ø¨": 5380,
      "esty": 5381,
      "ĠEas": 5382,
      "\"(": 5383,
      "TF": 5384,
      ":\\": 5385,
      "osc": 5386,
      "1989": 5387,
      "ĠmL": 5388,
      "esia": 5389,
      "424": 5390,
      "ente": 5391,
      "~**": 5392,
      "cip": 5393,
      "map": 5394,
      "Ġunf": 5395,
      "389": 5396,
      "Ġ807": 5397,
      "ĠMad": 5398,
      "990": 5399,
      "bu": 5400,
      "days": 5401,
      "RTN": 5402,
      "NASA": 5403,
      "Ġago": 5404,
      "361": 5405,
      "Ġflo": 5406,
      "cas": 5407,
      "ĠALL": 5408,
      "IDE": 5409,
      "Ġ257": 5410,
      "1074": 5411,
      "Ġ430": 5412,
      "ĠDJI": 5413,
      "Ġ423": 5414,
      "906": 5415,
      "hear": 5416,
      "384": 5417,
      "ifts": 5418,
      "spir": 5419,
      "âĶ": 5420,
      "mbol": 5421,
      "kans": 5422,
      ";]": 5423,
      "gat": 5424,
      "Ġuns": 5425,
      "AGE": 5426,
      "ĠOpp": 5427,
      "due": 5428,
      "nat": 5429,
      "054": 5430,
      "465": 5431,
      "ĠAre": 5432,
      "Ġ246": 5433,
      "lar": 5434,
      "392": 5435,
      "ued": 5436,
      "Ind": 5437,
      "864": 5438,
      ")âĢĿ": 5439,
      "need": 5440,
      "md": 5441,
      "Ġult": 5442,
      "Dock": 5443,
      "Ġtha": 5444,
      "cis": 5445,
      "xbr": 5446,
      "ruck": 5447,
      "OLD": 5448,
      ")&#": 5449,
      "ĠTri": 5450,
      "ighl": 5451,
      "CuAl": 5452,
      "Tex": 5453,
      "Rate": 5454,
      "ĠMil": 5455,
      "raul": 5456,
      "oned": 5457,
      "850": 5458,
      "atom": 5459,
      "Pa": 5460,
      "ÙĦÙĤ": 5461,
      "872": 5462,
      "464": 5463,
      "room": 5464,
      "*\"": 5465,
      "ared": 5466,
      "609": 5467,
      "fall": 5468,
      "DATE": 5469,
      "705": 5470,
      "âĢķ": 5471,
      "asma": 5472,
      "805": 5473,
      "Se": 5474,
      "opes": 5475,
      "446": 5476,
      "ĠØ¬": 5477,
      "stop": 5478,
      "rued": 5479,
      "RI": 5480,
      "omo": 5481,
      "Ġ356": 5482,
      "ĠÂ«": 5483,
      "Ġfi": 5484,
      "Run": 5485,
      "Over": 5486,
      "Ġ278": 5487,
      "323": 5488,
      "Ġble": 5489,
      "ĠVes": 5490,
      "oro": 5491,
      "rese": 5492,
      "ĠCER": 5493,
      "âĸł": 5494,
      "ucky": 5495,
      "377": 5496,
      "ĠCam": 5497,
      "inct": 5498,
      "ele": 5499,
      "ĠCa": 5500,
      "Ġ271": 5501,
      "Ġgat": 5502,
      "ITS": 5503,
      "Ġ274": 5504,
      "415": 5505,
      "ĠCla": 5506,
      "itud": 5507,
      "ĠUp": 5508,
      "Che": 5509,
      "ĠSTR": 5510,
      "376": 5511,
      "Ġtun": 5512,
      "998": 5513,
      "ĠDSK": 5514,
      ".'": 5515,
      "volu": 5516,
      "Â®": 5517,
      "411": 5518,
      "ryl": 5519,
      ",..": 5520,
      "Pers": 5521,
      "You": 5522,
      "Ġ340": 5523,
      "ians": 5524,
      "TROL": 5525,
      "ĠWin": 5526,
      "plus": 5527,
      "530": 5528,
      "Ġje": 5529,
      "ĠDan": 5530,
      "atin": 5531,
      "page": 5532,
      "ĠKe": 5533,
      "ila": 5534,
      "bar": 5535,
      "Ġpap": 5536,
      "702": 5537,
      "eds": 5538,
      "both": 5539,
      "feit": 5540,
      "EMA": 5541,
      "ssue": 5542,
      "Ġmal": 5543,
      "ÂŃ": 5544,
      "loss": 5545,
      "ĠLog": 5546,
      "Ġ326": 5547,
      "ĠEP": 5548,
      "Ġ402": 5549,
      "ĠNUM": 5550,
      "orge": 5551,
      "^^": 5552,
      "1988": 5553,
      "ĠRA": 5554,
      "920": 5555,
      "808": 5556,
      "Ġhyp": 5557,
      "cost": 5558,
      "ju": 5559,
      "374": 5560,
      "war": 5561,
      "Op": 5562,
      "Fore": 5563,
      "sl": 5564,
      "Rel": 5565,
      "mean": 5566,
      "uish": 5567,
      "umul": 5568,
      "508": 5569,
      "bank": 5570,
      "Ġ298": 5571,
      "Ġ229": 5572,
      "benz": 5573,
      "dev": 5574,
      "024": 5575,
      "epti": 5576,
      "ĠOx": 5577,
      "2500": 5578,
      "Ġâī": 5579,
      "ĠSi": 5580,
      "VD": 5581,
      "Ġmes": 5582,
      "itis": 5583,
      "Ġrou": 5584,
      "ĠLos": 5585,
      "720": 5586,
      "ĠInf": 5587,
      "944": 5588,
      "ega": 5589,
      "ĠFut": 5590,
      "Ġmic": 5591,
      "Ġhal": 5592,
      "omar": 5593,
      "Ġ289": 5594,
      "Ġta": 5595,
      "LEY": 5596,
      "cove": 5597,
      "968": 5598,
      "rc": 5599,
      "Ġrt": 5600,
      "Land": 5601,
      "Ġtor": 5602,
      "Ġ420": 5603,
      "443": 5604,
      "coun": 5605,
      "mino": 5606,
      "What": 5607,
      "Ġ256": 5608,
      "321": 5609,
      "YE": 5610,
      "458": 5611,
      "iams": 5612,
      "Ġ263": 5613,
      "Ġ248": 5614,
      "975": 5615,
      "Ġ425": 5616,
      "cat": 5617,
      "610": 5618,
      "Ġ335": 5619,
      "ĠIns": 5620,
      "CAP": 5621,
      "Ġfib": 5622,
      "lock": 5623,
      "eef": 5624,
      "),*": 5625,
      "ĠTyp": 5626,
      "804": 5627,
      "TIS": 5628,
      "ĠAIR": 5629,
      "Ġ285": 5630,
      "326": 5631,
      "904": 5632,
      "SEL": 5633,
      "457": 5634,
      ";**": 5635,
      "806": 5636,
      "rule": 5637,
      "Cur": 5638,
      "399": 5639,
      "ĠREL": 5640,
      "ĊĊĠĊ": 5641,
      "INS": 5642,
      "IDS": 5643,
      "ĠTA": 5644,
      "Ġ324": 5645,
      "haps": 5646,
      "Pt": 5647,
      "448": 5648,
      "rag": 5649,
      "oul": 5650,
      "abs": 5651,
      "ĠNG": 5652,
      "\":\"": 5653,
      "%.": 5654,
      "373": 5655,
      "ĠDam": 5656,
      "Ġ247": 5657,
      "Ġ501": 5658,
      "Ġ277": 5659,
      "Mc": 5660,
      "ĠSD": 5661,
      "Ġ550": 5662,
      "ĠLtd": 5663,
      "Ġdro": 5664,
      "ĠAF": 5665,
      "Ġpin": 5666,
      "cita": 5667,
      "tims": 5668,
      "âĶĤ": 5669,
      "ZA": 5670,
      "640": 5671,
      "Ġ251": 5672,
      "ICS": 5673,
      "tend": 5674,
      "0117": 5675,
      "447": 5676,
      "ĠCC": 5677,
      "501": 5678,
      "857": 5679,
      "442": 5680,
      "TERN": 5681,
      "987": 5682,
      "ÙĢÙĢ": 5683,
      "453": 5684,
      "ŃâĢķ": 5685,
      "suit": 5686,
      "ecim": 5687,
      "ĠSN": 5688,
      "507": 5689,
      "osit": 5690,
      "ĠDOT": 5691,
      "383": 5692,
      "Alth": 5693,
      "does": 5694,
      "ppen": 5695,
      "(#": 5696,
      "vor": 5697,
      "ĠFer": 5698,
      "egin": 5699,
      "UST": 5700,
      "eree": 5701,
      "Ġ352": 5702,
      "ky": 5703,
      ")[": 5704,
      "Ġ820": 5705,
      "Ġtar": 5706,
      "708": 5707,
      "San": 5708,
      "isco": 5709,
      "chem": 5710,
      "760": 5711,
      "ener": 5712,
      "982": 5713,
      "lee": 5714,
      "Cer": 5715,
      "Ġwes": 5716,
      "ĠFUR": 5717,
      "agne": 5718,
      "Ġ334": 5719,
      "Ġast": 5720,
      "076": 5721,
      "hind": 5722,
      "uent": 5723,
      "othe": 5724,
      "SN": 5725,
      "372": 5726,
      "Miss": 5727,
      "sU": 5728,
      "555": 5729,
      "ĠDat": 5730,
      "čĊčĊ": 5731,
      "Ġ502": 5732,
      "Ġbad": 5733,
      "469": 5734,
      "Ġ254": 5735,
      "upon": 5736,
      "zed": 5737,
      "maj": 5738,
      "bic": 5739,
      "SL": 5740,
      "IGHT": 5741,
      "cs": 5742,
      "otic": 5743,
      "ĠBu": 5744,
      "BOR": 5745,
      "660": 5746,
      "Ðµ": 5747,
      "462": 5748,
      "0100": 5749,
      "EG": 5750,
      "Doc": 5751,
      "488": 5752,
      "ĠFre": 5753,
      "*,": 5754,
      "APH": 5755,
      "alis": 5756,
      "ERA": 5757,
      "stat": 5758,
      "VEL": 5759,
      "Ġic": 5760,
      "airy": 5761,
      "PRI": 5762,
      "757": 5763,
      "910": 5764,
      "FY": 5765,
      "ĠNOR": 5766,
      "pra": 5767,
      "Ġum": 5768,
      "rada": 5769,
      "Ø±ÙĬ": 5770,
      "VN": 5771,
      "601": 5772,
      "rost": 5773,
      "Ġ552": 5774,
      "Ġ390": 5775,
      "Ġ456": 5776,
      "ĠWal": 5777,
      "Ġbid": 5778,
      "Â¶": 5779,
      "try": 5780,
      "phas": 5781,
      "bro": 5782,
      "Meas": 5783,
      "Qu": 5784,
      "Ġ606": 5785,
      "Ġ276": 5786,
      "Ġaux": 5787,
      "gi": 5788,
      "ĠSea": 5789,
      "Ġkm": 5790,
      "Sa": 5791,
      "cf": 5792,
      "913": 5793,
      "kers": 5794,
      "VP": 5795,
      "Ġ239": 5796,
      "nam": 5797,
      "Ġ244": 5798,
      "1986": 5799,
      "rine": 5800,
      "tag": 5801,
      "860": 5802,
      "TACT": 5803,
      "ĠCMS": 5804,
      "leag": 5805,
      "Ġ261": 5806,
      "arl": 5807,
      "drup": 5808,
      "greg": 5809,
      "Ġ417": 5810,
      "ĠSy": 5811,
      "ocy": 5812,
      "085": 5813,
      "468": 5814,
      "vari": 5815,
      "abin": 5816,
      "PHIS": 5817,
      "Ġ.,": 5818,
      "risk": 5819,
      "fegu": 5820,
      "kes": 5821,
      "anda": 5822,
      "ping": 5823,
      "1985": 5824,
      "Sur": 5825,
      "reun": 5826,
      "imb": 5827,
      "ĠDSE": 5828,
      "fam": 5829,
      "871": 5830,
      "ĠDou": 5831,
      "UF": 5832,
      "986": 5833,
      "Fr": 5834,
      "Ġ411": 5835,
      "766": 5836,
      "Ġ332": 5837,
      "Work": 5838,
      "ĠWat": 5839,
      "554": 5840,
      "had": 5841,
      "xy": 5842,
      "rif": 5843,
      "Ġtit": 5844,
      "902": 5845,
      "acon": 5846,
      "570": 5847,
      "451": 5848,
      "Ġgap": 5849,
      "yo": 5850,
      "ropl": 5851,
      "LOR": 5852,
      "orph": 5853,
      "459": 5854,
      "=\\\"": 5855,
      "ĠâĪ": 5856,
      "Ġore": 5857,
      "Ġgly": 5858,
      "pop": 5859,
      "anol": 5860,
      "Some": 5861,
      "cipl": 5862,
      "Ġ264": 5863,
      "Ġvit": 5864,
      "296": 5865,
      "Rule": 5866,
      "Ġlif": 5867,
      "ĠØ°": 5868,
      "unit": 5869,
      "ANGE": 5870,
      "023": 5871,
      "Ð°": 5872,
      "ONS": 5873,
      "Time": 5874,
      "ONT": 5875,
      "IZA": 5876,
      "Ġreh": 5877,
      "ayer": 5878,
      "*.": 5879,
      "fire": 5880,
      "llor": 5881,
      "ĠCF": 5882,
      "TERS": 5883,
      "ego": 5884,
      "Ġ286": 5885,
      "Ġ331": 5886,
      "463": 5887,
      "Ġ530": 5888,
      ";(": 5889,
      "PV": 5890,
      "pat": 5891,
      "meet": 5892,
      "!!": 5893,
      "REG": 5894,
      "mic": 5895,
      "call": 5896,
      "uct": 5897,
      "Nov": 5898,
      "Ġrub": 5899,
      "5000": 5900,
      "eas": 5901,
      ".âĢ¢": 5902,
      "och": 5903,
      "ĠEM": 5904,
      "Emis": 5905,
      "grow": 5906,
      "ĠHHS": 5907,
      "Ġkg": 5908,
      "780": 5909,
      "512": 5910,
      "Joh": 5911,
      "Tax": 5912,
      "unte": 5913,
      "OK": 5914,
      "393": 5915,
      "Ġcul": 5916,
      "oday": 5917,
      "gres": 5918,
      "rols": 5919,
      "ATT": 5920,
      "ĠRF": 5921,
      "deb": 5922,
      "ÙħÙĨ": 5923,
      "ĠDEC": 5924,
      "Ġham": 5925,
      "ĠÌĪ": 5926,
      "bert": 5927,
      "âĪ": 5928,
      "rab": 5929,
      "Ġ262": 5930,
      "ĠØ´": 5931,
      "irty": 5932,
      "ĠGHG": 5933,
      "Ha": 5934,
      "Ġ292": 5935,
      "ares": 5936,
      "ĠDNA": 5937,
      "nt": 5938,
      "augh": 5939,
      "cred": 5940,
      "ĠCr": 5941,
      "993": 5942,
      "irma": 5943,
      "He": 5944,
      "ĠEur": 5945,
      "oses": 5946,
      "Ġ___": 5947,
      "sell": 5948,
      "jury": 5949,
      "weal": 5950,
      "575": 5951,
      "LES": 5952,
      "Â¥": 5953,
      "open": 5954,
      "903": 5955,
      "MAR": 5956,
      "Ġmel": 5957,
      "Ġ243": 5958,
      "Ġori": 5959,
      "PG": 5960,
      "Ã¸": 5961,
      "ĠCY": 5962,
      "ANA": 5963,
      "072": 5964,
      "Ġ265": 5965,
      "Ġlea": 5966,
      "Ġsn": 5967,
      "449": 5968,
      "467": 5969,
      "Ġ@": 5970,
      "ĠNow": 5971,
      "048": 5972,
      "HC": 5973,
      "rape": 5974,
      "Ġ323": 5975,
      "861": 5976,
      "ĠVAL": 5977,
      "URCE": 5978,
      "Ġïģ": 5979,
      "Sign": 5980,
      "lon": 5981,
      "Cong": 5982,
      "stry": 5983,
      "466": 5984,
      "spic": 5985,
      "Ġ427": 5986,
      "idad": 5987,
      "630": 5988,
      "558": 5989,
      "ĠDHS": 5990,
      "764": 5991,
      "Can": 5992,
      "ĉĉĉ": 5993,
      "vii": 5994,
      "rous": 5995,
      "ĠMT": 5996,
      "Ġnm": 5997,
      "lare": 5998,
      "Ġ329": 5999,
      "rics": 6000,
      "Ġ391": 6001,
      "teen": 6002,
      "max": 6003,
      "USDA": 6004,
      "UH": 6005,
      "ĠTen": 6006,
      "reci": 6007,
      "ĠÃĹ": 6008,
      "Ġmom": 6009,
      "Ġpas": 6010,
      "PPLE": 6011,
      "Ġ295": 6012,
      "Ġ||": 6013,
      "\"\"": 6014,
      "More": 6015,
      "ORG": 6016,
      "TRY": 6017,
      "Ġoz": 6018,
      "Ġstr": 6019,
      "329": 6020,
      "Ġ321": 6021,
      "BD": 6022,
      "ĠÃ¸": 6023,
      "List": 6024,
      "ĠSEN": 6025,
      "Ġeye": 6026,
      "Ġrod": 6027,
      "027": 6028,
      "Dur": 6029,
      "rike": 6030,
      "lam": 6031,
      "size": 6032,
      "PAT": 6033,
      "Ãĭ": 6034,
      "CU": 6035,
      "ERE": 6036,
      "Ġyes": 6037,
      "ube": 6038,
      "weet": 6039,
      "ĠBAS": 6040,
      "arie": 6041,
      "812": 6042,
      "ANG": 6043,
      "bin": 6044,
      "Ġ297": 6045,
      "Ġ258": 6046,
      "777": 6047,
      "ped": 6048,
      "ĠÙĭ": 6049,
      "reon": 6050,
      "Ġcu": 6051,
      "COMP": 6052,
      "784": 6053,
      "oys": 6054,
      "hous": 6055,
      "sens": 6056,
      "Ġ365": 6057,
      "roly": 6058,
      "Ġ(*": 6059,
      "Ġcav": 6060,
      "Ġ282": 6061,
      "AMP": 6062,
      "885": 6063,
      "ĠJu": 6064,
      "033": 6065,
      "ĠFee": 6066,
      "cust": 6067,
      "AlAl": 6068,
      "uble": 6069,
      "Ġ359": 6070,
      "NN": 6071,
      "WL": 6072,
      "Ġ408": 6073,
      "ÙĦÙĨ": 6074,
      "cked": 6075,
      "Ġts": 6076,
      "lets": 6077,
      "ALTH": 6078,
      "890": 6079,
      "âĢĻ,": 6080,
      "OT": 6081,
      "Ġtot": 6082,
      "(,..": 6083,
      "ipel": 6084,
      "2024": 6085,
      "1980": 6086,
      "709": 6087,
      "AMS": 6088,
      "989": 6089,
      "umps": 6090,
      "865": 6091,
      "erts": 6092,
      "ĠHUD": 6093,
      "PXZZ": 6094,
      "cut": 6095,
      "chor": 6096,
      "026": 6097,
      "Ġ266": 6098,
      "orse": 6099,
      "ĠØ«": 6100,
      "uum": 6101,
      "294": 6102,
      "976": 6103,
      "Ġenj": 6104,
      "*\"##": 6105,
      "bed": 6106,
      "cycl": 6107,
      "441": 6108,
      "Ġ272": 6109,
      "ĠHig": 6110,
      "Ġhom": 6111,
      "1981": 6112,
      "VIR": 6113,
      "ĠHon": 6114,
      "884": 6115,
      "Ġ380": 6116,
      "ocra": 6117,
      "Ġ296": 6118,
      "ISA": 6119,
      "ĠWet": 6120,
      "QUIR": 6121,
      "ĠLLP": 6122,
      "TAIN": 6123,
      "gent": 6124,
      "tima": 6125,
      "Step": 6126,
      "andy": 6127,
      "Nat": 6128,
      "Ġ750": 6129,
      "ĠRev": 6130,
      "475": 6131,
      "ĠGE": 6132,
      "quis": 6133,
      "810": 6134,
      "uced": 6135,
      "DIC": 6136,
      "ÙĬØ©": 6137,
      "ERGY": 6138,
      "That": 6139,
      "740": 6140,
      "nn": 6141,
      "Ġ403": 6142,
      "978": 6143,
      "wes": 6144,
      "ĠMac": 6145,
      "PI": 6146,
      "tw": 6147,
      "Ġcau": 6148,
      "Ġ259": 6149,
      "iat": 6150,
      "Ġcfs": 6151,
      "Ġ328": 6152,
      "uds": 6153,
      "ĠGer": 6154,
      "Ġ284": 6155,
      "556": 6156,
      "CKHH": 6157,
      "069": 6158,
      "onic": 6159,
      "Ġ362": 6160,
      "str": 6161,
      "414": 6162,
      "988": 6163,
      "ĠSAF": 6164,
      "765": 6165,
      "ĠNJ": 6166,
      "WI": 6167,
      "ĠÏ": 6168,
      "1987": 6169,
      "YR": 6170,
      "ias": 6171,
      "Syst": 6172,
      "977": 6173,
      "984": 6174,
      "Ġ294": 6175,
      "CITA": 6176,
      "Ġ499": 6177,
      "ĠAsh": 6178,
      "Ġsaw": 6179,
      "ANN": 6180,
      "Test": 6181,
      "idge": 6182,
      "ĠPs": 6183,
      "VOC": 6184,
      "LD": 6185,
      "rio": 6186,
      "ĠSI": 6187,
      "ecta": 6188,
      "RED": 6189,
      "VID": 6190,
      "Ġyel": 6191,
      "dd": 6192,
      "UA": 6193,
      "olis": 6194,
      "Ġ504": 6195,
      "El": 6196,
      "Ġ253": 6197,
      "Ð¸": 6198,
      "Ġven": 6199,
      "ĠUSC": 6200,
      "gges": 6201,
      "sect": 6202,
      "690": 6203,
      "035": 6204,
      "WO": 6205,
      "Tran": 6206,
      "Ġ506": 6207,
      "ooth": 6208,
      "Ġspa": 6209,
      "prop": 6210,
      "ĠGU": 6211,
      "eip": 6212,
      "549": 6213,
      "548": 6214,
      "625": 6215,
      "real": 6216,
      "ĠLED": 6217,
      "461": 6218,
      "Ġhat": 6219,
      "ĠEF": 6220,
      "GEN": 6221,
      "ARDS": 6222,
      "395": 6223,
      "orea": 6224,
      "656": 6225,
      "Met": 6226,
      "UK": 6227,
      "inch": 6228,
      "mp": 6229,
      "ĠKey": 6230,
      "ador": 6231,
      "Ġwil": 6232,
      "áº": 6233,
      "991": 6234,
      "710": 6235,
      "695": 6236,
      "fat": 6237,
      "'-": 6238,
      "door": 6239,
      "Pur": 6240,
      "inat": 6241,
      "omew": 6242,
      "Ġpad": 6243,
      "ĠĊĠĊ": 6244,
      "roxy": 6245,
      "apes": 6246,
      "`@": 6247,
      "Ġ##": 6248,
      "irit": 6249,
      "ĠFAR": 6250,
      "552": 6251,
      "oves": 6252,
      "evid": 6253,
      "olar": 6254,
      "916": 6255,
      "ETY": 6256,
      "cera": 6257,
      "doll": 6258,
      "768": 6259,
      "rock": 6260,
      "Ġnan": 6261,
      "Ġ470": 6262,
      "Ġmig": 6263,
      "Ø§Øª": 6264,
      "LI": 6265,
      "666": 6266,
      "eor": 6267,
      "Requ": 6268,
      "Ġ406": 6269,
      "3000": 6270,
      "tons": 6271,
      "ĠRT": 6272,
      "artz": 6273,
      "Ġ281": 6274,
      "770": 6275,
      "ĠUA": 6276,
      "1100": 6277,
      "ĠDue": 6278,
      "eing": 6279,
      "Ġ370": 6280,
      "han": 6281,
      "ĠGPS": 6282,
      "509": 6283,
      "WIn": 6284,
      "ĠAfr": 6285,
      "Ġai": 6286,
      "UAS": 6287,
      "ĠØĮ": 6288,
      "MN": 6289,
      "981": 6290,
      "Ġ269": 6291,
      "rey": 6292,
      "ĠFCC": 6293,
      "Ġink": 6294,
      "ĠSTA": 6295,
      "HT": 6296,
      "Bank": 6297,
      "Ø§Ùħ": 6298,
      "enza": 6299,
      "dy": 6300,
      "Ġ299": 6301,
      "Ġpt": 6302,
      "Ø¯ÙĬ": 6303,
      "bour": 6304,
      "URI": 6305,
      "Ġ}": 6306,
      "Ġash": 6307,
      "dict": 6308,
      "Ġcit": 6309,
      "ĠTRE": 6310,
      "Ġho": 6311,
      "Ġtob": 6312,
      "ÙĦØ¯": 6313,
      "787": 6314,
      "Fl": 6315,
      "751": 6316,
      "SCR": 6317,
      "1200": 6318,
      "itat": 6319,
      "ĠJun": 6320,
      "747": 6321,
      "769": 6322,
      "803": 6323,
      "Ġïģ´": 6324,
      "MMUN": 6325,
      "Ġ268": 6326,
      "Ġol": 6327,
      "971": 6328,
      "'re": 6329,
      "Out": 6330,
      "WD": 6331,
      "arse": 6332,
      "voke": 6333,
      "608": 6334,
      "ĠLab": 6335,
      "irus": 6336,
      "ĠRob": 6337,
      "ĠPot": 6338,
      "039": 6339,
      "396": 6340,
      "Ġhus": 6341,
      "Del": 6342,
      "idal": 6343,
      "look": 6344,
      "670": 6345,
      "ĠAB": 6346,
      "829": 6347,
      "1500": 6348,
      "ĠWAS": 6349,
      "YL": 6350,
      "ĠACT": 6351,
      "CONT": 6352,
      "ĠAmb": 6353,
      "VL": 6354,
      "His": 6355,
      "ĠVeg": 6356,
      "unk": 6357,
      "754": 6358,
      "oded": 6359,
      "ando": 6360,
      "stor": 6361,
      "outs": 6362,
      "VS": 6363,
      "rene": 6364,
      "Ġ**(": 6365,
      "amps": 6366,
      "Ġ505": 6367,
      "una": 6368,
      "ICK": 6369,
      "bear": 6370,
      "oler": 6371,
      "Ġ480": 6372,
      "789": 6373,
      "har": 6374,
      "Øº": 6375,
      "four": 6376,
      "][": 6377,
      "1978": 6378,
      "iral": 6379,
      "rais": 6380,
      "GRO": 6381,
      "445": 6382,
      "Ġbon": 6383,
      "Ġbin": 6384,
      "758": 6385,
      "741": 6386,
      "circ": 6387,
      "._": 6388,
      ",**": 6389,
      "Mark": 6390,
      "Ġ267": 6391,
      "itz": 6392,
      "Ġ388": 6393,
      "ÙĦÙģ": 6394,
      "Ġ515": 6395,
      "ĠVan": 6396,
      "Oper": 6397,
      "Ġ337": 6398,
      "Ġ440": 6399,
      "news": 6400,
      "Ġgar": 6401,
      "Ġ),": 6402,
      "Ġ520": 6403,
      "Ġhub": 6404,
      "Supp": 6405,
      "Lo": 6406,
      "ĠUR": 6407,
      "ĠRa": 6408,
      "abol": 6409,
      "Ġbio": 6410,
      "zo": 6411,
      "Ġpup": 6412,
      "ipe": 6413,
      "ln": 6414,
      "Bal": 6415,
      "748": 6416,
      "js": 6417,
      "ĠMus": 6418,
      "Â©": 6419,
      "fac": 6420,
      "ĠFI": 6421,
      "667": 6422,
      "559": 6423,
      "ĠPOL": 6424,
      "Sim": 6425,
      "1076": 6426,
      "ĠDIR": 6427,
      "Bi": 6428,
      "Ġ412": 6429,
      "809": 6430,
      "same": 6431,
      "DIS": 6432,
      "CRA": 6433,
      "Sam": 6434,
      "**.": 6435,
      "1984": 6436,
      "ko": 6437,
      "ĠTN": 6438,
      "Ġ342": 6439,
      ",,,": 6440,
      "422": 6441,
      "fi": 6442,
      "ysi": 6443,
      "ĠEle": 6444,
      "edy": 6445,
      "anim": 6446,
      "802": 6447,
      "ĠBtu": 6448,
      "0005": 6449,
      "Gas": 6450,
      "ĠKen": 6451,
      "ĠEE": 6452,
      "ORE": 6453,
      "Ġ287": 6454,
      "1970": 6455,
      "Ġgun": 6456,
      "047": 6457,
      "Pen": 6458,
      "poin": 6459,
      "nce": 6460,
      "OND": 6461,
      "Ġgam": 6462,
      "ean": 6463,
      "9999": 6464,
      "ĠDA": 6465,
      "iday": 6466,
      "CASE": 6467,
      "Ġmac": 6468,
      "ethe": 6469,
      "ECHN": 6470,
      "979": 6471,
      "841": 6472,
      "elve": 6473,
      "858": 6474,
      "Bec": 6475,
      "ĠSyn": 6476,
      ".''": 6477,
      "TOG": 6478,
      "Te": 6479,
      "Plan": 6480,
      "rele": 6481,
      "Cost": 6482,
      "983": 6483,
      "ĠBre": 6484,
      "ĠVO": 6485,
      "ĠIM": 6486,
      "Ġct": 6487,
      "plas": 6488,
      "card": 6489,
      "Ġlod": 6490,
      "XT": 6491,
      "ĠMC": 6492,
      "MW": 6493,
      "ĠAve": 6494,
      "Ġbil": 6495,
      "NJ": 6496,
      "what": 6497,
      "adel": 6498,
      "fus": 6499,
      "Ġvs": 6500,
      "ĠWa": 6501,
      "928": 6502,
      "Ct": 6503,
      "Ġ273": 6504,
      "ORN": 6505,
      "udes": 6506,
      "].&#": 6507,
      "Ġns": 6508,
      "GL": 6509,
      "0003": 6510,
      "bill": 6511,
      "ĠIMP": 6512,
      "ĠSf": 6513,
      "036": 6514,
      "APP": 6515,
      "WE": 6516,
      "612": 6517,
      "Ġsto": 6518,
      "908": 6519,
      "Ġ415": 6520,
      "565": 6521,
      "Equ": 6522,
      "doc": 6523,
      "Ġcli": 6524,
      "OU": 6525,
      "021": 6526,
      "ĠIA": 6527,
      "fect": 6528,
      "Ġ293": 6529,
      "Ġïģ¥": 6530,
      "Ġ385": 6531,
      "ĠFED": 6532,
      "ĠAA": 6533,
      "648": 6534,
      "Ġrow": 6535,
      "ÙĦØ´": 6536,
      "BY": 6537,
      "---|": 6538,
      "!(": 6539,
      "enic": 6540,
      "566": 6541,
      "Ġug": 6542,
      "992": 6543,
      "=&": 6544,
      "SCH": 6545,
      "edly": 6546,
      "ĠØ®": 6547,
      "Ġpy": 6548,
      "xxxx": 6549,
      "tier": 6550,
      "1111": 6551,
      "luor": 6552,
      "edia": 6553,
      "889": 6554,
      "ĠEs": 6555,
      ",*": 6556,
      "Ġ283": 6557,
      "mann": 6558,
      "box": 6559,
      "045": 6560,
      "ji": 6561,
      "Ġhab": 6562,
      "Est": 6563,
      ";]&#": 6564,
      "ĠKn": 6565,
      "930": 6566,
      "CESS": 6567,
      "Ġsul": 6568,
      "anch": 6569,
      "0113": 6570,
      "FG": 6571,
      "ĠTok": 6572,
      "847": 6573,
      "hex": 6574,
      "pect": 6575,
      "OAR": 6576,
      "ĠSCR": 6577,
      "acer": 6578,
      "867": 6579,
      "551": 6580,
      "Ġ665": 6581,
      "ĠUND": 6582,
      "522": 6583,
      "ĠJul": 6584,
      "749": 6585,
      "ĠMcC": 6586,
      "781": 6587,
      "Use": 6588,
      "mods": 6589,
      "rian": 6590,
      "062": 6591,
      "ĠLee": 6592,
      "038": 6593,
      "ÑĤ": 6594,
      "557": 6595,
      "Ġtab": 6596,
      "Da": 6597,
      "Ġ371": 6598,
      "kin": 6599,
      "ROE": 6600,
      "ILLE": 6601,
      "ĠOK": 6602,
      "Ġ366": 6603,
      "ĠCum": 6604,
      ";-": 6605,
      "756": 6606,
      "EMS": 6607,
      "730": 6608,
      "rang": 6609,
      "742": 6610,
      "thy": 6611,
      "ĠAST": 6612,
      "772": 6613,
      "dura": 6614,
      "0015": 6615,
      "ogy": 6616,
      "1082": 6617,
      "ĠTC": 6618,
      "435": 6619,
      "aliz": 6620,
      "Ġ339": 6621,
      "uron": 6622,
      "Ġrib": 6623,
      "kly": 6624,
      "Ġjo": 6625,
      "your": 6626,
      "gas": 6627,
      "Ġ343": 6628,
      "HI": 6629,
      "ĠSUR": 6630,
      "tid": 6631,
      "997": 6632,
      "Ġïĥ": 6633,
      "Gl": 6634,
      "994": 6635,
      "432": 6636,
      "SF": 6637,
      "Qual": 6638,
      "485": 6639,
      "fers": 6640,
      "raud": 6641,
      "aser": 6642,
      "778": 6643,
      "GI": 6644,
      "Cred": 6645,
      "ĠFrm": 6646,
      "ĠJkt": 6647,
      "illa": 6648,
      "067": 6649,
      "ĠCt": 6650,
      "Ġos": 6651,
      "ĠFmt": 6652,
      "Mont": 6653,
      "ĠATT": 6654,
      "quot": 6655,
      "830": 6656,
      "olo": 6657,
      ",]": 6658,
      "516": 6659,
      "icul": 6660,
      "run": 6661,
      "ULL": 6662,
      "ani": 6663,
      "Ġ508": 6664,
      "safe": 6665,
      "Ġ#'#": 6666,
      "auce": 6667,
      "bitr": 6668,
      "ĠSF": 6669,
      "zi": 6670,
      "ĠSB": 6671,
      "~~~~": 6672,
      "761": 6673,
      "ĠLOC": 6674,
      "909": 6675,
      "mond": 6676,
      "phy": 6677,
      "hala": 6678,
      "aga": 6679,
      "suc": 6680,
      "JECT": 6681,
      "tled": 6682,
      ";;": 6683,
      "inyl": 6684,
      "čĊč": 6685,
      "hyde": 6686,
      "767": 6687,
      "Ġedi": 6688,
      "++": 6689,
      "ĠUpd": 6690,
      "Ġpi": 6691,
      "ĠIX": 6692,
      "umns": 6693,
      "563": 6694,
      "Be": 6695,
      "heat": 6696,
      "rely": 6697,
      "Will": 6698,
      "\"),": 6699,
      "ĠRh": 6700,
      "ĠICR": 6701,
      "ENTI": 6702,
      "ĠHR": 6703,
      "043": 6704,
      "util": 6705,
      "cu": 6706,
      "919": 6707,
      "Ġ540": 6708,
      "bell": 6709,
      "1087": 6710,
      "acle": 6711,
      "542": 6712,
      "Ġot": 6713,
      "Ġ375": 6714,
      "Ġwon": 6715,
      "ĠAge": 6716,
      "TICE": 6717,
      "pson": 6718,
      "-,": 6719,
      "ithm": 6720,
      "pir": 6721,
      "886": 6722,
      "059": 6723,
      "GP": 6724,
      "Ret": 6725,
      "651": 6726,
      "fa": 6727,
      "hema": 6728,
      "Ġbol": 6729,
      "Red": 6730,
      "ĠPan": 6731,
      "Ġune": 6732,
      "NOTE": 6733,
      "Web": 6734,
      "515": 6735,
      "eta": 6736,
      "Ġtip": 6737,
      "uta": 6738,
      "743": 6739,
      "week": 6740,
      "Ġ364": 6741,
      "MIT": 6742,
      "STR": 6743,
      "Of": 6744,
      "ĠSex": 6745,
      "Ġly": 6746,
      "solu": 6747,
      "Ø§Ø¯": 6748,
      "quin": 6749,
      "ĊĊĠĠ": 6750,
      "879": 6751,
      "IND": 6752,
      "YY": 6753,
      "066": 6754,
      "Ġ346": 6755,
      "Ter": 6756,
      "ĠCLA": 6757,
      "ĠIF": 6758,
      "037": 6759,
      "tick": 6760,
      ")&": 6761,
      "CENT": 6762,
      "511": 6763,
      "924": 6764,
      "553": 6765,
      "Ġ460": 6766,
      "053": 6767,
      "Ġ347": 6768,
      "VEST": 6769,
      "ĠTw": 6770,
      "ĠLat": 6771,
      "cour": 6772,
      "alid": 6773,
      "uce": 6774,
      "762": 6775,
      "onia": 6776,
      "ÙģÙĬ": 6777,
      "547": 6778,
      "ĠDEF": 6779,
      "Ø§Ø¦": 6780,
      "029": 6781,
      "ĠSun": 6782,
      "Ġphr": 6783,
      "790": 6784,
      "Add": 6785,
      "Ġ291": 6786,
      "Ġ338": 6787,
      "WV": 6788,
      "628": 6789,
      "plac": 6790,
      "433": 6791,
      "Bud": 6792,
      "ĠDIV": 6793,
      "779": 6794,
      "ĠALJ": 6795,
      "ĠTY": 6796,
      "ĠÂ»": 6797,
      "Ġtum": 6798,
      "duty": 6799,
      "ĠHAP": 6800,
      "ARA": 6801,
      "922": 6802,
      "Ġ564": 6803,
      "472": 6804,
      "gery": 6805,
      "near": 6806,
      "1900": 6807,
      "ĠDig": 6808,
      "pha": 6809,
      "OPE": 6810,
      "NEY": 6811,
      "ATOR": 6812,
      "Nebr": 6813,
      "1083": 6814,
      "Ġ414": 6815,
      "ĠHA": 6816,
      "ĠFAS": 6817,
      "glas": 6818,
      "ulta": 6819,
      "adqu": 6820,
      "inqu": 6821,
      "Ġcoc": 6822,
      "ppli": 6823,
      "inue": 6824,
      "eedl": 6825,
      "763": 6826,
      "oybe": 6827,
      "IED": 6828,
      "ĠRay": 6829,
      "bid": 6830,
      "===": 6831,
      "Sept": 6832,
      "ava": 6833,
      "EY": 6834,
      "CHAP": 6835,
      "034": 6836,
      "418": 6837,
      "ĠMur": 6838,
      "rav": 6839,
      "ĠHy": 6840,
      "ĠPB": 6841,
      "ĠWL": 6842,
      "ioni": 6843,
      "oks": 6844,
      "REE": 6845,
      "WY": 6846,
      "Ġcot": 6847,
      "541": 6848,
      "ĠEQU": 6849,
      "Ġeat": 6850,
      "525": 6851,
      "ĠMP": 6852,
      "ĠRiv": 6853,
      "848": 6854,
      "ĠWI": 6855,
      "849": 6856,
      "759": 6857,
      "Det": 6858,
      "ĠISO": 6859,
      "base": 6860,
      "664": 6861,
      "oni": 6862,
      "ortg": 6863,
      "ĠNES": 6864,
      "itly": 6865,
      "562": 6866,
      "0004": 6867,
      "065": 6868,
      "ya": 6869,
      "ĠCAP": 6870,
      "ĠDon": 6871,
      "omob": 6872,
      "arp": 6873,
      "roe": 6874,
      "INA": 6875,
      "Ġ630": 6876,
      "Ġ605": 6877,
      "VOL": 6878,
      "deal": 6879,
      "err": 6880,
      "Mill": 6881,
      "Ġ357": 6882,
      "Ġaz": 6883,
      "ĠNAT": 6884,
      "ppm": 6885,
      "ĠIts": 6886,
      "Ġped": 6887,
      "USTR": 6888,
      "585": 6889,
      "($": 6890,
      "ĠRD": 6891,
      "Ġ431": 6892,
      "Ġsir": 6893,
      "426": 6894,
      "olf": 6895,
      "Ġcc": 6896,
      "Ġfre": 6897,
      "hors": 6898,
      "vas": 6899,
      "514": 6900,
      "881": 6901,
      "rt": 6902,
      "ÙĦÙĪ": 6903,
      "OMB": 6904,
      "spa": 6905,
      "-[": 6906,
      ")/": 6907,
      "ala": 6908,
      "KA": 6909,
      "752": 6910,
      "ĠWO": 6911,
      "Ġreb": 6912,
      "ĠPRE": 6913,
      "exes": 6914,
      "ØŃÙħ": 6915,
      "Ġ447": 6916,
      "EV": 6917,
      "Loca": 6918,
      "WP": 6919,
      "ema": 6920,
      "Ġee": 6921,
      "ĠENG": 6922,
      "783": 6923,
      "419": 6924,
      "ĠDid": 6925,
      "ĠTop": 6926,
      "658": 6927,
      "Mo": 6928,
      "shop": 6929,
      "ĠPSD": 6930,
      "iar": 6931,
      "068": 6932,
      "cill": 6933,
      "ido": 6934,
      "xbrl": 6935,
      "aud": 6936,
      "Ġ407": 6937,
      "bra": 6938,
      "ĠBou": 6939,
      "HV": 6940,
      "Ġtis": 6941,
      "var": 6942,
      "Sl": 6943,
      "UJ": 6944,
      "Har": 6945,
      "apon": 6946,
      "wind": 6947,
      "427": 6948,
      "ĠUSE": 6949,
      "434": 6950,
      "931": 6951,
      "031": 6952,
      "anup": 6953,
      "Ġ418": 6954,
      "ĠCN": 6955,
      "046": 6956,
      "gued": 6957,
      "them": 6958,
      "stud": 6959,
      "icht": 6960,
      "Ġ/>": 6961,
      "ĠÌģ": 6962,
      "tios": 6963,
      "andw": 6964,
      "ĠÎ¼m": 6965,
      "ĉĠ": 6966,
      "tate": 6967,
      "Ġ444": 6968,
      "Ġsun": 6969,
      "044": 6970,
      "Ġ422": 6971,
      "izon": 6972,
      "567": 6973,
      "Ġesc": 6974,
      "Ġ345": 6975,
      "prim": 6976,
      "428": 6977,
      "WW": 6978,
      "ĠDiv": 6979,
      "anto": 6980,
      "049": 6981,
      "665": 6982,
      "Ġ507": 6983,
      "773": 6984,
      "ĠQU": 6985,
      "ĠFac": 6986,
      "Ġwis": 6987,
      "ĠJOH": 6988,
      "ĠCAS": 6989,
      "SIn": 6990,
      "apta": 6991,
      "oder": 6992,
      ")**(": 6993,
      "phia": 6994,
      "ĠBbl": 6995,
      "uni": 6996,
      "osme": 6997,
      "Ġ610": 6998,
      "685": 6999,
      "Ð½": 7000,
      "CENS": 7001,
      "0400": 7002,
      "ĠWed": 7003,
      "042": 7004,
      "ride": 7005,
      "zzle": 7006,
      "FM": 7007,
      ")âĢĵ": 7008,
      "486": 7009,
      "ĠBig": 7010,
      "ĠSix": 7011,
      "Ġwir": 7012,
      "056": 7013,
      "479": 7014,
      "WAY": 7015,
      "lick": 7016,
      "ĠCas": 7017,
      "Ġ378": 7018,
      "PRM": 7019,
      "Ins": 7020,
      "utch": 7021,
      "tia": 7022,
      "adin": 7023,
      "gets": 7024,
      "ĠMap": 7025,
      "ĠïĢ": 7026,
      "071": 7027,
      "Ġ602": 7028,
      "atog": 7029,
      "last": 7030,
      "Ġ409": 7031,
      "UDGE": 7032,
      "ÙĦØ¬": 7033,
      "ĠMOD": 7034,
      "ryp": 7035,
      "Ġmir": 7036,
      "901": 7037,
      "rome": 7038,
      "CER": 7039,
      "Ġ344": 7040,
      "Ġram": 7041,
      "Ġ801": 7042,
      "ĠVa": 7043,
      "Ġni": 7044,
      "RR": 7045,
      "ĠDD": 7046,
      "OB": 7047,
      "0002": 7048,
      "tian": 7049,
      "fg": 7050,
      "APR": 7051,
      "INC": 7052,
      "ĠMN": 7053,
      "ilia": 7054,
      "064": 7055,
      "HF": 7056,
      "cens": 7057,
      "find": 7058,
      "Ġ432": 7059,
      "hist": 7060,
      "755": 7061,
      "PERA": 7062,
      "853": 7063,
      "Ġgal": 7064,
      "ĠDRA": 7065,
      "ĠMM": 7066,
      "mulg": 7067,
      "Ġban": 7068,
      "nors": 7069,
      "IEF": 7070,
      "tew": 7071,
      "ĠFis": 7072,
      "TIPS": 7073,
      "ĠFBI": 7074,
      "ĠLew": 7075,
      "615": 7076,
      "City": 7077,
      "Our": 7078,
      "Di": 7079,
      "eld": 7080,
      "radi": 7081,
      "Ġvon": 7082,
      "Port": 7083,
      "Ġ560": 7084,
      "NW": 7085,
      "Unit": 7086,
      "061": 7087,
      "node": 7088,
      "fuel": 7089,
      "875": 7090,
      "laps": 7091,
      "Ġ(-": 7092,
      "Ġhi": 7093,
      "394": 7094,
      "HD": 7095,
      "596": 7096,
      "524": 7097,
      "496": 7098,
      "Ġtex": 7099,
      "438": 7100,
      "NV": 7101,
      "ĊĠĠĊ": 7102,
      "ĠTB": 7103,
      "ĠCE": 7104,
      "oser": 7105,
      "Ġunc": 7106,
      "513": 7107,
      "051": 7108,
      "mil": 7109,
      "Ġfax": 7110,
      "ĠBen": 7111,
      "$$": 7112,
      "ĠPRA": 7113,
      "emia": 7114,
      "ULES": 7115,
      "PUT": 7116,
      "imp": 7117,
      "Ġ421": 7118,
      "842": 7119,
      "641": 7120,
      "CHAR": 7121,
      "ĠAbs": 7122,
      "Ġ862": 7123,
      "Ġlob": 7124,
      "ulin": 7125,
      "887": 7126,
      "771": 7127,
      "fts": 7128,
      "543": 7129,
      "ÙĨÙĬ": 7130,
      "1983": 7131,
      "ĠBru": 7132,
      "Ġ395": 7133,
      "Kind": 7134,
      "IME": 7135,
      "647": 7136,
      "ende": 7137,
      "ENN": 7138,
      "len": 7139,
      ",#": 7140,
      "**)": 7141,
      "Ø¸": 7142,
      "'m": 7143,
      "ĠAK": 7144,
      "Inc": 7145,
      "thqu": 7146,
      ";âĢĿ": 7147,
      "ĠCV": 7148,
      "ogue": 7149,
      "ylum": 7150,
      "ĠHor": 7151,
      "iaz": 7152,
      "517": 7153,
      "086": 7154,
      "pful": 7155,
      "528": 7156,
      "ĠCIR": 7157,
      "ĠEXP": 7158,
      "heet": 7159,
      "odd": 7160,
      "ĠHen": 7161,
      "626": 7162,
      "Fund": 7163,
      "OFF": 7164,
      "acit": 7165,
      "057": 7166,
      "cb": 7167,
      "915": 7168,
      "wy": 7169,
      "**(": 7170,
      "ĠNos": 7171,
      "Rev": 7172,
      "ĠCDC": 7173,
      "veni": 7174,
      "063": 7175,
      "PORA": 7176,
      "ÙħØ±": 7177,
      "ĠPas": 7178,
      "873": 7179,
      "1800": 7180,
      "ĊĉĊ": 7181,
      "VERN": 7182,
      "OWER": 7183,
      "ACCP": 7184,
      "883": 7185,
      "iry": 7186,
      "ONG": 7187,
      "Fax": 7188,
      "544": 7189,
      "TEC": 7190,
      "curs": 7191,
      "Ġ413": 7192,
      "eder": 7193,
      "inea": 7194,
      "ĠWay": 7195,
      "ĠTER": 7196,
      "REC": 7197,
      "Dry": 7198,
      "vene": 7199,
      "ĠGa": 7200,
      "ĠAZ": 7201,
      "Mob": 7202,
      "ĠAtl": 7203,
      "ĠPes": 7204,
      "ATH": 7205,
      "856": 7206,
      "step": 7207,
      "liv": 7208,
      "ĠACC": 7209,
      "ĠEth": 7210,
      "481": 7211,
      ";'": 7212,
      "anth": 7213,
      "712": 7214,
      "041": 7215,
      "421": 7216,
      "true": 7217,
      "Ġpiv": 7218,
      "lif": 7219,
      "ICAN": 7220,
      "ĠDoD": 7221,
      "ĠLC": 7222,
      "Low": 7223,
      "Such": 7224,
      "lls": 7225,
      "eady": 7226,
      "Chem": 7227,
      "ĠHg": 7228,
      "932": 7229,
      "idav": 7230,
      ">>": 7231,
      "ulum": 7232,
      "FAA": 7233,
      "Ġ870": 7234,
      "ĠâģĦ": 7235,
      "ek": 7236,
      "Gr": 7237,
      "LS": 7238,
      "ĠNV": 7239,
      "073": 7240,
      "713": 7241,
      "564": 7242,
      "MED": 7243,
      "ïģĿ": 7244,
      "udge": 7245,
      "oven": 7246,
      "ĠMen": 7247,
      "ĠPb": 7248,
      "pi": 7249,
      "ĠWE": 7250,
      "CB": 7251,
      "Tenn": 7252,
      "Ùĭ": 7253,
      "word": 7254,
      "Ġwid": 7255,
      "Ġ720": 7256,
      "fail": 7257,
      "gal": 7258,
      "ÙĦØ±": 7259,
      "882": 7260,
      "Ñģ": 7261,
      "616": 7262,
      "NP": 7263,
      "546": 7264,
      "Ġupl": 7265,
      "Ġ349": 7266,
      "mend": 7267,
      "471": 7268,
      "852": 7269,
      "1103": 7270,
      "ÙĦØ©": 7271,
      "ARS": 7272,
      "\").": 7273,
      "ysts": 7274,
      "473": 7275,
      "Ġthi": 7276,
      "KY": 7277,
      "Ġlen": 7278,
      "itry": 7279,
      "PAC": 7280,
      "592": 7281,
      "437": 7282,
      "568": 7283,
      "ĠTE": 7284,
      "abet": 7285,
      "Ġfan": 7286,
      "ĠMHz": 7287,
      "ĠBRO": 7288,
      "SUB": 7289,
      "ĠCOC": 7290,
      "642": 7291,
      "925": 7292,
      "lete": 7293,
      "ĠÂ¥": 7294,
      "397": 7295,
      "Ste": 7296,
      "edge": 7297,
      "Ġons": 7298,
      "imet": 7299,
      "Ġ767": 7300,
      "hig": 7301,
      "Ġ730": 7302,
      "ius": 7303,
      "854": 7304,
      "px": 7305,
      "ĠFCA": 7306,
      "ĠBon": 7307,
      "NT": 7308,
      "seud": 7309,
      "arit": 7310,
      "Ġpod": 7311,
      "ĠWho": 7312,
      "569": 7313,
      "ĠAqu": 7314,
      "laws": 7315,
      "ĠJob": 7316,
      "Ġ376": 7317,
      "Ġ358": 7318,
      "ĠMrs": 7319,
      "662": 7320,
      "sis": 7321,
      "Ġdas": 7322,
      "XML": 7323,
      "634": 7324,
      "Ġ363": 7325,
      "624": 7326,
      "ĠSS": 7327,
      "Bas": 7328,
      "pred": 7329,
      "ANTS": 7330,
      "Ġ353": 7331,
      "ÙĦØ®": 7332,
      "Pay": 7333,
      "ses": 7334,
      "Univ": 7335,
      "Ġ435": 7336,
      "Ã¤": 7337,
      "675": 7338,
      "536": 7339,
      "adow": 7340,
      "plom": 7341,
      "INES": 7342,
      "Ġ517": 7343,
      "Ġ426": 7344,
      "sex": 7345,
      "ĠEA": 7346,
      "iny": 7347,
      "652": 7348,
      "Ġ451": 7349,
      "ymph": 7350,
      "ADDR": 7351,
      "SIP": 7352,
      "Ġoc": 7353,
      "912": 7354,
      "Ġ396": 7355,
      "COME": 7356,
      "Ġlum": 7357,
      "yg": 7358,
      "imer": 7359,
      "WC": 7360,
      "âĢĻ)": 7361,
      "495": 7362,
      "ĠVic": 7363,
      "Ġ620": 7364,
      "orie": 7365,
      "IEW": 7366,
      "Ġ341": 7367,
      "828": 7368,
      "KER": 7369,
      "oic": 7370,
      "Ple": 7371,
      "ĠBa": 7372,
      "cop": 7373,
      ">\\": 7374,
      "itig": 7375,
      "bott": 7376,
      "viii": 7377,
      "vg": 7378,
      "âī": 7379,
      "bes": 7380,
      "ÙĦØµ": 7381,
      "ĠSqu": 7382,
      "0012": 7383,
      "'.": 7384,
      "leic": 7385,
      "otes": 7386,
      "soc": 7387,
      "927": 7388,
      "ĠHo": 7389,
      "ĠREM": 7390,
      "Ġ441": 7391,
      "Ġ650": 7392,
      "ĠWR": 7393,
      "Ġ428": 7394,
      "HP": 7395,
      "ĠEND": 7396,
      "CED": 7397,
      "933": 7398,
      "ACC": 7399,
      "DM": 7400,
      "cue": 7401,
      "Ġ445": 7402,
      "032": 7403,
      "ÙĤØ¯": 7404,
      "ĠHou": 7405,
      "HU": 7406,
      "dam": 7407,
      "Ġroy": 7408,
      "Disc": 7409,
      "*#": 7410,
      "apt": 7411,
      "ĠFF": 7412,
      "don": 7413,
      "Ġ383": 7414,
      "Ġoun": 7415,
      "mons": 7416,
      "ĠXX": 7417,
      "518": 7418,
      "ĠHay": 7419,
      "Si": 7420,
      "Ġ524": 7421,
      "FIGS": 7422,
      "bud": 7423,
      "omit": 7424,
      "ulus": 7425,
      "avor": 7426,
      "ĠTay": 7427,
      "larg": 7428,
      "conf": 7429,
      "728": 7430,
      "0014": 7431,
      "ĠFax": 7432,
      "gre": 7433,
      "JM": 7434,
      "QQ": 7435,
      "Ġwer": 7436,
      "Ġ888": 7437,
      "hs": 7438,
      "ĠHot": 7439,
      "ĠCe": 7440,
      "mor": 7441,
      "Ġtac": 7442,
      "725": 7443,
      "935": 7444,
      "lama": 7445,
      "Ø¥ÙĨ": 7446,
      "ieve": 7447,
      "ĠRod": 7448,
      "538": 7449,
      "Ð¾Ð": 7450,
      "];": 7451,
      "jo": 7452,
      "ITER": 7453,
      "Ġpla": 7454,
      "Ġ604": 7455,
      "519": 7456,
      "ĠCI": 7457,
      "ĠFS": 7458,
      "fici": 7459,
      "spi": 7460,
      "ĠTS": 7461,
      "ĠPo": 7462,
      "533": 7463,
      "kra": 7464,
      "indr": 7465,
      "onyl": 7466,
      "494": 7467,
      "Ġhed": 7468,
      "Ġ348": 7469,
      "./": 7470,
      "Ġkid": 7471,
      "orus": 7472,
      "COUN": 7473,
      "wer": 7474,
      "UU": 7475,
      "436": 7476,
      "ĠTar": 7477,
      "Ġ393": 7478,
      "1084": 7479,
      "SEQ": 7480,
      "Ġ368": 7481,
      "Ġ521": 7482,
      "613": 7483,
      "Main": 7484,
      "Own": 7485,
      "INO": 7486,
      "614": 7487,
      "892": 7488,
      "Law": 7489,
      "dale": 7490,
      "1079": 7491,
      "IFIC": 7492,
      "735": 7493,
      "814": 7494,
      "098": 7495,
      "869": 7496,
      "ĠTom": 7497,
      "esn": 7498,
      "ĠOak": 7499,
      "osol": 7500,
      "ĠPap": 7501,
      "oga": 7502,
      "='": 7503,
      "ĠGar": 7504,
      "AGEM": 7505,
      "527": 7506,
      "oget": 7507,
      "rink": 7508,
      "code": 7509,
      "Ġqui": 7510,
      "ÃĨ": 7511,
      "FONT": 7512,
      "fely": 7513,
      "ĠPor": 7514,
      "cit": 7515,
      "ĠCAM": 7516,
      "elo": 7517,
      "oly": 7518,
      "Ġwt": 7519,
      "ĠLAW": 7520,
      "cils": 7521,
      "Ġry": 7522,
      "VC": 7523,
      "Ġ511": 7524,
      "Ġ382": 7525,
      "Ġ384": 7526,
      "ĠMIN": 7527,
      "Ser": 7528,
      "ĠMED": 7529,
      "mas": 7530,
      "BUR": 7531,
      "ÙĪØ±": 7532,
      "user": 7533,
      ")=": 7534,
      "ague": 7535,
      "]-": 7536,
      "NAME": 7537,
      "ĠUl": 7538,
      "mile": 7539,
      "ĠCro": 7540,
      "ELEC": 7541,
      "ĠNav": 7542,
      "hma": 7543,
      "Ġ498": 7544,
      "1972": 7545,
      "636": 7546,
      "NL": 7547,
      "pm": 7548,
      "484": 7549,
      "oln": 7550,
      ";:": 7551,
      "Ġ490": 7552,
      "ÙħØ¹": 7553,
      "083": 7554,
      "eck": 7555,
      "Ġwo": 7556,
      "668": 7557,
      "431": 7558,
      "Mich": 7559,
      "ĠVAT": 7560,
      "*&#": 7561,
      "Ġhr": 7562,
      "John": 7563,
      "expl": 7564,
      "Ã±": 7565,
      "611": 7566,
      "Ġ570": 7567,
      "ĠCri": 7568,
      "ipl": 7569,
      "863": 7570,
      "523": 7571,
      "WASH": 7572,
      "Ġ434": 7573,
      "dry": 7574,
      "Old": 7575,
      "Ġ710": 7576,
      "Ġ522": 7577,
      "Ann": 7578,
      "545": 7579,
      "Ġorg": 7580,
      "ĠNAS": 7581,
      "URAL": 7582,
      "taly": 7583,
      "058": 7584,
      "095": 7585,
      "JO": 7586,
      "mL": 7587,
      "Ġmur": 7588,
      "LU": 7589,
      "Don": 7590,
      "Ġ866": 7591,
      "osh": 7592,
      "Ġ514": 7593,
      "DOE": 7594,
      "649": 7595,
      "0007": 7596,
      "EDIT": 7597,
      "RIN": 7598,
      "Ġrac": 7599,
      "ohyd": 7600,
      "=.": 7601,
      "534": 7602,
      "AMA": 7603,
      "Ġ361": 7604,
      "DW": 7605,
      "sing": 7606,
      "Ġ513": 7607,
      "ungs": 7608,
      "Ġ701": 7609,
      "526": 7610,
      "âĢĻ;": 7611,
      "Prim": 7612,
      "1975": 7613,
      "398": 7614,
      "COD": 7615,
      "ĠAid": 7616,
      "rael": 7617,
      "full": 7618,
      "1979": 7619,
      "478": 7620,
      "Ġsac": 7621,
      "0010": 7622,
      "Pac": 7623,
      "wat": 7624,
      "Ġ554": 7625,
      "657": 7626,
      "ĠFAC": 7627,
      "ĠPUR": 7628,
      "phys": 7629,
      "ALY": 7630,
      "Ġ372": 7631,
      "ipro": 7632,
      "ĠWIN": 7633,
      "Ġ503": 7634,
      "NOR": 7635,
      "561": 7636,
      "Ø³Øª": 7637,
      "ĠFM": 7638,
      "535": 7639,
      "476": 7640,
      "627": 7641,
      "ATEG": 7642,
      "sem": 7643,
      "ĠPAY": 7644,
      "uma": 7645,
      "show": 7646,
      "Ġsid": 7647,
      "ĠMul": 7648,
      "Ġsin": 7649,
      "dri": 7650,
      "aims": 7651,
      ")\"": 7652,
      "Back": 7653,
      "anot": 7654,
      "gpo": 7655,
      "Ġ880": 7656,
      "ĠTIT": 7657,
      "DB": 7658,
      "Ġ386": 7659,
      "482": 7660,
      "iley": 7661,
      "659": 7662,
      "tot": 7663,
      "oil": 7664,
      "Ġ374": 7665,
      "TG": 7666,
      "yers": 7667,
      "Anot": 7668,
      "sul": 7669,
      ",''": 7670,
      "âĢĶ(": 7671,
      "094": 7672,
      "AU": 7673,
      "hard": 7674,
      "nas": 7675,
      "Ġ373": 7676,
      "Ġhet": 7677,
      "Ġauc": 7678,
      "Ġ419": 7679,
      "VR": 7680,
      "Ġwal": 7681,
      "GAO": 7682,
      "FORE": 7683,
      "093": 7684,
      "Ġ001": 7685,
      "077": 7686,
      "CAL": 7687,
      "OI": 7688,
      "NER": 7689,
      "Å½": 7690,
      "Ġ438": 7691,
      "tox": 7692,
      "ÑĢ": 7693,
      "Ġhun": 7694,
      "tl": 7695,
      "923": 7696,
      "ĠOJ": 7697,
      "ĠOPP": 7698,
      "IEC": 7699,
      "477": 7700,
      "Ġ596": 7701,
      "onym": 7702,
      "ĠXXX": 7703,
      "ĠDer": 7704,
      "bial": 7705,
      "Ġ394": 7706,
      "ĠSL": 7707,
      "nc": 7708,
      "1969": 7709,
      "fisc": 7710,
      "adl": 7711,
      "Ġhur": 7712,
      "429": 7713,
      "646": 7714,
      "ĠLes": 7715,
      "five": 7716,
      "QG": 7717,
      "Ġdei": 7718,
      "Post": 7719,
      "TL": 7720,
      "617": 7721,
      "ĠISS": 7722,
      "ĠEnh": 7723,
      "ĠTob": 7724,
      "ENTA": 7725,
      "ĠFlu": 7726,
      "van": 7727,
      "ĠMW": 7728,
      "Ġ436": 7729,
      "irt": 7730,
      "Ø¨Ø¯": 7731,
      "599": 7732,
      "ĠEQ": 7733,
      "Ne": 7734,
      "ĠAp": 7735,
      "1976": 7736,
      "ĠPul": 7737,
      "ups": 7738,
      "rr": 7739,
      "ĠMIS": 7740,
      "aux": 7741,
      "ĠEgg": 7742,
      "498": 7743,
      "CLUS": 7744,
      "Char": 7745,
      "ĠGS": 7746,
      "Sal": 7747,
      "618": 7748,
      "rays": 7749,
      "IOR": 7750,
      "TIES": 7751,
      "715": 7752,
      "ĠNSR": 7753,
      "Ġ488": 7754,
      "iers": 7755,
      "Ġ379": 7756,
      "084": 7757,
      "TITU": 7758,
      "Ġ457": 7759,
      "aken": 7760,
      "`!": 7761,
      "813": 7762,
      "Line": 7763,
      "dig": 7764,
      "Ã´": 7765,
      "DES": 7766,
      "tie": 7767,
      "Lim": 7768,
      "597": 7769,
      "0006": 7770,
      "Ġ437": 7771,
      "ĠKel": 7772,
      "Ġff": 7773,
      "fine": 7774,
      "878": 7775,
      "Ġgel": 7776,
      "CI": 7777,
      "ĠSn": 7778,
      "ĠNHS": 7779,
      "`\"": 7780,
      "essa": 7781,
      "Ġbot": 7782,
      "ANSP": 7783,
      "532": 7784,
      "OUNT": 7785,
      "reds": 7786,
      "Ġalt": 7787,
      "Ġ830": 7788,
      "655": 7789,
      "Ġpil": 7790,
      "Ġ872": 7791,
      "Ġlie": 7792,
      "!--": 7793,
      "Ġ516": 7794,
      "744": 7795,
      "Ġ455": 7796,
      "ĠBra": 7797,
      "acqu": 7798,
      "492": 7799,
      "Ġ886": 7800,
      "Ġ476": 7801,
      "ansl": 7802,
      "ĠMEM": 7803,
      "<\\/": 7804,
      "876": 7805,
      "ĠJO": 7806,
      "Ġ850": 7807,
      "ĠCB": 7808,
      "Ġ399": 7809,
      "487": 7810,
      "ĠTM": 7811,
      "Ġ890": 7812,
      "neum": 7813,
      "586": 7814,
      "Ġ(%)": 7815,
      "1977": 7816,
      "Ġ**&": 7817,
      "iami": 7818,
      "sulf": 7819,
      "itol": 7820,
      "rut": 7821,
      "OLL": 7822,
      "olv": 7823,
      ".\\": 7824,
      "jus": 7825,
      "otos": 7826,
      "Ġfif": 7827,
      "REEN": 7828,
      "leep": 7829,
      "622": 7830,
      "omal": 7831,
      "ĠPS": 7832,
      "052": 7833,
      "Ġ443": 7834,
      "823": 7835,
      "Ġkit": 7836,
      "1110": 7837,
      "dim": 7838,
      "sE": 7839,
      "ĠDEV": 7840,
      "Ġ433": 7841,
      "619": 7842,
      "654": 7843,
      "816": 7844,
      "eded": 7845,
      "CAS": 7846,
      "QL": 7847,
      "785": 7848,
      "Bs": 7849,
      "tmn": 7850,
      "Ġtap": 7851,
      "Ġwi": 7852,
      "**~": 7853,
      "753": 7854,
      "alo": 7855,
      "tigu": 7856,
      "576": 7857,
      "ÙĥØ±": 7858,
      "Ġbes": 7859,
      "nia": 7860,
      "Ġov": 7861,
      "ctua": 7862,
      "722": 7863,
      "638": 7864,
      "onau": 7865,
      "DOC": 7866,
      "Ġ802": 7867,
      "igen": 7868,
      "burn": 7869,
      "iduc": 7870,
      "078": 7871,
      "oody": 7872,
      "Ġ377": 7873,
      "(\"`@": 7874,
      "623": 7875,
      "ĠXI": 7876,
      "Ġobs": 7877,
      "NON": 7878,
      "Ġ484": 7879,
      "Ġpus": 7880,
      "497": 7881,
      "MWh": 7882,
      "Pack": 7883,
      "ela": 7884,
      "669": 7885,
      ")}": 7886,
      "584": 7887,
      "Ġoak": 7888,
      "ĠFar": 7889,
      "ĠPit": 7890,
      "088": 7891,
      "Ġ442": 7892,
      "Ġ586": 7893,
      "Ġpal": 7894,
      "ucle": 7895,
      "FGD": 7896,
      "Wil": 7897,
      "iro": 7898,
      ":]": 7899,
      "UI": 7900,
      "Sw": 7901,
      "736": 7902,
      "721": 7903,
      "ourn": 7904,
      "arer": 7905,
      "Ġ397": 7906,
      "puty": 7907,
      "YD": 7908,
      "096": 7909,
      "sche": 7910,
      "sidy": 7911,
      "Ġ446": 7912,
      "Ġ(.": 7913,
      "yan": 7914,
      "Ġ477": 7915,
      "oxin": 7916,
      "rons": 7917,
      "FW": 7918,
      "ĠOmb": 7919,
      "aked": 7920,
      "079": 7921,
      "rega": 7922,
      "Aff": 7923,
      "yt": 7924,
      "Ġdin": 7925,
      "Ġoo": 7926,
      "521": 7927,
      "IPS": 7928,
      "Ġ897": 7929,
      "082": 7930,
      "Fe": 7931,
      "827": 7932,
      "Ġ**#": 7933,
      "Ġ640": 7934,
      "Ġza": 7935,
      "493": 7936,
      "umf": 7937,
      "Ġ608": 7938,
      "ĠHas": 7939,
      "mid": 7940,
      "Ġ525": 7941,
      "Ġ367": 7942,
      "Ġrid": 7943,
      "/#": 7944,
      "cha": 7945,
      "CLUD": 7946,
      "Ġ528": 7947,
      "663": 7948,
      "PF": 7949,
      "Ġ465": 7950,
      "ball": 7951,
      "ĠArt": 7952,
      "acre": 7953,
      "aug": 7954,
      "ĠReh": 7955,
      "IVE": 7956,
      "ĠVE": 7957,
      "Ġole": 7958,
      "ĠSBA": 7959,
      "ĠMot": 7960,
      "Ġ868": 7961,
      "INAL": 7962,
      "645": 7963,
      "xi": 7964,
      "Vs": 7965,
      "FORM": 7966,
      "pace": 7967,
      "aten": 7968,
      "@`": 7969,
      "TSA": 7970,
      "RIS": 7971,
      "chan": 7972,
      "ATS": 7973,
      "eman": 7974,
      "pula": 7975,
      "rh": 7976,
      "comp": 7977,
      "1973": 7978,
      "udul": 7979,
      "ocus": 7980,
      "ILED": 7981,
      "ĠLIM": 7982,
      "Ø¨Ø±": 7983,
      "DEC": 7984,
      "643": 7985,
      "531": 7986,
      "Ġwra": 7987,
      "home": 7988,
      "Ġ392": 7989,
      "724": 7990,
      "Ġ553": 7991,
      "oyd": 7992,
      "oen": 7993,
      "Ġ389": 7994,
      "835": 7995,
      "898": 7996,
      "474": 7997,
      "595": 7998,
      "-$": 7999,
      "097": 8000,
      "RD": 8001,
      "FED": 8002,
      "4444": 8003,
      "Diff": 8004,
      "688": 8005,
      "pler": 8006,
      "ÃĲ": 8007,
      "439": 8008,
      "AUTH": 8009,
      "iora": 8010,
      "Ġ398": 8011,
      "Ġ615": 8012,
      "Ġ475": 8013,
      "089": 8014,
      "QA": 8015,
      "ĠHP": 8016,
      "hall": 8017,
      "agle": 8018,
      "ĠIG": 8019,
      "1600": 8020,
      "\"'": 8021,
      "urg": 8022,
      "ENSE": 8023,
      "Ġdog": 8024,
      "Ġ555": 8025,
      "ITAL": 8026,
      "877": 8027,
      "oled": 8028,
      "ĠEll": 8029,
      "Rest": 8030,
      "Ø¹Ø¯": 8031,
      "lob": 8032,
      "born": 8033,
      "ez": 8034,
      "ĠHun": 8035,
      "087": 8036,
      "ĠNF": 8037,
      "gue": 8038,
      "Ġ702": 8039,
      "ĠCot": 8040,
      "Ġ625": 8041,
      "Fact": 8042,
      "Ġsor": 8043,
      "vial": 8044,
      ")</": 8045,
      "661": 8046,
      "PORT": 8047,
      "572": 8048,
      "Ġ777": 8049,
      "Ġ448": 8050,
      "Soft": 8051,
      "ĠCu": 8052,
      "Ø¨ÙĪ": 8053,
      "Ġ387": 8054,
      "ĠMel": 8055,
      "Ġ454": 8056,
      "aby": 8057,
      "BU": 8058,
      "SUM": 8059,
      "ĠMCA": 8060,
      "unn": 8061,
      "ORTA": 8062,
      "Ġ930": 8063,
      "AW": 8064,
      "ĠOIG": 8065,
      "Ġsrc": 8066,
      "Hyd": 8067,
      "859": 8068,
      "483": 8069,
      "EFF": 8070,
      "ĠIce": 8071,
      "Ġ592": 8072,
      "ĠGAS": 8073,
      "629": 8074,
      "TIM": 8075,
      "romo": 8076,
      "Ġ[<": 8077,
      "ØŃØ¯": 8078,
      "Ġ612": 8079,
      "hl": 8080,
      "ownb": 8081,
      "588": 8082,
      "ĠLD": 8083,
      "811": 8084,
      "ĠAFF": 8085,
      "Ġ541": 8086,
      "ĠMit": 8087,
      "ctur": 8088,
      "745": 8089,
      "718": 8090,
      "644": 8091,
      "775": 8092,
      "SPS": 8093,
      "Ġ369": 8094,
      "Ġ703": 8095,
      "633": 8096,
      "ØªÙĩ": 8097,
      "icks": 8098,
      "Ġ660": 8099,
      "sus": 8100,
      "ĠML": 8101,
      "sit": 8102,
      "Ġ453": 8103,
      "anz": 8104,
      "Vi": 8105,
      "Ġjur": 8106,
      "izz": 8107,
      "Ġ466": 8108,
      "Ġ429": 8109,
      "ede": 8110,
      "ĠLP": 8111,
      "Let": 8112,
      "ĠGal": 8113,
      "ĠGP": 8114,
      "ĠCiv": 8115,
      "EMP": 8116,
      "bio": 8117,
      "km": 8118,
      "-\"": 8119,
      "ĠSAL": 8120,
      "dius": 8121,
      "meta": 8122,
      "825": 8123,
      "rece": 8124,
      "GAN": 8125,
      "even": 8126,
      "ĠØº": 8127,
      "Fol": 8128,
      "AEL": 8129,
      "QJ": 8130,
      "AI": 8131,
      "Ġppb": 8132,
      "ĠPMA": 8133,
      "COMM": 8134,
      "Ġnu": 8135,
      "ĠSER": 8136,
      "eros": 8137,
      "solv": 8138,
      "hi": 8139,
      "0026": 8140,
      "Bar": 8141,
      "579": 8142,
      "632": 8143,
      "Coal": 8144,
      "ĠWas": 8145,
      "815": 8146,
      "pete": 8147,
      "neg": 8148,
      "851": 8149,
      "Ġaug": 8150,
      "tur": 8151,
      "OSS": 8152,
      "653": 8153,
      "081": 8154,
      "Cle": 8155,
      "Area": 8156,
      "671": 8157,
      "uter": 8158,
      "Good": 8159,
      "vd": 8160,
      "733": 8161,
      "Ġans": 8162,
      "ĠHQ": 8163,
      "quar": 8164,
      "ĠTRA": 8165,
      "ori": 8166,
      "874": 8167,
      "EET": 8168,
      "UREG": 8169,
      "ĠPLT": 8170,
      "895": 8171,
      "ĠOld": 8172,
      "587": 8173,
      "etal": 8174,
      "Ġure": 8175,
      "tite": 8176,
      "IOD": 8177,
      "714": 8178,
      "Ġ580": 8179,
      "0018": 8180,
      "ĠNBS": 8181,
      "udic": 8182,
      "ĠCTA": 8183,
      "many": 8184,
      "ints": 8185,
      "ophy": 8186,
      "TW": 8187,
      "0011": 8188,
      "ïĢ©": 8189,
      "ĠSTE": 8190,
      "oner": 8191,
      "822": 8192,
      "676": 8193,
      "tail": 8194,
      "NUM": 8195,
      "Ġ614": 8196,
      "591": 8197,
      "rica": 8198,
      "855": 8199,
      "Ø¨Ø§": 8200,
      "Ġ###": 8201,
      "672": 8202,
      "Ġali": 8203,
      "ĠCut": 8204,
      "bk": 8205,
      "Ã£": 8206,
      "gest": 8207,
      "ĠBM": 8208,
      "agen": 8209,
      "Ġ864": 8210,
      "684": 8211,
      "Ġ485": 8212,
      "uate": 8213,
      "icts": 8214,
      "831": 8215,
      "eri": 8216,
      "635": 8217,
      "Plus": 8218,
      "HHHH": 8219,
      "Ill": 8220,
      "Ġhay": 8221,
      "VY": 8222,
      ";)": 8223,
      "GM": 8224,
      "atte": 8225,
      "911": 8226,
      "598": 8227,
      "ĠILL": 8228,
      "rips": 8229,
      "914": 8230,
      "726": 8231,
      "937": 8232,
      "zyme": 8233,
      "anit": 8234,
      "698": 8235,
      "583": 8236,
      "826": 8237,
      "rl": 8238,
      "Ãĩ": 8239,
      "717": 8240,
      "VO": 8241,
      "ĠAw": 8242,
      "578": 8243,
      "Ġ518": 8244,
      "699": 8245,
      "haz": 8246,
      "FH": 8247,
      "ĠBUR": 8248,
      "921": 8249,
      "Ġ458": 8250,
      "abb": 8251,
      "GIN": 8252,
      "ãĢ": 8253,
      "Now": 8254,
      "3142": 8255,
      "ĠTal": 8256,
      "ĠKat": 8257,
      ")âĢĻ": 8258,
      "Ġ486": 8259,
      "Ġgy": 8260,
      "UNC": 8261,
      "Ġ468": 8262,
      "ĠOC": 8263,
      "Î±": 8264,
      "ghly": 8265,
      "rn": 8266,
      "emb": 8267,
      "%#": 8268,
      "\\`": 8269,
      "Mass": 8270,
      "Ġii": 8271,
      "inth": 8272,
      "Ġmu": 8273,
      "Ġith": 8274,
      "ÙĥÙħ": 8275,
      "tero": 8276,
      "Ġ607": 8277,
      "Ġ482": 8278,
      "righ": 8279,
      "si": 8280,
      "Ġ478": 8281,
      "ĠEu": 8282,
      "gle": 8283,
      "Gra": 8284,
      "ÙĬØ¯": 8285,
      "Ġ464": 8286,
      "sci": 8287,
      "rypt": 8288,
      "ORTS": 8289,
      "Ġay": 8290,
      "esto": 8291,
      "593": 8292,
      "ĠBAR": 8293,
      "571": 8294,
      "ĠâĢĲ": 8295,
      "geon": 8296,
      "ĠHON": 8297,
      "637": 8298,
      "ĠSov": 8299,
      "Ġ723": 8300,
      "574": 8301,
      "ĠRus": 8302,
      "Ġ526": 8303,
      "817": 8304,
      "rels": 8305,
      "RF": 8306,
      "719": 8307,
      "Ġ809": 8308,
      "Ø¨ÙĨ": 8309,
      "Chic": 8310,
      "ynch": 8311,
      "left": 8312,
      "Ġ810": 8313,
      "shar": 8314,
      "ĠMSA": 8315,
      "Ġ566": 8316,
      "areh": 8317,
      "ĠCBO": 8318,
      "674": 8319,
      "Aud": 8320,
      "837": 8321,
      "Cat": 8322,
      "ĠArc": 8323,
      "aus": 8324,
      "ĠâĢ²": 8325,
      "âĢı": 8326,
      "ags": 8327,
      "Site": 8328,
      "ĠPak": 8329,
      "Â§Â§": 8330,
      "USA": 8331,
      "926": 8332,
      "Fuel": 8333,
      "ĠBot": 8334,
      "ipio": 8335,
      "711": 8336,
      "ĠLT": 8337,
      "786": 8338,
      "Ġ509": 8339,
      "573": 8340,
      "Ġï£": 8341,
      "818": 8342,
      "091": 8343,
      "Soc": 8344,
      "ĠRom": 8345,
      "roid": 8346,
      "OSH": 8347,
      "ĠKil": 8348,
      "ugar": 8349,
      "ĠMes": 8350,
      "ĠFla": 8351,
      "mise": 8352,
      "owl": 8353,
      "EPT": 8354,
      "Ġ534": 8355,
      "ysis": 8356,
      "577": 8357,
      "ECD": 8358,
      "Ġ883": 8359,
      "833": 8360,
      "Ø§Ùĩ": 8361,
      "Ġ603": 8362,
      "Ġ704": 8363,
      "Ġ452": 8364,
      "ĠIl": 8365,
      "farm": 8366,
      "Ġ492": 8367,
      "Iden": 8368,
      "rill": 8369,
      "CAR": 8370,
      "Ġ556": 8371,
      "099": 8372,
      "Ø¡": 8373,
      "899": 8374,
      "cook": 8375,
      "Up": 8376,
      "Ġafo": 8377,
      "529": 8378,
      "734": 8379,
      "ÙĦØ«": 8380,
      "IDA": 8381,
      "Ġrc": 8382,
      "ket": 8383,
      "Ġeen": 8384,
      "697": 8385,
      "ĠJo": 8386,
      "Pet": 8387,
      "Ġ882": 8388,
      "ĠAI": 8389,
      "ĠET": 8390,
      "UGH": 8391,
      "ogic": 8392,
      "Vir": 8393,
      "Ġ804": 8394,
      "oute": 8395,
      "oids": 8396,
      "ĠMcK": 8397,
      "ĠSAN": 8398,
      "hole": 8399,
      "ĠNi": 8400,
      "Ġbru": 8401,
      "irms": 8402,
      "ĠAQ": 8403,
      "eval": 8404,
      "ugi": 8405,
      "ÙĦØ°": 8406,
      "ajo": 8407,
      "NET": 8408,
      "Bro": 8409,
      "uine": 8410,
      "ïĤ§": 8411,
      "rift": 8412,
      ".);": 8413,
      "Ġ523": 8414,
      "uns": 8415,
      "quan": 8416,
      "Ġ535": 8417,
      "Ãı": 8418,
      "ĠWhy": 8419,
      "489": 8420,
      "ĠLu": 8421,
      "Ġsug": 8422,
      "723": 8423,
      "Ġ574": 8424,
      "ewer": 8425,
      ")#": 8426,
      "Ġ747": 8427,
      "Bur": 8428,
      "631": 8429,
      "Ġ472": 8430,
      "adop": 8431,
      "adi": 8432,
      "ĠTEX": 8433,
      "797": 8434,
      "692": 8435,
      "ĠLI": 8436,
      "ĠRH": 8437,
      "CN": 8438,
      "ait": 8439,
      "Ġ439": 8440,
      "GB": 8441,
      "995": 8442,
      ";/": 8443,
      "ully": 8444,
      "Ġ462": 8445,
      "Ġ497": 8446,
      "Term": 8447,
      "Two": 8448,
      "Ġspp": 8449,
      "0101": 8450,
      "589": 8451,
      "Sta": 8452,
      "ĠâĹı": 8453,
      "Ġ463": 8454,
      "Tem": 8455,
      "IAB": 8456,
      "Bure": 8457,
      "792": 8458,
      "cho": 8459,
      "Ġef": 8460,
      "Ġjet": 8461,
      "686": 8462,
      "End": 8463,
      "Ġ575": 8464,
      "ista": 8465,
      "een": 8466,
      "UGS": 8467,
      "ĠFat": 8468,
      "ĠDOC": 8469,
      "Ġ449": 8470,
      "%%%%": 8471,
      "inic": 8472,
      "Ġlip": 8473,
      "ofar": 8474,
      "wash": 8475,
      "Road": 8476,
      "LIN": 8477,
      "BACK": 8478,
      "tz": 8479,
      "Ġ715": 8480,
      "CuCu": 8481,
      "VIEW": 8482,
      "Ġ547": 8483,
      "694": 8484,
      "Ġ519": 8485,
      "ĠDM": 8486,
      "emit": 8487,
      "FORD": 8488,
      "687": 8489,
      "âĢĶ-": 8490,
      "Ġ544": 8491,
      "843": 8492,
      "ĠLen": 8493,
      "NGL": 8494,
      "etpl": 8495,
      "My": 8496,
      "enne": 8497,
      "airc": 8498,
      "emph": 8499,
      "Adv": 8500,
      "VT": 8501,
      "idae": 8502,
      "ĠEFF": 8503,
      "good": 8504,
      "roch": 8505,
      "ĠCMA": 8506,
      "Ġ670": 8507,
      "ĠHI": 8508,
      "heds": 8509,
      "Ġru": 8510,
      "ece": 8511,
      "Ġ495": 8512,
      "cau": 8513,
      "Coll": 8514,
      "Ġ562": 8515,
      "Econ": 8516,
      "usda": 8517,
      "746": 8518,
      "anty": 8519,
      "owns": 8520,
      "jet": 8521,
      ";$": 8522,
      "696": 8523,
      "Ġhon": 8524,
      "comb": 8525,
      "wall": 8526,
      "Ġci": 8527,
      "){": 8528,
      "ĠTa": 8529,
      "ĠFH": 8530,
      "918": 8531,
      "CG": 8532,
      "1971": 8533,
      "Ġ474": 8534,
      "Tel": 8535,
      "soft": 8536,
      "THOD": 8537,
      "Base": 8538,
      "678": 8539,
      "ĠOl": 8540,
      "CUIT": 8541,
      "ĠPP": 8542,
      "ĠSeg": 8543,
      "Ġ740": 8544,
      "Ġgi": 8545,
      "ĠPD": 8546,
      "REL": 8547,
      "Lake": 8548,
      "USS": 8549,
      "Ġcru": 8550,
      "wan": 8551,
      "Pat": 8552,
      "leng": 8553,
      "621": 8554,
      "rium": 8555,
      "Stud": 8556,
      "TIFF": 8557,
      "716": 8558,
      "SOL": 8559,
      "OTH": 8560,
      "Ġbip": 8561,
      "MISS": 8562,
      "anna": 8563,
      "East": 8564,
      "Long": 8565,
      "inge": 8566,
      "Ġ812": 8567,
      "ĠUP": 8568,
      "eti": 8569,
      "RM": 8570,
      "YN": 8571,
      "824": 8572,
      "AQ": 8573,
      "TIV": 8574,
      "lll": 8575,
      "NEX": 8576,
      "eiv": 8577,
      "737": 8578,
      "JJ": 8579,
      "Ġ760": 8580,
      "491": 8581,
      "ĠMIL": 8582,
      "ERVA": 8583,
      "eger": 8584,
      "pent": 8585,
      "ĠSCC": 8586,
      "ĠDEL": 8587,
      "OPP": 8588,
      "edu": 8589,
      "oxid": 8590,
      "elt": 8591,
      "UNDS": 8592,
      "EALS": 8593,
      "Ġhit": 8594,
      "ĠMg": 8595,
      "897": 8596,
      "hid": 8597,
      "Ur": 8598,
      "gers": 8599,
      "NEI": 8600,
      "677": 8601,
      "ocio": 8602,
      "Ġfu": 8603,
      "ĠBB": 8604,
      "pus": 8605,
      "osta": 8606,
      "ĠRED": 8607,
      "olin": 8608,
      "rote": 8609,
      "eft": 8610,
      "čĊĠ": 8611,
      "NEW": 8612,
      "Ġ579": 8613,
      "838": 8614,
      "rett": 8615,
      ",'": 8616,
      "Ġ675": 8617,
      "Ġ496": 8618,
      "ĠHaw": 8619,
      "ĠUT": 8620,
      "938": 8621,
      "Ġfas": 8622,
      "Vis": 8623,
      "Ġgau": 8624,
      "Dear": 8625,
      "rout": 8626,
      "give": 8627,
      "Ġ461": 8628,
      "URR": 8629,
      "Ø¦": 8630,
      "ĠRam": 8631,
      "Ġrab": 8632,
      "wp": 8633,
      "1001": 8634,
      "REEK": 8635,
      "Ġ803": 8636,
      "OSI": 8637,
      "092": 8638,
      "Ġ699": 8639,
      "guid": 8640,
      "ĠSac": 8641,
      "idif": 8642,
      "judg": 8643,
      "roga": 8644,
      "795": 8645,
      "esU": 8646,
      "pot": 8647,
      "ĠMAT": 8648,
      "727": 8649,
      "SID": 8650,
      "VII": 8651,
      "ĠLL": 8652,
      "pu": 8653,
      "pty": 8654,
      "Ġlid": 8655,
      "ĠčĊ": 8656,
      "Ġ493": 8657,
      "Ġ565": 8658,
      "ĠLam": 8659,
      "582": 8660,
      "Ġhir": 8661,
      "Peti": 8662,
      "ĠEAS": 8663,
      "ĠKY": 8664,
      "Ġ611": 8665,
      "imes": 8666,
      "Ġinn": 8667,
      "terg": 8668,
      "nell": 8669,
      "oalk": 8670,
      "Ġ551": 8671,
      "ĠOO": 8672,
      "Mat": 8673,
      "ĠRC": 8674,
      "dat": 8675,
      "tte": 8676,
      "ARP": 8677,
      "'ve": 8678,
      "844": 8679,
      "ĠRI": 8680,
      "udi": 8681,
      "did": 8682,
      "732": 8683,
      "Ġted": 8684,
      "SEE": 8685,
      "Ġea": 8686,
      "Ġ706": 8687,
      "cen": 8688,
      "ĠCBI": 8689,
      "JA": 8690,
      "ami": 8691,
      "ĠBEN": 8692,
      "1073": 8693,
      "kee": 8694,
      "Ġ667": 8695,
      "ĠBUL": 8696,
      "keys": 8697,
      "OME": 8698,
      "fas": 8699,
      "cz": 8700,
      "Ġ487": 8701,
      "nie": 8702,
      "Ġ746": 8703,
      "iffs": 8704,
      "$/": 8705,
      "Ġist": 8706,
      "Ps": 8707,
      "Ġvig": 8708,
      "gom": 8709,
      "fied": 8710,
      "Ġ545": 8711,
      "738": 8712,
      "prob": 8713,
      "673": 8714,
      "sup": 8715,
      "934": 8716,
      "Hood": 8717,
      "iger": 8718,
      "Ġpra": 8719,
      "duit": 8720,
      "Ġ770": 8721,
      "Ġ536": 8722,
      "hn": 8723,
      "Ġâĸ": 8724,
      "obic": 8725,
      "vian": 8726,
      "TOM": 8727,
      "RNA": 8728,
      "ĠLin": 8729,
      "ïĢł": 8730,
      "Ċĉ": 8731,
      "Cust": 8732,
      "HIB": 8733,
      "opin": 8734,
      "fut": 8735,
      "ĠSAM": 8736,
      "ĠCou": 8737,
      "Ġ860": 8738,
      "targ": 8739,
      "Ġpel": 8740,
      "FINI": 8741,
      "ĠSSA": 8742,
      "imm": 8743,
      "Ġlev": 8744,
      "Last": 8745,
      "Ġ537": 8746,
      "mune": 8747,
      "orig": 8748,
      "Ġ546": 8749,
      "Ġbel": 8750,
      "ĠLAB": 8751,
      "OUT": 8752,
      "1075": 8753,
      "Ġ471": 8754,
      "Gro": 8755,
      "Il": 8756,
      "ĠNET": 8757,
      "Ġ533": 8758,
      "ĠNit": 8759,
      "Ġ622": 8760,
      "las": 8761,
      "1300": 8762,
      "LV": 8763,
      "Ġ494": 8764,
      "Flor": 8765,
      "1098": 8766,
      "Ġ527": 8767,
      "832": 8768,
      "794": 8769,
      "776": 8770,
      "town": 8771,
      "ÙĪÙħ": 8772,
      "dest": 8773,
      "896": 8774,
      "TB": 8775,
      "796": 8776,
      "KG": 8777,
      "682": 8778,
      "Ġ481": 8779,
      "lax": 8780,
      "lter": 8781,
      "Ġzu": 8782,
      "2100": 8783,
      "Ġ`": 8784,
      "Ġces": 8785,
      "Ġber": 8786,
      "Rich": 8787,
      "ĠHur": 8788,
      "ITT": 8789,
      "Ġ735": 8790,
      "Sci": 8791,
      "rews": 8792,
      "Ġ707": 8793,
      "Ġ583": 8794,
      "Ġ459": 8795,
      "Exp": 8796,
      "Ġosc": 8797,
      "ĠTAX": 8798,
      "Sod": 8799,
      "ugal": 8800,
      "Ġcad": 8801,
      "ĠØ·": 8802,
      "Ġ613": 8803,
      "793": 8804,
      "yeth": 8805,
      "LISH": 8806,
      "845": 8807,
      "ĠGT": 8808,
      "798": 8809,
      "1968": 8810,
      "onav": 8811,
      "insu": 8812,
      "poll": 8813,
      "Ġmam": 8814,
      "away": 8815,
      "Ġ529": 8816,
      "Fam": 8817,
      "rows": 8818,
      "orce": 8819,
      "Ġ467": 8820,
      "HM": 8821,
      "ĠBlu": 8822,
      "bul": 8823,
      "âĢĿ;": 8824,
      "tems": 8825,
      "ĠEFS": 8826,
      "ĠFel": 8827,
      "-_": 8828,
      "Ġva": 8829,
      "581": 8830,
      "iian": 8831,
      "799": 8832,
      "894": 8833,
      "Ġ531": 8834,
      "DV": 8835,
      "Ġhex": 8836,
      "XXX": 8837,
      "1400": 8838,
      "ĠRub": 8839,
      "mix": 8840,
      ">.": 8841,
      "Ġ549": 8842,
      "TRAC": 8843,
      "Ren": 8844,
      "ERY": 8845,
      "639": 8846,
      "ĠBow": 8847,
      "aden": 8848,
      "Ġ469": 8849,
      "sten": 8850,
      "eras": 8851,
      "dock": 8852,
      "ÙĩÙĪ": 8853,
      "Ġrd": 8854,
      "996": 8855,
      "vern": 8856,
      "0030": 8857,
      "Ġ636": 8858,
      "Comp": 8859,
      "ÙĤÙĬ": 8860,
      ";</": 8861,
      "img": 8862,
      "Ġ532": 8863,
      "Â¿": 8864,
      "ĠESP": 8865,
      "Ġect": 8866,
      "ocat": 8867,
      "NRC": 8868,
      "Ġ,\"": 8869,
      "Ġ616": 8870,
      "orms": 8871,
      "ĠGDP": 8872,
      "She": 8873,
      "0200": 8874,
      "ISO": 8875,
      "},": 8876,
      "JOH": 8877,
      "Fre": 8878,
      "0131": 8879,
      "834": 8880,
      "ĠĊĊĊ": 8881,
      "rev": 8882,
      "War": 8883,
      ";\\": 8884,
      "omis": 8885,
      "Ġals": 8886,
      "Ġlap": 8887,
      "onte": 8888,
      "Ġ542": 8889,
      "roke": 8890,
      "ĠQue": 8891,
      "ello": 8892,
      "Also": 8893,
      "ais": 8894,
      "ĠKar": 8895,
      "821": 8896,
      "Her": 8897,
      "lett": 8898,
      "tha": 8899,
      "onna": 8900,
      "/.": 8901,
      "Ġemp": 8902,
      "nity": 8903,
      "693": 8904,
      "ecur": 8905,
      "BBB": 8906,
      "ppor": 8907,
      "ĠAV": 8908,
      "Ġ588": 8909,
      "LICA": 8910,
      "Nav": 8911,
      "ĠFC": 8912,
      "ono": 8913,
      "ilet": 8914,
      "merg": 8915,
      "vier": 8916,
      "}.": 8917,
      "Ġrin": 8918,
      "ĠFab": 8919,
      "ĠBA": 8920,
      "bury": 8921,
      "ABIL": 8922,
      "Ġ737": 8923,
      "WM": 8924,
      "ĠMut": 8925,
      "NF": 8926,
      "Ġads": 8927,
      "ĠCRA": 8928,
      "ĠEO": 8929,
      "689": 8930,
      "gaap": 8931,
      "repl": 8932,
      "ao": 8933,
      "Ġ572": 8934,
      "ĠRM": 8935,
      "ĠRS": 8936,
      "rod": 8937,
      "ĠRap": 8938,
      "cend": 8939,
      "stal": 8940,
      "Fil": 8941,
      "Ġ-$": 8942,
      "ĠRd": 8943,
      "Ġ664": 8944,
      "Sel": 8945,
      "Ġ617": 8946,
      "Ġå": 8947,
      "SAN": 8948,
      "Ġ483": 8949,
      "ĠRog": 8950,
      "819": 8951,
      "ĠÎ´": 8952,
      "oj": 8953,
      "Ãī": 8954,
      "Ġ705": 8955,
      "HEAD": 8956,
      "GH": 8957,
      "RET": 8958,
      "ĠEIA": 8959,
      "ĠTun": 8960,
      "Thus": 8961,
      "Ġ950": 8962,
      "CLE": 8963,
      "etor": 8964,
      "ĠExt": 8965,
      "ARC": 8966,
      "ĠMol": 8967,
      "urst": 8968,
      "Ġud": 8969,
      "ANE": 8970,
      "ĠDow": 8971,
      "DATA": 8972,
      "ĠANN": 8973,
      "ĠTV": 8974,
      "rell": 8975,
      "ĠBus": 8976,
      "Ġ473": 8977,
      "Ġ910": 8978,
      "cn": 8979,
      "929": 8980,
      "OV": 8981,
      "ĠRMP": 8982,
      "atil": 8983,
      "aryl": 8984,
      "893": 8985,
      "ESC": 8986,
      "ĠEMP": 8987,
      "Ġ725": 8988,
      "Ġ479": 8989,
      "rage": 8990,
      "Ġ680": 8991,
      "ppy": 8992,
      "pel": 8993,
      "KR": 8994,
      "feed": 8995,
      "pea": 8996,
      "ĠEV": 8997,
      "fare": 8998,
      "GN": 8999,
      "mont": 9000,
      "âĢ²-": 9001,
      "Ġ543": 9002,
      "Mex": 9003,
      "Ġcup": 9004,
      "Ġiv": 9005,
      "ĠCW": 9006,
      "Ġ813": 9007,
      "ILLI": 9008,
      "Ġarc": 9009,
      "ampa": 9010,
      "orte": 9011,
      "Ġdim": 9012,
      "Ton": 9013,
      "ĠMi": 9014,
      "ARES": 9015,
      "ĠÄ": 9016,
      "giv": 9017,
      "aul": 9018,
      "Ġ892": 9019,
      "ĠCCR": 9020,
      "ĠOt": 9021,
      "Ġ489": 9022,
      "DRA": 9023,
      "Most": 9024,
      "788": 9025,
      "782": 9026,
      "Ġ624": 9027,
      "ĠHum": 9028,
      "ĠBag": 9029,
      "679": 9030,
      "Ġ874": 9031,
      "Key": 9032,
      "adas": 9033,
      "onel": 9034,
      "ku": 9035,
      "Ġ548": 9036,
      "sale": 9037,
      "MON": 9038,
      "oes": 9039,
      "bles": 9040,
      ";\"": 9041,
      "Ġpu": 9042,
      "EUR": 9043,
      "ENC": 9044,
      "Fs": 9045,
      "ingh": 9046,
      "Ġopt": 9047,
      "ald": 9048,
      "Ġ538": 9049,
      "RP": 9050,
      "836": 9051,
      "ISE": 9052,
      "ĠÎ±": 9053,
      "SY": 9054,
      "Ġ628": 9055,
      "Ġ539": 9056,
      "ĠSuc": 9057,
      "ULF": 9058,
      "774": 9059,
      "Ċĉĉ": 9060,
      "ĠHM": 9061,
      "Vari": 9062,
      "ĠDI": 9063,
      "ĠEmb": 9064,
      "iode": 9065,
      "936": 9066,
      "Ġ668": 9067,
      "ĠBio": 9068,
      "EPH": 9069,
      "ĠKit": 9070,
      "Ġ585": 9071,
      "PDES": 9072,
      "Ġate": 9073,
      "TICS": 9074,
      "BEL": 9075,
      "Hous": 9076,
      "ĠNeg": 9077,
      "Ġeg": 9078,
      "Ġove": 9079,
      "ITZ": 9080,
      "ĠOCS": 9081,
      "Ġ561": 9082,
      "ÙĬÙĩ": 9083,
      "Care": 9084,
      "irk": 9085,
      "MMON": 9086,
      "dot": 9087,
      "_`": 9088,
      "tel": 9089,
      "ÅĤ": 9090,
      "ELS": 9091,
      "Li": 9092,
      "Hist": 9093,
      "mog": 9094,
      "AAAA": 9095,
      "leas": 9096,
      "UV": 9097,
      "svg": 9098,
      "Ġ840": 9099,
      "ĠNPS": 9100,
      "KL": 9101,
      "uten": 9102,
      "ĠPFF": 9103,
      "urse": 9104,
      "ĠFGD": 9105,
      "mob": 9106,
      "ICO": 9107,
      "Ø±Ø¬": 9108,
      "STE": 9109,
      "```": 9110,
      "ĠOw": 9111,
      "ĠCOL": 9112,
      "mode": 9113,
      "BERT": 9114,
      "731": 9115,
      "grid": 9116,
      "lit": 9117,
      "Ġ578": 9118,
      "QR": 9119,
      "ĠWr": 9120,
      "Vers": 9121,
      "ĠTP": 9122,
      "ivan": 9123,
      "veal": 9124,
      "ĠMAY": 9125,
      "683": 9126,
      "Pot": 9127,
      "ĠHD": 9128,
      "ĠIRA": 9129,
      "ĠAu": 9130,
      "Ø±Ø¨": 9131,
      "Wet": 9132,
      "Ġ576": 9133,
      "Ġ582": 9134,
      "ycle": 9135,
      "ĠÂ¿": 9136,
      "eda": 9137,
      "Ġ558": 9138,
      "0023": 9139,
      "Ġ728": 9140,
      "Ø§Ø¹": 9141,
      "ĠYES": 9142,
      "seen": 9143,
      "Ġ708": 9144,
      "ĠFo": 9145,
      "839": 9146,
      "Ġ712": 9147,
      "Ġ609": 9148,
      "Ġ559": 9149,
      "ĠFIR": 9150,
      "ĠICE": 9151,
      "race": 9152,
      "File": 9153,
      "irs": 9154,
      "aer": 9155,
      ".)(": 9156,
      "ĠSOP": 9157,
      "('": 9158,
      "Ġlub": 9159,
      "691": 9160,
      "Ġ557": 9161,
      "arel": 9162,
      "olat": 9163,
      "=\"#": 9164,
      "Ġlar": 9165,
      "ĠOWN": 9166,
      "ĠLoc": 9167,
      "Ġ808": 9168,
      "ĠBUS": 9169,
      "ĠSod": 9170,
      "Omit": 9171,
      "ilib": 9172,
      "regs": 9173,
      "Ġ876": 9174,
      "ĠNEI": 9175,
      "uffs": 9176,
      "uit": 9177,
      "Manu": 9178,
      "ĠrH": 9179,
      "\\/\\/": 9180,
      "Ø±Ø©": 9181,
      "oirs": 9182,
      "dise": 9183,
      "draw": 9184,
      "Ġlam": 9185,
      "rax": 9186,
      "Ġ626": 9187,
      "rred": 9188,
      "681": 9189,
      "anet": 9190,
      "ĠYel": 9191,
      "ĠTow": 9192,
      "FAC": 9193,
      "Ð»": 9194,
      "Ġein": 9195,
      "Tr": 9196,
      "Åĵ": 9197,
      "KH": 9198,
      "Ġ618": 9199,
      "wet": 9200,
      "xt": 9201,
      "ĠWAT": 9202,
      "obe": 9203,
      "Ġ627": 9204,
      "ĠGil": 9205,
      "ARED": 9206,
      "Ġcoh": 9207,
      "Ø£ÙĨ": 9208,
      "Ġ623": 9209,
      "imiz": 9210,
      "ĠTor": 9211,
      "Ġ745": 9212,
      "chi": 9213,
      "pag": 9214,
      "cond": 9215,
      "Next": 9216,
      "Ġ632": 9217,
      "They": 9218,
      "mus": 9219,
      "ĠRNA": 9220,
      "sets": 9221,
      "aws": 9222,
      "ĠBAY": 9223,
      "Self": 9224,
      "olia": 9225,
      "Ġfun": 9226,
      "Ġ676": 9227,
      "/\"": 9228,
      "Go": 9229,
      "1745": 9230,
      "IZE": 9231,
      "zero": 9232,
      "enes": 9233,
      "mu": 9234,
      "coal": 9235,
      "Ġfus": 9236,
      "Ġcos": 9237,
      "Ġvou": 9238,
      "city": 9239,
      "muni": 9240,
      "_.": 9241,
      "0013": 9242,
      "0008": 9243,
      "VU": 9244,
      "Prop": 9245,
      "ĠOW": 9246,
      "lays": 9247,
      "uiti": 9248,
      "Br": 9249,
      "Ø§Ùģ": 9250,
      "ĠTi": 9251,
      "IBER": 9252,
      "Ġ911": 9253,
      "ENE": 9254,
      "ĠTF": 9255,
      "Ġdip": 9256,
      "Ġemo": 9257,
      "ÙĦØ·": 9258,
      "him": 9259,
      "ĠDyn": 9260,
      "LAS": 9261,
      "rob": 9262,
      "ĠDFO": 9263,
      "PRE": 9264,
      "ĠCRO": 9265,
      "ĠJim": 9266,
      "Ġcig": 9267,
      "ĠPLA": 9268,
      "Ġgir": 9269,
      "IBLE": 9270,
      "Bo": 9271,
      "Ġ901": 9272,
      "nedy": 9273,
      ")**)": 9274,
      "ECA": 9275,
      "Ġdia": 9276,
      "endo": 9277,
      "raqi": 9278,
      "Fair": 9279,
      "Ġ920": 9280,
      "LETE": 9281,
      "ĠLas": 9282,
      "Ġinh": 9283,
      "mst": 9284,
      "ĠTru": 9285,
      "Spr": 9286,
      "729": 9287,
      "'d": 9288,
      "olph": 9289,
      "ĠWY": 9290,
      "NING": 9291,
      "eto": 9292,
      "WKH": 9293,
      "Ġ806": 9294,
      "Ġ713": 9295,
      "ÃĿ": 9296,
      "Ġ721": 9297,
      "Risk": 9298,
      "Ġ696": 9299,
      "Ġ635": 9300,
      "Ġpit": 9301,
      "2200": 9302,
      "Inst": 9303,
      "ĠMAC": 9304,
      "trus": 9305,
      "css": 9306,
      "Ġ690": 9307,
      "FRA": 9308,
      "PERS": 9309,
      "tri": 9310,
      "Ġ811": 9311,
      "Ġger": 9312,
      "Stat": 9313,
      "ĠFly": 9314,
      "Ġ-->": 9315,
      "FAR": 9316,
      "Ġ621": 9317,
      "ĠARP": 9318,
      "kl": 9319,
      "Ġjun": 9320,
      "ĠÃĨ": 9321,
      "sla": 9322,
      "ĠEsc": 9323,
      "ĠDeg": 9324,
      "Ġ714": 9325,
      "AAA": 9326,
      "sto": 9327,
      "web": 9328,
      "Sou": 9329,
      "OST": 9330,
      "ĠRu": 9331,
      "rail": 9332,
      "tles": 9333,
      "KING": 9334,
      "obs": 9335,
      "Ġ594": 9336,
      "891": 9337,
      "HAL": 9338,
      "IPAL": 9339,
      "ÃĪ": 9340,
      "Ġio": 9341,
      "ilic": 9342,
      "791": 9343,
      "quer": 9344,
      "Ġ655": 9345,
      "eden": 9346,
      "CFSP": 9347,
      "Sol": 9348,
      "ĠCAC": 9349,
      ";#": 9350,
      "ĠOUT": 9351,
      "Only": 9352,
      "QC": 9353,
      "Ġ648": 9354,
      "((": 9355,
      "Ø¤": 9356,
      "AMES": 9357,
      "Ġ595": 9358,
      "derg": 9359,
      "bine": 9360,
      "sure": 9361,
      "ĠMIC": 9362,
      "]:": 9363,
      "Carb": 9364,
      "Ãł": 9365,
      "REEM": 9366,
      "Ġ563": 9367,
      "ockp": 9368,
      "ĠOs": 9369,
      "GAL": 9370,
      "Ġ940": 9371,
      "Ġ666": 9372,
      "Ġ637": 9373,
      "Occ": 9374,
      "'ll": 9375,
      "wit": 9376,
      "Ġ902": 9377,
      "Ġere": 9378,
      "Ġ884": 9379,
      "ENG": 9380,
      "ĠFem": 9381,
      "Ġ878": 9382,
      "HY": 9383,
      "Fort": 9384,
      "ĠMak": 9385,
      "aire": 9386,
      "Ġ491": 9387,
      "Ġln": 9388,
      "ĠMER": 9389,
      "ĠTuc": 9390,
      "OX": 9391,
      "Ġcen": 9392,
      "asts": 9393,
      "sthe": 9394,
      "GU": 9395,
      "edby": 9396,
      "imo": 9397,
      "seed": 9398,
      "Ġ716": 9399,
      "ledg": 9400,
      "Ġ573": 9401,
      "ÙĪØ¯": 9402,
      "Ġ814": 9403,
      "ĠCBP": 9404,
      "olet": 9405,
      "ATUS": 9406,
      "terl": 9407,
      "ĠGib": 9408,
      "Ġ904": 9409,
      "ĠTes": 9410,
      "Ġ645": 9411,
      ":.": 9412,
      "Ġmit": 9413,
      "dose": 9414,
      "ĠJac": 9415,
      "thur": 9416,
      "PUBL": 9417,
      "Ġ599": 9418,
      "HAM": 9419,
      "tinc": 9420,
      "Ġ571": 9421,
      "ĠMCC": 9422,
      "COL": 9423,
      "Bel": 9424,
      "1700": 9425,
      "Whe": 9426,
      "irie": 9427,
      "Mor": 9428,
      "emen": 9429,
      "inua": 9430,
      "Ġ727": 9431,
      "VED": 9432,
      "NOx": 9433,
      "939": 9434,
      "Fem": 9435,
      "ĠJoa": 9436,
      "arry": 9437,
      "igr": 9438,
      "haus": 9439,
      "AIDS": 9440,
      "ĠSAC": 9441,
      "EPI": 9442,
      "cou": 9443,
      "etch": 9444,
      "ĠANY": 9445,
      "VV": 9446,
      "Ġ\"[": 9447,
      "LT": 9448,
      "Ġ591": 9449,
      "Ġey": 9450,
      "vell": 9451,
      "4000": 9452,
      "clim": 9453,
      "Os": 9454,
      "ĠPI": 9455,
      "Tur": 9456,
      "ĠCz": 9457,
      "phur": 9458,
      "Ġ080": 9459,
      "want": 9460,
      "Ġgri": 9461,
      "IFE": 9462,
      "Ġ656": 9463,
      "hels": 9464,
      "squ": 9465,
      "OLU": 9466,
      "enzo": 9467,
      "EIS": 9468,
      "rov": 9469,
      "ORA": 9470,
      "ĠAW": 9471,
      "much": 9472,
      "ĠUpb": 9473,
      "idin": 9474,
      "uls": 9475,
      "AE": 9476,
      "ĠTSA": 9477,
      "APPL": 9478,
      "tty": 9479,
      "1967": 9480,
      "Ġ654": 9481,
      "ĠLib": 9482,
      "ĠAdm": 9483,
      "rot": 9484,
      "Ġvo": 9485,
      "exch": 9486,
      "2300": 9487,
      "Ham": 9488,
      "Ø¹Ø¹": 9489,
      "ĠGL": 9490,
      "core": 9491,
      "pin": 9492,
      "nl": 9493,
      "Ġsat": 9494,
      "739": 9495,
      "VIII": 9496,
      "aner": 9497,
      "ÃĦ": 9498,
      "prec": 9499,
      "NOT": 9500,
      "Ġ584": 9501,
      "athy": 9502,
      "rets": 9503,
      "ĠNic": 9504,
      "DAT": 9505,
      "ĠCPU": 9506,
      "ika": 9507,
      "ĠWAR": 9508,
      "LRQ": 9509,
      "1290": 9510,
      "fic": 9511,
      "ASK": 9512,
      "ĠFEM": 9513,
      "Ġ638": 9514,
      "Ġfru": 9515,
      "ĠSET": 9516,
      "pton": 9517,
      "CLA": 9518,
      "ĠMu": 9519,
      "SETS": 9520,
      "TU": 9521,
      "Age": 9522,
      "ĠBOX": 9523,
      "agon": 9524,
      "ĠEt": 9525,
      "rugg": 9526,
      "ĠØ²": 9527,
      "acf": 9528,
      "llo": 9529,
      "spe": 9530,
      "Ġ568": 9531,
      "Mary": 9532,
      "Art": 9533,
      "ĠPDF": 9534,
      "typ": 9535,
      "reli": 9536,
      "Rad": 9537,
      "Here": 9538,
      "tivo": 9539,
      "Ġ577": 9540,
      "ALDE": 9541,
      "ä¸": 9542,
      "sea": 9543,
      "ÙİÙĳ": 9544,
      "aset": 9545,
      "efin": 9546,
      "OGO": 9547,
      "LAN": 9548,
      "0110": 9549,
      "PPER": 9550,
      "GUE": 9551,
      "Ġ633": 9552,
      "Ġ010": 9553,
      "ĠLy": 9554,
      "ĠOB": 9555,
      "Ca": 9556,
      "Ir": 9557,
      "Ġ906": 9558,
      "ĠÃĬ": 9559,
      "(&": 9560,
      "ORDS": 9561,
      "Ġspl": 9562,
      ")+": 9563,
      "Ġhop": 9564,
      "ENDS": 9565,
      "assy": 9566,
      "nial": 9567,
      "otoc": 9568,
      "Ġspr": 9569,
      "BBBB": 9570,
      "Ġ722": 9571,
      "ĠRIN": 9572,
      "rer": 9573,
      "Ġusa": 9574,
      "OCA": 9575,
      "ĠMB": 9576,
      "axis": 9577,
      "Ã°": 9578,
      "ĠEp": 9579,
      "QP": 9580,
      "ĠYet": 9581,
      "Ġ924": 9582,
      "ucl": 9583,
      "Ġ681": 9584,
      "RUP": 9585,
      "Ãº": 9586,
      "2030": 9587,
      "Ġ002": 9588,
      "NESS": 9589,
      "hosp": 9590,
      "AO": 9591,
      "ĠMET": 9592,
      "stac": 9593,
      "Ġ805": 9594,
      "six": 9595,
      "Ġ718": 9596,
      "Ġ587": 9597,
      "Ġmfg": 9598,
      ";_": 9599,
      "ĠCre": 9600,
      "ĠWV": 9601,
      "Ġsz": 9602,
      "Ġ941": 9603,
      ":-": 9604,
      "NSON": 9605,
      "ĠPV": 9606,
      "ĠDP": 9607,
      "VAIL": 9608,
      "Ġ598": 9609,
      "Stro": 9610,
      "ĠDAY": 9611,
      "ĠPla": 9612,
      "nih": 9613,
      "'&#": 9614,
      "Ġ646": 9615,
      "BUS": 9616,
      "Ġ684": 9617,
      "iced": 9618,
      "lot": 9619,
      "apac": 9620,
      "Cr": 9621,
      "Mid": 9622,
      "0058": 9623,
      "Ġ619": 9624,
      "Ġ790": 9625,
      "leb": 9626,
      "Ġ567": 9627,
      "fix": 9628,
      "6000": 9629,
      "bow": 9630,
      "Ġ**$": 9631,
      "rosc": 9632,
      "Ġ780": 9633,
      "Fire": 9634,
      "Ġ641": 9635,
      "Rock": 9636,
      "ERT": 9637,
      "Dem": 9638,
      "ĠLuc": 9639,
      "ĠASC": 9640,
      "Ġtil": 9641,
      "ï£": 9642,
      "ĠOIL": 9643,
      "URY": 9644,
      "ĠUni": 9645,
      "FB": 9646,
      "bery": 9647,
      "rott": 9648,
      "ĠWit": 9649,
      "uj": 9650,
      "ĠĠĊĊ": 9651,
      "ARK": 9652,
      "illi": 9653,
      "wear": 9654,
      "ESID": 9655,
      "pg": 9656,
      "TRUC": 9657,
      "ĠSud": 9658,
      "VM": 9659,
      "crep": 9660,
      "ĠSti": 9661,
      "pyr": 9662,
      "Ġ724": 9663,
      "Many": 9664,
      "rg": 9665,
      "kele": 9666,
      "ĠÂŃ": 9667,
      "vinc": 9668,
      "Open": 9669,
      "cash": 9670,
      "âĹ": 9671,
      "ĠRio": 9672,
      "ĠØ¶": 9673,
      "ĠLik": 9674,
      "Oil": 9675,
      "NES": 9676,
      "ĠWIL": 9677,
      "ĠDDD": 9678,
      "ĠSym": 9679,
      "ĠSUP": 9680,
      "1003": 9681,
      "ĠIng": 9682,
      "Ġ688": 9683,
      "Haz": 9684,
      "UMAN": 9685,
      "ĠUJ": 9686,
      "ĠOGO": 9687,
      "IMAL": 9688,
      "ĠHC": 9689,
      "Hon": 9690,
      "DAY": 9691,
      "ÙĬÙħ": 9692,
      "erer": 9693,
      "Mer": 9694,
      "phal": 9695,
      "gun": 9696,
      "UEL": 9697,
      "soil": 9698,
      "ĠBed": 9699,
      "ĠIg": 9700,
      "bust": 9701,
      "Jun": 9702,
      "ĠJR": 9703,
      "lers": 9704,
      "Ġ711": 9705,
      "WOOD": 9706,
      "RAL": 9707,
      "ĠPsN": 9708,
      "rmaj": 9709,
      "Ġ662": 9710,
      "]**": 9711,
      "Ok": 9712,
      "Ġ674": 9713,
      "EQ": 9714,
      "Ġ597": 9715,
      "-'": 9716,
      "exed": 9717,
      "nit": 9718,
      "Ġ593": 9719,
      "said": 9720,
      "teb": 9721,
      "Ġ731": 9722,
      "vat": 9723,
      "tour": 9724,
      "ĠCCS": 9725,
      "FEN": 9726,
      "Sil": 9727,
      "Ġub": 9728,
      "yth": 9729,
      "mol": 9730,
      "Fisc": 9731,
      "Ġ980": 9732,
      "ogle": 9733,
      "ĠPut": 9734,
      "Ġ677": 9735,
      "Loss": 9736,
      "DOT": 9737,
      "late": 9738,
      "ĠAsp": 9739,
      "Ġ694": 9740,
      "ĠNN": 9741,
      "ĠNP": 9742,
      "este": 9743,
      "het": 9744,
      "ĠVAR": 9745,
      "NOX": 9746,
      "ĠDEN": 9747,
      "mech": 9748,
      "ylam": 9749,
      "Upon": 9750,
      "QUE": 9751,
      "ĠLU": 9752,
      "Ġ822": 9753,
      "iÃ³n": 9754,
      "bind": 9755,
      "bone": 9756,
      "fasb": 9757,
      "IMS": 9758,
      "mov": 9759,
      "Ġmeg": 9760,
      "pine": 9761,
      ":&": 9762,
      "sper": 9763,
      "ben": 9764,
      "KK": 9765,
      "Ġ695": 9766,
      "rual": 9767,
      "Ġnut": 9768,
      "ĠPi": 9769,
      "Af": 9770,
      "asi": 9771,
      "TV": 9772,
      ";?": 9773,
      "ĠFa": 9774,
      "roit": 9775,
      "Prin": 9776,
      "])": 9777,
      "awn": 9778,
      "**-": 9779,
      "sal": 9780,
      "Ġ634": 9781,
      "Ol": 9782,
      "umen": 9783,
      "LLC": 9784,
      "Mart": 9785,
      "Ġ744": 9786,
      "Ġ685": 9787,
      "-#": 9788,
      "ĠDEA": 9789,
      "Ã©s": 9790,
      "jug": 9791,
      "FWS": 9792,
      ",&": 9793,
      "Ġers": 9794,
      "LB": 9795,
      "UCA": 9796,
      "uto": 9797,
      "\\\">": 9798,
      "bate": 9799,
      "{\"": 9800,
      "Ġ642": 9801,
      "1965": 9802,
      "ĠONE": 9803,
      "Trib": 9804,
      "ĠBU": 9805,
      "PB": 9806,
      "ĠITA": 9807,
      "ĠKS": 9808,
      "Ġrm": 9809,
      "Ġ825": 9810,
      "move": 9811,
      "acua": 9812,
      "fair": 9813,
      "Cs": 9814,
      "ĠNMR": 9815,
      "ĠWID": 9816,
      "idly": 9817,
      "Does": 9818,
      "uran": 9819,
      "Ġtie": 9820,
      "ICY": 9821,
      "yles": 9822,
      "ĠPAC": 9823,
      "FDA": 9824,
      "neys": 9825,
      "ĠKG": 9826,
      "cos": 9827,
      "Po": 9828,
      "Well": 9829,
      "lbs": 9830,
      "Ġera": 9831,
      "Lex": 9832,
      "aca": 9833,
      "Ġ!**": 9834,
      "Ġ928": 9835,
      "WEST": 9836,
      "RH": 9837,
      "ĠÂ®": 9838,
      "Ġog": 9839,
      "FISH": 9840,
      "Ġ652": 9841,
      "OUS": 9842,
      "Hol": 9843,
      "upy": 9844,
      "Ġ569": 9845,
      "Sk": 9846,
      "1095": 9847,
      "Ġbay": 9848,
      "enyl": 9849,
      "regn": 9850,
      "0025": 9851,
      "Box": 9852,
      "lapp": 9853,
      "UED": 9854,
      "ĠHan": 9855,
      "ANCH": 9856,
      "Link": 9857,
      "ĠFIL": 9858,
      "inar": 9859,
      "Ø±Ø§": 9860,
      "ĠGM": 9861,
      "ĠHCF": 9862,
      "ĠAlb": 9863,
      "Ġ589": 9864,
      "Ġhan": 9865,
      "8101": 9866,
      "utar": 9867,
      "Ô½": 9868,
      "nos": 9869,
      "0020": 9870,
      "SG": 9871,
      ".#": 9872,
      "olk": 9873,
      "Sha": 9874,
      "UDG": 9875,
      "Crim": 9876,
      "ÙĦØº": 9877,
      "VAC": 9878,
      "Ġdic": 9879,
      "cfm": 9880,
      "Ġ736": 9881,
      "Jul": 9882,
      "Den": 9883,
      "Ġ629": 9884,
      "ĠRos": 9885,
      "Ġ990": 9886,
      "1930": 9887,
      "Ġtt": 9888,
      "Ġ653": 9889,
      "ĠNIH": 9890,
      "ÙĤÙĪ": 9891,
      ":'": 9892,
      "sil": 9893,
      "UZ": 9894,
      "Ġpou": 9895,
      "Ġ775": 9896,
      "OE": 9897,
      "Bet": 9898,
      "ĠdB": 9899,
      "ĠESA": 9900,
      "ĠTon": 9901,
      "Ġ631": 9902,
      "ĠĠč": 9903,
      "ĠOL": 9904,
      "pone": 9905,
      "MOD": 9906,
      "Aer": 9907,
      "TCY": 9908,
      "1112": 9909,
      "ĠTAP": 9910,
      "ĠRP": 9911,
      "ĠDor": 9912,
      "uat": 9913,
      "Ġiz": 9914,
      "Ġpag": 9915,
      "PON": 9916,
      "ITOR": 9917,
      "ĠSit": 9918,
      "Ġ644": 9919,
      "Ġ922": 9920,
      "Ġ945": 9921,
      "Ġ732": 9922,
      "Ã¶": 9923,
      ".~": 9924,
      "()": 9925,
      "Ġtin": 9926,
      "ĠVIS": 9927,
      "omed": 9928,
      "Ġofa": 9929,
      "reac": 9930,
      "Wood": 9931,
      "8208": 9932,
      "ococ": 9933,
      "SET": 9934,
      "verg": 9935,
      "Cop": 9936,
      "Bor": 9937,
      "dn": 9938,
      "Ġ726": 9939,
      "\\\\": 9940,
      "Sear": 9941,
      "ĠGSA": 9942,
      "ĠAU": 9943,
      "ubil": 9944,
      "ILY": 9945,
      "ECU": 9946,
      "DG": 9947,
      "Mrs": 9948,
      "Ġ678": 9949,
      "zt": 9950,
      "ingf": 9951,
      "&&": 9952,
      "TILL": 9953,
      "Ġeds": 9954,
      "Ġsud": 9955,
      "Ġâī¤": 9956,
      "Ġauf": 9957,
      "ĠFTC": 9958,
      "repe": 9959,
      "iu": 9960,
      "ĠTak": 9961,
      "arth": 9962,
      "Ġ752": 9963,
      "Ġ751": 9964,
      "Ġ786": 9965,
      "Ġpon": 9966,
      "\";": 9967,
      "ORIG": 9968,
      "CW": 9969,
      "FACE": 9970,
      "Rat": 9971,
      "hydr": 9972,
      "ÙĨØ©": 9973,
      "ĠVER": 9974,
      "MF": 9975,
      "Ġ581": 9976,
      "Ġ798": 9977,
      "Ġ661": 9978,
      "uda": 9979,
      "Ġcro": 9980,
      "ĠPG": 9981,
      "ĠOCC": 9982,
      "(*": 9983,
      "otte": 9984,
      "SX": 9985,
      "ĠZIP": 9986,
      "ĠAPI": 9987,
      "Ġ(Â§": 9988,
      "CRO": 9989,
      "Ġshi": 9990,
      "LQ": 9991,
      "!#": 9992,
      "Ġ755": 9993,
      "Ġ824": 9994,
      "turn": 9995,
      "Ġ915": 9996,
      "gium": 9997,
      "tex": 9998,
      "kind": 9999,
      "Ġ734": 10000,
      "Ġá»": 10001,
      "cker": 10002,
      "Vice": 10003,
      "Ġsq": 10004,
      "VEY": 10005,
      "Ġ639": 10006,
      "9000": 10007,
      "DT": 10008,
      "Ġ698": 10009,
      "cdc": 10010,
      "Ġæ": 10011,
      "ĠMix": 10012,
      "POL": 10013,
      "ĠUC": 10014,
      "Top": 10015,
      "URED": 10016,
      "Jack": 10017,
      "ZB": 10018,
      "')": 10019,
      "Ġ679": 10020,
      "Ġ658": 10021,
      "offs": 10022,
      "ĠPAT": 10023,
      "opa": 10024,
      "ĠSem": 10025,
      "ĠCCP": 10026,
      "Once": 10027,
      ".[": 10028,
      "feat": 10029,
      "Ele": 10030,
      "ĠCra": 10031,
      "Ġ682": 10032,
      "Ġ832": 10033,
      "ĠPDP": 10034,
      "Ø¢": 10035,
      "ĠBos": 10036,
      "oker": 10037,
      "vil": 10038,
      "pad": 10039,
      "ĠGam": 10040,
      "IZED": 10041,
      "AH": 10042,
      "BIA": 10043,
      "Func": 10044,
      "Ġ651": 10045,
      "inda": 10046,
      "ĠAPC": 10047,
      "drug": 10048,
      "Ġbis": 10049,
      "Ġ643": 10050,
      "2323": 10051,
      "BTOR": 10052,
      "clin": 10053,
      "ĠBol": 10054,
      "Sus": 10055,
      "Ke": 10056,
      "PES": 10057,
      "ĠBOD": 10058,
      "ĠGi": 10059,
      "Ġ**.": 10060,
      "1059": 10061,
      "okes": 10062,
      "mut": 10063,
      "CAA": 10064,
      "Ġont": 10065,
      "ĠCJ": 10066,
      "ĠPts": 10067,
      "Ġâī¥": 10068,
      "ĠRR": 10069,
      "Ø±Ùģ": 10070,
      "ucc": 10071,
      "DEN": 10072,
      "Hg": 10073,
      "Ùį": 10074,
      "ĠFri": 10075,
      "Ġ960": 10076,
      "LEX": 10077,
      "Ġ815": 10078,
      "Ġ717": 10079,
      "bran": 10080,
      "ĠDri": 10081,
      "ÙĦÙĦ": 10082,
      "imis": 10083,
      "etry": 10084,
      "mass": 10085,
      "rile": 10086,
      "GAG": 10087,
      "aron": 10088,
      "ormw": 10089,
      "psum": 10090,
      "1004": 10091,
      "Ġell": 10092,
      "Ġ(**": 10093,
      "ĠMcD": 10094,
      "Ġdot": 10095,
      "Gs": 10096,
      "ĠLl": 10097,
      "@?": 10098,
      "Ġ709": 10099,
      "iano": 10100,
      "ĠBAL": 10101,
      "hm": 10102,
      "ĠINT": 10103,
      "BN": 10104,
      "WF": 10105,
      "Ġ647": 10106,
      "ĠMcG": 10107,
      "rys": 10108,
      "1091": 10109,
      "Hand": 10110,
      "ĉĠĉĠ": 10111,
      "loan": 10112,
      "ĠCAN": 10113,
      "ĠLNG": 10114,
      "Wild": 10115,
      "0034": 10116,
      "Ġ828": 10117,
      "Ġ912": 10118,
      "ersu": 10119,
      "Ġze": 10120,
      "Phil": 10121,
      "plor": 10122,
[...]
