{"<|start|>":0,"<|end|>":1,"<|pad|>":2,"<|unk|>":3,"<|sep|>":4,"<|cls|>":5,"<|mask|>":6,"<|system|>":7,"</|system|>":8,"<|user|>":9,"</|user|>":10,"<|instruction|>":11,"</|instruction|>":12,"\u0000":13,"\u0001":14,"\u0002":15,"\u0003":16,"\u0004":17,"\u0005":18,"\u0006":19,"\u0007":20,"\b":21,"\t":22,"\n":23,"\u000b":24,"\f":25,"\r":26,"\u000e":27,"\u000f":28,"\u0010":29,"\u0011":30,"\u0012":31,"\u0013":32,"\u0014":33,"\u0015":34,"\u0016":35,"\u0017":36,"\u0018":37,"\u0019":38,"\u001a":39,"\u001b":40,"\u001c":41,"\u001d":42,"\u001e":43,"\u001f":44," ":45,"!":46,"\"":47,"#":48,"$":49,"%":50,"&":51,"'":52,"(":53,")":54,"*":55,"+":56,",":57,"-":58,".":59,"/":60,"0":61,"1":62,"2":63,"3":64,"4":65,"5":66,"6":67,"7":68,"8":69,"9":70,":":71,";":72,"<":73,"=":74,">":75,"?":76,"@":77,"A":78,"B":79,"C":80,"D":81,"E":82,"F":83,"G":84,"H":85,"I":86,"J":87,"K":88,"L":89,"M":90,"N":91,"O":92,"P":93,"Q":94,"R":95,"S":96,"T":97,"U":98,"V":99,"W":100,"X":101,"Y":102,"Z":103,"[":104,"\\":105,"]":106,"^":107,"_":108,"`":109,"a":110,"b":111,"c":112,"d":113,"e":114,"f":115,"g":116,"h":117,"i":118,"j":119,"k":120,"l":121,"m":122,"n":123,"o":124,"p":125,"q":126,"r":127,"s":128,"t":129,"u":130,"v":131,"w":132,"x":133,"y":134,"z":135,"{":136,"|":137,"}":138,"~":139,"":140,"":141,"":142,"":143,"":144,"":145,"":146,"":147,"":148,"":149,"":150,"":151,"":152,"":153,"":154,"":155,"":156,"":157,"":158,"":159,"":160,"":161,"":162,"":163,"":164,"":165,"":166,"":167,"":168,"":169,"":170,"":171,"":172," ":173,"¡":174,"¢":175,"£":176,"¤":177,"¥":178,"¦":179,"§":180,"¨":181,"©":182,"ª":183,"«":184,"¬":185,"­":186,"®":187,"¯":188,"°":189,"±":190,"²":191,"³":192,"´":193,"µ":194,"¶":195,"·":196,"¸":197,"¹":198,"º":199,"»":200,"¼":201,"½":202,"¾":203,"¿":204,"À":205,"Á":206,"Â":207,"Ã":208,"Ä":209,"Å":210,"Æ":211,"Ç":212,"È":213,"É":214,"Ê":215,"Ë":216,"Ì":217,"Í":218,"Î":219,"Ï":220,"Ð":221,"Ñ":222,"Ò":223,"Ó":224,"Ô":225,"Õ":226,"Ö":227,"×":228,"Ø":229,"Ù":230,"Ú":231,"Û":232,"Ü":233,"Ý":234,"Þ":235,"ß":236,"à":237,"á":238,"â":239,"ã":240,"ä":241,"å":242,"æ":243,"ç":244,"è":245,"é":246,"ê":247,"ë":248,"ì":249,"í":250,"î":251,"ï":252,"ð":253,"ñ":254,"ò":255,"ó":256,"ô":257,"õ":258,"ö":259,"÷":260,"ø":261,"ù":262,"ú":263,"û":264,"ü":265,"ý":266,"þ":267,"Ā":268,"ā":269,"Ă":270,"ă":271,"Ą":272,"ą":273,"Ć":274,"ć":275,"Ĉ":276,"ĉ":277,"Ċ":278,"ċ":279,"Č":280,"č":281,"Ď":282,"ď":283,"Đ":284,"đ":285,"Ē":286,"ē":287,"Ĕ":288,"ĕ":289,"Ė":290,"ė":291,"ę":292,"Ě":293,"ě":294,"Ĝ":295,"ĝ":296,"Ğ":297,"ğ":298,"Ġ":299,"ġ":300,"Ģ":301,"ģ":302,"Ĥ":303,"ĥ":304,"Ħ":305,"ħ":306,"Ĩ":307,"ĩ":308,"Ī":309,"ī":310,"Ĭ":311,"ĭ":312,"Į":313,"į":314,"İ":315,"ı":316,"Ĳ":317,"ĳ":318,"Ĵ":319,"ĵ":320,"Ķ":321,"ķ":322,"ĸ":323,"Ĺ":324,"ĺ":325,"Ļ":326,"ļ":327,"Ľ":328,"ľ":329,"Ŀ":330,"ŀ":331,"Ł":332,"ł":333,"Ń":334,"ĠĠ":335,"ĠĠĠĠ":336,"Ġt":337,"Ġa":338,"in":339,"..":340,"he":341,"on":342,"re":343,"Ġo":344,"er":345,"ti":346,"Ġthe":347,"en":348,"--":349,"Ġs":350,"or":351,"ed":352,"Ġp":353,"....":354,"es":355,"Ġc":356,"al":357,"Ġof":358,"at":359,"tion":360,"is":361,"an":362,"Ġan":363,"Ġin":364,"it":365,"Ġf":366,"ar":367,"Ġb":368,"ing":369,"Ġ1":370,"ro":371,"Ġw":372,"ic":373,"Ġto":374,"ĠĊ":375,"Ġd":376,"ent":377,"ec":378,"Ġand":379,"Ġm":380,"----":381,"Ġre":382,"Ġ2":383,"le":384,"00":385,"as":386,"Ġ(":387,"Ġe":388,"ou":389,"Ġth":390,"âĢ":391,"ĠS":392,"ĠC":393,"ĠA":394,"om":395,"ment":396,"Ġn":397,"##":398,"ce":399,"&#":400,"il":401,"st":402,"Ġ.":403,"Ġor":404,"ve":405,"Ġfor":406,"Ġbe":407,"ĠT":408,"Ġl":409,"ra":410,"Ġh":411,"id":412,"__":413,"Ġpro":414,"Ġ3":415,"un":416,"ur":417,"ĠI":418,"et":419,"ot":420,"ol":421,"ct":422,"ĠP":423,"ch":424,"Ġis":425,"Ġcon":426,"ly":427,"im":428,"se":429,"Ġsu":430,"Ġ0":431,"ate":432,"Ġas":433,"ut":434,"ĠF":435,"pp":436,"ul":437,"ith":438,"Ġ4":439,"ab":440,"ĠM":441,"Ġon":442,"ay":443,"Ġby":444,"ĠD":445,"ig":446,"ĠR":447,"ers":448,"qu":449,"ion":450,"Ġg":451,"the":452,"ag":453,"el":454,"01":455,"ow":456,"ĠN":457,"ĠE":458,"ir":459,"ect":460,"if":461,"od":462,"Ġ5":463,"ter":464,"ri":465,"res":466,"us":467,"em":468,"os":469,"**":470,"am":471,"ity":472,"Ġst":473,"ver":474,"Ġcom":475,"der":476,"Ġex":477,"xD":478,"ess":479,"ad":480,"and":481,"ĠĠĠ":482,"Ġun":483,"Ġ19":484,"Ġ6":485,"um":486,"Ġsh":487,"red":488,"ĠO":489,"ĠB":490,"ĠâĢ":491,"Ġare":492,"Ġwh":493,"ist":494,"all":495,"oc":496,"ĠĠĊ":497,"ain":498,"ort":499,"____":500,"ĠThe":501,"ant":502,"Ġv":503,"du":504,"end":505,"Ġpar":506,"Ġapp":507,"Ġde":508,"Ġac":509,"oun":510,"Ġal":511,"ac":512,"Ġat":513,";&#":514,"ud":515,"ff":516,"ĠU":517,"est":518,"ĠIn":519,"Ġnot":520,"ated":521,"Ġr":522,"Ġ7":523,"ĠL":524,"ther":525,"th":526,"sp":527,"rom":528,"tic":529,"ure":530,"10":531,"ĠH":532,"Ġsub":533,"###":534,"ĠW":535,"Ġ8":536,"able":537,"per":538,"for":539,"Ġsec":540,"),":541,"ance":542,"pl":543,"Ġit":544,"Ġ9":545,"ere":546,"ich":547,"ill":548,"our":549,"ĊĊ":550,"Ġy":551,"iv":552,"16":553,"ĠG":554,"age":555,"Ġany":556,"ore":557,"cl":558,"Ġper":559,"tive":560,"âĢĻ":561,"12":562,"Ġ-":563,"ary":564,"Ġ200":565,"ĠSt":566,"ard":567,"ial":568,"19":569,"ire":570,"ub":571,"ica":572,"art":573,"Ġad":574,"Ġhe":575,"ep":576,"la":577,"Ġmay":578,"ld":579,"20":580,"ge":581,"ber":582,"op":583,"ord":584,"igh":585,"ies":586,"form":587,"ice":588,"ak":589,"ans":590,"Ġha":591,"ru":592,"ount":593,"pos":594,"ear":595,"11":596,"Ġen":597,"Ġ10":598,"ew":599,"ase":600,"âĢĶ":601,"sion":602,"Ġch":603,"erv":604,"000":605,"Ġu":606,"23":607,"Ġsp":608,"95":609,"iti":610,"ip":611,"tit":612,"ph":613,"low":614,"min":615,"ĠJ":616,"Ġim":617,"omm":618,"ĠAct":619,"22":620,"ap":621,"96":622,"Ġacc":623,"vid":624,"Ġle":625,"ould":626,"Ġreg":627,"Ġdis":628,"clud":629,"Ġme":630,"ied":631,")(":632,"Ġ**":633,"200":634,"ust":635,"tain":636,"ia":637,").":638,"13":639,"iz":640,"act":641,"ign":642,"Ġ201":643,"ON":644,"ater":645,"Ġint":646,"eg":647,"####":648,"ee":649,"ates":650,"ts":651,"tif":652,"ass":653,"15":654,"ual":655,"ue":656,"di":657,"duct":658,"ine":659,"Ġwas":660,"Ġam":661,"Ġwhe":662,"14":663,"94":664,"25":665,"ula":666,"Ġab":667,"og":668,"Ġus":669,"ef":670,"Ġ|":671,"17":672,"ex":673,"ical":674,"24":675,"The":676,"ted":677,"30":678,"Ġhas":679,"ple":680,"ons":681,"ence":682,"her":683,"ĠV":684,"ER":685,".&#":686,"ail":687,"ĠUn":688,"ach":689,"ib":690,"ll":691,"201":692,"eral":693,"Ġrep":694,"Ġ$":695,"Ġpl":696,"ost":697,"99":698,"Ġem":699,"vis":700,"rib":701,"18":702,"ry":703,"âĢĿ":704,"raph":705,"Ġar":706,"Ġ20":707,"ous":708,"ator":709,"enc":710,"sec":711,"vel":712,"Ġpre":713,"Ġres":714,"Ġag":715,"ose":716,"ram":717,"are":718,"ĠâĢľ":719,"Ġno":720,"TI":721,"Ġpur":722,"ight":723,"Ġass":724,"lic":725,"Ġoff":726,"rou":727,"ast":728,"50":729,"Ġ12":730,"anc":731,"gh":732,"ork":733,"ĠÙ":734,"Ġ&#":735,"ric":736,"Ġrec":737,"ject":738,"und":739,"ĠPro":740,"Ġ13":741,"ond":742,"hor":743,"ome":744,"eren":745,"Ġ14":746,"160":747,"In":748,"Ġwe":749,"ens":750,"ĠØ":751,"âĢĵ":752,"Ġall":753,"Ġ<":754,"Ġtr":755,"pe":756,"26":757,"Ġdet":758,"Ġinc":759,"cess":760,"mit":761,"EN":762,"ov":763,"ree":764,"ata":765,"Ġ15":766,"ide":767,"yst":768,"ell":769,"Ġeff":770,"out":771,"27":772,"Ġqu":773,"28":774,"40":775,"Ġtim":776,"over":777,"su":778,"duc":779,"Ġdes":780,"ove":781,"Ġaut":782,"Ġif":783,"Ġ18":784,"ES":785,"ont":786,"Ġ16":787,"ĠâĢĶ":788,"ress":789,"gram":790,"any":791,"vi":792,"90":793,"ood":794,"Ġref":795,"ĠSec":796,"Ġk":797,"of":798,"pro":799,"ult":800,"ecif":801,"OR":802,"Â§":803,"ong":804,"33":805,"\",":806,"Ġcl":807,"ren":808,"Ġi":809,"Ġdo":810,"ĠTh":811,"ade":812,"ited":813,"=\"":814,"ven":815,"IN":816,"Ġj":817,".,":818,"Ġone":819,"Ġcan":820,"oy":821,"Ġ17":822,"97":823,"ish":824,"pt":825,"one":826,"Ġind":827,"80":828,"ings":829,"35":830,"ax":831,"ÙĦ":832,"che":833,"ark":834,"AR":835,"Ġ11":836,"21":837,"stit":838,"tern":839,"ĠAn":840,"cent":841,"eal":842,"ive":843,"AL":844,"ĠCh":845,"Ġout":846,"==":847,"\",\"":848,"60":849,"ty":850,"AN":851,"Ġits":852,"ame":853,"so":854,"tiv":855,"ock":856,"98":857,"ake":858,"abl":859,"ange":860,"ack":861,"iden":862,"ions":863,"Ġso":864,"ĠK":865,"Ġman":866,"au":867,"ors":868,"tim":869,"ĠReg":870,"38":871,"</":872,"Ġexp":873,"34":874,"Ġob":875,"70":876,"iod":877,"ased":878,"'s":879,"int":880,"ency":881,"lect":882,"its":883,"ents":884,"ace":885,"fter":886,"ss":887,"Ġ30":888,"eed":889,"ĠNo":890,"Ġfol":891,"ures":892,"36":893,"qui":894,"AT":895,"Ġsa":896,"82":897,"Ġ[":898,"45":899,"with":900,"Ġyou":901,"eth":902,"ise":903,"te":904,"ices":905,"lica":906,"37":907,"li":908,"Ġfin":909,"iver":910,"rop":911,"ms":912,"ploy":913,"ally":914,"FR":915,"Ġuse":916,"ite":917,"Ġmod":918,"Ġdef":919,"Ġimp":920,"to":921,"ys":922,"Ġro":923,"ech":924,"Ġtra":925,"IS":926,"ank":927,"tro":928,"TION":929,"ory":930,"own":931,"EC":932,"Sch":933,"86":934,"Ø§":935,"tice":936,"âĢ¢":937,"55":938,"not":939,"pera":940,"ces":941,"Ġdec":942,"ourt":943,"ile":944,"irst":945,"Ġ,":946,"PA":947,"Ġinv":948,"ild":949,"ext":950,"ĠEn":951,"Ġ24":952,"âĢĺ":953,"Ġval":954,"abil":955,"old":956,"we":957,"aw":958,"sh":959,"Ġ25":960,"ang":961,"75":962,"88":963,"cc":964,"land":965,"olog":966,"ĠAm":967,"ning":968,"05":969,"ĠY":970,"ĠFor":971,"29":972,"Ġli":973,"Ġest":974,"ound":975,"stru":976,"Ġter":977,"ĠAd":978,"par":979,"44":980,"Ġpr":981,"arg":982,"ii":983,"IC":984,"ED":985,"pr":986,"spec":987,"fore":988,")**":989,"ret":990,"Ġgen":991,"ible":992,"ĠCom":993,"Ġpay":994,"Ġse":995,"Ġbut":996,"Ġnum":997,"Ġcar":998,"val":999,"iff":1000,"Ġins":1001,"ced":1002,"Ġpub":1003,"46":1004,"ten":1005,"Ġwho":1006,"Ġloc":1007,"Ġup":1008,"ower":1009,"mis":1010,"Ġco":1011,"Ġcer":1012,"85":1013,"ke":1014,"Ġra":1015,"Ġpol":1016,"hed":1017,"de":1018,"ĊĠ":1019,"76":1020,"part":1021,"AS":1022,"ords":1023,"ĠÂ§":1024,"ule":1025,"wn":1026,"ix":1027,"31":1028,"ww":1029,"Ġ26":1030,"ular":1031,"tial":1032,"tra":1033,"...":1034,"crib":1035,"ĠRe":1036,"ĠEx":1037,"Ġdev":1038,"Ġbet":1039,"uc":1040,"rit":1041,"Ġ40":1042,"ina":1043,"74":1044,"laim":1045,"put":1046,"ears":1047,"ants":1048,"ĠCO":1049,"ob":1050,"reat":1051,"pany":1052,"arge":1053,"Ġrem":1054,"fer":1055,"Ġop":1056,"air":1057,"Ġty":1058,"39":1059,"ked":1060,"ural":1061,"ĠOF":1062,"view":1063,"Ġmem":1064,"Ġpos":1065,"por":1066,"ved":1067,"06":1068,"77":1069,"Ġ21":1070,"erg":1071,"ocu":1072,"Ġav":1073,"IT":1074,"irc":1075,"Ġcol":1076,"ards":1077,"ause":1078,"Ġequ":1079,"ized":1080,"ne":1081,"\">":1082,"rac":1083,"Ġsc":1084,"ind":1085,"yl":1086,"Ġcor":1087,"56":1088,"me":1089,"ays":1090,"ving":1091,"Ġrel":1092,"ĠSch":1093,"ween":1094,"ties":1095,"echn":1096,"Ġ28":1097,"tt":1098,"Ġadd":1099,"ĠAr":1100,"Ġ\"":1101,"32":1102,"ici":1103,"oint":1104,"ceed":1105,"UR":1106,"roup":1107,"04":1108,"Ġset":1109,"Ġsur":1110,"92":1111,"78":1112,"ari":1113,"ĠâĢĺ":1114,"uted":1115,"AC":1116,"ute":1117,"cer":1118,"Ġ22":1119,"als":1120,"93":1121,"IG":1122,"ĉĉ":1123,"Ġbec":1124,"Ġmon":1125,"ĠAg":1126,"man":1127,"ivid":1128,");":1129,"RO":1130,"gan":1131,"0000":1132,"trol":1133,"cept":1134,"Ġlim":1135,"vide":1136,"Ġcap":1137,"tem":1138,"Ġ*":1139,"ÙĨ":1140,"84":1141,"91":1142,"unc":1143,"wo":1144,"ENT":1145,"ĠRes":1146,"ĠNa":1147,"54":1148,"81":1149,"Ġ27":1150,"Ġhis":1151,"ÙĬ":1152,"ft":1153,"Ġ23":1154,"ined":1155,"ati":1156,"ink":1157,"Ġend":1158,"ĠĊĊ":1159,"Ġ&":1160,"erc":1161,"Not":1162,"Ùħ":1163,"Ġnew":1164,"ND":1165,"Ġfl":1166,"ason":1167,"ĠDep":1168,"med":1169,"66":1170,"ĠFR":1171,"87":1172,"ita":1173,"Ġes":1174,"Ġet":1175,"ĠFed":1176,"inal":1177,"ases":1178,"lev":1179,"rent":1180,"ting":1181,"Ġnon":1182,"rant":1183,"enef":1184,"Ġpri":1185,"iza":1186,"ĠPl":1187,"ie":1188,"Ġart":1189,"con":1190,"ĊĊĊ":1191,"ran":1192,"Ġmin":1193,"Ġ50":1194,"mun":1195,"acil":1196,"Ġtax":1197,"Ġdur":1198,"eb":1199,"ier":1200,"ĠâĢĵ":1201,"ety":1202,"ok":1203,"LE":1204,"ale":1205,"oth":1206,"orts":1207,"ĠOff":1208,"Ġ:":1209,",,":1210,"com":1211,"urn":1212,"iron":1213,"II":1214,"here":1215,"av":1216,"ĊĠĠĠ":1217,"Ġcur":1218,"Ġ31":1219,"89":1220,"Ġlab":1221,"Ġ100":1222,"ĠAl":1223,"sid":1224,"ever":1225,"Ġent":1226,"ets":1227,"72":1228,"Ġfil":1229,"Ġve":1230,"reg":1231,"65":1232,"gov":1233,"hen":1234,"iel":1235,"Ġour":1236,"¿½":1237,"ï¿½":1238,"Ġtwo":1239,"tin":1240,"Ġgiv":1241,"lt":1242,"Ġaff":1243,"Ġel":1244,"less":1245,"====":1246,"pa":1247,"arch":1248,"ĠApp":1249,"Ġlo":1250,"ĠIN":1251,"ner":1252,"til":1253,"usin":1254,"uro":1255,"US":1256,"Ġph":1257,"Ġ35":1258,"ered":1259,"Ġpe":1260,"ines":1261,"ĠCon":1262,"ĠEPA":1263,"No":1264,"Ġhad":1265,"ĠOr":1266,"64":1267,"07":1268,"02":1269,"||":1270,"inc":1271,"app":1272,"ium":1273,"pon":1274,"Ġext":1275,"ton":1276,"tal":1277,"ems":1278,"ash":1279,"ceiv":1280,"era":1281,"ode":1282,"itt":1283,"ĠDec":1284,"sel":1285,"ize":1286,"vent":1287,"ured":1288,"ĠIf":1289,"alif":1290,"09":1291,"ĠCo":1292,"47":1293,"Ġgro":1294,"itle":1295,"rate":1296,"83":1297,"les":1298,"vol":1299,"Ġact":1300,"ck":1301,"ues":1302,"ĠRep":1303,"ps":1304,"ĠØ§":1305,"bod":1306,"ĠQ":1307,"Ġlaw":1308,"ĠCl":1309,"ïģ":1310,"ield":1311,"03":1312,"Ġfe":1313,"Ġbas":1314,"led":1315,"ox":1316,"very":1317,"dule":1318,"eter":1319,"ily":1320,"ug":1321,"Ġocc":1322,"Ġ29":1323,"Ġvi":1324,"nb":1325,"Ġkn":1326,"EL":1327,"Ġ36":1328,"ages":1329,"ble":1330,"---":1331,"get":1332,"Th":1333,"otal":1334,"An":1335,"ital":1336,"08":1337,"bers":1338,"100":1339,"cil":1340,"rim":1341,"//":1342,"EM":1343,"nbsp":1344,"alys":1345,"Ġed":1346,"ules":1347,"Ġair":1348,"ron":1349,"Ġcal":1350,")\",\"":1351,"ĠSu":1352,"ribu":1353,"ouse":1354,"oci":1355,"Ġdi":1356,"ough":1357,"imum":1358,"itor":1359,"42":1360,"ĠWe":1361,"Ùĩ":1362,"ath":1363,"79":1364,".)":1365,"be":1366,"Ġ#":1367,"ĠAss":1368,"irec":1369,"48":1370,"ects":1371,"ĠX":1372,"amp":1373,"by":1374,"Ġnec":1375,"ific":1376,"rict":1377,"ense":1378,"isk":1379,"Ġbl":1380,"ĠAs":1381,"enta":1382,"59":1383,"Ġdel":1384,"nual":1385,"ool":1386,"Ġatt":1387,"://":1388,"Ġgu":1389,"ergy":1390,"hic":1391,"71":1392,"41":1393,"fact":1394,"IL":1395,"ĠMan":1396,"ua":1397,"Sec":1398,"Ġmat":1399,"Ġown":1400,"isc":1401,"face":1402,"lies":1403,"233":1404,"St":1405,"49":1406,"ward":1407,"Ġ45":1408,"AM":1409,"43":1410,"73":1411,"ĠÂ":1412,"alth":1413,"cont":1414,"orm":1415,"Ġsim":1416,"lied":1417,"sub":1418,"pose":1419,"Ġtak":1420,"TR":1421,"ING":1422,"CO":1423,"mon":1424,"ga":1425,"ĠNO":1426,"CFR":1427,"cri":1428,"Ġsam":1429,"Ġleg":1430,"that":1431,"Ġ42":1432,"Ġsee":1433,"ian":1434,"AP":1435,"Ġfur":1436,"TH":1437,"io":1438,"oard":1439,"ĠAND":1440,"Ġmed":1441,"wise":1442,"Ġsta":1443,"âĢľ":1444,"dust":1445,"Ġ60":1446,"rust":1447,"Ġsm":1448,"Ø±":1449,"ned":1450,"Sub":1451,"side":1452,"ĠInc":1453,"Ġhow":1454,"fety":1455,"osts":1456,"ĠUS":1457,"Ġfar":1458,"Ġna":1459,"AA":1460,"ma":1461,"Ġ)":1462,"ruct":1463,"ĠIt":1464,"Ġsol":1465,"ĠCFR":1466,"ness":1467,"Ġcle":1468,"ibil":1469,"Ġ39":1470,"UM":1471,"RE":1472,"ĠSp":1473,"58":1474,"Ġ32":1475,"ĠGen":1476,"ful":1477,"oss":1478,"raft":1479,"2009":1480,"ales":1481,"ults":1482,"ha":1483,"ctor":1484,"67":1485,"ying":1486,",&#":1487,"Ġvol":1488,"Ġret":1489,"istr":1490,"bodi":1491,"rel":1492,"52":1493,"Ġmet":1494,"Ġser":1495,"53":1496,"ĠNew":1497,"hip":1498,"Ġsel":1499,"une":1500,"ĠTH":1501,"57":1502,"Ġpor":1503,"68":1504,"Ġgo":1505,"ÙĪ":1506,"Ġ41":1507,"ĠSc":1508,"pean":1509,"ane":1510,"Ġtem":1511,"ody":1512,"Ġ33":1513,"Ġbu":1514,"wh":1515,"ĠMr":1516,"51":1517,"tec":1518,"uel":1519,"ĠAc":1520,"mer":1521,"www":1522,"sequ":1523,"Ġpa":1524,"Ġ34":1525,"iss":1526,"eng":1527,"Ġche":1528,"rein":1529,"Ġ/":1530,"ĠPar":1531,"Ġinf":1532,"ins":1533,"Ġec":1534,"rec":1535,"ick":1536,"ID":1537,"Ġla":1538,"oll":1539,"OL":1540,"ĠFin":1541,"Ġ44":1542,"up":1543,"Ġz":1544,"mina":1545,"ĠSub":1546,"serv":1547,"63":1548,"icer":1549,"62":1550,"Ġ38":1551,"Ġ=":1552,"TA":1553,"Ġ43":1554,"unds":1555,"ÙĦØ":1556,"icy":1557,"jec":1558,"945":1559,"orth":1560,"CH":1561,"This":1562,"yd":1563,"ves":1564,"work":1565,"ees":1566,"Ġ37":1567,"nec":1568,"Ġmak":1569,"69":1570,"Ġvir":1571,"ĠSep":1572,"Ġday":1573,"hes":1574,"ials":1575,"ring":1576,"tis":1577,"aj":1578,"ĠII":1579,"iate":1580,"requ":1581,"lace":1582,"hold":1583,"Ġdeb":1584,"rea":1585,"Ġsum":1586,"Ġnet":1587,"ird":1588,"ury":1589,"ross":1590,"OC":1591,"Text":1592,"nel":1593,"61":1594,"Ġful":1595,"ĠPub":1596,"ples":1597,"pre":1598,"Ġpot":1599,"ife":1600,"way":1601,"den":1602,"Ġear":1603,"onom":1604,"ised":1605,"crip":1606,"ĠCor":1607,"uly":1608,"lows":1609,"Ġeng":1610,"ump":1611,"IV":1612,"Comm":1613,"NA":1614,"Ġadj":1615,"ead":1616,"964":1617,"Ġren":1618,"For":1619,"sist":1620,"pan":1621,"fo":1622,"pli":1623,"sc":1624,"@@":1625,"rial":1626,"Ġte":1627,"Ġ--":1628,"oult":1629,"Ġdem":1630,"ably":1631,"clos":1632,"atus":1633,"EP":1634,"ĠAll":1635,"ĠRec":1636,"oin":1637,"DA":1638,"lig":1639,"Ġmen":1640,"uman":1641,"ĠDe":1642,"ote":1643,"ĠOct":1644,"gen":1645,"999":1646,"IP":1647,"tics":1648,"ient":1649,"read":1650,"IR":1651,"ĊĊĊĊ":1652,"lor":1653,"ries":1654,"ĠÙĪ":1655,"Ġlic":1656,"rol":1657,"orn":1658,"Ġer":1659,"Ġdep":1660,"Ø¨":1661,"ĠDef":1662,"ĠJan":1663,"CC":1664,"gg":1665,"čĊ":1666,"mine":1667,"gin":1668,"used":1669,"ĠMay":1670,"use":1671,"959":1672,"Ġtre":1673,"Ġshe":1674,"ini":1675,"TS":1676,"lu":1677,"ral":1678,"emp":1679,"OJ":1680,"ĠIm":1681,"Ġpen":1682,"rans":1683,"AD":1684,"rain":1685,"Ġ49":1686,"ĠWh":1687,"mb":1688,"Ġetc":1689,"Ø³":1690,"Ġ46":1691,"ilar":1692,"2010":1693,"Ġsit":1694,"Pro":1695,"Ch":1696,".âĢĿ":1697,"500":1698,"ns":1699,"Ġ47":1700,"tify":1701,"ĠAir":1702,"reas":1703,"Ġ48":1704,"ansp":1705,"ĠST":1706,"resp":1707,"Ġdid":1708,"vey":1709,"alf":1710,"port":1711,"Ġ63":1712,"Ġ51":1713,"outh":1714,"rid":1715,"hib":1716,"953":1717,"ST":1718,"Ġmil":1719,"ĠFIG":1720,"clus":1721,"aren":1722,"cep":1723,"day":1724,"ince":1725,"udy":1726,"Ġ54":1727,"oh":1728,"ĠTHE":1729,"pora":1730,"ĠMar":1731,"UN":1732,"Ġcop":1733,"Ġhim":1734,"htt":1735,"Ġeit":1736,"ths":1737,"Ġx":1738,"ĠHow":1739,"ĠMin":1740,"Ġ55":1741,"ask":1742,"Ġsep":1743,"Ġ52":1744,"ulti":1745,"uch":1746,"Ġlay":1747,"Un":1748,"Ġ53":1749,"8212":1750,"iled":1751,"ATE":1752,"Ġdue":1753,"ests":1754,"Ġsch":1755,"ĠMem":1756,"UL":1757,"SE":1758,"row":1759,"TER":1760,"ĠPer":1761,"Ġsha":1762,"Ġnat":1763,"sued":1764,"Ġ00":1765,"ume":1766,"ref":1767,"Ġgas":1768,"tity":1769,"eric":1770,"Ġ64":1771,"Ġopp":1772,"ners":1773,"ĠApr":1774,"MENT":1775,"Ġenv":1776,"ĠFOR":1777,"leg":1778,"cul":1779,"pens":1780,"CE":1781,"peri":1782,"IF":1783,"posi":1784,"Ġgre":1785,"Ġ01":1786,"``":1787,"ĠAut":1788,"ople":1789,"tue":1790,"Ġadv":1791,"ene":1792,"Ġlow":1793,"ober":1794,"fe":1795,"arm":1796,"Ø¯":1797,"Ġens":1798,"Ġ65":1799,"Ø¹":1800,"play":1801,"PP":1802,"ison":1803,"Ġjud":1804,"ream":1805,"ĠâĢĿ":1806,"ours":1807,"tor":1808,"ands":1809,"duce":1810,"Ex":1811,"949":1812,"cy":1813,"Ġvis":1814,"sue":1815,"ĠTO":1816,"2008":1817,"ĠIs":1818,"imal":1819,"Mr":1820,"ïģ²":1821,"ply":1822,"ĠMe":1823,"ĠPt":1824,"ĠCON":1825,"GE":1826,"ĉĉĉĉ":1827,"957":1828,"lie":1829,"ĠâĢĻ":1830,"Ġele":1831,"orta":1832,"acts":1833,"ĠZ":1834,"see":1835,"yn":1836,"iqu":1837,"ĠâĢ¢":1838,"MM":1839,"2018":1840,"Ġarr":1841,"line":1842,"nect":1843,"oca":1844,"ods":1845,"CR":1846,"ĠAnd":1847,"equ":1848,"ĠAcc":1849,"ĠOn":1850,"ried":1851,"ecu":1852,"raw":1853,"Ġ56":1854,"ajor":1855,"cus":1856,"IA":1857,"rug":1858,"osp":1859,"uty":1860,"Ġ61":1861,"vers":1862,"tiff":1863,"ogn":1864,"ĠSh":1865,"lec":1866,"ship":1867,"OD":1868,"Ġke":1869,"ĠSee":1870,"tent":1871,"ÙĤ":1872,"225":1873,"rox":1874,"utes":1875,"ateg":1876,"ĠIII":1877,"Ġway":1878,"acc":1879,"ĠPh":1880,"If":1881,"ura":1882,"ĠAug":1883,"atic":1884,"ĠTra":1885,"ĠPol":1886,"Ġher":1887,"na":1888,"els":1889,"uca":1890,"GR":1891,"tle":1892,"arb":1893,"MP":1894,"cted":1895,"ĠSa":1896,"Ġhig":1897,"ctly":1898,"Ġgra":1899,"lo":1900,"ipal":1901,"sum":1902,"ĠCol":1903,"ope":1904,"2006":1905,"ĠÎ":1906,"sues":1907,"Al":1908,"Ġ62":1909,"road":1910,"pris":1911,"Ġ70":1912,"2011":1913,"ends":1914,"omes":1915,"ĠGu":1916,"Ġmo":1917,"ĠAt":1918,"tinu":1919,"Ġill":1920,"ivil":1921,"fig":1922,"ĠÙħ":1923,"ĠTo":1924,"OS":1925,"2001":1926,"esti":1927,"ding":1928,"ĠPRO":1929,"ta":1930,"chap":1931,"ars":1932,"ism":1933,"ware":1934,"Øª":1935,"ĠEng":1936,"Ġ+":1937,"Ġtyp":1938,"MA":1939,"ery":1940,"stan":1941,"2000":1942,"Ġ80":1943,"ling":1944,"ircu":1945,"Ġ59":1946,"uary":1947,"Com":1948,";&":1949,"TE":1950,"App":1951,"tire":1952,"vest":1953,"ffic":1954,"dic":1955,"mary":1956,"Ġ90":1957,"Â°":1958,"ml":1959,"olu":1960,"CA":1961,"des":1962,"Ġ57":1963,"Ġ58":1964,"aged":1965,"vels":1966,"ks":1967,"ics":1968,"):":1969,"ters":1970,"Ġhel":1971,"SP":1972,"2007":1973,"pply":1974,"lis":1975,"ĠDes":1976,"onal":1977,"ĠID":1978,"Ġfed":1979,"ESS":1980,"Item":1981,"ida":1982,"ĠEnv":1983,"Ġ75":1984,"spon":1985,"ert":1986,"ĠMed":1987,".]":1988,"ET":1989,"vate":1990,"Ġca":1991,"Ġâ":1992,"sw":1993,"do":1994,"Ġmis":1995,"aly":1996,"Ġ66":1997,"Ġder":1998,"urs":1999,"Ġss":2000,"ĠNum":2001,"ave":2002,"ror":2003,"ior":2004,"Ġmy":2005,"comm":2006,"Ġbi":2007,"pper":2008,"Ġsl":2009,"Ġden":2010,"ocal":2011,"Ġliv":2012,"2005":2013,"Con":2014,"ired":2015,"Ġver":2016,"Ġcre":2017,"ĠFeb":2018,"Ġdri":2019,"SA":2020,"2002":2021,"abor":2022,"eria":2023,"Ġne":2024,").&#":2025,"))":2026,"ails":2027,"enda":2028,"urer":2029,"Ġfut":2030,"2004":2031,"ola":2032,"lia":2033,"2012":2034,"aced":2035,"Num":2036,"951":2037,"reof":2038,"oods":2039,"2013":2040,"ĠRE":2041,"Ùĥ":2042,"oved":2043,"atis":2044,"time":2045,"ats":2046,"eeds":2047,"En":2048,"enti":2049,"ana":2050,"961":2051,"PS":2052,"oms":2053,"liga":2054,"Ùİ":2055,"ĠEm":2056,"bs":2057,"Ġsw":2058,"Ġmax":2059,"Ġoil":2060,"ĠSen":2061,"ĠPM":2062,"stra":2063,"tect":2064,"ria":2065,"2003":2066,"oid":2067,"ook":2068,"EU":2069,"Ġ110":2070,"Ġ'":2071,"963":2072,"ĠNA":2073,"960":2074,"ley":2075,"no":2076,"ĠÙİ":2077,"orne":2078,"Ġce":2079,"odif":2080,"ders":2081,"umst":2082,"Ġwar":2083,"ored":2084,"pd":2085,"RA":2086,"eff":2087,"LL":2088,"utri":2089,"ivis":2090,"ĠPre":2091,"abel":2092,"Ġpop":2093,"300":2094,"till":2095,"tisf":2096,"Ġï¿½":2097,"ains":2098,"ĠØ£":2099,"ara":2100,"ĠRef":2101,"king":2102,"ĠEN":2103,"kely":2104,"Ġ</":2105,"ĠCar":2106,"ows":2107,"ION":2108,"Ad":2109,"urb":2110,"cons":2111,"MS":2112,"ides":2113,"ĠAD":2114,"ĠInd":2115,"Ġfam":2116,"ART":2117,"half":2118,"iii":2119,"ocia":2120,"cass":2121,"ious":2122,"Ġ101":2123,"ĠGe":2124,"pple":2125,"ĠØ¨":2126,"FIG":2127,"ĠLe":2128,"FOR":2129,"sts":2130,"tact":2131,"pres":2132,"Ø©":2133,"Ġsuc":2134,"Res":2135,"Ġpat":2136,"cts":2137,"Ġnow":2138,"az":2139,"Reg":2140,"reen":2141,"tak":2142,"ĠNot":2143,"Ġten":2144,"this":2145,"ixed":2146,"cell":2147,"ĠØ¹":2148,"As":2149,"oles":2150,"lear":2151,"Ġhtt":2152,"Ġdam":2153,"400":2154,"aces":2155,"ĠDis":2156,"243":2157,"ĠVal":2158,"ĠÃ":2159,"ĠSur":2160,"off":2161,"Ġneg":2162,"peti":2163,"Ġsk":2164,"semb":2165,"Ġhyd":2166,",-":2167,"FF":2168,"Sc":2169,"from":2170,"ole":2171,"isla":2172,"CL":2173,"ERS":2174,"Ġaud":2175,"ĠÙģ":2176,"Ġ_":2177,"quir":2178,"Ġdu":2179,"amin":2180,"agn":2181,"tr":2182,"ief":2183,"|||":2184,"valu":2185,"roll":2186,"ists":2187,"Ġ%":2188,"Ġ381":2189,"isa":2190,"DE":2191,"sed":2192,"isi":2193,"ĠTax":2194,"mal":2195,"Ġbud":2196,"Ġ!":2197,"chie":2198,"Ùģ":2199,"Ġpp":2200,"ĠOR":2201,"962":2202,"ched":2203,"Ġage":2204,"ĠHe":2205,"OP":2206,"ĠÙĦ":2207,"1996":2208,"oney":2209,"954":2210,"ĠCH":2211,"101":2212,"ovem":2213,"ival":2214,"gu":2215,"ler":2216,"ĠDo":2217,"ott":2218,"reed":2219,"sent":2220,"cre":2221,"Cont":2222,"Ġ__":2223,"ĠÎ¼":2224,"Ref":2225,"IM":2226,"pec":2227,"go":2228,"Ġgl":2229,"Ġsal":2230,"AB":2231,"ĠSo":2232,"alls":2233,"ony":2234,"250":2235,"Ġ72":2236,"Ġ99":2237,"ĠRo":2238,"Ġdeg":2239,"sol":2240,"Case":2241,"oped":2242,"erve":2243,"ah":2244,"year":2245,"Ġ120":2246,"ĠSe":2247,"Ġwa":2248,"VE":2249,"Ġfat":2250,"Ġenc":2251,"Re":2252,"ells":2253,"AND":2254,"Ġ68":2255,"men":2256,"ads":2257,"IB":2258,"atut":2259,"110":2260,"org":2261,"237":2262,"link":2263,"uals":2264,".âĢĶ":2265,"ĠAC":2266,"Ġrat":2267,"Ġ95":2268,"such":2269,"Ġ67":2270,"ĠĠĠĊ":2271,"merc":2272,"dom":2273,"rupt":2274,".\"":2275,"pdf":2276,"Ġ112":2277,"gt":2278,"swer":2279,"lief":2280,"ĠPr":2281,"Cl":2282,"fess":2283,"Ġ93":2284,"ien":2285,"aint":2286,"NG":2287,"duca":2288,"co":2289,"mark":2290,"ĠIre":2291,"594":2292,"irm":2293,"ype":2294,"EPA":2295,"Ġwee":2296,"EA":2297,"ĠAny":2298,"ture":2299,"Ġtop":2300,"Ġ74":2301,"ĠSO":2302,"Ġge":2303,"ĠChe":2304,"ĠMet":2305,"Ġ91":2306,"rand":2307,"ude":2308,"orld":2309,"Ġ98":2310,"SS":2311,"Ġing":2312,"Ġfo":2313,"aff":2314,"Page":2315,"eris":2316,"ipp":2317,"mitt":2318,"vic":2319,"ĠInt":2320,"ĠDC":2321,"ght":2322,"Wh":2323,"imin":2324,"Ġget":2325,"956":2326,"Fed":2327,"Ġflu":2328,"Ġcoo":2329,"ITY":2330,"para":2331,"ĠSoc":2332,"ĠNor":2333,"igin":2334,"TO":2335,")-":2336,"965":2337,"head":2338,"son":2339,"pers":2340,"6999":2341,"ray":2342,"Ġ..":2343,"Ġcy":2344,"2014":2345,"ĠCD":2346,"Ġ111":2347,"fr":2348,"icro":2349,"381":2350,"Ġ71":2351,"term":2352,".**":2353,"Ġtes":2354,"rig":2355,"ĠDO":2356,"quid":2357,"Ar":2358,"dis":2359,"Â·":2360,"acy":2361,"''":2362,"Ø§ÙĦ":2363,"Ġ78":2364,"600":2365,"Ġ85":2366,"anel":2367,"ĠTR":2368,"Am":2369,"uris":2370,"info":2371,"ĠPe":2372,"Ġann":2373,"rong":2374,"reek":2375,"Ġcat":2376,"cle":2377,"UB":2378,"pay":2379,"800":2380,"ime":2381,"af":2382,"AG":2383,"Ġ84":2384,"ĠLaw":2385,"Fig":2386,"PR":2387,"div":2388,"gro":2389,"otor":2390,"Ġ130":2391,"ris":2392,"ĠNon":2393,"ills":2394,"let":2395,"Ġ77":2396,"****":2397,"Ġ76":2398,"LC":2399,"bina":2400,"ĠMon":2401,"Ġ69":2402,"ĪĴ":2403,"ault":2404,"Ġ96":2405,"NO":2406,"ĠGas":2407,"ora":2408,"educ":2409,",\"":2410,"ĠPen":2411,"gran":2412,"Ġbur":2413,"abit":2414,"itiz":2415,"SO":2416,"ung":2417,"kg":2418,"Ġmar":2419,"Ġmg":2420,"text":2421,"ĠEqu":2422,"Ġ102":2423,"Ġpow":2424,"CON":2425,"pet":2426,"UD":2427,"oft":2428,"Yes":2429,"HS":2430,"ique":2431,"Ġ88":2432,"dem":2433,"ming":2434,"ĠJus":2435,"ds":2436,"fol":2437,"Ġev":2438,"ape":2439,"egr":2440,"ĠVol":2441,"aily":2442,"Ġvar":2443,"ĠOp":2444,"yr":2445,"set":2446,"eals":2447,"omen":2448,"aut":2449,"fit":2450,"Ġbar":2451,"LA":2452,"Ġlet":2453,"ithd":2454,"Ġ73":2455,"ids":2456,"lex":2457,"Ġste":2458,"We":2459,"ym":2460,"rier":2461,"202":2462,"Ġ05":2463,"Part":2464,"eps":2465,"Ġ500":2466,"Ġinj":2467,"@@@@":2468,"lier":2469,"sur":2470,"umb":2471,"UC":2472,"ØŃ":2473,"reet":2474,"TC":2475,"ĠBl":2476,"Ġtru":2477,"onst":2478,"ames":2479,"230":2480,"enn":2481,".;":2482,"ways":2483,"ico":2484,"ĠDE":2485,"Ġ94":2486,"uses":2487,"ARY":2488,"Ġ89":2489,"gage":2490,"001":2491,"inu":2492,"Ġrun":2493,"Ùī":2494,"Ġnor":2495,"ansi":2496,"224":2497,")**,":2498,"mak":2499,"ativ":2500,"ract":2501,"Ġ106":2502,"may":2503,"Ġgr":2504,"Ġbre":2505,"ceip":2506,"td":2507,")**;":2508,"ĠSH":2509,"ived":2510,"Ġ104":2511,"kn":2512,"ĠTex":2513,"ols":2514,"Ġcou":2515,"Ġ92":2516,"idel":2517,"Ġ---":2518,"ĠSm":2519,"cv":2520,",âĢĿ":2521,"bl":2522,"ĠNat":2523,"900":2524,"airs":2525,"bon":2526,"Ġ97":2527,"bur":2528,"ĠId":2529,"ges":2530,"cur":2531,"On":2532,"NE":2533,"eu":2534,"CS":2535,"Ġ300":2536,"oor":2537,"ĠEU":2538,"url":2539,"Ġmix":2540,".]&#":2541,"ĠAR":2542,"emed":2543,"ĠBut":2544,"Ġ87":2545,"228":2546,"Ġcri":2547,"ĠJud":2548,"reby":2549,"rown":2550,"OM":2551,"onds":2552,"Ġ``":2553,"Ġbal":2554,"ĠCer":2555,"Ġ82":2556,"Ġ81":2557,"pub":2558,"UT":2559,"ĠCap":2560,"anks":2561,"unt":2562,"ht":2563,"my":2564,"ĠÎ¼g":2565,"erva":2566,"gy":2567,"osed":2568,"sult":2569,"ĠSum":2570,"ĠEff":2571,"Ġ150":2572,"ĠÙĬ":2573,"more":2574,"ĠBe":2575,"Ġ79":2576,"Ġbor":2577,"ĠCan":2578,"203":2579,"ĠCal":2580,"Ġfoc":2581,"ado":2582,"but":2583,"ille":2584,"Ġdon":2585,"Scot":2586,"Ġ115":2587,"lish":2588,"Ġlog":2589,"Ġagg":2590,"ĠFr":2591,"Ġsoc":2592,"empt":2593,"Ġ~":2594,"angu":2595,"Ġ113":2596,"ĠCA":2597,"Ġkey":2598,"whe":2599,"700":2600,"955":2601,"urch":2602,"ota":2603,"Ġ;":2604,"PD":2605,"wth":2606,"ĠAnn":2607,"120":2608,"tio":2609,"2017":2610,"Ġjob":2611,"oval":2612,"enz":2613,"Ġox":2614,"uild":2615,"Ø£":2616,"ils":2617,"ustr":2618,"ded":2619,"Ġ108":2620,"terp":2621,"trib":2622,"::":2623,"rect":2624,"self":2625,"ĠDIS":2626,"Ġbo":2627,"Ġ86":2628,"ada":2629,"-.":2630,"aska":2631,"ĠAM":2632,"ĠUN":2633,"Ġ83":2634,"Ġvia":2635,"alty":2636,"Ġdat":2637,")âĢĶ":2638,"ÙĲ":2639,"orks":2640,"ACT":2641,"___":2642,"mat":2643,"yp":2644,"mar":2645,"rest":2646,"ull":2647,"ots":2648,".âĢĻ":2649,"ĠAff":2650,"Ġhol":2651,"Ġcut":2652,"ones":2653,"ĠRel":2654,"ĊĠĠ":2655,"ÙĦÙħ":2656,"ĠMod":2657,"itch":2658,"Ġir":2659,"ĠAb":2660,"Ġegg":2661,"END":2662,"ancy":2663,"Ġhaz":2664,"002":2665,"Ġves":2666,"ĠCir":2667,"met":2668,"Ġ103":2669,"ĠMc":2670,"ĠSE":2671,"112":2672,"Ġred":2673,"Ġ107":2674,"ev":2675,"2015":2676,"ik":2677,"miss":2678,"ĠIV":2679,"ĠDr":2680,"emic":2681,"QU":2682,"ĠDoc":2683,"umn":2684,"Ġsay":2685,"Ġdr":2686,"itic":2687,"Ġ105":2688,"well":2689,"ĠAtt":2690,"Ġple":2691,"OW":2692,"Ġsix":2693,"At":2694,"URE":2695,"iods":2696,"ĠAL":2697,"omic":2698,"tu":2699,"ĠQu":2700,"lled":2701,"ĠFig":2702,"ift":2703,"Ġ02":2704,"bus":2705,"ĠYou":2706,"blem":2707,"Ġ114":2708,"ify":2709,"ened":2710,"Pub":2711,"olly":2712,"jud":2713,"ores":2714,"Ġfew":2715,"ili":2716,"246":2717,"alk":2718,"Ġ118":2719,"Ġasp":2720,"DIV":2721,"All":2722,"hers":2723,"ĠJoh":2724,"cks":2725,"Ġbat":2726,"Ġri":2727,"plic":2728,"mes":2729,"Ġhar":2730,"plex":2731,"Cu":2732,"role":2733,"FS":2734,"Ġwat":2735,"cula":2736,"ĠPA":2737,"ĠAN":2738,"ĠAv":2739,"ĠTer":2740,"arks":2741,"ĠPa":2742,"âĢĿ,":2743,"252":2744,"ĠGA":2745,"iam":2746,"ĠOne":2747,"ulf":2748,"Ġque":2749,"ICE":2750,"life":2751,"Ġaid":2752,"TT":2753,"iles":2754,"obal":2755,"ĠEX":2756,"943":2757,"llll":2758,"RC":2759,"ged":2760,"erat":2761,"Ġ03":2762,"ager":2763,"INE":2764,"omin":2765,"ept":2766,"Ġ122":2767,"Ġupd":2768,"ĠYes":2769,"Dec":2770,",,,,":2771,"Any":2772,"Ġfee":2773,"Ġtub":2774,"igna":2775,"Co":2776,"ILL":2777,"pped":2778,"osis":2779,"scm":2780,"back":2781,"leph":2782,",âĢĻ":2783,"sess":2784,"ern":2785,"Pl":2786,"mod":2787,"Ġdry":2788,"113":2789,"ease":2790,"150":2791,"227":2792,"Ġmer":2793,"IAL":2794,"Ġ202":2795,"ero":2796,"Ġjus":2797,"ĠLo":2798,"ama":2799,"âĪĴ":2800,"ĠDeb":2801,"EST":2802,"Ġabs":2803,"DR":2804,"Head":2805,"1999":2806,"ĠSIF":2807,"ĠUse":2808,"rap":2809,"ites":2810,"mits":2811,"Ġfig":2812,"ĠNov":2813,"hing":2814,"ira":2815,"oura":2816,"MB":2817,"940":2818,"def":2819,"ĠFl":2820,"SC":2821,"have":2822,"ĠBo":2823,"ino":2824,"ATES":2825,"Ġ...":2826,"ugh":2827,"was":2828,"ĠFur":2829,"ĠNE":2830,"Ġenh":2831,"010":2832,"Ġ09":2833,"TY":2834,"Ġess":2835,"âĢ²":2836,"vo":2837,"data":2838,"105":2839,"xml":2840,"Ġur":2841,"alyz":2842,"Ġ125":2843,"It":2844,"103":2845,"ĠPri":2846,"rime":2847,"Ġcho":2848,"ERV":2849,")*":2850,"ĠSan":2851,"Info":2852,"Ġrad":2853,"eled":2854,"ĠBy":2855,"mula":2856,"CP":2857,"aps":2858,"iber":2859,"Per":2860,"ĠPR":2861,"ĠSci":2862,"ĠFAA":2863,"Na":2864,"racy":2865,"Â«":2866,"Ġ>":2867,"Ġ116":2868,"izes":2869,"ĠShe":2870,"DS":2871,"lf":2872,"Ø¬":2873,"edi":2874,"ĠNet":2875,"Ġeas":2876,"titu":2877,"232":2878,"ocks":2879,"Ġaro":2880,"arly":2881,"reng":2882,"ME":2883,"REF":2884,"rief":2885,"tage":2886,"Ġput":2887,"ORT":2888,"sted":2889,"ĠPat":2890,"106":2891,"oti":2892,"arms":2893,"umin":2894,"http":2895,"dian":2896,"ØĮ":2897,"ĠFY":2898,"Ġfr":2899,"**;":2900,"ĠON":2901,"Ġpip":2902,"ĠDet":2903,"ools":2904,"Ġbro":2905,"Ġsil":2906,"TING":2907,"pri":2908,"ĠLLC":2909,"Gen":2910,"Ġles":2911,"102":2912,"que":2913,"ĠOut":2914,"Ġ04":2915,"Ġ117":2916,"Ġ06":2917,"bit":2918,"Ġ123":2919,"Ġ222":2920,"THER":2921,"~~":2922,"See":2923,"ĠÂ·":2924,"zone":2925,"ĠINC":2926,"To":2927,"ĠVir":2928,"will":2929,"ATED":2930,"sign":2931,"969":2932,"meth":2933,"Ġvot":2934,"than":2935,"ĊĠĊ":2936,"ĠBas":2937,"lin":2938,"tish":2939,"ĠBi":2940,"UE":2941,"Nor":2942,"ECT":2943,"104":2944,"Ġmob":2945,"ĠPL":2946,"âĢĿ)":2947,"alse":2948,"Ġlot":2949,"rame":2950,"Rec":2951,"rad":2952,"col":2953,"toc":2954,"BER":2955,"Ġ08":2956,"Ac":2957,"DD":2958,"Ġdig":2959,"alla":2960,".-":2961,"Ag":2962,"oper":2963,"ller":2964,"lege":2965,"PM":2966,"Ġfit":2967,"ogen":2968,"Ġsav":2969,"ïģ´":2970,"ader":2971,"ĠSer":2972,"oung":2973,"PL":2974,"Ġ400":2975,"TAB":2976,"ERAL":2977,"231":2978,".*":2979,"cr":2980,"OH":2981,"resh":2982,"omer":2983,"IST":2984,"Ġ119":2985,"ïģ¥":2986,"âĢľ(":2987,"Ġ250":2988,"ova":2989,"ĠÂ°":2990,"Rep":2991,"âĢĺ(":2992,"Ġil":2993,"115":2994,"317":2995,"ïĤ":2996,"Ġmag":2997,"law":2998,"ĠOb":2999,"107":3000,"2016":3001,"ipa":3002,"125":3003,"RS":3004,"Me":3005,"rat":3006,"ĠVA":3007,"FO":3008,"PH":3009,"ecti":3010,"130":3011,"ba":3012,"Ġmov":3013,"stim":3014,";,":3015,"Ġnit":3016,"972":3017,":**":3018,"ĠLim":3019,"Ġ140":3020,"Ġ.&#":3021,"\"></":3022,"PRO":3023,"259":3024,"ĠEst":3025,"Ġnuc":3026,"Chap":3027,"elf":3028,"pare":3029,"Ġmm":3030,"Ġwit":3031,"UND":3032,"111":3033,"ser":3034,"Ġ07":3035,"Ġ109":3036,"AY":3037,"947":3038,"nal":3039,"New":3040,"reta":3041,"8217":3042,"cern":3043,"odes":3044,"IE":3045,"ilot":3046,"\\/":3047,"most":3048,"ĠRed":3049,"Ġppm":3050,"xx":3051,"aned":3052,"fir":3053,"ker":3054,"Ġfra":3055,"Ss":3056,"imen":3057,"2023":3058,"ches":3059,"tery":3060,"269":3061,"Ġseg":3062,"Acc":3063,"TIVE":3064,"amet":3065,"fits":3066,"Ġtri":3067,"syst":3068,"osi":3069,"Ġdiv":3070,"Ġft":3071,"306":3072,"GA":3073,"948":3074,"Ġ124":3075,"119":3076,"ĠEdi":3077,"ĠSEC":3078,"ĠSta":3079,"havi":3080,"ĠDel":3081,"sidi":3082,"has":3083,"III":3084,"bre":3085,"cast":3086,"unal":3087,"941":3088,"ush":3089,"olve":3090,"rawn":3091,"GS":3092,"121":3093,"lara":3094,"Marg":3095,"DL":3096,"EX":3097,"ona":3098,"ĠVOL":3099,"Form":3100,"hol":3101,"Date":3102,"ict":3103,"003":3104,"Ġlin":3105,"arts":3106,"ania":3107,"ĠÙĤ":3108,"205":3109,"ibr":3110,"Ġ590":3111,"ĠFL":3112,"1000":3113,"upa":3114,"mo":3115,"isks":3116,"wide":3117,"body":3118,"Ġcam":3119,"ĠREP":3120,"HH":3121,"ĠBec":3122,"ĠLG":3123,"sels":3124,"ĠMex":3125,"SD":3126,"atur":3127,"nes":3128,"ires":3129,"umed":3130,"rup":3131,"OUR":3132,"FD":3133,"ĠTe":3134,"Ġ000":3135,"ĠPay":3136,"CD":3137,"ĠDur":3138,"ĠSol":3139,"319":3140,"Ø§Ø":3141,"ĠSte":3142,"Ġtw":3143,"HA":3144,"gra":3145,"Ã©":3146,"140":3147,"UME":3148,"come":3149,"590":3150,"rees":3151,"Dep":3152,"Ġbr":3153,"br":3154,"type":3155,"ging":3156,"down":3157,"UP":3158,"uss":3159,"],":3160,"din":3161,"Ġ317":3162,"ENS":3163,"BS":3164,"pled":3165,"UMM":3166,"ĠLa":3167,"136":3168,"**,":3169,"%)":3170,"]&#":3171,"116":3172,"lim":3173,"Ġ180":3174,"Ø³Ø³":3175,"ĠIS":3176,"imar":3177,"aste":3178,"015":3179,"ĠLeg":3180,"oma":3181,"353":3182,"OG":3183,"CY":3184,"Ġsyn":3185,"alt":3186,"sa":3187,"oph":3188,"VER":3189,"main":3190,"004":3191,":*":3192,"Ġfav":3193,"pact":3194,"west":3195,"ICA":3196,"det":3197,"non":3198,"Ġtox":3199,"ĠMo":3200,"005":3201,"1997":3202,"942":3203,"ĠGl":3204,"Ġsom":3205,"ews":3206,"ĠCur":3207,"EAR":3208,"CT":3209,"108":3210,"PO":3211,"Ġrs":3212,"span":3213,"pid":3214,"ione":3215,"Ġsla":3216,"âĢĲ":3217,"ģĦ":3218,"ASA":3219,"pkg":3220,"hest":3221,"ĠSam":3222,"MAN":3223,"Par":3224,"path":3225,"tner":3226,"thly":3227,"ulat":3228,"ALL":3229,"ÙĦÙĩ":3230,"ĠBud":3231,"ĠRES":3232,"ij":3233,"pati":3234,"Ø°":3235,"180":3236,"Ġlas":3237,"igra":3238,"exp":3239,"Ġcr":3240,"301":3241,"0001":3242,"tein":3243,"FL":3244,"ĠAS":3245,"-(":3246,"anes":3247,"Act":3248,"hyd":3249,"yond":3250,"ops":3251,"ĠBL":3252,"Ġax":3253,"Ġsod":3254,"Ġlat":3255,"VA":3256,"cor":3257,"PC":3258,"Ġhor":3259,"carb":3260,"att":3261,"za":3262,"icat":3263,"OO":3264,"flic":3265,"oxy":3266,"uck":3267,"109":3268,");&#":3269,"ises":3270,"cal":3271,"Ø§ÙĨ":3272,"ĠNON":3273,"ĠCle":3274,"ger":3275,"With":3276,"Ġid":3277,"dep":3278,"354":3279,"208":3280,"rast":3281,"BB":3282,"gl":3283,"TRIC":3284,"Ġ210":3285,"PER":3286,"num":3287,"ĠGr":3288,"fl":3289,"ĠLA":3290,"ĠHar":3291,"Ġsy":3292,"hens":3293,"dist":3294,"ĠWar":3295,"idd":3296,"122":3297,"iec":3298,"can":3299,"ĠDi":3300,"ĠÌ":3301,"dec":3302,"EE":3303,"sump":3304,"].":3305,"erm":3306,"ĠDOE":3307,"ĠSIP":3308,"'#":3309,"Ġ354":3310,"bor":3311,"Jan":3312,"1072":3313,"Ġ126":3314,"just":3315,"ĠBar":3316,"Ġ121":3317,"147":3318,"011":3319,"114":3320,"123":3321,"PE":3322,"fin":3323,"coh":3324,"load":3325,"osph":3326,"DI":3327,"234":3328,"ey":3329,"ELL":3330,"lder":3331,"TIC":3332,"omet":3333,"><":3334,"ITED":3335,"mand":3336,"aa":3337,"mium":3338,"AF":3339,"SR":3340,"ki":3341,"long":3342,"By":3343,"ASS":3344,"hr":3345,"Ġpul":3346,"220":3347,"ANT":3348,"idth":3349,"Id":3350,"unic":3351,"itia":3352,"isms":3353,"Sp":3354,"Ġfa":3355,"Ġsci":3356,"lega":3357,"ato":3358,"Sen":3359,"redi":3360,"elec":3361,"Ph":3362,"Mar":3363,"322":3364,"Ġold":3365,"ided":3366,"Ġbox":3367,"240":3368,".:":3369,"tera":3370,"terf":3371,"ĠPO":3372,"2020":3373,"ideo":3374,"ĠDa":3375,"Ġ325":3376,"ĠGAO":3377,"124":3378,"ci":3379,"Ġwhy":3380,"ĠAG":3381,"Ġtow":3382,"8211":3383,"tly":3384,"ÙĢ":3385,"pol":3386,"uff":3387,"Ġsex":3388,"ĠMO":3389,"test":3390,"fill":3391,"ĠSim":3392,"IES":3393,"ĠØ¥":3394,"Ã³":3395,"CF":3396,"TON":3397,"ĠØª":3398,"XX":3399,"SI":3400,"Ġ128":3401,"ĠMis":3402,"206":3403,"ĠAPP":3404,"pass":3405,"238":3406,"UG":3407,"952":3408,"wood":3409,"117":3410,"ASE":3411,"MT":3412,"ĠRet":3413,"ĠMax":3414,"ĠSW":3415,"feet":3416,"inci":3417,"Ġ160":3418,"gic":3419,"ÙĦÙĬ":3420,"ider":3421,"=\"/":3422,"'t":3423,"sey":3424,"ehic":3425,"uge":3426,"Def":3427,"COM":3428,"Ġ319":3429,"ls":3430,"ĠDL":3431,"ca":3432,"ford":3433,"127":3434,"Oct":3435,"146":3436,"igns":3437,"Btu":3438,"nd":3439,"ĠBay":3440,"asp":3441,"Ġ230":3442,"inf":3443,"DC":3444,"204":3445,"IO":3446,"now":3447,"Ġïģ²":3448,"Ġ155":3449,"ITI":3450,"ze":3451,"Ġ144":3452,"ĠÙı":3453,"aim":3454,"Øµ":3455,"382":3456,"ANCE":3457,"SIS":3458,")-(":3459,"ARD":3460,"1992":3461,"></":3462,"html":3463,"Ġ]":3464,"261":3465,"oo":3466,"380":3467,"ams":3468,"118":3469,"866":3470,"Ġbed":3471,"dio":3472,"132":3473,"rops":3474,"209":3475,"tes":3476,"ĠFAL":3477,"PAGE":3478,"atch":3479,"Ġnd":3480,"133":3481,"Ġ132":3482,"),&#":3483,"Ġsqu":3484,"Ġ^":3485,"amb":3486,"Ġang":3487,"LY":3488,"Ġpet":3489,"ilty":3490,"327":3491,"ĠÙĴ":3492,"ĠMs":3493,"Ms":3494,"));":3495,"Ġ205":3496,"lut":3497,"129":3498,"ips":3499,"967":3500,"Sh":3501,".--":3502,"ĠCL":3503,"BR":3504,"Ġdou":3505,"add":3506,"ĠUAS":3507,"Ass":3508,"207":3509,"anti":3510,"Ġ600":3511,"rmal":3512,"2021":3513,"ĠDR":3514,"Ġvic":3515,"318":3516,"asis":3517,"inks":3518,"1998":3519,"ĠAT":3520,"ÙħÙħ":3521,"ĠÙĥ":3522,"Sour":3523,"iler":3524,"Ġwww":3525,"142":3526,"170":3527,"Su":3528,"Ġlb":3529,"Ġtoo":3530,"vy":3531,")]":3532,"013":3533,"IZ":3534,"ĠEl":3535,"006":3536,"ario":3537,"band":3538,"%,":3539,"Em":3540,"Ġbod":3541,"oral":3542,"148":3543,"secu":3544,"Ġsan":3545,"ai":3546,"ann":3547,"Ġ134":3548,"Ġ204":3549,"ANS":3550,"rugs":3551,"rams":3552,"file":3553,"ĠIll":3554,"Ġlit":3555,"126":3556,"ÙĦÙī":3557,"umer":3558,"Ġ138":3559,"erce":3560,"Ø¥":3561,"MO":3562,"175":3563,"310":3564,"ĠExp":3565,"1995":3566,"anta":3567,"Ġlos":3568,"Ġ\\":3569,"ĠRem":3570,"nova":3571,"hibi":3572,"Im":3573,"Name":3574,"TAL":3575,"wing":3576,"Ġng":3577,"ÙħØ§":3578,"May":3579,"ĠMA":3580,"pul":3581,"Ġ240":3582,"260":3583,"ĠIL":3584,"HR":3585,"222":3586,"BI":3587,"BA":3588,"aci":3589,"Ġdie":3590,"item":3591,"ĠHer":3592,"1991":3593,"Off":3594,"Ġyet":3595,"SEC":3596,"ompl":3597,"rode":3598,"Ġau":3599,"URT":3600,"Ġamb":3601,"ansf":3602,"orb":3603,"Ĺı":3604,"ibra":3605,"ACK":3606,"rela":3607,"car":3608,"ruit":3609,"Ġcas":3610,"ĠNC":3611,"lan":3612,"ĠCOR":3613,"145":3614,"mosp":3615,"zen":3616,"2019":3617,"GG":3618,"974":3619,"irds":3620,"href":3621,"Ġ135":3622,"ensi":3623,"ĠUs":3624,"ĠÙĨ":3625,"Ġded":3626,"134":3627,"Ġtry":3628,"pur":3629,"Ġ333":3630,"ye":3631,"Ġvac":3632,"opp":3633,"ylv":3634,"KE":3635,"ican":3636,"book":3637,"ymer":3638,"303":3639,"QS":3640,"ilt":3641,"iet":3642,"âģĦ":3643,"care":3644,"ĠNY":3645,"WA":3646,"ouis":3647,"128":3648,"ENTS":3649,"Ùı":3650,"Ġ127":3651,"po":3652,"Man":3653,"urns":3654,"Ġ301":3655,"135":3656,"loca":3657,"350":3658,"IGH":3659,":&#":3660,"309":3661,"rove":3662,"menu":3663,"ĠOil":3664,"Ġ136":3665,"reto":3666,"utor":3667,"305":3668,"must":3669,"Ġwet":3670,"245":3671,"Pre":3672,"hour":3673,"1080":3674,"gate":3675,"253":3676,"Apr":3677,"ĠBR":3678,"Ġ318":3679,"uled":3680,"ĠAf":3681,"FC":3682,"ĠAdd":3683,"210":3684,"flow":3685,"1993":3686,"When":3687,"ĉĊ":3688,"ĠOf":3689,"Ġ170":3690,"ĠEUR":3691,"ĠSw":3692,"disc":3693,"Or":3694,"ĠSP":3695,"eat":3696,"Ġ142":3697,"Ġaqu":3698,"dscm":3699,"ĠRoy":3700,"144":3701,"Ġ145":3702,"Ġspe":3703,"ĠMS":3704,"ïĤ·":3705,"plif":3706,"ae":3707,"utic":3708,"1994":3709,"ĠØ±":3710,"750":3711,"ĠEL":3712,"ka":3713,"CCM":3714,"oda":3715,"hio":3716,"\\\"":3717,"ĠME":3718,"Ġtal":3719,"223":3720,"ĠCDP":3721,"Dis":3722,"Ġexc":3723,"973":3724,"ocky":3725,"erk":3726,"151":3727,"Ġsou":3728,"Ġ129":3729,"Ġmol":3730,"Ġï":3731,"ilit":3732,"ĠLi":3733,"June":3734,"MR":3735,"Min":3736,"know":3737,"bb":3738,"Ġ226":3739,"ÙĬÙĨ":3740,"Eng":3741,"281":3742,"ĠCR":3743,"BO":3744,"ipat":3745,"917":3746,"ALE":3747,"157":3748,"were":3749,"De":3750,"ATA":3751,"TN":3752,"Ġ139":3753,"AME":3754,"ih":3755,"Is":3756,"263":3757,"mul":3758,"hat":3759,"Ġfir":3760,"ĠSal":3761,"vere":3762,"ĠEd":3763,"avy":3764,"199":3765,"241":3766,"Des":3767,"226":3768,"arc":3769,"mt":3770,"018":3771,"amed":3772,"ĠHE":3773,"riz":3774,"TRIB":3775,"190":3776,"oric":3777,"rem":3778,"Ġok":3779,"ives":3780,"ĠEC":3781,"rew":3782,"149":3783,"Ġalk":3784,"Ġda":3785,"050":3786,"017":3787,"ĠÙĩ":3788,"Ġ131":3789,"ea":3790,"ĠDem":3791,"PDF":3792,"ĠAud":3793,"ĠER":3794,"ACE":3795,"each":3796,"iven":3797,"966":3798,"950":3799,"HO":3800,"bat":3801,"ĠJer":3802,"kt":3803,"Serv":3804,"alle":3805,"Wash":3806,";.":3807,"meas":3808,"Ġerr":3809,"Ġrot":3810,"DO":3811,"onor":3812,"Ã¡":3813,"Ġcla":3814,"ney":3815,"site":3816,"ĠPet":3817,"ĠMat":3818,"oke":3819,"Ġ310":3820,"UTH":3821,"ĠGra":3822,"ĠØŃ":3823,"aker":3824,"ULE":3825,"FA":3826,"Ø®":3827,"270":3828,"Ġ800":3829,"MIN":3830,"gies":3831,"amic":3832,"Ġ{":3833,"andl":3834,"325":3835,"bec":3836,"NS":3837,"icon":3838,"cap":3839,"list":3840,"ryst":3841,"ades":3842,"ĠWeb":3843,"ych":3844,"ĠBox":3845,"355":3846,"ĠPac":3847,"139":3848,"ffer":3849,"Ġ148":3850,"Cons":3851,"Ġul":3852,"Ġ220":3853,"Ġ212":3854,"ATER":3855,"ĠVOC":3856,"007":3857,"MC":3858,"hem":3859,"aine":3860,"ĠPER":3861,"ĠMAR":3862,"450":3863,"uels":3864,"July":3865,"da":3866,"155":3867,"itan":3868,"ĠDay":3869,"Ġ350":3870,"Ġ133":3871,"Ġ141":3872,"MI":3873,"ĠSCH":3874,"Ø¶":3875,"Ġask":3876,"Ġdil":3877,"Ġ225":3878,"Ġfac":3879,"alog":3880,"oir":3881,"ishe":3882,"Ġmap":3883,"ANC":3884,"Non":3885,"ISS":3886,"via":3887,"Ġ151":3888,"165":3889,"Ġ211":3890,"akes":3891,"inds":3892,"ĠBal":3893,"only":3894,"Ø«":3895,"Ġsea":3896,"ENCY":3897,"ĠOk":3898,"020":3899,"ĠTX":3900,"DUC":3901,"gar":3902,"ĠPur":3903,"pen":3904,"Ġemb":3905,"ĠBr":3906,"Ġbul":3907,"ĠMON":3908,"161":3909,"ogni":3910,"340":3911,"ros":3912,"pute":3913,"ette":3914,"ACH":3915,"ĠSUB":3916,"Ġaer":3917,"ĠCop":3918,"ĠOMB":3919,"NB":3920,"131":3921,"141":3922,"304":3923,"amm":3924,"supp":3925,"ĠEEA":3926,"Feb":3927,"Amer":3928,"Ġsem":3929,"040":3930,"Ġll":3931,"1086":3932,"TIT":3933,"1077":3934,"164":3935,"WR":3936,"137":3937,"229":3938,"Ġ311":3939,"acks":3940,"360":3941,"290":3942,"280":3943,"ady":3944,"ĠBur":3945,"Ġ156":3946,"ĠNe":3947,"Ġnc":3948,"070":3949,"ruc":3950,"crim":3951,"arn":3952,"ĠIND":3953,"244":3954,"roy":3955,"tam":3956,"pond":3957,"mail":3958,"ADE":3959,"176":3960,"014":3961,"Ġfer":3962,"sm":3963,"oked":3964,"Ġ327":3965,"158":3966,"zing":3967,"high":3968,"ĠSC":3969,"iana":3970,"dens":3971,"icit":3972,"rite":3973,"198":3974,"ĠRad":3975,"ITH":3976,"Ġ137":3977,"166":3978,"Ġ147":3979,"omb":3980,"248":3981,"ifi":3982,"Ùĳ":3983,"Cor":3984,"FI":3985,"235":3986,"empl":3987,"Sep":3988,"mot":3989,"195":3990,"HQ":3991,"ÃŃ":3992,"ĠVI":3993,"152":3994,"Ġ203":3995,"Ġ161":3996,"ago":3997,"bet":3998,"ĠAdv":3999,"SPEC":4000,"ĠIT":4001,"PAR":4002,"Ġeth":4003,"307":4004,"ZM":4005,"162":4006,"MMIT":4007,"138":4008,"TRA":4009,"345":4010,"uer":4011,"tees":4012,"How":4013,"IGN":4014,"TEE":4015,"Col":4016,"TM":4017,"Ġ152":4018,"Ġfro":4019,"leaf":4020,"337":4021,"156":4022,"cean":4023,"ali":4024,"302":4025,"ĠLet":4026,"DER":4027,"Subt":4028,"omel":4029,"ĠWil":4030,"plan":4031,"143":4032,"fund":4033,"spen":4034,"Ġ206":4035,"\":":4036,"Ġund":4037,"Ġvan":4038,"ĠREG":4039,"ĠSou":4040,"060":4041,"USUM":4042,"oe":4043,"vity":4044,"Ġmi":4045,"320":4046,"Ġ146":4047,"Fin":4048,"vise":4049,"writ":4050,"rie":4051,"reme":4052,"ĠVer":4053,"And":4054,"Note":4055,"lead":4056,"257":4057,"been":4058,"WS":4059,"umes":4060,"ÙĩØ§":4061,"when":4062,"333":4063,"ĠREC":4064,"Aug":4065,"cing":4066,"ÙĪØ§":4067,"rin":4068,"Ġ280":4069,"ĠRO":4070,"cuss":4071,"Ġimm":4072,"TRO":4073,"Ġ165":4074,"ĠCM":4075,"yer":4076,"âĹı":4077,"ĠOP":4078,"167":4079,"Ġ154":4080,"Ġhy":4081,"ban":4082,"***":4083,"va":4084,"elle":4085,"key":4086,"404":4087,"008":4088,"ken":4089,"1085":4090,"236":4091,"rs":4092,"roac":4093,"335":4094,"249":4095,"ĠMD":4096,"ĠCT":4097,"Ġ227":4098,"gr":4099,"argo":4100,"ĠBY":4101,"otog":4102,"169":4103,"ĠOur":4104,"KS":4105,"Ġ228":4106,"159":4107,"case":4108,"Ġion":4109,"012":4110,"ĠÙĳ":4111,"Vol":4112,"ĠMR":4113,"mote":4114,"unch":4115,"fid":4116,"tiva":4117,"ham":4118,"net":4119,"402":4120,"IVER":4121,"Ġaw":4122,"oxic":4123,"308":4124,"153":4125,"ster":4126,"2022":4127,"inst":4128,"ĠLE":4129,"313":4130,"154":4131,"312":4132,"242":4133,"Ġbit":4134,"ATEM":4135,"405":4136,"uCu":4137,"ĠSpr":4138,"ROM":4139,"Ġide":4140,"Ø´":4141,"946":4142,"Cal":4143,"flu":4144,"FT":4145,"Ġ($":4146,"IX":4147,"SK":4148,"218":4149,"ĠLow":4150,"suff":4151,"1090":4152,"owed":4153,"pert":4154,"Ġ143":4155,"ĠSA":4156,"PT":4157,"Ġpo":4158,"egra":4159,")).":4160,"HG":4161,"hal":4162,"bel":4163,"174":4164,"oten":4165,"made":4166,"Ġ208":4167,"tise":4168,"ĠGEN":4169,"Ġâģ":4170,"mill":4171,"Ġmor":4172,"ycl":4173,"Ġlbs":4174,"ĠFDA":4175,"lb":4176,"ely":4177,"Ġ360":4178,"ĠDEP":4179,"hips":4180,"MD":4181,"168":4182,"Bl":4183,"Ġurb":4184,"Ġarg":4185,"Ġsen":4186,"Ġraw":4187,"post":4188,"221":4189,"311":4190,"Ġmus":4191,"pend":4192,"cure":4193,"HE":4194,"196":4195,"pell":4196,"ĠMor":4197,"Ġfem":4198,"veys":4199,"awa":4200,"puts":4201,"275":4202,"Med":4203,"279":4204,"Ġbeg":4205,"enge":4206,"Ġ245":4207,"asc":4208,"Food":4209,"ĠED":4210,"Ġwin":4211,"uk":4212,"ĠOFF":4213,"ULT":4214,"347":4215,"Ġod":4216,"Ġton":4217,"prom":4218,"Ġ162":4219,".(":4220,"ÙĨØ§":4221,"Ġ700":4222,"186":4223,"Ġrev":4224,"Ġhot":4225,"tre":4226,"SU":4227,"rist":4228,"opic":4229,"tual":4230,"ĠBE":4231,"407":4232,"AAQS":4233,"mort":4234,"vals":4235,"geta":4236,"\"/":4237,"ĠNOX":4238,"chas":4239,"||||":4240,"211":4241,"Ġfix":4242,"BL":4243,"hel":4244,"ĠBul":4245,"019":4246,"Ġtag":4247,"Ġq":4248,"But":4249,"tiga":4250,"Ġ149":4251,"ygen":4252,"194":4253,"\")":4254,"Ġ355":4255,"ĠØ³":4256,"ĠBO":4257,"NY":4258,"je":4259,"ICAL":4260,"Ġnt":4261,"ng":4262,"212":4263,"080":4264,"they":4265,"Ġ182":4266,"ĠÂ±":4267,"sch":4268,"016":4269,"yle":4270,"Ġtro":4271,"Ġmut":4272,"ĠIC":4273,"ĠSha":4274,"Ġ175":4275,"Coun":4276,"ano":4277,"wscm":4278,"GO":4279,"sta":4280,"Ġice":4281,"igan":4282,"ĠBor":4283,"asur":4284,"283":4285,"352":4286,"Ġ164":4287,"Ġ336":4288,"Ġye":4289,"Ġpes":4290,"apor":4291,"ĠHyd":4292,"Ġ168":4293,"Ġ172":4294,"diff":4295,"Word":4296,"opt":4297,"ĠND":4298,"Ġ410":4299,"274":4300,"ĠFam":4301,"Ã³n":4302,"EO":4303,"ĠJap":4304,"htm":4305,"uis":4306,"703":4307,"Ġ320":4308,"ifer":4309,"sim":4310,"Ġfla":4311,"Ġ153":4312,"409":4313,")âĢľ":4314,"aks":4315,"INT":4316,"thes":4317,"Ġ190":4318,"ABLE":4319,"Ġtur":4320,"Ġ216":4321,"unda":4322,"*(":4323,"ĠCOM":4324,"550":4325,"958":4326,"ASH":4327,"Ġ214":4328,"Dire":4329,"ĠWel":4330,"rack":4331,"you":4332,"Ġmid":4333,"ĠVis":4334,"ĠBro":4335,"ĠCAA":4336,"Ġ199":4337,"178":4338,"ĠOH":4339,"Ġcm":4340,"nson":4341,"ĠCAR":4342,"lely":4343,"dire":4344,"sour":4345,"192":4346,"ĠGro":4347,"Rem":4348,"ĠEnd":4349,"vacy":4350,"rum":4351,"#'#":4352,"Ġ157":4353,"ĠDry":4354,"ĠSus":4355,"mem":4356,"ĠSl":4357,"then":4358,"Ġ183":4359,"ste":4360,"iga":4361,"firm":4362,"Ġsti":4363,"ston":4364,"emis":4365,"fil":4366,"raq":4367,"rd":4368,"SH":4369,"bi":4370,"706":4371,"ropa":4372,"zz":4373,"375":4374,"ĠGre":4375,"Type":4376,"ISH":4377,"Ġ-.":4378,"Gu":4379,"ĠPle":4380,"Ġfly":4381,"\"><":4382,"````":4383,"Ġ223":4384,"ĠTem":4385,"ĠNOT":4386,"371":4387,"1982":4388,"docu":4389,"ĠSet":4390,"ĠSU":4391,"ĠHol":4392,"CK":4393,"188":4394,"ĠNW":4395,"163":4396,"olds":4397,"Ġ178":4398,"ĠDev":4399,"Ġ***":4400,"THE":4401,"DP":4402,"SB":4403,"413":4404,"fish":4405,"Ġpix":4406,"028":4407,"Ġ260":4408,"Ġseq":4409,"keep":4410,"tors":4411,"etra":4412,"ĠSY":4413,"trac":4414,"185":4415,"EEC":4416,"Î¼":4417,"fed":4418,"sk":4419,"LO":4420,"410":4421,"8230":4422,"Mon":4423,"255":4424,"fort":4425,"191":4426,"Ġma":4427,"187":4428,"nor":4429,"009":4430,"ANK":4431,"Car":4432,"LP":4433,".</":4434,"AIR":4435,"Ġnar":4436,"Le":4437,"172":4438,"VIS":4439,"ebr":4440,"xim":4441,"Pres":4442,"TX":4443,"214":4444,"TD":4445,"ippi":4446,"ICES":4447,"181":4448,"usal":4449,"ĠCat":4450,"Ġnom":4451,"Ġmul":4452,"UNTY":4453,"plit":4454,"ĠNOx":4455,"ĠES":4456,"py":4457,"351":4458,"lat":4459,"usa":4460,"\"/>":4461,"also":4462,"mpt":4463,"177":4464,"ORS":4465,"Ġ171":4466,"ĠWhe":4467,"Ġ159":4468,"omas":4469,";%":4470,"470":4471,"171":4472,"173":4473,"ques":4474,"213":4475,"ĠAng":4476,"msel":4477,"Ġpun":4478,"izer":4479,"Ġfel":4480,"390":4481,"Ġdos":4482,"cel":4483,"239":4484,"like":4485,"Ġut":4486,"197":4487,"ĠBri":4488,"ĠFil":4489,"ĠMic":4490,"esta":4491,"Ġ158":4492,"fs":4493,"Ġbus":4494,"Ġ188":4495,"OCK":4496,"420":4497,"nels":4498,"267":4499,"980":4500,"840":4501,"Ġwel":4502,".),":4503,"Do":4504,"Spec":4505,"ĠGR":4506,"299":4507,"ÙĦÙĥ":4508,"aver":4509,"Dist":4510,"ĠBel":4511,"NC":4512,"Ġhum":4513,"temp":4514,"266":4515,"537":4516,"ena":4517,"ITA":4518,"EMIS":4519,"Us":4520,"460":4521,"paid":4522,"Ġ314":4523,"free":4524,"Ø·":4525,"aves":4526,"Ġ312":4527,"Ab":4528,"Data":4529,"Ġti":4530,"539":4531,"ho":4532,"oice":4533,"Ġ195":4534,"new":4535,"Ġ234":4536,"tig":4537,"Ġep":4538,"make":4539,"area":4540,"247":4541,"ĠHaz":4542,"Ġweb":4543,"del":4544,"Ġdom":4545,"Ġ<.":4546,"ima":4547,"ĠDES":4548,"Mis":4549,"Ġ401":4550,"GRAM":4551,"iter":4552,"orp":4553,"ĠSel":4554,"brid":4555,"opy":4556,"Ġ450":4557,"date":4558,"ĠHis":4559,"ĠUr":4560,"ULA":4561,"bal":4562,"aded":4563,"tita":4564,"264":4565,"254":4566,"JI":4567,"357":4568,"183":4569,"Ġcov":4570,"ĠĊĠ":4571,"Air":4572,"ERC":4573,"FE":4574,"Ġ163":4575,"480":4576,"inn":4577,"193":4578,"addi":4579,"raz":4580,"osa":4581,"189":4582,"ÙĦØŃ":4583,"%%":4584,"ML":4585,"puta":4586,"STEM":4587,"179":4588,"ÙĴ":4589,"ĠGo":4590,"POS":4591,"roph":4592,"qual":4593,"oto":4594,"erpr":4595,"406":4596,"Ġ176":4597,"xA":4598,"ĠVi":4599,"ïĢ":4600,"GD":4601,"Ġ184":4602,"Ġ173":4603,"Val":4604,"Ġ177":4605,"sys":4606,"UNT":4607,"BC":4608,"ĠIR":4609,"Ġ213":4610,"Ġ999":4611,"Ġ166":4612,"SON":4613,"mm":4614,"Ġfab":4615,"pite":4616,"Ġâģ¢":4617,"Aut":4618,"Ġ270":4619,"328":4620,"ardi":4621,"terT":4622,"Ġ198":4623,"Ġwor":4624,"ibly":4625,"rub":4626,"Ġ207":4627,"HOC":4628,"182":4629,"ĠFO":4630,"sew":4631,"uleL":4632,"Ġ302":4633,"]]":4634,"PART":4635,"foot":4636,"Ø²":4637,"hy":4638,"rix":4639,"bo":4640,"251":4641,"name":4642,"aler":4643,"rive":4644,"344":4645,"ĠUSA":4646,"650":4647,"184":4648,"So":4649,"Ġarm":4650,"burg":4651,"Ġmot":4652,"Ã®":4653,"090":4654,"Meth":4655,"hand":4656,"256":4657,"215":4658,"ĠSk":4659,"INGS":4660,"VI":4661,"leva":4662,"Ġow":4663,"bef":4664,"423":4665,"ALS":4666,"265":4667,"ĠNM":4668,"bil":4669,"Att":4670,"370":4671,"330":4672,"Ġ179":4673,"eted":4674,"Ġps":4675,"ĠRun":4676,"held":4677,"Ġ167":4678,"ĠNRC":4679,"ouri":4680,"ĠMI":4681,"Ge":4682,"uity":4683,"irth":4684,"BM":4685,"Deb":4686,"295":4687,"331":4688,"Env":4689,"Ġ215":4690,"Ġ185":4691,"BT":4692,"Sche":4693,"030":4694,"aled":4695,"ÙĦØ¹":4696,"Ġ169":4697,"Ġ181":4698,"how":4699,"rip":4700,"rep":4701,"Ġou":4702,"FIN":4703,"288":4704,"iner":4705,"ael":4706,"Mem":4707,"seas":4708,"ĠAP":4709,"Ġled":4710,"ĠPC":4711,"ĠJr":4712,";*":4713,"602":4714,"AFF":4715,"Ġmas":4716,"epa":4717,"258":4718,"1990":4719,"Ġfri":4720,"510":4721,"Ġign":4722,"iece":4723,"TIN":4724,"undw":4725,"ĠFIN":4726,"âĸ":4727,"pons":4728,"idue":4729,"Ġ174":4730,"ĠNuc":4731,"thal":4732,"tax":4733,"rane":4734,"ITE":4735,"ĠMy":4736,"lay":4737,"VEN":4738,"Hz":4739,"ras":4740,"exam":4741,"ench":4742,"sely":4743,"Ġcyl":4744,"Ġ316":4745,"ĠLic":4746,"CRIP":4747,"tely":4748,"ORY":4749,"ĠÂ£":4750,"ĠASS":4751,"401":4752,"ĠÙĲ":4753,"Ġ).":4754,"888":4755,"ĠLO":4756,"ĠTwo":4757,"ÙĬØ±":4758,"268":4759,"vail":4760,"285":4761,"408":4762,"NI":4763,"ĠBLM":4764,"Day":4765,"acco":4766,"coll":4767,"ĠIRS":4768,"GT":4769,"ïĥ":4770,"707":4771,"CES":4772,"Exam":4773,"hery":4774,"á»":4775,"olid":4776,"ÙĦØª":4777,"AST":4778,"Ġsew":4779,"ĠWy":4780,"ĠPIC":4781,"ÙĨÙĩ":4782,"tile":4783,"ÙĦØ³":4784,"ĠIr":4785,"ella":4786,"Ġdyn":4787,"Int":4788,"UAL":4789,"ĠâĪĴ":4790,"Each":4791,"itro":4792,"455":4793,"RES":4794,"junc":4795,"ĠCS":4796,"Ġ900":4797,"POR":4798,"oz":4799,"ĠEv":4800,"ayed":4801,"316":4802,"Ġ236":4803,"ĠWes":4804,"Bef":4805,"bt":4806,"aid":4807,"Ġ#:":4808,"aths":4809,"scri":4810,"OF":4811,"\".":4812,"ett":4813,"mi":4814,"oa":4815,"rus":4816,"oud":4817,"ENCE":4818,"292":4819,"356":4820,"who":4821,"ĠNS":4822,"Â»":4823,"etic":4824,"ĠPAR":4825,"Ġcum":4826,"vert":4827,"Ġ306":4828,"sam":4829,"LR":4830,"etts":4831,"Ġ?":4832,"ERG":4833,"Euro":4834,"Ġ218":4835,"Ġč":4836,"lah":4837,"560":4838,"adv":4839,"Ġgot":4840,"Ġ192":4841,"Ġnav":4842,"Ġkil":4843,"orti":4844,"WN":4845,"324":4846,"289":4847,"870":4848,"Ġ(\"":4849,"ache":4850,"ĠNR":4851,"kel":4852,"--|":4853,"Ġ:**":4854,"ĠUK":4855,"arty":4856,"ĠMAN":4857,"iva":4858,"DEP":4859,"tah":4860,"ĠGRO":4861,"eek":4862,"278":4863,"ĠIP":4864,",.":4865,"Ġ224":4866,"None":4867,"Ġsym":4868,"ĠHel":4869,"Ġ330":4870,"norm":4871,"ifth":4872,"rend":4873,"uts":4874,"berg":4875,"277":4876,"enh":4877,"oted":4878,"enth":4879,"Ġvul":4880,"ĠCy":4881,"Ġaim":4882,"ĠMob":4883,"emy":4884,"Ġ189":4885,"ONE":4886,"ni":4887,"dur":4888,"Ġ238":4889,"276":4890,"Ġ197":4891,"Tra":4892,"UBL":4893,"880":4894,"Ø§Ø±":4895,"arr":4896,"asks":4897,"olic":4898,"Ed":4899,"Ġ275":4900,"Ġ322":4901,"tica":4902,"[[":4903,"Ġdra":4904,"286":4905,"ĠOcc":4906,"ĠVII":4907,"504":4908,"ĠÐ":4909,"1088":4910,"sen":4911,"820":4912,"ĠPop":4913,"plo":4914,"Ġ194":4915,"ZZ":4916,"func":4917,"HAP":4918,"Ġ196":4919,"Ġju":4920,"TP":4921,"FP":4922,"LAND":4923,"Ġrul":4924,"log":4925,"Net":4926,"314":4927,"Ver":4928,"Â£":4929,"RY":4930,"aria":4931,"âĢĿ.":4932,"905":4933,"wa":4934,"*)":4935,"quo":4936,"pes":4937,"cin":4938,"atio":4939,"ĠMer":4940,"rich":4941,".).":4942,"Ġ237":4943,"Ġrig":4944,"Ġ303":4945,"aho":4946,"ĠINS":4947,"ĠPH":4948,"manu":4949,"BP":4950,"eit":4951,"vin":4952,"GRIC":4953,"ĠDak":4954,"(\"":4955,"osen":4956,"VAL":4957,"Ġ304":4958,"cles":4959,"ĠDOD":4960,"arif":4961,"mers":4962,"Heal":4963,"336":4964,"503":4965,"ĠFA":4966,"262":4967,"rm":4968,"ICH":4969,"ui":4970,"365":4971,"339":4972,"Ġ313":4973,"348":4974,"From":4975,"JEC":4976,"505":4977,"nav":4978,"Ġ186":4979,"enty":4980,"eur":4981,"346":4982,"ĠTim":4983,"::::":4984,"ĠAer":4985,"ĠRat":4986,"One":4987,"Ġ219":4988,"ĠFe":4989,"Ġbag":4990,"363":4991,"oman":4992,"iche":4993,"mn":4994,"Ø°Ø§":4995,"ewal":4996,"owa":4997,"580":4998,"ĠWH":4999,"391":5000,"Ġ193":5001,"Ġuna":5002,"ja":5003,"680":5004,"Ġ255":5005,"Ġsi":5006,"Less":5007,"Ġ305":5008,"VES":5009,"440":5010,"025":5011,"PPE":5012,"insp":5013,"omy":5014,"best":5015,"mg":5016,"ĠNH":5017,"rapy":5018,"ĠBat":5019,"386":5020,"367":5021,"zy":5022,"604":5023,"occ":5024,"862":5025,"she":5026,"oli":5027,"Leg":5028,"ĠTur":5029,"364":5030,"Ġ405":5031,"ĠEG":5032,"Ø¨ÙĬ":5033,"ĠCoo":5034,"ĠDen":5035,"ghan":5036,"Ġ235":5037,"uba":5038,"332":5039,"OLOG":5040,"ĠSR":5041,"BILL":5042,"mate":5043,"loc":5044,"Ġcod":5045,"top":5046,"Ġ187":5047,"ĠFE":5048,"456":5049,"ĠEar":5050,"rick":5051,"Dr":5052,"366":5053,"ĠImp":5054,"cise":5055,"Ġ221":5056,"âĢĻ.":5057,"otia":5058,"ĠPow":5059,"Ob":5060,"430":5061,"362":5062,"uri":5063,"WK":5064,"970":5065,"Ġ``(":5066,"ĠWA":5067,"ĠMid":5068,"ILI":5069,"273":5070,"NR":5071,"fur":5072,"ĠNI":5073,"puls":5074,"TED":5075,"452":5076,"Ġ217":5077,"ewed":5078,"ĠÂ¶":5079,"ĠNEW":5080,"Ġfis":5081,"284":5082,"Year":5083,"ĠpH":5084,"ĠMas":5085,"BE":5086,"Ġace":5087,"Ġ601":5088,"cium":5089,"216":5090,"ums":5091,"334":5092,"phen":5093,"ECH":5094,"zer":5095,"Ġris":5096,"egu":5097,"272":5098,"menc":5099,"food":5100,"Ġ315":5101,"298":5102,"412":5103,"ollu":5104,"ĠOS":5105,"ĠEc":5106,"Ġvel":5107,"ORD":5108,"suer":5109,"deg":5110,"416":5111,"ARE":5112,"loro":5113,"Ġ209":5114,"Mod":5115,"bas":5116,"emn":5117,"iple":5118,"lla":5119,"271":5120,"Cent":5121,"338":5122,"291":5123,"385":5124,"315":5125,"219":5126,"SUMM":5127,"oot":5128,"NM":5129,"Ġ232":5130,"Ġ288":5131,"Ġ290":5132,"Ġ191":5133,"PX":5134,"Ġpic":5135,"ogs":5136,"CM":5137,"Ġbra":5138,"chit":5139,"Ġ308":5140,"ÙĪÙĨ":5141,"ux":5142,"701":5143,"217":5144,"Ġ351":5145,"High":5146,"hood":5147,"loor":5148,"lfur":5149,"uous":5150,"EF":5151,"287":5152,"ĠHAR":5153,"378":5154,"Pr":5155,"ĠRen":5156,"ĠPal":5157,"two":5158,"Î¼g":5159,"DF":5160,"846":5161,"Ġml":5162,"520":5163,"IAN":5164,"454":5165,"Ġbuy":5166,"293":5167,"ĠMal":5168,"gor":5169,"win":5170,"603":5171,"eles":5172,"ws":5173,"704":5174,"tifi":5175,"Very":5176,"ĠBS":5177,"La":5178,"ĠÂ©":5179,"ĠOwn":5180,"urop":5181,"ĠBet":5182,"606":5183,"Fur":5184,"ĠFol":5185,"ecut":5186,"ÙĩÙħ":5187,"his":5188,"490":5189,"Ques":5190,"358":5191,"Ġ416":5192,"Ġom":5193,"ĠPE":5194,"Ġ404":5195,"Ġ231":5196,"ĠARE":5197,"plos":5198,"WH":5199,"ĠHa":5200,"403":5201,"Ġpig":5202,"ĠHz":5203,"Pe":5204,"ĠSpe":5205,"',":5206,")),":5207,"ĠØ¯":5208,"499":5209,"607":5210,"Eff":5211,"char":5212,"Ġ307":5213,"ĠHIV":5214,"Ġaf":5215,"ĠSEQ":5216,"425":5217,"IONS":5218,"605":5219,"ĠUE":5220,"rue":5221,"ĠGO":5222,"ĠMag":5223,"342":5224,"URES":5225,"801":5226,"ĠSav":5227,"uth":5228,"mist":5229,"ĠBef":5230,"ELD":5231,"West":5232,"ĠMaj":5233,"Cap":5234,"ny":5235,"ubic":5236,"ĠEIS":5237,"Ġ424":5238,"cm":5239,"viv":5240,"349":5241,"AV":5242,"297":5243,"SM":5244,"ese":5245,"Ġ249":5246,"ĠØµ":5247,"388":5248,"ios":5249,"506":5250,"ĠDu":5251,"055":5252,"Ġ279":5253,"ĠHO":5254,"GC":5255,"into":5256,"uar":5257,"ÙĦØ¨":5258,"ĠBer":5259,"FER":5260,"379":5261,"ĠNev":5262,"868":5263,"kins":5264,"gs":5265,"Ġbig":5266,"leet":5267,"022":5268,"MY":5269,"TIF":5270,"282":5271,"Addi":5272,"env":5273,"APCL":5274,"Sum":5275,"nic":5276,"iary":5277,"ĠMa":5278,"some":5279,"ORK":5280,"yes":5281,"540":5282,"poss":5283,"riga":5284,"369":5285,"8203":5286,"ÙĪÙĦ":5287,".&":5288,"elig":5289,"807":5290,"Â±":5291,"Docu":5292,"pow":5293,"Ġ242":5294,"meat":5295,"1089":5296,"Ġ512":5297,"take":5298,"FOOD":5299,"ribe":5300,"075":5301,"074":5302,"Ġ309":5303,"ulty":5304,"359":5305,"ÃĹ":5306,"Mean":5307,"ike":5308,"YS":5309,"417":5310,"ĠImm":5311,"rog":5312,"ante":5313,"387":5314,"Ġ252":5315,"368":5316,"chen":5317,"Ġ233":5318,"NH":5319,"Ġrob":5320,"Ġson":5321,"Pri":5322,"2222":5323,"crit":5324,"Ro":5325,"ANY":5326,"502":5327,"emi":5328,"ados":5329,"-|":5330,"Ġsus":5331,"ito":5332,"ooks":5333,"cher":5334,"PROD":5335,"CV":5336,"cd":5337,"oon":5338,"620":5339,"ĠEr":5340,"gn":5341,"1974":5342,"Aver":5343,"985":5344,"444":5345,"ĠCAL":5346,"AK":5347,"Â·Â·":5348,"note":5349,"341":5350,"Ġpan":5351,"Ġ241":5352,"ĠSM":5353,"ĠLiv":5354,"Sm":5355,"ĊĊĠ":5356,"Ġ510":5357,"343":5358,"Code":5359,"Ð¾":5360,"lap":5361,"ĠSil":5362,"ĠTr":5363,"ĠHam":5364,"Ġap":5365,"tran":5366,"USE":5367,"ipi":5368,"Max":5369,"Pol":5370,"aped":5371,"SW":5372,"907":5373,"pack":5374,"AZ":5375,"Ø§Ø¡":5376,"??":5377,"prac":5378,"ĠCP":5379,"Ø§Ø¨":5380,"esty":5381,"ĠEas":5382,"\"(":5383,"TF":5384,":\\":5385,"osc":5386,"1989":5387,"ĠmL":5388,"esia":5389,"424":5390,"ente":5391,"~**":5392,"cip":5393,"map":5394,"Ġunf":5395,"389":5396,"Ġ807":5397,"ĠMad":5398,"990":5399,"bu":5400,"days":5401,"RTN":5402,"NASA":5403,"Ġago":5404,"361":5405,"Ġflo":5406,"cas":5407,"ĠALL":5408,"IDE":5409,"Ġ257":5410,"1074":5411,"Ġ430":5412,"ĠDJI":5413,"Ġ423":5414,"906":5415,"hear":5416,"384":5417,"ifts":5418,"spir":5419,"âĶ":5420,"mbol":5421,"kans":5422,";]":5423,"gat":5424,"Ġuns":5425,"AGE":5426,"ĠOpp":5427,"due":5428,"nat":5429,"054":5430,"465":5431,"ĠAre":5432,"Ġ246":5433,"lar":5434,"392":5435,"ued":5436,"Ind":5437,"864":5438,")âĢĿ":5439,"need":5440,"md":5441,"Ġult":5442,"Dock":5443,"Ġtha":5444,"cis":5445,"xbr":5446,"ruck":5447,"OLD":5448,")&#":5449,"ĠTri":5450,"ighl":5451,"CuAl":5452,"Tex":5453,"Rate":5454,"ĠMil":5455,"raul":5456,"oned":5457,"850":5458,"atom":5459,"Pa":5460,"ÙĦÙĤ":5461,"872":5462,"464":5463,"room":5464,"*\"":5465,"ared":5466,"609":5467,"fall":5468,"DATE":5469,"705":5470,"âĢķ":5471,"asma":5472,"805":5473,"Se":5474,"opes":5475,"446":5476,"ĠØ¬":5477,"stop":5478,"rued":5479,"RI":5480,"omo":5481,"Ġ356":5482,"ĠÂ«":5483,"Ġfi":5484,"Run":5485,"Over":5486,"Ġ278":5487,"323":5488,"Ġble":5489,"ĠVes":5490,"oro":5491,"rese":5492,"ĠCER":5493,"âĸł":5494,"ucky":5495,"377":5496,"ĠCam":5497,"inct":5498,"ele":5499,"ĠCa":5500,"Ġ271":5501,"Ġgat":5502,"ITS":5503,"Ġ274":5504,"415":5505,"ĠCla":5506,"itud":5507,"ĠUp":5508,"Che":5509,"ĠSTR":5510,"376":5511,"Ġtun":5512,"998":5513,"ĠDSK":5514,".'":5515,"volu":5516,"Â®":5517,"411":5518,"ryl":5519,",..":5520,"Pers":5521,"You":5522,"Ġ340":5523,"ians":5524,"TROL":5525,"ĠWin":5526,"plus":5527,"530":5528,"Ġje":5529,"ĠDan":5530,"atin":5531,"page":5532,"ĠKe":5533,"ila":5534,"bar":5535,"Ġpap":5536,"702":5537,"eds":5538,"both":5539,"feit":5540,"EMA":5541,"ssue":5542,"Ġmal":5543,"ÂŃ":5544,"loss":5545,"ĠLog":5546,"Ġ326":5547,"ĠEP":5548,"Ġ402":5549,"ĠNUM":5550,"orge":5551,"^^":5552,"1988":5553,"ĠRA":5554,"920":5555,"808":5556,"Ġhyp":5557,"cost":5558,"ju":5559,"374":5560,"war":5561,"Op":5562,"Fore":5563,"sl":5564,"Rel":5565,"mean":5566,"uish":5567,"umul":5568,"508":5569,"bank":5570,"Ġ298":5571,"Ġ229":5572,"benz":5573,"dev":5574,"024":5575,"epti":5576,"ĠOx":5577,"2500":5578,"Ġâī":5579,"ĠSi":5580,"VD":5581,"Ġmes":5582,"itis":5583,"Ġrou":5584,"ĠLos":5585,"720":5586,"ĠInf":5587,"944":5588,"ega":5589,"ĠFut":5590,"Ġmic":5591,"Ġhal":5592,"omar":5593,"Ġ289":5594,"Ġta":5595,"LEY":5596,"cove":5597,"968":5598,"rc":5599,"Ġrt":5600,"Land":5601,"Ġtor":5602,"Ġ420":5603,"443":5604,"coun":5605,"mino":5606,"What":5607,"Ġ256":5608,"321":5609,"YE":5610,"458":5611,"iams":5612,"Ġ263":5613,"Ġ248":5614,"975":5615,"Ġ425":5616,"cat":5617,"610":5618,"Ġ335":5619,"ĠIns":5620,"CAP":5621,"Ġfib":5622,"lock":5623,"eef":5624,"),*":5625,"ĠTyp":5626,"804":5627,"TIS":5628,"ĠAIR":5629,"Ġ285":5630,"326":5631,"904":5632,"SEL":5633,"457":5634,";**":5635,"806":5636,"rule":5637,"Cur":5638,"399":5639,"ĠREL":5640,"ĊĊĠĊ":5641,"INS":5642,"IDS":5643,"ĠTA":5644,"Ġ324":5645,"haps":5646,"Pt":5647,"448":5648,"rag":5649,"oul":5650,"abs":5651,"ĠNG":5652,"\":\"":5653,"%.":5654,"373":5655,"ĠDam":5656,"Ġ247":5657,"Ġ501":5658,"Ġ277":5659,"Mc":5660,"ĠSD":5661,"Ġ550":5662,"ĠLtd":5663,"Ġdro":5664,"ĠAF":5665,"Ġpin":5666,"cita":5667,"tims":5668,"âĶĤ":5669,"ZA":5670,"640":5671,"Ġ251":5672,"ICS":5673,"tend":5674,"0117":5675,"447":5676,"ĠCC":5677,"501":5678,"857":5679,"442":5680,"TERN":5681,"987":5682,"ÙĢÙĢ":5683,"453":5684,"ŃâĢķ":5685,"suit":5686,"ecim":5687,"ĠSN":5688,"507":5689,"osit":5690,"ĠDOT":5691,"383":5692,"Alth":5693,"does":5694,"ppen":5695,"(#":5696,"vor":5697,"ĠFer":5698,"egin":5699,"UST":5700,"eree":5701,"Ġ352":5702,"ky":5703,")[":5704,"Ġ820":5705,"Ġtar":5706,"708":5707,"San":5708,"isco":5709,"chem":5710,"760":5711,"ener":5712,"982":5713,"lee":5714,"Cer":5715,"Ġwes":5716,"ĠFUR":5717,"agne":5718,"Ġ334":5719,"Ġast":5720,"076":5721,"hind":5722,"uent":5723,"othe":5724,"SN":5725,"372":5726,"Miss":5727,"sU":5728,"555":5729,"ĠDat":5730,"čĊčĊ":5731,"Ġ502":5732,"Ġbad":5733,"469":5734,"Ġ254":5735,"upon":5736,"zed":5737,"maj":5738,"bic":5739,"SL":5740,"IGHT":5741,"cs":5742,"otic":5743,"ĠBu":5744,"BOR":5745,"660":5746,"Ðµ":5747,"462":5748,"0100":5749,"EG":5750,"Doc":5751,"488":5752,"ĠFre":5753,"*,":5754,"APH":5755,"alis":5756,"ERA":5757,"stat":5758,"VEL":5759,"Ġic":5760,"airy":5761,"PRI":5762,"757":5763,"910":5764,"FY":5765,"ĠNOR":5766,"pra":5767,"Ġum":5768,"rada":5769,"Ø±ÙĬ":5770,"VN":5771,"601":5772,"rost":5773,"Ġ552":5774,"Ġ390":5775,"Ġ456":5776,"ĠWal":5777,"Ġbid":5778,"Â¶":5779,"try":5780,"phas":5781,"bro":5782,"Meas":5783,"Qu":5784,"Ġ606":5785,"Ġ276":5786,"Ġaux":5787,"gi":5788,"ĠSea":5789,"Ġkm":5790,"Sa":5791,"cf":5792,"913":5793,"kers":5794,"VP":5795,"Ġ239":5796,"nam":5797,"Ġ244":5798,"1986":5799,"rine":5800,"tag":5801,"860":5802,"TACT":5803,"ĠCMS":5804,"leag":5805,"Ġ261":5806,"arl":5807,"drup":5808,"greg":5809,"Ġ417":5810,"ĠSy":5811,"ocy":5812,"085":5813,"468":5814,"vari":5815,"abin":5816,"PHIS":5817,"Ġ.,":5818,"risk":5819,"fegu":5820,"kes":5821,"anda":5822,"ping":5823,"1985":5824,"Sur":5825,"reun":5826,"imb":5827,"ĠDSE":5828,"fam":5829,"871":5830,"ĠDou":5831,"UF":5832,"986":5833,"Fr":5834,"Ġ411":5835,"766":5836,"Ġ332":5837,"Work":5838,"ĠWat":5839,"554":5840,"had":5841,"xy":5842,"rif":5843,"Ġtit":5844,"902":5845,"acon":5846,"570":5847,"451":5848,"Ġgap":5849,"yo":5850,"ropl":5851,"LOR":5852,"orph":5853,"459":5854,"=\\\"":5855,"ĠâĪ":5856,"Ġore":5857,"Ġgly":5858,"pop":5859,"anol":5860,"Some":5861,"cipl":5862,"Ġ264":5863,"Ġvit":5864,"296":5865,"Rule":5866,"Ġlif":5867,"ĠØ°":5868,"unit":5869,"ANGE":5870,"023":5871,"Ð°":5872,"ONS":5873,"Time":5874,"ONT":5875,"IZA":5876,"Ġreh":5877,"ayer":5878,"*.":5879,"fire":5880,"llor":5881,"ĠCF":5882,"TERS":5883,"ego":5884,"Ġ286":5885,"Ġ331":5886,"463":5887,"Ġ530":5888,";(":5889,"PV":5890,"pat":5891,"meet":5892,"!!":5893,"REG":5894,"mic":5895,"call":5896,"uct":5897,"Nov":5898,"Ġrub":5899,"5000":5900,"eas":5901,".âĢ¢":5902,"och":5903,"ĠEM":5904,"Emis":5905,"grow":5906,"ĠHHS":5907,"Ġkg":5908,"780":5909,"512":5910,"Joh":5911,"Tax":5912,"unte":5913,"OK":5914,"393":5915,"Ġcul":5916,"oday":5917,"gres":5918,"rols":5919,"ATT":5920,"ĠRF":5921,"deb":5922,"ÙħÙĨ":5923,"ĠDEC":5924,"Ġham":5925,"ĠÌĪ":5926,"bert":5927,"âĪ":5928,"rab":5929,"Ġ262":5930,"ĠØ´":5931,"irty":5932,"ĠGHG":5933,"Ha":5934,"Ġ292":5935,"ares":5936,"ĠDNA":5937,"nt":5938,"augh":5939,"cred":5940,"ĠCr":5941,"993":5942,"irma":5943,"He":5944,"ĠEur":5945,"oses":5946,"Ġ___":5947,"sell":5948,"jury":5949,"weal":5950,"575":5951,"LES":5952,"Â¥":5953,"open":5954,"903":5955,"MAR":5956,"Ġmel":5957,"Ġ243":5958,"Ġori":5959,"PG":5960,"Ã¸":5961,"ĠCY":5962,"ANA":5963,"072":5964,"Ġ265":5965,"Ġlea":5966,"Ġsn":5967,"449":5968,"467":5969,"Ġ@":5970,"ĠNow":5971,"048":5972,"HC":5973,"rape":5974,"Ġ323":5975,"861":5976,"ĠVAL":5977,"URCE":5978,"Ġïģ":5979,"Sign":5980,"lon":5981,"Cong":5982,"stry":5983,"466":5984,"spic":5985,"Ġ427":5986,"idad":5987,"630":5988,"558":5989,"ĠDHS":5990,"764":5991,"Can":5992,"ĉĉĉ":5993,"vii":5994,"rous":5995,"ĠMT":5996,"Ġnm":5997,"lare":5998,"Ġ329":5999,"rics":6000,"Ġ391":6001,"teen":6002,"max":6003,"USDA":6004,"UH":6005,"ĠTen":6006,"reci":6007,"ĠÃĹ":6008,"Ġmom":6009,"Ġpas":6010,"PPLE":6011,"Ġ295":6012,"Ġ||":6013,"\"\"":6014,"More":6015,"ORG":6016,"TRY":6017,"Ġoz":6018,"Ġstr":6019,"329":6020,"Ġ321":6021,"BD":6022,"ĠÃ¸":6023,"List":6024,"ĠSEN":6025,"Ġeye":6026,"Ġrod":6027,"027":6028,"Dur":6029,"rike":6030,"lam":6031,"size":6032,"PAT":6033,"Ãĭ":6034,"CU":6035,"ERE":6036,"Ġyes":6037,"ube":6038,"weet":6039,"ĠBAS":6040,"arie":6041,"812":6042,"ANG":6043,"bin":6044,"Ġ297":6045,"Ġ258":6046,"777":6047,"ped":6048,"ĠÙĭ":6049,"reon":6050,"Ġcu":6051,"COMP":6052,"784":6053,"oys":6054,"hous":6055,"sens":6056,"Ġ365":6057,"roly":6058,"Ġ(*":6059,"Ġcav":6060,"Ġ282":6061,"AMP":6062,"885":6063,"ĠJu":6064,"033":6065,"ĠFee":6066,"cust":6067,"AlAl":6068,"uble":6069,"Ġ359":6070,"NN":6071,"WL":6072,"Ġ408":6073,"ÙĦÙĨ":6074,"cked":6075,"Ġts":6076,"lets":6077,"ALTH":6078,"890":6079,"âĢĻ,":6080,"OT":6081,"Ġtot":6082,"(,..":6083,"ipel":6084,"2024":6085,"1980":6086,"709":6087,"AMS":6088,"989":6089,"umps":6090,"865":6091,"erts":6092,"ĠHUD":6093,"PXZZ":6094,"cut":6095,"chor":6096,"026":6097,"Ġ266":6098,"orse":6099,"ĠØ«":6100,"uum":6101,"294":6102,"976":6103,"Ġenj":6104,"*\"##":6105,"bed":6106,"cycl":6107,"441":6108,"Ġ272":6109,"ĠHig":6110,"Ġhom":6111,"1981":6112,"VIR":6113,"ĠHon":6114,"884":6115,"Ġ380":6116,"ocra":6117,"Ġ296":6118,"ISA":6119,"ĠWet":6120,"QUIR":6121,"ĠLLP":6122,"TAIN":6123,"gent":6124,"tima":6125,"Step":6126,"andy":6127,"Nat":6128,"Ġ750":6129,"ĠRev":6130,"475":6131,"ĠGE":6132,"quis":6133,"810":6134,"uced":6135,"DIC":6136,"ÙĬØ©":6137,"ERGY":6138,"That":6139,"740":6140,"nn":6141,"Ġ403":6142,"978":6143,"wes":6144,"ĠMac":6145,"PI":6146,"tw":6147,"Ġcau":6148,"Ġ259":6149,"iat":6150,"Ġcfs":6151,"Ġ328":6152,"uds":6153,"ĠGer":6154,"Ġ284":6155,"556":6156,"CKHH":6157,"069":6158,"onic":6159,"Ġ362":6160,"str":6161,"414":6162,"988":6163,"ĠSAF":6164,"765":6165,"ĠNJ":6166,"WI":6167,"ĠÏ":6168,"1987":6169,"YR":6170,"ias":6171,"Syst":6172,"977":6173,"984":6174,"Ġ294":6175,"CITA":6176,"Ġ499":6177,"ĠAsh":6178,"Ġsaw":6179,"ANN":6180,"Test":6181,"idge":6182,"ĠPs":6183,"VOC":6184,"LD":6185,"rio":6186,"ĠSI":6187,"ecta":6188,"RED":6189,"VID":6190,"Ġyel":6191,"dd":6192,"UA":6193,"olis":6194,"Ġ504":6195,"El":6196,"Ġ253":6197,"Ð¸":6198,"Ġven":6199,"ĠUSC":6200,"gges":6201,"sect":6202,"690":6203,"035":6204,"WO":6205,"Tran":6206,"Ġ506":6207,"ooth":6208,"Ġspa":6209,"prop":6210,"ĠGU":6211,"eip":6212,"549":6213,"548":6214,"625":6215,"real":6216,"ĠLED":6217,"461":6218,"Ġhat":6219,"ĠEF":6220,"GEN":6221,"ARDS":6222,"395":6223,"orea":6224,"656":6225,"Met":6226,"UK":6227,"inch":6228,"mp":6229,"ĠKey":6230,"ador":6231,"Ġwil":6232,"áº":6233,"991":6234,"710":6235,"695":6236,"fat":6237,"'-":6238,"door":6239,"Pur":6240,"inat":6241,"omew":6242,"Ġpad":6243,"ĠĊĠĊ":6244,"roxy":6245,"apes":6246,"`@":6247,"Ġ##":6248,"irit":6249,"ĠFAR":6250,"552":6251,"oves":6252,"evid":6253,"olar":6254,"916":6255,"ETY":6256,"cera":6257,"doll":6258,"768":6259,"rock":6260,"Ġnan":6261,"Ġ470":6262,"Ġmig":6263,"Ø§Øª":6264,"LI":6265,"666":6266,"eor":6267,"Requ":6268,"Ġ406":6269,"3000":6270,"tons":6271,"ĠRT":6272,"artz":6273,"Ġ281":6274,"770":6275,"ĠUA":6276,"1100":6277,"ĠDue":6278,"eing":6279,"Ġ370":6280,"han":6281,"ĠGPS":6282,"509":6283,"WIn":6284,"ĠAfr":6285,"Ġai":6286,"UAS":6287,"ĠØĮ":6288,"MN":6289,"981":6290,"Ġ269":6291,"rey":6292,"ĠFCC":6293,"Ġink":6294,"ĠSTA":6295,"HT":6296,"Bank":6297,"Ø§Ùħ":6298,"enza":6299,"dy":6300,"Ġ299":6301,"Ġpt":6302,"Ø¯ÙĬ":6303,"bour":6304,"URI":6305,"Ġ}":6306,"Ġash":6307,"dict":6308,"Ġcit":6309,"ĠTRE":6310,"Ġho":6311,"Ġtob":6312,"ÙĦØ¯":6313,"787":6314,"Fl":6315,"751":6316,"SCR":6317,"1200":6318,"itat":6319,"ĠJun":6320,"747":6321,"769":6322,"803":6323,"Ġïģ´":6324,"MMUN":6325,"Ġ268":6326,"Ġol":6327,"971":6328,"'re":6329,"Out":6330,"WD":6331,"arse":6332,"voke":6333,"608":6334,"ĠLab":6335,"irus":6336,"ĠRob":6337,"ĠPot":6338,"039":6339,"396":6340,"Ġhus":6341,"Del":6342,"idal":6343,"look":6344,"670":6345,"ĠAB":6346,"829":6347,"1500":6348,"ĠWAS":6349,"YL":6350,"ĠACT":6351,"CONT":6352,"ĠAmb":6353,"VL":6354,"His":6355,"ĠVeg":6356,"unk":6357,"754":6358,"oded":6359,"ando":6360,"stor":6361,"outs":6362,"VS":6363,"rene":6364,"Ġ**(":6365,"amps":6366,"Ġ505":6367,"una":6368,"ICK":6369,"bear":6370,"oler":6371,"Ġ480":6372,"789":6373,"har":6374,"Øº":6375,"four":6376,"][":6377,"1978":6378,"iral":6379,"rais":6380,"GRO":6381,"445":6382,"Ġbon":6383,"Ġbin":6384,"758":6385,"741":6386,"circ":6387,"._":6388,",**":6389,"Mark":6390,"Ġ267":6391,"itz":6392,"Ġ388":6393,"ÙĦÙģ":6394,"Ġ515":6395,"ĠVan":6396,"Oper":6397,"Ġ337":6398,"Ġ440":6399,"news":6400,"Ġgar":6401,"Ġ),":6402,"Ġ520":6403,"Ġhub":6404,"Supp":6405,"Lo":6406,"ĠUR":6407,"ĠRa":6408,"abol":6409,"Ġbio":6410,"zo":6411,"Ġpup":6412,"ipe":6413,"ln":6414,"Bal":6415,"748":6416,"js":6417,"ĠMus":6418,"Â©":6419,"fac":6420,"ĠFI":6421,"667":6422,"559":6423,"ĠPOL":6424,"Sim":6425,"1076":6426,"ĠDIR":6427,"Bi":6428,"Ġ412":6429,"809":6430,"same":6431,"DIS":6432,"CRA":6433,"Sam":6434,"**.":6435,"1984":6436,"ko":6437,"ĠTN":6438,"Ġ342":6439,",,,":6440,"422":6441,"fi":6442,"ysi":6443,"ĠEle":6444,"edy":6445,"anim":6446,"802":6447,"ĠBtu":6448,"0005":6449,"Gas":6450,"ĠKen":6451,"ĠEE":6452,"ORE":6453,"Ġ287":6454,"1970":6455,"Ġgun":6456,"047":6457,"Pen":6458,"poin":6459,"nce":6460,"OND":6461,"Ġgam":6462,"ean":6463,"9999":6464,"ĠDA":6465,"iday":6466,"CASE":6467,"Ġmac":6468,"ethe":6469,"ECHN":6470,"979":6471,"841":6472,"elve":6473,"858":6474,"Bec":6475,"ĠSyn":6476,".''":6477,"TOG":6478,"Te":6479,"Plan":6480,"rele":6481,"Cost":6482,"983":6483,"ĠBre":6484,"ĠVO":6485,"ĠIM":6486,"Ġct":6487,"plas":6488,"card":6489,"Ġlod":6490,"XT":6491,"ĠMC":6492,"MW":6493,"ĠAve":6494,"Ġbil":6495,"NJ":6496,"what":6497,"adel":6498,"fus":6499,"Ġvs":6500,"ĠWa":6501,"928":6502,"Ct":6503,"Ġ273":6504,"ORN":6505,"udes":6506,"].&#":6507,"Ġns":6508,"GL":6509,"0003":6510,"bill":6511,"ĠIMP":6512,"ĠSf":6513,"036":6514,"APP":6515,"WE":6516,"612":6517,"Ġsto":6518,"908":6519,"Ġ415":6520,"565":6521,"Equ":6522,"doc":6523,"Ġcli":6524,"OU":6525,"021":6526,"ĠIA":6527,"fect":6528,"Ġ293":6529,"Ġïģ¥":6530,"Ġ385":6531,"ĠFED":6532,"ĠAA":6533,"648":6534,"Ġrow":6535,"ÙĦØ´":6536,"BY":6537,"---|":6538,"!(":6539,"enic":6540,"566":6541,"Ġug":6542,"992":6543,"=&":6544,"SCH":6545,"edly":6546,"ĠØ®":6547,"Ġpy":6548,"xxxx":6549,"tier":6550,"1111":6551,"luor":6552,"edia":6553,"889":6554,"ĠEs":6555,",*":6556,"Ġ283":6557,"mann":6558,"box":6559,"045":6560,"ji":6561,"Ġhab":6562,"Est":6563,";]&#":6564,"ĠKn":6565,"930":6566,"CESS":6567,"Ġsul":6568,"anch":6569,"0113":6570,"FG":6571,"ĠTok":6572,"847":6573,"hex":6574,"pect":6575,"OAR":6576,"ĠSCR":6577,"acer":6578,"867":6579,"551":6580,"Ġ665":6581,"ĠUND":6582,"522":6583,"ĠJul":6584,"749":6585,"ĠMcC":6586,"781":6587,"Use":6588,"mods":6589,"rian":6590,"062":6591,"ĠLee":6592,"038":6593,"ÑĤ":6594,"557":6595,"Ġtab":6596,"Da":6597,"Ġ371":6598,"kin":6599,"ROE":6600,"ILLE":6601,"ĠOK":6602,"Ġ366":6603,"ĠCum":6604,";-":6605,"756":6606,"EMS":6607,"730":6608,"rang":6609,"742":6610,"thy":6611,"ĠAST":6612,"772":6613,"dura":6614,"0015":6615,"ogy":6616,"1082":6617,"ĠTC":6618,"435":6619,"aliz":6620,"Ġ339":6621,"uron":6622,"Ġrib":6623,"kly":6624,"Ġjo":6625,"your":6626,"gas":6627,"Ġ343":6628,"HI":6629,"ĠSUR":6630,"tid":6631,"997":6632,"Ġïĥ":6633,"Gl":6634,"994":6635,"432":6636,"SF":6637,"Qual":6638,"485":6639,"fers":6640,"raud":6641,"aser":6642,"778":6643,"GI":6644,"Cred":6645,"ĠFrm":6646,"ĠJkt":6647,"illa":6648,"067":6649,"ĠCt":6650,"Ġos":6651,"ĠFmt":6652,"Mont":6653,"ĠATT":6654,"quot":6655,"830":6656,"olo":6657,",]":6658,"516":6659,"icul":6660,"run":6661,"ULL":6662,"ani":6663,"Ġ508":6664,"safe":6665,"Ġ#'#":6666,"auce":6667,"bitr":6668,"ĠSF":6669,"zi":6670,"ĠSB":6671,"~~~~":6672,"761":6673,"ĠLOC":6674,"909":6675,"mond":6676,"phy":6677,"hala":6678,"aga":6679,"suc":6680,"JECT":6681,"tled":6682,";;":6683,"inyl":6684,"čĊč":6685,"hyde":6686,"767":6687,"Ġedi":6688,"++":6689,"ĠUpd":6690,"Ġpi":6691,"ĠIX":6692,"umns":6693,"563":6694,"Be":6695,"heat":6696,"rely":6697,"Will":6698,"\"),":6699,"ĠRh":6700,"ĠICR":6701,"ENTI":6702,"ĠHR":6703,"043":6704,"util":6705,"cu":6706,"919":6707,"Ġ540":6708,"bell":6709,"1087":6710,"acle":6711,"542":6712,"Ġot":6713,"Ġ375":6714,"Ġwon":6715,"ĠAge":6716,"TICE":6717,"pson":6718,"-,":6719,"ithm":6720,"pir":6721,"886":6722,"059":6723,"GP":6724,"Ret":6725,"651":6726,"fa":6727,"hema":6728,"Ġbol":6729,"Red":6730,"ĠPan":6731,"Ġune":6732,"NOTE":6733,"Web":6734,"515":6735,"eta":6736,"Ġtip":6737,"uta":6738,"743":6739,"week":6740,"Ġ364":6741,"MIT":6742,"STR":6743,"Of":6744,"ĠSex":6745,"Ġly":6746,"solu":6747,"Ø§Ø¯":6748,"quin":6749,"ĊĊĠĠ":6750,"879":6751,"IND":6752,"YY":6753,"066":6754,"Ġ346":6755,"Ter":6756,"ĠCLA":6757,"ĠIF":6758,"037":6759,"tick":6760,")&":6761,"CENT":6762,"511":6763,"924":6764,"553":6765,"Ġ460":6766,"053":6767,"Ġ347":6768,"VEST":6769,"ĠTw":6770,"ĠLat":6771,"cour":6772,"alid":6773,"uce":6774,"762":6775,"onia":6776,"ÙģÙĬ":6777,"547":6778,"ĠDEF":6779,"Ø§Ø¦":6780,"029":6781,"ĠSun":6782,"Ġphr":6783,"790":6784,"Add":6785,"Ġ291":6786,"Ġ338":6787,"WV":6788,"628":6789,"plac":6790,"433":6791,"Bud":6792,"ĠDIV":6793,"779":6794,"ĠALJ":6795,"ĠTY":6796,"ĠÂ»":6797,"Ġtum":6798,"duty":6799,"ĠHAP":6800,"ARA":6801,"922":6802,"Ġ564":6803,"472":6804,"gery":6805,"near":6806,"1900":6807,"ĠDig":6808,"pha":6809,"OPE":6810,"NEY":6811,"ATOR":6812,"Nebr":6813,"1083":6814,"Ġ414":6815,"ĠHA":6816,"ĠFAS":6817,"glas":6818,"ulta":6819,"adqu":6820,"inqu":6821,"Ġcoc":6822,"ppli":6823,"inue":6824,"eedl":6825,"763":6826,"oybe":6827,"IED":6828,"ĠRay":6829,"bid":6830,"===":6831,"Sept":6832,"ava":6833,"EY":6834,"CHAP":6835,"034":6836,"418":6837,"ĠMur":6838,"rav":6839,"ĠHy":6840,"ĠPB":6841,"ĠWL":6842,"ioni":6843,"oks":6844,"REE":6845,"WY":6846,"Ġcot":6847,"541":6848,"ĠEQU":6849,"Ġeat":6850,"525":6851,"ĠMP":6852,"ĠRiv":6853,"848":6854,"ĠWI":6855,"849":6856,"759":6857,"Det":6858,"ĠISO":6859,"base":6860,"664":6861,"oni":6862,"ortg":6863,"ĠNES":6864,"itly":6865,"562":6866,"0004":6867,"065":6868,"ya":6869,"ĠCAP":6870,"ĠDon":6871,"omob":6872,"arp":6873,"roe":6874,"INA":6875,"Ġ630":6876,"Ġ605":6877,"VOL":6878,"deal":6879,"err":6880,"Mill":6881,"Ġ357":6882,"Ġaz":6883,"ĠNAT":6884,"ppm":6885,"ĠIts":6886,"Ġped":6887,"USTR":6888,"585":6889,"($":6890,"ĠRD":6891,"Ġ431":6892,"Ġsir":6893,"426":6894,"olf":6895,"Ġcc":6896,"Ġfre":6897,"hors":6898,"vas":6899,"514":6900,"881":6901,"rt":6902,"ÙĦÙĪ":6903,"OMB":6904,"spa":6905,"-[":6906,")/":6907,"ala":6908,"KA":6909,"752":6910,"ĠWO":6911,"Ġreb":6912,"ĠPRE":6913,"exes":6914,"ØŃÙħ":6915,"Ġ447":6916,"EV":6917,"Loca":6918,"WP":6919,"ema":6920,"Ġee":6921,"ĠENG":6922,"783":6923,"419":6924,"ĠDid":6925,"ĠTop":6926,"658":6927,"Mo":6928,"shop":6929,"ĠPSD":6930,"iar":6931,"068":6932,"cill":6933,"ido":6934,"xbrl":6935,"aud":6936,"Ġ407":6937,"bra":6938,"ĠBou":6939,"HV":6940,"Ġtis":6941,"var":6942,"Sl":6943,"UJ":6944,"Har":6945,"apon":6946,"wind":6947,"427":6948,"ĠUSE":6949,"434":6950,"931":6951,"031":6952,"anup":6953,"Ġ418":6954,"ĠCN":6955,"046":6956,"gued":6957,"them":6958,"stud":6959,"icht":6960,"Ġ/>":6961,"ĠÌģ":6962,"tios":6963,"andw":6964,"ĠÎ¼m":6965,"ĉĠ":6966,"tate":6967,"Ġ444":6968,"Ġsun":6969,"044":6970,"Ġ422":6971,"izon":6972,"567":6973,"Ġesc":6974,"Ġ345":6975,"prim":6976,"428":6977,"WW":6978,"ĠDiv":6979,"anto":6980,"049":6981,"665":6982,"Ġ507":6983,"773":6984,"ĠQU":6985,"ĠFac":6986,"Ġwis":6987,"ĠJOH":6988,"ĠCAS":6989,"SIn":6990,"apta":6991,"oder":6992,")**(":6993,"phia":6994,"ĠBbl":6995,"uni":6996,"osme":6997,"Ġ610":6998,"685":6999,"Ð½":7000,"CENS":7001,"0400":7002,"ĠWed":7003,"042":7004,"ride":7005,"zzle":7006,"FM":7007,")âĢĵ":7008,"486":7009,"ĠBig":7010,"ĠSix":7011,"Ġwir":7012,"056":7013,"479":7014,"WAY":7015,"lick":7016,"ĠCas":7017,"Ġ378":7018,"PRM":7019,"Ins":7020,"utch":7021,"tia":7022,"adin":7023,"gets":7024,"ĠMap":7025,"ĠïĢ":7026,"071":7027,"Ġ602":7028,"atog":7029,"last":7030,"Ġ409":7031,"UDGE":7032,"ÙĦØ¬":7033,"ĠMOD":7034,"ryp":7035,"Ġmir":7036,"901":7037,"rome":7038,"CER":7039,"Ġ344":7040,"Ġram":7041,"Ġ801":7042,"ĠVa":7043,"Ġni":7044,"RR":7045,"ĠDD":7046,"OB":7047,"0002":7048,"tian":7049,"fg":7050,"APR":7051,"INC":7052,"ĠMN":7053,"ilia":7054,"064":7055,"HF":7056,"cens":7057,"find":7058,"Ġ432":7059,"hist":7060,"755":7061,"PERA":7062,"853":7063,"Ġgal":7064,"ĠDRA":7065,"ĠMM":7066,"mulg":7067,"Ġban":7068,"nors":7069,"IEF":7070,"tew":7071,"ĠFis":7072,"TIPS":7073,"ĠFBI":7074,"ĠLew":7075,"615":7076,"City":7077,"Our":7078,"Di":7079,"eld":7080,"radi":7081,"Ġvon":7082,"Port":7083,"Ġ560":7084,"NW":7085,"Unit":7086,"061":7087,"node":7088,"fuel":7089,"875":7090,"laps":7091,"Ġ(-":7092,"Ġhi":7093,"394":7094,"HD":7095,"596":7096,"524":7097,"496":7098,"Ġtex":7099,"438":7100,"NV":7101,"ĊĠĠĊ":7102,"ĠTB":7103,"ĠCE":7104,"oser":7105,"Ġunc":7106,"513":7107,"051":7108,"mil":7109,"Ġfax":7110,"ĠBen":7111,"$$":7112,"ĠPRA":7113,"emia":7114,"ULES":7115,"PUT":7116,"imp":7117,"Ġ421":7118,"842":7119,"641":7120,"CHAR":7121,"ĠAbs":7122,"Ġ862":7123,"Ġlob":7124,"ulin":7125,"887":7126,"771":7127,"fts":7128,"543":7129,"ÙĨÙĬ":7130,"1983":7131,"ĠBru":7132,"Ġ395":7133,"Kind":7134,"IME":7135,"647":7136,"ende":7137,"ENN":7138,"len":7139,",#":7140,"**)":7141,"Ø¸":7142,"'m":7143,"ĠAK":7144,"Inc":7145,"thqu":7146,";âĢĿ":7147,"ĠCV":7148,"ogue":7149,"ylum":7150,"ĠHor":7151,"iaz":7152,"517":7153,"086":7154,"pful":7155,"528":7156,"ĠCIR":7157,"ĠEXP":7158,"heet":7159,"odd":7160,"ĠHen":7161,"626":7162,"Fund":7163,"OFF":7164,"acit":7165,"057":7166,"cb":7167,"915":7168,"wy":7169,"**(":7170,"ĠNos":7171,"Rev":7172,"ĠCDC":7173,"veni":7174,"063":7175,"PORA":7176,"ÙħØ±":7177,"ĠPas":7178,"873":7179,"1800":7180,"ĊĉĊ":7181,"VERN":7182,"OWER":7183,"ACCP":7184,"883":7185,"iry":7186,"ONG":7187,"Fax":7188,"544":7189,"TEC":7190,"curs":7191,"Ġ413":7192,"eder":7193,"inea":7194,"ĠWay":7195,"ĠTER":7196,"REC":7197,"Dry":7198,"vene":7199,"ĠGa":7200,"ĠAZ":7201,"Mob":7202,"ĠAtl":7203,"ĠPes":7204,"ATH":7205,"856":7206,"step":7207,"liv":7208,"ĠACC":7209,"ĠEth":7210,"481":7211,";'":7212,"anth":7213,"712":7214,"041":7215,"421":7216,"true":7217,"Ġpiv":7218,"lif":7219,"ICAN":7220,"ĠDoD":7221,"ĠLC":7222,"Low":7223,"Such":7224,"lls":7225,"eady":7226,"Chem":7227,"ĠHg":7228,"932":7229,"idav":7230,">>":7231,"ulum":7232,"FAA":7233,"Ġ870":7234,"ĠâģĦ":7235,"ek":7236,"Gr":7237,"LS":7238,"ĠNV":7239,"073":7240,"713":7241,"564":7242,"MED":7243,"ïģĿ":7244,"udge":7245,"oven":7246,"ĠMen":7247,"ĠPb":7248,"pi":7249,"ĠWE":7250,"CB":7251,"Tenn":7252,"Ùĭ":7253,"word":7254,"Ġwid":7255,"Ġ720":7256,"fail":7257,"gal":7258,"ÙĦØ±":7259,"882":7260,"Ñģ":7261,"616":7262,"NP":7263,"546":7264,"Ġupl":7265,"Ġ349":7266,"mend":7267,"471":7268,"852":7269,"1103":7270,"ÙĦØ©":7271,"ARS":7272,"\").":7273,"ysts":7274,"473":7275,"Ġthi":7276,"KY":7277,"Ġlen":7278,"itry":7279,"PAC":7280,"592":7281,"437":7282,"568":7283,"ĠTE":7284,"abet":7285,"Ġfan":7286,"ĠMHz":7287,"ĠBRO":7288,"SUB":7289,"ĠCOC":7290,"642":7291,"925":7292,"lete":7293,"ĠÂ¥":7294,"397":7295,"Ste":7296,"edge":7297,"Ġons":7298,"imet":7299,"Ġ767":7300,"hig":7301,"Ġ730":7302,"ius":7303,"854":7304,"px":7305,"ĠFCA":7306,"ĠBon":7307,"NT":7308,"seud":7309,"arit":7310,"Ġpod":7311,"ĠWho":7312,"569":7313,"ĠAqu":7314,"laws":7315,"ĠJob":7316,"Ġ376":7317,"Ġ358":7318,"ĠMrs":7319,"662":7320,"sis":7321,"Ġdas":7322,"XML":7323,"634":7324,"Ġ363":7325,"624":7326,"ĠSS":7327,"Bas":7328,"pred":7329,"ANTS":7330,"Ġ353":7331,"ÙĦØ®":7332,"Pay":7333,"ses":7334,"Univ":7335,"Ġ435":7336,"Ã¤":7337,"675":7338,"536":7339,"adow":7340,"plom":7341,"INES":7342,"Ġ517":7343,"Ġ426":7344,"sex":7345,"ĠEA":7346,"iny":7347,"652":7348,"Ġ451":7349,"ymph":7350,"ADDR":7351,"SIP":7352,"Ġoc":7353,"912":7354,"Ġ396":7355,"COME":7356,"Ġlum":7357,"yg":7358,"imer":7359,"WC":7360,"âĢĻ)":7361,"495":7362,"ĠVic":7363,"Ġ620":7364,"orie":7365,"IEW":7366,"Ġ341":7367,"828":7368,"KER":7369,"oic":7370,"Ple":7371,"ĠBa":7372,"cop":7373,">\\":7374,"itig":7375,"bott":7376,"viii":7377,"vg":7378,"âī":7379,"bes":7380,"ÙĦØµ":7381,"ĠSqu":7382,"0012":7383,"'.":7384,"leic":7385,"otes":7386,"soc":7387,"927":7388,"ĠHo":7389,"ĠREM":7390,"Ġ441":7391,"Ġ650":7392,"ĠWR":7393,"Ġ428":7394,"HP":7395,"ĠEND":7396,"CED":7397,"933":7398,"ACC":7399,"DM":7400,"cue":7401,"Ġ445":7402,"032":7403,"ÙĤØ¯":7404,"ĠHou":7405,"HU":7406,"dam":7407,"Ġroy":7408,"Disc":7409,"*#":7410,"apt":7411,"ĠFF":7412,"don":7413,"Ġ383":7414,"Ġoun":7415,"mons":7416,"ĠXX":7417,"518":7418,"ĠHay":7419,"Si":7420,"Ġ524":7421,"FIGS":7422,"bud":7423,"omit":7424,"ulus":7425,"avor":7426,"ĠTay":7427,"larg":7428,"conf":7429,"728":7430,"0014":7431,"ĠFax":7432,"gre":7433,"JM":7434,"QQ":7435,"Ġwer":7436,"Ġ888":7437,"hs":7438,"ĠHot":7439,"ĠCe":7440,"mor":7441,"Ġtac":7442,"725":7443,"935":7444,"lama":7445,"Ø¥ÙĨ":7446,"ieve":7447,"ĠRod":7448,"538":7449,"Ð¾Ð":7450,"];":7451,"jo":7452,"ITER":7453,"Ġpla":7454,"Ġ604":7455,"519":7456,"ĠCI":7457,"ĠFS":7458,"fici":7459,"spi":7460,"ĠTS":7461,"ĠPo":7462,"533":7463,"kra":7464,"indr":7465,"onyl":7466,"494":7467,"Ġhed":7468,"Ġ348":7469,"./":7470,"Ġkid":7471,"orus":7472,"COUN":7473,"wer":7474,"UU":7475,"436":7476,"ĠTar":7477,"Ġ393":7478,"1084":7479,"SEQ":7480,"Ġ368":7481,"Ġ521":7482,"613":7483,"Main":7484,"Own":7485,"INO":7486,"614":7487,"892":7488,"Law":7489,"dale":7490,"1079":7491,"IFIC":7492,"735":7493,"814":7494,"098":7495,"869":7496,"ĠTom":7497,"esn":7498,"ĠOak":7499,"osol":7500,"ĠPap":7501,"oga":7502,"='":7503,"ĠGar":7504,"AGEM":7505,"527":7506,"oget":7507,"rink":7508,"code":7509,"Ġqui":7510,"ÃĨ":7511,"FONT":7512,"fely":7513,"ĠPor":7514,"cit":7515,"ĠCAM":7516,"elo":7517,"oly":7518,"Ġwt":7519,"ĠLAW":7520,"cils":7521,"Ġry":7522,"VC":7523,"Ġ511":7524,"Ġ382":7525,"Ġ384":7526,"ĠMIN":7527,"Ser":7528,"ĠMED":7529,"mas":7530,"BUR":7531,"ÙĪØ±":7532,"user":7533,")=":7534,"ague":7535,"]-":7536,"NAME":7537,"ĠUl":7538,"mile":7539,"ĠCro":7540,"ELEC":7541,"ĠNav":7542,"hma":7543,"Ġ498":7544,"1972":7545,"636":7546,"NL":7547,"pm":7548,"484":7549,"oln":7550,";:":7551,"Ġ490":7552,"ÙħØ¹":7553,"083":7554,"eck":7555,"Ġwo":7556,"668":7557,"431":7558,"Mich":7559,"ĠVAT":7560,"*&#":7561,"Ġhr":7562,"John":7563,"expl":7564,"Ã±":7565,"611":7566,"Ġ570":7567,"ĠCri":7568,"ipl":7569,"863":7570,"523":7571,"WASH":7572,"Ġ434":7573,"dry":7574,"Old":7575,"Ġ710":7576,"Ġ522":7577,"Ann":7578,"545":7579,"Ġorg":7580,"ĠNAS":7581,"URAL":7582,"taly":7583,"058":7584,"095":7585,"JO":7586,"mL":7587,"Ġmur":7588,"LU":7589,"Don":7590,"Ġ866":7591,"osh":7592,"Ġ514":7593,"DOE":7594,"649":7595,"0007":7596,"EDIT":7597,"RIN":7598,"Ġrac":7599,"ohyd":7600,"=.":7601,"534":7602,"AMA":7603,"Ġ361":7604,"DW":7605,"sing":7606,"Ġ513":7607,"ungs":7608,"Ġ701":7609,"526":7610,"âĢĻ;":7611,"Prim":7612,"1975":7613,"398":7614,"COD":7615,"ĠAid":7616,"rael":7617,"full":7618,"1979":7619,"478":7620,"Ġsac":7621,"0010":7622,"Pac":7623,"wat":7624,"Ġ554":7625,"657":7626,"ĠFAC":7627,"ĠPUR":7628,"phys":7629,"ALY":7630,"Ġ372":7631,"ipro":7632,"ĠWIN":7633,"Ġ503":7634,"NOR":7635,"561":7636,"Ø³Øª":7637,"ĠFM":7638,"535":7639,"476":7640,"627":7641,"ATEG":7642,"sem":7643,"ĠPAY":7644,"uma":7645,"show":7646,"Ġsid":7647,"ĠMul":7648,"Ġsin":7649,"dri":7650,"aims":7651,")\"":7652,"Back":7653,"anot":7654,"gpo":7655,"Ġ880":7656,"ĠTIT":7657,"DB":7658,"Ġ386":7659,"482":7660,"iley":7661,"659":7662,"tot":7663,"oil":7664,"Ġ374":7665,"TG":7666,"yers":7667,"Anot":7668,"sul":7669,",''":7670,"âĢĶ(":7671,"094":7672,"AU":7673,"hard":7674,"nas":7675,"Ġ373":7676,"Ġhet":7677,"Ġauc":7678,"Ġ419":7679,"VR":7680,"Ġwal":7681,"GAO":7682,"FORE":7683,"093":7684,"Ġ001":7685,"077":7686,"CAL":7687,"OI":7688,"NER":7689,"Å½":7690,"Ġ438":7691,"tox":7692,"ÑĢ":7693,"Ġhun":7694,"tl":7695,"923":7696,"ĠOJ":7697,"ĠOPP":7698,"IEC":7699,"477":7700,"Ġ596":7701,"onym":7702,"ĠXXX":7703,"ĠDer":7704,"bial":7705,"Ġ394":7706,"ĠSL":7707,"nc":7708,"1969":7709,"fisc":7710,"adl":7711,"Ġhur":7712,"429":7713,"646":7714,"ĠLes":7715,"five":7716,"QG":7717,"Ġdei":7718,"Post":7719,"TL":7720,"617":7721,"ĠISS":7722,"ĠEnh":7723,"ĠTob":7724,"ENTA":7725,"ĠFlu":7726,"van":7727,"ĠMW":7728,"Ġ436":7729,"irt":7730,"Ø¨Ø¯":7731,"599":7732,"ĠEQ":7733,"Ne":7734,"ĠAp":7735,"1976":7736,"ĠPul":7737,"ups":7738,"rr":7739,"ĠMIS":7740,"aux":7741,"ĠEgg":7742,"498":7743,"CLUS":7744,"Char":7745,"ĠGS":7746,"Sal":7747,"618":7748,"rays":7749,"IOR":7750,"TIES":7751,"715":7752,"ĠNSR":7753,"Ġ488":7754,"iers":7755,"Ġ379":7756,"084":7757,"TITU":7758,"Ġ457":7759,"aken":7760,"`!":7761,"813":7762,"Line":7763,"dig":7764,"Ã´":7765,"DES":7766,"tie":7767,"Lim":7768,"597":7769,"0006":7770,"Ġ437":7771,"ĠKel":7772,"Ġff":7773,"fine":7774,"878":7775,"Ġgel":7776,"CI":7777,"ĠSn":7778,"ĠNHS":7779,"`\"":7780,"essa":7781,"Ġbot":7782,"ANSP":7783,"532":7784,"OUNT":7785,"reds":7786,"Ġalt":7787,"Ġ830":7788,"655":7789,"Ġpil":7790,"Ġ872":7791,"Ġlie":7792,"!--":7793,"Ġ516":7794,"744":7795,"Ġ455":7796,"ĠBra":7797,"acqu":7798,"492":7799,"Ġ886":7800,"Ġ476":7801,"ansl":7802,"ĠMEM":7803,"<\\/":7804,"876":7805,"ĠJO":7806,"Ġ850":7807,"ĠCB":7808,"Ġ399":7809,"487":7810,"ĠTM":7811,"Ġ890":7812,"neum":7813,"586":7814,"Ġ(%)":7815,"1977":7816,"Ġ**&":7817,"iami":7818,"sulf":7819,"itol":7820,"rut":7821,"OLL":7822,"olv":7823,".\\":7824,"jus":7825,"otos":7826,"Ġfif":7827,"REEN":7828,"leep":7829,"622":7830,"omal":7831,"ĠPS":7832,"052":7833,"Ġ443":7834,"823":7835,"Ġkit":7836,"1110":7837,"dim":7838,"sE":7839,"ĠDEV":7840,"Ġ433":7841,"619":7842,"654":7843,"816":7844,"eded":7845,"CAS":7846,"QL":7847,"785":7848,"Bs":7849,"tmn":7850,"Ġtap":7851,"Ġwi":7852,"**~":7853,"753":7854,"alo":7855,"tigu":7856,"576":7857,"ÙĥØ±":7858,"Ġbes":7859,"nia":7860,"Ġov":7861,"ctua":7862,"722":7863,"638":7864,"onau":7865,"DOC":7866,"Ġ802":7867,"igen":7868,"burn":7869,"iduc":7870,"078":7871,"oody":7872,"Ġ377":7873,"(\"`@":7874,"623":7875,"ĠXI":7876,"Ġobs":7877,"NON":7878,"Ġ484":7879,"Ġpus":7880,"497":7881,"MWh":7882,"Pack":7883,"ela":7884,"669":7885,")}":7886,"584":7887,"Ġoak":7888,"ĠFar":7889,"ĠPit":7890,"088":7891,"Ġ442":7892,"Ġ586":7893,"Ġpal":7894,"ucle":7895,"FGD":7896,"Wil":7897,"iro":7898,":]":7899,"UI":7900,"Sw":7901,"736":7902,"721":7903,"ourn":7904,"arer":7905,"Ġ397":7906,"puty":7907,"YD":7908,"096":7909,"sche":7910,"sidy":7911,"Ġ446":7912,"Ġ(.":7913,"yan":7914,"Ġ477":7915,"oxin":7916,"rons":7917,"FW":7918,"ĠOmb":7919,"aked":7920,"079":7921,"rega":7922,"Aff":7923,"yt":7924,"Ġdin":7925,"Ġoo":7926,"521":7927,"IPS":7928,"Ġ897":7929,"082":7930,"Fe":7931,"827":7932,"Ġ**#":7933,"Ġ640":7934,"Ġza":7935,"493":7936,"umf":7937,"Ġ608":7938,"ĠHas":7939,"mid":7940,"Ġ525":7941,"Ġ367":7942,"Ġrid":7943,"/#":7944,"cha":7945,"CLUD":7946,"Ġ528":7947,"663":7948,"PF":7949,"Ġ465":7950,"ball":7951,"ĠArt":7952,"acre":7953,"aug":7954,"ĠReh":7955,"IVE":7956,"ĠVE":7957,"Ġole":7958,"ĠSBA":7959,"ĠMot":7960,"Ġ868":7961,"INAL":7962,"645":7963,"xi":7964,"Vs":7965,"FORM":7966,"pace":7967,"aten":7968,"@`":7969,"TSA":7970,"RIS":7971,"chan":7972,"ATS":7973,"eman":7974,"pula":7975,"rh":7976,"comp":7977,"1973":7978,"udul":7979,"ocus":7980,"ILED":7981,"ĠLIM":7982,"Ø¨Ø±":7983,"DEC":7984,"643":7985,"531":7986,"Ġwra":7987,"home":7988,"Ġ392":7989,"724":7990,"Ġ553":7991,"oyd":7992,"oen":7993,"Ġ389":7994,"835":7995,"898":7996,"474":7997,"595":7998,"-$":7999,"097":8000,"RD":8001,"FED":8002,"4444":8003,"Diff":8004,"688":8005,"pler":8006,"ÃĲ":8007,"439":8008,"AUTH":8009,"iora":8010,"Ġ398":8011,"Ġ615":8012,"Ġ475":8013,"089":8014,"QA":8015,"ĠHP":8016,"hall":8017,"agle":8018,"ĠIG":8019,"1600":8020,"\"'":8021,"urg":8022,"ENSE":8023,"Ġdog":8024,"Ġ555":8025,"ITAL":8026,"877":8027,"oled":8028,"ĠEll":8029,"Rest":8030,"Ø¹Ø¯":8031,"lob":8032,"born":8033,"ez":8034,"ĠHun":8035,"087":8036,"ĠNF":8037,"gue":8038,"Ġ702":8039,"ĠCot":8040,"Ġ625":8041,"Fact":8042,"Ġsor":8043,"vial":8044,")</":8045,"661":8046,"PORT":8047,"572":8048,"Ġ777":8049,"Ġ448":8050,"Soft":8051,"ĠCu":8052,"Ø¨ÙĪ":8053,"Ġ387":8054,"ĠMel":8055,"Ġ454":8056,"aby":8057,"BU":8058,"SUM":8059,"ĠMCA":8060,"unn":8061,"ORTA":8062,"Ġ930":8063,"AW":8064,"ĠOIG":8065,"Ġsrc":8066,"Hyd":8067,"859":8068,"483":8069,"EFF":8070,"ĠIce":8071,"Ġ592":8072,"ĠGAS":8073,"629":8074,"TIM":8075,"romo":8076,"Ġ[<":8077,"ØŃØ¯":8078,"Ġ612":8079,"hl":8080,"ownb":8081,"588":8082,"ĠLD":8083,"811":8084,"ĠAFF":8085,"Ġ541":8086,"ĠMit":8087,"ctur":8088,"745":8089,"718":8090,"644":8091,"775":8092,"SPS":8093,"Ġ369":8094,"Ġ703":8095,"633":8096,"ØªÙĩ":8097,"icks":8098,"Ġ660":8099,"sus":8100,"ĠML":8101,"sit":8102,"Ġ453":8103,"anz":8104,"Vi":8105,"Ġjur":8106,"izz":8107,"Ġ466":8108,"Ġ429":8109,"ede":8110,"ĠLP":8111,"Let":8112,"ĠGal":8113,"ĠGP":8114,"ĠCiv":8115,"EMP":8116,"bio":8117,"km":8118,"-\"":8119,"ĠSAL":8120,"dius":8121,"meta":8122,"825":8123,"rece":8124,"GAN":8125,"even":8126,"ĠØº":8127,"Fol":8128,"AEL":8129,"QJ":8130,"AI":8131,"Ġppb":8132,"ĠPMA":8133,"COMM":8134,"Ġnu":8135,"ĠSER":8136,"eros":8137,"solv":8138,"hi":8139,"0026":8140,"Bar":8141,"579":8142,"632":8143,"Coal":8144,"ĠWas":8145,"815":8146,"pete":8147,"neg":8148,"851":8149,"Ġaug":8150,"tur":8151,"OSS":8152,"653":8153,"081":8154,"Cle":8155,"Area":8156,"671":8157,"uter":8158,"Good":8159,"vd":8160,"733":8161,"Ġans":8162,"ĠHQ":8163,"quar":8164,"ĠTRA":8165,"ori":8166,"874":8167,"EET":8168,"UREG":8169,"ĠPLT":8170,"895":8171,"ĠOld":8172,"587":8173,"etal":8174,"Ġure":8175,"tite":8176,"IOD":8177,"714":8178,"Ġ580":8179,"0018":8180,"ĠNBS":8181,"udic":8182,"ĠCTA":8183,"many":8184,"ints":8185,"ophy":8186,"TW":8187,"0011":8188,"ïĢ©":8189,"ĠSTE":8190,"oner":8191,"822":8192,"676":8193,"tail":8194,"NUM":8195,"Ġ614":8196,"591":8197,"rica":8198,"855":8199,"Ø¨Ø§":8200,"Ġ###":8201,"672":8202,"Ġali":8203,"ĠCut":8204,"bk":8205,"Ã£":8206,"gest":8207,"ĠBM":8208,"agen":8209,"Ġ864":8210,"684":8211,"Ġ485":8212,"uate":8213,"icts":8214,"831":8215,"eri":8216,"635":8217,"Plus":8218,"HHHH":8219,"Ill":8220,"Ġhay":8221,"VY":8222,";)":8223,"GM":8224,"atte":8225,"911":8226,"598":8227,"ĠILL":8228,"rips":8229,"914":8230,"726":8231,"937":8232,"zyme":8233,"anit":8234,"698":8235,"583":8236,"826":8237,"rl":8238,"Ãĩ":8239,"717":8240,"VO":8241,"ĠAw":8242,"578":8243,"Ġ518":8244,"699":8245,"haz":8246,"FH":8247,"ĠBUR":8248,"921":8249,"Ġ458":8250,"abb":8251,"GIN":8252,"ãĢ":8253,"Now":8254,"3142":8255,"ĠTal":8256,"ĠKat":8257,")âĢĻ":8258,"Ġ486":8259,"Ġgy":8260,"UNC":8261,"Ġ468":8262,"ĠOC":8263,"Î±":8264,"ghly":8265,"rn":8266,"emb":8267,"%#":8268,"\\`":8269,"Mass":8270,"Ġii":8271,"inth":8272,"Ġmu":8273,"Ġith":8274,"ÙĥÙħ":8275,"tero":8276,"Ġ607":8277,"Ġ482":8278,"righ":8279,"si":8280,"Ġ478":8281,"ĠEu":8282,"gle":8283,"Gra":8284,"ÙĬØ¯":8285,"Ġ464":8286,"sci":8287,"rypt":8288,"ORTS":8289,"Ġay":8290,"esto":8291,"593":8292,"ĠBAR":8293,"571":8294,"ĠâĢĲ":8295,"geon":8296,"ĠHON":8297,"637":8298,"ĠSov":8299,"Ġ723":8300,"574":8301,"ĠRus":8302,"Ġ526":8303,"817":8304,"rels":8305,"RF":8306,"719":8307,"Ġ809":8308,"Ø¨ÙĨ":8309,"Chic":8310,"ynch":8311,"left":8312,"Ġ810":8313,"shar":8314,"ĠMSA":8315,"Ġ566":8316,"areh":8317,"ĠCBO":8318,"674":8319,"Aud":8320,"837":8321,"Cat":8322,"ĠArc":8323,"aus":8324,"ĠâĢ²":8325,"âĢı":8326,"ags":8327,"Site":8328,"ĠPak":8329,"Â§Â§":8330,"USA":8331,"926":8332,"Fuel":8333,"ĠBot":8334,"ipio":8335,"711":8336,"ĠLT":8337,"786":8338,"Ġ509":8339,"573":8340,"Ġï£":8341,"818":8342,"091":8343,"Soc":8344,"ĠRom":8345,"roid":8346,"OSH":8347,"ĠKil":8348,"ugar":8349,"ĠMes":8350,"ĠFla":8351,"mise":8352,"owl":8353,"EPT":8354,"Ġ534":8355,"ysis":8356,"577":8357,"ECD":8358,"Ġ883":8359,"833":8360,"Ø§Ùĩ":8361,"Ġ603":8362,"Ġ704":8363,"Ġ452":8364,"ĠIl":8365,"farm":8366,"Ġ492":8367,"Iden":8368,"rill":8369,"CAR":8370,"Ġ556":8371,"099":8372,"Ø¡":8373,"899":8374,"cook":8375,"Up":8376,"Ġafo":8377,"529":8378,"734":8379,"ÙĦØ«":8380,"IDA":8381,"Ġrc":8382,"ket":8383,"Ġeen":8384,"697":8385,"ĠJo":8386,"Pet":8387,"Ġ882":8388,"ĠAI":8389,"ĠET":8390,"UGH":8391,"ogic":8392,"Vir":8393,"Ġ804":8394,"oute":8395,"oids":8396,"ĠMcK":8397,"ĠSAN":8398,"hole":8399,"ĠNi":8400,"Ġbru":8401,"irms":8402,"ĠAQ":8403,"eval":8404,"ugi":8405,"ÙĦØ°":8406,"ajo":8407,"NET":8408,"Bro":8409,"uine":8410,"ïĤ§":8411,"rift":8412,".);":8413,"Ġ523":8414,"uns":8415,"quan":8416,"Ġ535":8417,"Ãı":8418,"ĠWhy":8419,"489":8420,"ĠLu":8421,"Ġsug":8422,"723":8423,"Ġ574":8424,"ewer":8425,")#":8426,"Ġ747":8427,"Bur":8428,"631":8429,"Ġ472":8430,"adop":8431,"adi":8432,"ĠTEX":8433,"797":8434,"692":8435,"ĠLI":8436,"ĠRH":8437,"CN":8438,"ait":8439,"Ġ439":8440,"GB":8441,"995":8442,";/":8443,"ully":8444,"Ġ462":8445,"Ġ497":8446,"Term":8447,"Two":8448,"Ġspp":8449,"0101":8450,"589":8451,"Sta":8452,"ĠâĹı":8453,"Ġ463":8454,"Tem":8455,"IAB":8456,"Bure":8457,"792":8458,"cho":8459,"Ġef":8460,"Ġjet":8461,"686":8462,"End":8463,"Ġ575":8464,"ista":8465,"een":8466,"UGS":8467,"ĠFat":8468,"ĠDOC":8469,"Ġ449":8470,"%%%%":8471,"inic":8472,"Ġlip":8473,"ofar":8474,"wash":8475,"Road":8476,"LIN":8477,"BACK":8478,"tz":8479,"Ġ715":8480,"CuCu":8481,"VIEW":8482,"Ġ547":8483,"694":8484,"Ġ519":8485,"ĠDM":8486,"emit":8487,"FORD":8488,"687":8489,"âĢĶ-":8490,"Ġ544":8491,"843":8492,"ĠLen":8493,"NGL":8494,"etpl":8495,"My":8496,"enne":8497,"airc":8498,"emph":8499,"Adv":8500,"VT":8501,"idae":8502,"ĠEFF":8503,"good":8504,"roch":8505,"ĠCMA":8506,"Ġ670":8507,"ĠHI":8508,"heds":8509,"Ġru":8510,"ece":8511,"Ġ495":8512,"cau":8513,"Coll":8514,"Ġ562":8515,"Econ":8516,"usda":8517,"746":8518,"anty":8519,"owns":8520,"jet":8521,";$":8522,"696":8523,"Ġhon":8524,"comb":8525,"wall":8526,"Ġci":8527,"){":8528,"ĠTa":8529,"ĠFH":8530,"918":8531,"CG":8532,"1971":8533,"Ġ474":8534,"Tel":8535,"soft":8536,"THOD":8537,"Base":8538,"678":8539,"ĠOl":8540,"CUIT":8541,"ĠPP":8542,"ĠSeg":8543,"Ġ740":8544,"Ġgi":8545,"ĠPD":8546,"REL":8547,"Lake":8548,"USS":8549,"Ġcru":8550,"wan":8551,"Pat":8552,"leng":8553,"621":8554,"rium":8555,"Stud":8556,"TIFF":8557,"716":8558,"SOL":8559,"OTH":8560,"Ġbip":8561,"MISS":8562,"anna":8563,"East":8564,"Long":8565,"inge":8566,"Ġ812":8567,"ĠUP":8568,"eti":8569,"RM":8570,"YN":8571,"824":8572,"AQ":8573,"TIV":8574,"lll":8575,"NEX":8576,"eiv":8577,"737":8578,"JJ":8579,"Ġ760":8580,"491":8581,"ĠMIL":8582,"ERVA":8583,"eger":8584,"pent":8585,"ĠSCC":8586,"ĠDEL":8587,"OPP":8588,"edu":8589,"oxid":8590,"elt":8591,"UNDS":8592,"EALS":8593,"Ġhit":8594,"ĠMg":8595,"897":8596,"hid":8597,"Ur":8598,"gers":8599,"NEI":8600,"677":8601,"ocio":8602,"Ġfu":8603,"ĠBB":8604,"pus":8605,"osta":8606,"ĠRED":8607,"olin":8608,"rote":8609,"eft":8610,"čĊĠ":8611,"NEW":8612,"Ġ579":8613,"838":8614,"rett":8615,",'":8616,"Ġ675":8617,"Ġ496":8618,"ĠHaw":8619,"ĠUT":8620,"938":8621,"Ġfas":8622,"Vis":8623,"Ġgau":8624,"Dear":8625,"rout":8626,"give":8627,"Ġ461":8628,"URR":8629,"Ø¦":8630,"ĠRam":8631,"Ġrab":8632,"wp":8633,"1001":8634,"REEK":8635,"Ġ803":8636,"OSI":8637,"092":8638,"Ġ699":8639,"guid":8640,"ĠSac":8641,"idif":8642,"judg":8643,"roga":8644,"795":8645,"esU":8646,"pot":8647,"ĠMAT":8648,"727":8649,"SID":8650,"VII":8651,"ĠLL":8652,"pu":8653,"pty":8654,"Ġlid":8655,"ĠčĊ":8656,"Ġ493":8657,"Ġ565":8658,"ĠLam":8659,"582":8660,"Ġhir":8661,"Peti":8662,"ĠEAS":8663,"ĠKY":8664,"Ġ611":8665,"imes":8666,"Ġinn":8667,"terg":8668,"nell":8669,"oalk":8670,"Ġ551":8671,"ĠOO":8672,"Mat":8673,"ĠRC":8674,"dat":8675,"tte":8676,"ARP":8677,"'ve":8678,"844":8679,"ĠRI":8680,"udi":8681,"did":8682,"732":8683,"Ġted":8684,"SEE":8685,"Ġea":8686,"Ġ706":8687,"cen":8688,"ĠCBI":8689,"JA":8690,"ami":8691,"ĠBEN":8692,"1073":8693,"kee":8694,"Ġ667":8695,"ĠBUL":8696,"keys":8697,"OME":8698,"fas":8699,"cz":8700,"Ġ487":8701,"nie":8702,"Ġ746":8703,"iffs":8704,"$/":8705,"Ġist":8706,"Ps":8707,"Ġvig":8708,"gom":8709,"fied":8710,"Ġ545":8711,"738":8712,"prob":8713,"673":8714,"sup":8715,"934":8716,"Hood":8717,"iger":8718,"Ġpra":8719,"duit":8720,"Ġ770":8721,"Ġ536":8722,"hn":8723,"Ġâĸ":8724,"obic":8725,"vian":8726,"TOM":8727,"RNA":8728,"ĠLin":8729,"ïĢł":8730,"Ċĉ":8731,"Cust":8732,"HIB":8733,"opin":8734,"fut":8735,"ĠSAM":8736,"ĠCou":8737,"Ġ860":8738,"targ":8739,"Ġpel":8740,"FINI":8741,"ĠSSA":8742,"imm":8743,"Ġlev":8744,"Last":8745,"Ġ537":8746,"mune":8747,"orig":8748,"Ġ546":8749,"Ġbel":8750,"ĠLAB":8751,"OUT":8752,"1075":8753,"Ġ471":8754,"Gro":8755,"Il":8756,"ĠNET":8757,"Ġ533":8758,"ĠNit":8759,"Ġ622":8760,"las":8761,"1300":8762,"LV":8763,"Ġ494":8764,"Flor":8765,"1098":8766,"Ġ527":8767,"832":8768,"794":8769,"776":8770,"town":8771,"ÙĪÙħ":8772,"dest":8773,"896":8774,"TB":8775,"796":8776,"KG":8777,"682":8778,"Ġ481":8779,"lax":8780,"lter":8781,"Ġzu":8782,"2100":8783,"Ġ`":8784,"Ġces":8785,"Ġber":8786,"Rich":8787,"ĠHur":8788,"ITT":8789,"Ġ735":8790,"Sci":8791,"rews":8792,"Ġ707":8793,"Ġ583":8794,"Ġ459":8795,"Exp":8796,"Ġosc":8797,"ĠTAX":8798,"Sod":8799,"ugal":8800,"Ġcad":8801,"ĠØ·":8802,"Ġ613":8803,"793":8804,"yeth":8805,"LISH":8806,"845":8807,"ĠGT":8808,"798":8809,"1968":8810,"onav":8811,"insu":8812,"poll":8813,"Ġmam":8814,"away":8815,"Ġ529":8816,"Fam":8817,"rows":8818,"orce":8819,"Ġ467":8820,"HM":8821,"ĠBlu":8822,"bul":8823,"âĢĿ;":8824,"tems":8825,"ĠEFS":8826,"ĠFel":8827,"-_":8828,"Ġva":8829,"581":8830,"iian":8831,"799":8832,"894":8833,"Ġ531":8834,"DV":8835,"Ġhex":8836,"XXX":8837,"1400":8838,"ĠRub":8839,"mix":8840,">.":8841,"Ġ549":8842,"TRAC":8843,"Ren":8844,"ERY":8845,"639":8846,"ĠBow":8847,"aden":8848,"Ġ469":8849,"sten":8850,"eras":8851,"dock":8852,"ÙĩÙĪ":8853,"Ġrd":8854,"996":8855,"vern":8856,"0030":8857,"Ġ636":8858,"Comp":8859,"ÙĤÙĬ":8860,";</":8861,"img":8862,"Ġ532":8863,"Â¿":8864,"ĠESP":8865,"Ġect":8866,"ocat":8867,"NRC":8868,"Ġ,\"":8869,"Ġ616":8870,"orms":8871,"ĠGDP":8872,"She":8873,"0200":8874,"ISO":8875,"},":8876,"JOH":8877,"Fre":8878,"0131":8879,"834":8880,"ĠĊĊĊ":8881,"rev":8882,"War":8883,";\\":8884,"omis":8885,"Ġals":8886,"Ġlap":8887,"onte":8888,"Ġ542":8889,"roke":8890,"ĠQue":8891,"ello":8892,"Also":8893,"ais":8894,"ĠKar":8895,"821":8896,"Her":8897,"lett":8898,"tha":8899,"onna":8900,"/.":8901,"Ġemp":8902,"nity":8903,"693":8904,"ecur":8905,"BBB":8906,"ppor":8907,"ĠAV":8908,"Ġ588":8909,"LICA":8910,"Nav":8911,"ĠFC":8912,"ono":8913,"ilet":8914,"merg":8915,"vier":8916,"}.":8917,"Ġrin":8918,"ĠFab":8919,"ĠBA":8920,"bury":8921,"ABIL":8922,"Ġ737":8923,"WM":8924,"ĠMut":8925,"NF":8926,"Ġads":8927,"ĠCRA":8928,"ĠEO":8929,"689":8930,"gaap":8931,"repl":8932,"ao":8933,"Ġ572":8934,"ĠRM":8935,"ĠRS":8936,"rod":8937,"ĠRap":8938,"cend":8939,"stal":8940,"Fil":8941,"Ġ-$":8942,"ĠRd":8943,"Ġ664":8944,"Sel":8945,"Ġ617":8946,"Ġå":8947,"SAN":8948,"Ġ483":8949,"ĠRog":8950,"819":8951,"ĠÎ´":8952,"oj":8953,"Ãī":8954,"Ġ705":8955,"HEAD":8956,"GH":8957,"RET":8958,"ĠEIA":8959,"ĠTun":8960,"Thus":8961,"Ġ950":8962,"CLE":8963,"etor":8964,"ĠExt":8965,"ARC":8966,"ĠMol":8967,"urst":8968,"Ġud":8969,"ANE":8970,"ĠDow":8971,"DATA":8972,"ĠANN":8973,"ĠTV":8974,"rell":8975,"ĠBus":8976,"Ġ473":8977,"Ġ910":8978,"cn":8979,"929":8980,"OV":8981,"ĠRMP":8982,"atil":8983,"aryl":8984,"893":8985,"ESC":8986,"ĠEMP":8987,"Ġ725":8988,"Ġ479":8989,"rage":8990,"Ġ680":8991,"ppy":8992,"pel":8993,"KR":8994,"feed":8995,"pea":8996,"ĠEV":8997,"fare":8998,"GN":8999,"mont":9000,"âĢ²-":9001,"Ġ543":9002,"Mex":9003,"Ġcup":9004,"Ġiv":9005,"ĠCW":9006,"Ġ813":9007,"ILLI":9008,"Ġarc":9009,"ampa":9010,"orte":9011,"Ġdim":9012,"Ton":9013,"ĠMi":9014,"ARES":9015,"ĠÄ":9016,"giv":9017,"aul":9018,"Ġ892":9019,"ĠCCR":9020,"ĠOt":9021,"Ġ489":9022,"DRA":9023,"Most":9024,"788":9025,"782":9026,"Ġ624":9027,"ĠHum":9028,"ĠBag":9029,"679":9030,"Ġ874":9031,"Key":9032,"adas":9033,"onel":9034,"ku":9035,"Ġ548":9036,"sale":9037,"MON":9038,"oes":9039,"bles":9040,";\"":9041,"Ġpu":9042,"EUR":9043,"ENC":9044,"Fs":9045,"ingh":9046,"Ġopt":9047,"ald":9048,"Ġ538":9049,"RP":9050,"836":9051,"ISE":9052,"ĠÎ±":9053,"SY":9054,"Ġ628":9055,"Ġ539":9056,"ĠSuc":9057,"ULF":9058,"774":9059,"Ċĉĉ":9060,"ĠHM":9061,"Vari":9062,"ĠDI":9063,"ĠEmb":9064,"iode":9065,"936":9066,"Ġ668":9067,"ĠBio":9068,"EPH":9069,"ĠKit":9070,"Ġ585":9071,"PDES":9072,"Ġate":9073,"TICS":9074,"BEL":9075,"Hous":9076,"ĠNeg":9077,"Ġeg":9078,"Ġove":9079,"ITZ":9080,"ĠOCS":9081,"Ġ561":9082,"ÙĬÙĩ":9083,"Care":9084,"irk":9085,"MMON":9086,"dot":9087,"_`":9088,"tel":9089,"ÅĤ":9090,"ELS":9091,"Li":9092,"Hist":9093,"mog":9094,"AAAA":9095,"leas":9096,"UV":9097,"svg":9098,"Ġ840":9099,"ĠNPS":9100,"KL":9101,"uten":9102,"ĠPFF":9103,"urse":9104,"ĠFGD":9105,"mob":9106,"ICO":9107,"Ø±Ø¬":9108,"STE":9109,"```":9110,"ĠOw":9111,"ĠCOL":9112,"mode":9113,"BERT":9114,"731":9115,"grid":9116,"lit":9117,"Ġ578":9118,"QR":9119,"ĠWr":9120,"Vers":9121,"ĠTP":9122,"ivan":9123,"veal":9124,"ĠMAY":9125,"683":9126,"Pot":9127,"ĠHD":9128,"ĠIRA":9129,"ĠAu":9130,"Ø±Ø¨":9131,"Wet":9132,"Ġ576":9133,"Ġ582":9134,"ycle":9135,"ĠÂ¿":9136,"eda":9137,"Ġ558":9138,"0023":9139,"Ġ728":9140,"Ø§Ø¹":9141,"ĠYES":9142,"seen":9143,"Ġ708":9144,"ĠFo":9145,"839":9146,"Ġ712":9147,"Ġ609":9148,"Ġ559":9149,"ĠFIR":9150,"ĠICE":9151,"race":9152,"File":9153,"irs":9154,"aer":9155,".)(":9156,"ĠSOP":9157,"('":9158,"Ġlub":9159,"691":9160,"Ġ557":9161,"arel":9162,"olat":9163,"=\"#":9164,"Ġlar":9165,"ĠOWN":9166,"ĠLoc":9167,"Ġ808":9168,"ĠBUS":9169,"ĠSod":9170,"Omit":9171,"ilib":9172,"regs":9173,"Ġ876":9174,"ĠNEI":9175,"uffs":9176,"uit":9177,"Manu":9178,"ĠrH":9179,"\\/\\/":9180,"Ø±Ø©":9181,"oirs":9182,"dise":9183,"draw":9184,"Ġlam":9185,"rax":9186,"Ġ626":9187,"rred":9188,"681":9189,"anet":9190,"ĠYel":9191,"ĠTow":9192,"FAC":9193,"Ð»":9194,"Ġein":9195,"Tr":9196,"Åĵ":9197,"KH":9198,"Ġ618":9199,"wet":9200,"xt":9201,"ĠWAT":9202,"obe":9203,"Ġ627":9204,"ĠGil":9205,"ARED":9206,"Ġcoh":9207,"Ø£ÙĨ":9208,"Ġ623":9209,"imiz":9210,"ĠTor":9211,"Ġ745":9212,"chi":9213,"pag":9214,"cond":9215,"Next":9216,"Ġ632":9217,"They":9218,"mus":9219,"ĠRNA":9220,"sets":9221,"aws":9222,"ĠBAY":9223,"Self":9224,"olia":9225,"Ġfun":9226,"Ġ676":9227,"/\"":9228,"Go":9229,"1745":9230,"IZE":9231,"zero":9232,"enes":9233,"mu":9234,"coal":9235,"Ġfus":9236,"Ġcos":9237,"Ġvou":9238,"city":9239,"muni":9240,"_.":9241,"0013":9242,"0008":9243,"VU":9244,"Prop":9245,"ĠOW":9246,"lays":9247,"uiti":9248,"Br":9249,"Ø§Ùģ":9250,"ĠTi":9251,"IBER":9252,"Ġ911":9253,"ENE":9254,"ĠTF":9255,"Ġdip":9256,"Ġemo":9257,"ÙĦØ·":9258,"him":9259,"ĠDyn":9260,"LAS":9261,"rob":9262,"ĠDFO":9263,"PRE":9264,"ĠCRO":9265,"ĠJim":9266,"Ġcig":9267,"ĠPLA":9268,"Ġgir":9269,"IBLE":9270,"Bo":9271,"Ġ901":9272,"nedy":9273,")**)":9274,"ECA":9275,"Ġdia":9276,"endo":9277,"raqi":9278,"Fair":9279,"Ġ920":9280,"LETE":9281,"ĠLas":9282,"Ġinh":9283,"mst":9284,"ĠTru":9285,"Spr":9286,"729":9287,"'d":9288,"olph":9289,"ĠWY":9290,"NING":9291,"eto":9292,"WKH":9293,"Ġ806":9294,"Ġ713":9295,"ÃĿ":9296,"Ġ721":9297,"Risk":9298,"Ġ696":9299,"Ġ635":9300,"Ġpit":9301,"2200":9302,"Inst":9303,"ĠMAC":9304,"trus":9305,"css":9306,"Ġ690":9307,"FRA":9308,"PERS":9309,"tri":9310,"Ġ811":9311,"Ġger":9312,"Stat":9313,"ĠFly":9314,"Ġ-->":9315,"FAR":9316,"Ġ621":9317,"ĠARP":9318,"kl":9319,"Ġjun":9320,"ĠÃĨ":9321,"sla":9322,"ĠEsc":9323,"ĠDeg":9324,"Ġ714":9325,"AAA":9326,"sto":9327,"web":9328,"Sou":9329,"OST":9330,"ĠRu":9331,"rail":9332,"tles":9333,"KING":9334,"obs":9335,"Ġ594":9336,"891":9337,"HAL":9338,"IPAL":9339,"ÃĪ":9340,"Ġio":9341,"ilic":9342,"791":9343,"quer":9344,"Ġ655":9345,"eden":9346,"CFSP":9347,"Sol":9348,"ĠCAC":9349,";#":9350,"ĠOUT":9351,"Only":9352,"QC":9353,"Ġ648":9354,"((":9355,"Ø¤":9356,"AMES":9357,"Ġ595":9358,"derg":9359,"bine":9360,"sure":9361,"ĠMIC":9362,"]:":9363,"Carb":9364,"Ãł":9365,"REEM":9366,"Ġ563":9367,"ockp":9368,"ĠOs":9369,"GAL":9370,"Ġ940":9371,"Ġ666":9372,"Ġ637":9373,"Occ":9374,"'ll":9375,"wit":9376,"Ġ902":9377,"Ġere":9378,"Ġ884":9379,"ENG":9380,"ĠFem":9381,"Ġ878":9382,"HY":9383,"Fort":9384,"ĠMak":9385,"aire":9386,"Ġ491":9387,"Ġln":9388,"ĠMER":9389,"ĠTuc":9390,"OX":9391,"Ġcen":9392,"asts":9393,"sthe":9394,"GU":9395,"edby":9396,"imo":9397,"seed":9398,"Ġ716":9399,"ledg":9400,"Ġ573":9401,"ÙĪØ¯":9402,"Ġ814":9403,"ĠCBP":9404,"olet":9405,"ATUS":9406,"terl":9407,"ĠGib":9408,"Ġ904":9409,"ĠTes":9410,"Ġ645":9411,":.":9412,"Ġmit":9413,"dose":9414,"ĠJac":9415,"thur":9416,"PUBL":9417,"Ġ599":9418,"HAM":9419,"tinc":9420,"Ġ571":9421,"ĠMCC":9422,"COL":9423,"Bel":9424,"1700":9425,"Whe":9426,"irie":9427,"Mor":9428,"emen":9429,"inua":9430,"Ġ727":9431,"VED":9432,"NOx":9433,"939":9434,"Fem":9435,"ĠJoa":9436,"arry":9437,"igr":9438,"haus":9439,"AIDS":9440,"ĠSAC":9441,"EPI":9442,"cou":9443,"etch":9444,"ĠANY":9445,"VV":9446,"Ġ\"[":9447,"LT":9448,"Ġ591":9449,"Ġey":9450,"vell":9451,"4000":9452,"clim":9453,"Os":9454,"ĠPI":9455,"Tur":9456,"ĠCz":9457,"phur":9458,"Ġ080":9459,"want":9460,"Ġgri":9461,"IFE":9462,"Ġ656":9463,"hels":9464,"squ":9465,"OLU":9466,"enzo":9467,"EIS":9468,"rov":9469,"ORA":9470,"ĠAW":9471,"much":9472,"ĠUpb":9473,"idin":9474,"uls":9475,"AE":9476,"ĠTSA":9477,"APPL":9478,"tty":9479,"1967":9480,"Ġ654":9481,"ĠLib":9482,"ĠAdm":9483,"rot":9484,"Ġvo":9485,"exch":9486,"2300":9487,"Ham":9488,"Ø¹Ø¹":9489,"ĠGL":9490,"core":9491,"pin":9492,"nl":9493,"Ġsat":9494,"739":9495,"VIII":9496,"aner":9497,"ÃĦ":9498,"prec":9499,"NOT":9500,"Ġ584":9501,"athy":9502,"rets":9503,"ĠNic":9504,"DAT":9505,"ĠCPU":9506,"ika":9507,"ĠWAR":9508,"LRQ":9509,"1290":9510,"fic":9511,"ASK":9512,"ĠFEM":9513,"Ġ638":9514,"Ġfru":9515,"ĠSET":9516,"pton":9517,"CLA":9518,"ĠMu":9519,"SETS":9520,"TU":9521,"Age":9522,"ĠBOX":9523,"agon":9524,"ĠEt":9525,"rugg":9526,"ĠØ²":9527,"acf":9528,"llo":9529,"spe":9530,"Ġ568":9531,"Mary":9532,"Art":9533,"ĠPDF":9534,"typ":9535,"reli":9536,"Rad":9537,"Here":9538,"tivo":9539,"Ġ577":9540,"ALDE":9541,"ä¸":9542,"sea":9543,"ÙİÙĳ":9544,"aset":9545,"efin":9546,"OGO":9547,"LAN":9548,"0110":9549,"PPER":9550,"GUE":9551,"Ġ633":9552,"Ġ010":9553,"ĠLy":9554,"ĠOB":9555,"Ca":9556,"Ir":9557,"Ġ906":9558,"ĠÃĬ":9559,"(&":9560,"ORDS":9561,"Ġspl":9562,")+":9563,"Ġhop":9564,"ENDS":9565,"assy":9566,"nial":9567,"otoc":9568,"Ġspr":9569,"BBBB":9570,"Ġ722":9571,"ĠRIN":9572,"rer":9573,"Ġusa":9574,"OCA":9575,"ĠMB":9576,"axis":9577,"Ã°":9578,"ĠEp":9579,"QP":9580,"ĠYet":9581,"Ġ924":9582,"ucl":9583,"Ġ681":9584,"RUP":9585,"Ãº":9586,"2030":9587,"Ġ002":9588,"NESS":9589,"hosp":9590,"AO":9591,"ĠMET":9592,"stac":9593,"Ġ805":9594,"six":9595,"Ġ718":9596,"Ġ587":9597,"Ġmfg":9598,";_":9599,"ĠCre":9600,"ĠWV":9601,"Ġsz":9602,"Ġ941":9603,":-":9604,"NSON":9605,"ĠPV":9606,"ĠDP":9607,"VAIL":9608,"Ġ598":9609,"Stro":9610,"ĠDAY":9611,"ĠPla":9612,"nih":9613,"'&#":9614,"Ġ646":9615,"BUS":9616,"Ġ684":9617,"iced":9618,"lot":9619,"apac":9620,"Cr":9621,"Mid":9622,"0058":9623,"Ġ619":9624,"Ġ790":9625,"leb":9626,"Ġ567":9627,"fix":9628,"6000":9629,"bow":9630,"Ġ**$":9631,"rosc":9632,"Ġ780":9633,"Fire":9634,"Ġ641":9635,"Rock":9636,"ERT":9637,"Dem":9638,"ĠLuc":9639,"ĠASC":9640,"Ġtil":9641,"ï£":9642,"ĠOIL":9643,"URY":9644,"ĠUni":9645,"FB":9646,"bery":9647,"rott":9648,"ĠWit":9649,"uj":9650,"ĠĠĊĊ":9651,"ARK":9652,"illi":9653,"wear":9654,"ESID":9655,"pg":9656,"TRUC":9657,"ĠSud":9658,"VM":9659,"crep":9660,"ĠSti":9661,"pyr":9662,"Ġ724":9663,"Many":9664,"rg":9665,"kele":9666,"ĠÂŃ":9667,"vinc":9668,"Open":9669,"cash":9670,"âĹ":9671,"ĠRio":9672,"ĠØ¶":9673,"ĠLik":9674,"Oil":9675,"NES":9676,"ĠWIL":9677,"ĠDDD":9678,"ĠSym":9679,"ĠSUP":9680,"1003":9681,"ĠIng":9682,"Ġ688":9683,"Haz":9684,"UMAN":9685,"ĠUJ":9686,"ĠOGO":9687,"IMAL":9688,"ĠHC":9689,"Hon":9690,"DAY":9691,"ÙĬÙħ":9692,"erer":9693,"Mer":9694,"phal":9695,"gun":9696,"UEL":9697,"soil":9698,"ĠBed":9699,"ĠIg":9700,"bust":9701,"Jun":9702,"ĠJR":9703,"lers":9704,"Ġ711":9705,"WOOD":9706,"RAL":9707,"ĠPsN":9708,"rmaj":9709,"Ġ662":9710,"]**":9711,"Ok":9712,"Ġ674":9713,"EQ":9714,"Ġ597":9715,"-'":9716,"exed":9717,"nit":9718,"Ġ593":9719,"said":9720,"teb":9721,"Ġ731":9722,"vat":9723,"tour":9724,"ĠCCS":9725,"FEN":9726,"Sil":9727,"Ġub":9728,"yth":9729,"mol":9730,"Fisc":9731,"Ġ980":9732,"ogle":9733,"ĠPut":9734,"Ġ677":9735,"Loss":9736,"DOT":9737,"late":9738,"ĠAsp":9739,"Ġ694":9740,"ĠNN":9741,"ĠNP":9742,"este":9743,"het":9744,"ĠVAR":9745,"NOX":9746,"ĠDEN":9747,"mech":9748,"ylam":9749,"Upon":9750,"QUE":9751,"ĠLU":9752,"Ġ822":9753,"iÃ³n":9754,"bind":9755,"bone":9756,"fasb":9757,"IMS":9758,"mov":9759,"Ġmeg":9760,"pine":9761,":&":9762,"sper":9763,"ben":9764,"KK":9765,"Ġ695":9766,"rual":9767,"Ġnut":9768,"ĠPi":9769,"Af":9770,"asi":9771,"TV":9772,";?":9773,"ĠFa":9774,"roit":9775,"Prin":9776,"])":9777,"awn":9778,"**-":9779,"sal":9780,"Ġ634":9781,"Ol":9782,"umen":9783,"LLC":9784,"Mart":9785,"Ġ744":9786,"Ġ685":9787,"-#":9788,"ĠDEA":9789,"Ã©s":9790,"jug":9791,"FWS":9792,",&":9793,"Ġers":9794,"LB":9795,"UCA":9796,"uto":9797,"\\\">":9798,"bate":9799,"{\"":9800,"Ġ642":9801,"1965":9802,"ĠONE":9803,"Trib":9804,"ĠBU":9805,"PB":9806,"ĠITA":9807,"ĠKS":9808,"Ġrm":9809,"Ġ825":9810,"move":9811,"acua":9812,"fair":9813,"Cs":9814,"ĠNMR":9815,"ĠWID":9816,"idly":9817,"Does":9818,"uran":9819,"Ġtie":9820,"ICY":9821,"yles":9822,"ĠPAC":9823,"FDA":9824,"neys":9825,"ĠKG":9826,"cos":9827,"Po":9828,"Well":9829,"lbs":9830,"Ġera":9831,"Lex":9832,"aca":9833,"Ġ!**":9834,"Ġ928":9835,"WEST":9836,"RH":9837,"ĠÂ®":9838,"Ġog":9839,"FISH":9840,"Ġ652":9841,"OUS":9842,"Hol":9843,"upy":9844,"Ġ569":9845,"Sk":9846,"1095":9847,"Ġbay":9848,"enyl":9849,"regn":9850,"0025":9851,"Box":9852,"lapp":9853,"UED":9854,"ĠHan":9855,"ANCH":9856,"Link":9857,"ĠFIL":9858,"inar":9859,"Ø±Ø§":9860,"ĠGM":9861,"ĠHCF":9862,"ĠAlb":9863,"Ġ589":9864,"Ġhan":9865,"8101":9866,"utar":9867,"Ô½":9868,"nos":9869,"0020":9870,"SG":9871,".#":9872,"olk":9873,"Sha":9874,"UDG":9875,"Crim":9876,"ÙĦØº":9877,"VAC":9878,"Ġdic":9879,"cfm":9880,"Ġ736":9881,"Jul":9882,"Den":9883,"Ġ629":9884,"ĠRos":9885,"Ġ990":9886,"1930":9887,"Ġtt":9888,"Ġ653":9889,"ĠNIH":9890,"ÙĤÙĪ":9891,":'":9892,"sil":9893,"UZ":9894,"Ġpou":9895,"Ġ775":9896,"OE":9897,"Bet":9898,"ĠdB":9899,"ĠESA":9900,"ĠTon":9901,"Ġ631":9902,"ĠĠč":9903,"ĠOL":9904,"pone":9905,"MOD":9906,"Aer":9907,"TCY":9908,"1112":9909,"ĠTAP":9910,"ĠRP":9911,"ĠDor":9912,"uat":9913,"Ġiz":9914,"Ġpag":9915,"PON":9916,"ITOR":9917,"ĠSit":9918,"Ġ644":9919,"Ġ922":9920,"Ġ945":9921,"Ġ732":9922,"Ã¶":9923,".~":9924,"()":9925,"Ġtin":9926,"ĠVIS":9927,"omed":9928,"Ġofa":9929,"reac":9930,"Wood":9931,"8208":9932,"ococ":9933,"SET":9934,"verg":9935,"Cop":9936,"Bor":9937,"dn":9938,"Ġ726":9939,"\\\\":9940,"Sear":9941,"ĠGSA":9942,"ĠAU":9943,"ubil":9944,"ILY":9945,"ECU":9946,"DG":9947,"Mrs":9948,"Ġ678":9949,"zt":9950,"ingf":9951,"&&":9952,"TILL":9953,"Ġeds":9954,"Ġsud":9955,"Ġâī¤":9956,"Ġauf":9957,"ĠFTC":9958,"repe":9959,"iu":9960,"ĠTak":9961,"arth":9962,"Ġ752":9963,"Ġ751":9964,"Ġ786":9965,"Ġpon":9966,"\";":9967,"ORIG":9968,"CW":9969,"FACE":9970,"Rat":9971,"hydr":9972,"ÙĨØ©":9973,"ĠVER":9974,"MF":9975,"Ġ581":9976,"Ġ798":9977,"Ġ661":9978,"uda":9979,"Ġcro":9980,"ĠPG":9981,"ĠOCC":9982,"(*":9983,"otte":9984,"SX":9985,"ĠZIP":9986,"ĠAPI":9987,"Ġ(Â§":9988,"CRO":9989,"Ġshi":9990,"LQ":9991,"!#":9992,"Ġ755":9993,"Ġ824":9994,"turn":9995,"Ġ915":9996,"gium":9997,"tex":9998,"kind":9999,"Ġ734":10000,"Ġá»":10001,"cker":10002,"Vice":10003,"Ġsq":10004,"VEY":10005,"Ġ639":10006,"9000":10007,"DT":10008,"Ġ698":10009,"cdc":10010,"Ġæ":10011,"ĠMix":10012,"POL":10013,"ĠUC":10014,"Top":10015,"URED":10016,"Jack":10017,"ZB":10018,"')":10019,"Ġ679":10020,"Ġ658":10021,"offs":10022,"ĠPAT":10023,"opa":10024,"ĠSem":10025,"ĠCCP":10026,"Once":10027,".[":10028,"feat":10029,"Ele":10030,"ĠCra":10031,"Ġ682":10032,"Ġ832":10033,"ĠPDP":10034,"Ø¢":10035,"ĠBos":10036,"oker":10037,"vil":10038,"pad":10039,"ĠGam":10040,"IZED":10041,"AH":10042,"BIA":10043,"Func":10044,"Ġ651":10045,"inda":10046,"ĠAPC":10047,"drug":10048,"Ġbis":10049,"Ġ643":10050,"2323":10051,"BTOR":10052,"clin":10053,"ĠBol":10054,"Sus":10055,"Ke":10056,"PES":10057,"ĠBOD":10058,"ĠGi":10059,"Ġ**.":10060,"1059":10061,"okes":10062,"mut":10063,"CAA":10064,"Ġont":10065,"ĠCJ":10066,"ĠPts":10067,"Ġâī¥":10068,"ĠRR":10069,"Ø±Ùģ":10070,"ucc":10071,"DEN":10072,"Hg":10073,"Ùį":10074,"ĠFri":10075,"Ġ960":10076,"LEX":10077,"Ġ815":10078,"Ġ717":10079,"bran":10080,"ĠDri":10081,"ÙĦÙĦ":10082,"imis":10083,"etry":10084,"mass":10085,"rile":10086,"GAG":10087,"aron":10088,"ormw":10089,"psum":10090,"1004":10091,"Ġell":10092,"Ġ(**":10093,"ĠMcD":10094,"Ġdot":10095,"Gs":10096,"ĠLl":10097,"@?":10098,"Ġ709":10099,"iano":10100,"ĠBAL":10101,"hm":10102,"ĠINT":10103,"BN":10104,"WF":10105,"Ġ647":10106,"ĠMcG":10107,"rys":10108,"1091":10109,"Hand":10110,"ĉĠĉĠ":10111,"loan":10112,"ĠCAN":10113,"ĠLNG":10114,"Wild":10115,"0034":10116,"Ġ828":10117,"Ġ912":10118,"ersu":10119,"Ġze":10120,"Phil":10121,"plor":10122,"Free":10123,"Ġba":10124,"ĠUL":10125,"Ġnel":10126,"Ġ841":10127,"Ġpie":10128,"anar":10129,"Wes":10130,"font":10131,"2034":10132,"rint":10133,"Ġ818":10134,"Ġ003":10135,"marg":10136,"ĠROD":10137,"Ø°Ùĩ":10138,"fast":10139,"ECC":10140,"1525":10141,"Hour":10142,"SubT":10143,"arat":10144,"ĠNT":10145,"Ġrr":10146,"Home":10147,"oren":10148,"Ġnas":10149,"Ġ768":10150,"ige":10151,"thyl":10152,"Ġ733":10153,"Ġcha":10154,"Ġ693":10155,"Ġ787":10156,"acid":10157,"nis":10158,"Ã¥":10159,"iale":10160,"Ġ757":10161,"/(":10162,"Ã¨":10163,"ĠHY":10164,"Ġswe":10165,"ĠEST":10166,"oi":10167,"fm":10168,")?":10169,"ĠKu":10170,"SIC":10171,"lich":10172,"CEED":10173,"owe":10174,"Ø¹Ø©":10175,"ĠTWh":10176,"VENT":10177,"tebr":10178,"ĠPun":10179,"onz":10180,"ĠSAR":10181,"olen":10182,"ugee":10183,"HB":10184,"beam":10185,"Ġ060":10186,"boro":10187,"Ġ663":10188,"'\"":10189,"ĠDar":10190,"ïĻ":10191,"Ġ913":10192,"COR":10193,"sz":10194,"FRI":10195,"orum":10196,"Ġ823":10197,"none":10198,"mats":10199,"eme":10200,"ÙĬÙĦ":10201,"ĠMAG":10202,"ÃĦÃĦ":10203,"cult":10204,"-+":10205,"esE":10206,"iref":10207,"Ev":10208,"HAR":10209,"esh":10210,"aman":10211,"ahl":10212,"0040":10213,"lea":10214,"TXT":10215,"QI":10216,"Ġnr":10217,"ILD":10218,"ĠLie":10219,"ICI":10220,"RL":10221,"Ġ827":10222,"asta":10223,"ĠPPE":10224,"Ġ765":10225,"Ġ907":10226,"1201":10227,"omly":10228,"rins":10229,"Ġhos":10230,"ĠWi":10231,"BAS":10232,"0022":10233,"vard":10234,"omon":10235,"Ġ826":10236,"Mech":10237,"çĶ":10238,"ĠADA":10239,"ĠFD":10240,"0016":10241,"ĠOBS":10242,"ĠEAR":10243,"phos":10244,"esis":10245,"Ġ966":10246,"Ø¨Ø©":10247,"CMS":10248,"Ġ895":10249,"tar":10250,"ĠTSD":10251,"ĠDra":10252,"/-":10253,"Ġ686":10254,"Ġaus":10255,";[":10256,"Map":10257,"Army":10258,"nut":10259,"los":10260,"inus":10261,"ãĢĤ":10262,"fri":10263,"ĠCru":10264,"Ġ914":10265,"ftc":10266,"ĠARB":10267,"VK":10268,"Ġ~~":10269,"OMM":10270,"Ġhav":10271,"Pop":10272,"ĠAle":10273,"ĠCIA":10274,"cht":10275,"ĠÎ²":10276,"Exch":10277,"ĠNEC":10278,"atal":10279,"Ġ908":10280,"Set":10281,"0050":10282,"idas":10283,"ktop":10284,"Ġ689":10285,"Ġ774":10286,"Ġ835":10287,"Ġsed":10288,"Cum":10289,"onda":10290,"WG":10291,"oct":10292,"Ġ788":10293,"ĠBob":10294,"Ul":10295,"issu":10296,"%).":10297,"leys":10298,"Ġ657":10299,"ohex":10300,"ÙģØ±":10301,"PN":10302,"coo":10303,"(^":10304,"EEE":10305,"Four":10306,"furn":10307,"Mal":10308,"Your":10309,"vive":10310,"ØŃÙĬ":10311,"ĠMY":10312,"ĠWIT":10313,"ĠTAC":10314,"@&":10315,"roma":10316,"agg":10317,"RT":10318,"ĠSME":10319,"flex":10320,"EARS":10321,"ĠECF":10322,"ONAL":10323,"2212":10324,"help":10325,"dum":10326,"ĠKim":10327,"HAEL":10328,"OOK":10329,"Ġity":10330,"Ġ672":10331,"çļ":10332,"isen":10333,"JD":10334,"Ġ748":10335,"df":10336,"ÙĨØ¯":10337,"0036":10338,"TIP":10339,"Ġ875":10340,"Ġtu":10341,"1220":10342,"FID":10343,"Phys":10344,"idat":10345,"eply":10346,"USGS":10347,"iser":10348,"leen":10349,"lown":10350,"Ġ781":10351,"Ġ785":10352,"ĠAst":10353,"INI":10354,"ĠAMP":10355,"Ġcet":10356,"_**":10357,"USC":10358,"oyl":10359,"Norm":10360,"ĠPhD":10361,"ĠSCI":10362,"çļĦ":10363,"BW":10364,"1250":10365,"ulos":10366,"ĠUV":10367,"Ġ(<":10368,"Insp":10369,"clu":10370,"ĠBin":10371,"MER":10372,"ĠGaz":10373,"ĠNar":10374,"edar":10375,"wi":10376,"ĠHS":10377,"Ġ687":10378,"opol":10379,"odge":10380,"ĠCU":10381,"zn":10382,"aton":10383,"hu":10384,"Ġdye":10385,"ÙĦØ²":10386,"rmo":10387,"Ø±Ùĥ":10388,"Ġ742":10389,"ruce":10390,"Coo":10391,"tree":10392,"Ġia":10393,"ĠArr":10394,"ĠRaw":10395,"Ġhog":10396,"ĠFIF":10397,"Ox":10398,"ĠHub":10399,"othy":10400,"Spre":10401,"whel":10402,"Ġdop":10403,"upp":10404,"ETH":10405,"GW":10406,"ĠAVE":10407,"Ġ692":10408,"0009":10409,"gall":10410,"idic":10411,"cind":10412,"Syn":10413,"tyl":10414,"Ġ756":10415,"vs":10416,"Ġ\"\"":10417,"Ġ833":10418,"ĠSr":10419,"Ġ673":10420,"Ġ691":10421,"ĠÌ§":10422,"amos":10423,"Ġ719":10424,"0017":10425,"ryos":10426,"ÙĤØ§":10427,"LM":10428,"Ġao":10429,"ECF":10430,"anco":10431,"cool":10432,"Adop":10433,"Liv":10434,"icia":10435,"ĠOAR":10436,"andp":10437,"Ġ816":10438,"ĠFro":10439,"ofs":10440,"ĠQA":10441,"ULTS":10442,"=\"\"":10443,"IRS":10444,"Ġrim":10445,"Ġrn":10446,"orit":10447,"ĠTI":10448,"PU":10449,"DOD":10450,"Dele":10451,"elin":10452,"1030":10453,"ĠVot":10454,"QW":10455,"Ġ649":10456,"ĠHal":10457,"ĠWTO":10458,"wr":10459,"CX":10460,"Ġ763":10461,"eler":10462,"Aust":10463,"Ø¨Ø¨":10464,"GRAN":10465,"ĠSOC":10466,"Hs":10467,"tist":10468,"Ġant":10469,":(":10470,"Util":10471,"ĠSDR":10472,"VIN":10473,"Mail":10474,"Oreg":10475,"Ġ839":10476,"Farm":10477,"\"!":10478,"Ġ925":10479,"Ġ970":10480,"Ġ.**":10481,"ONLY":10482,"Ġ926":10483,"Ġ837":10484,"1101":10485,"MAY":10486,"ivo":10487,"HIP":10488,"PTVN":10489,"Ġ795":10490,"tn":10491,"paga":10492,"Ġ749":10493,"ĠXII":10494,"Ø±ÙĪ":10495,"Ġ916":10496,"Fish":10497,"Ġinm":10498,"Ġ799":10499,"Ġ659":10500,"Life":10501,"FEM":10502,"HOL":10503,"ĠPra":10504,"Ġ754":10505,"clat":10506,"ÃıÃı":10507,"Ġ764":10508,"ĠCad":10509,"Ġanc":10510,"OA":10511,"#:":10512,"Ġig":10513,"argu":10514,"Mil":10515,"Ġ842":10516,"1212":10517,"Meat":10518,"riaz":10519,"7000":10520,"Ġ(+":10521,"Ġ995":10522,"ovo":10523,"1906":10524,"0537":10525,"Conf":10526,"0045":10527,"Ġiii":10528,"ĠDB":10529,"1230":10530,"Wel":10531,"Hel":10532,"Mad":10533,"Ġ697":10534,"GIS":10535,"mia":10536,"Ġ738":10537,"Sing":10538,"Ġsis":10539,"ĠLis":10540,"ODE":10541,"%&":10542,"ĠDun":10543,"FDS":10544,"enez":10545,"ulls":10546,"Ġlag":10547,"ocon":10548,"GV":10549,"copy":10550,"Bay":10551,"LER":10552,"Ġ794":10553,"1960":10554,"earn":10555,"Ġupt":10556,"Ġ792":10557,"ĠAli":10558,"Show":10559,"ĠRET":10560,"Ġ821":10561,"ĠLB":10562,"];&#":10563,"PACE":10564,"Ġ871":10565,"ampl":10566,"ĠBod":10567,"Ġ846":10568,"ĠLux":10569,"reb":10570,"BLM":10571,"Ġ671":10572,"ueb":10573,"Meet":10574,"ĠEgy":10575,"nh":10576,"ĠCLE":10577,"NTIS":10578,"Ġges":10579,"Ġ958":10580,"sod":10581,"Ġ829":10582,"Ġ834":10583,"~~~":10584,"otas":10585,"Ġ[(":10586,"KET":10587,"Ġlig":10588,")(*":10589,"Ġ844":10590,"iop":10591,"ĠRox":10592,"User":10593,"ĠRAD":10594,"HRQ":10595,"MH":10596,"ĠInb":10597,"1964":10598,"0024":10599,"agan":10600,"bean":10601,"igge":10602,"Rent":10603,"ĠJP":10604,"Bill":10605,"ENUM":10606,"dt":10607,"ĠBP":10608,"0546":10609,"ĠJon":10610,"KD":10611,"mos":10612,"Ġ905":10613,"ĠKy":10614,"BAL":10615,"Ġran":10616,"Lond":10617,"ĠSG":10618,"ĠIE":10619,"Ġ998":10620,"KI":10621,"Ġ741":10622,"VW":10623,"ĠTai":10624,"ĠWHO":10625,"ardy":10626,"ĠCOA":10627,"Ġlac":10628,"ĠFT":10629,"uden":10630,"die":10631,"nm":10632,"lio":10633,"Los":10634,"ĠLyn":10635,"ĠFlo":10636,"iefs":10637,"ija":10638,"Ġisn":10639,"ighs":10640,"ĠCEO":10641,"umet":10642,"ondo":10643,"HHS":10644,"XY":10645,"ĠANG":10646,"lake":10647,"ĠABS":10648,"MET":10649,"KO":10650,"Ġ917":10651,"airw":10652,"Ġ683":10653,"Ġms":10654,"Park":10655,"Ġ761":10656,"eh":10657,"Ġ919":10658,"Ġmud":10659,"Fi":10660,")()":10661,"Ġpec":10662,"ĠSOL":10663,"ĠNIA":10664,"Ġ838":10665,"JV":10666,"EB":10667,"Ts":10668,"0800":10669,"ĠQC":10670,"ĠHud":10671,"ivi":10672,"âĢ²,":10673,"0055":10674,"Ġ743":10675,"ĠDLA":10676,"Ġâģ¡":10677,"dr":10678,"roin":10679,"Win":10680,"Rh":10681,"ete":10682,"Ġlik":10683,"ICER":10684,"cord":10685,"Cash":10686,"ANTI":10687,"Dev":10688,"Ġ819":10689,"ĠBMP":10690,"rina":10691,"Cam":10692,"ACI":10693,"Pass":10694,"uded":10695,"ĠSCO":10696,"dump":10697,"doi":10698,"Í²":10699,"ymes":10700,"Tier":10701,"ĉĊĊ":10702,"0019":10703,"DDD":10704,"Ġ669":10705,"GF":10706,"ĠØ©":10707,"SAC":10708,"TVN":10709,"Ġ921":10710,"ĠSIC":10711,"ĠBry":10712,"roc":10713,"Ġtam":10714,"\">&":10715,"Ohio":10716,"fen":10717,"CDC":10718,"aba":10719,"FTA":10720,"Posi":10721,"GPS":10722,"deem":10723,"phib":10724,"Ġoct":10725,"ĠHCl":10726,"Jeff":10727,"Ġld":10728,"Ġ817":10729,"Male":10730,"cies":10731,"ĠCod":10732,"ĠGC":10733,"lass":10734,"Ġzo":10735,"sand":10736,"Ġdb":10737,"trak":10738,"UDY":10739,"Ġ773":10740,"ĠAce":10741,"adul":10742,"izab":10743,"ichi":10744,"VERS":10745,"ril":10746,"pyl":10747,"fted":10748,"UES":10749,"Jus":10750,"Guam":10751,"âĪļ":10752,"ande":10753,"canc":10754,"inez":10755,"Ariz":10756,"ongo":10757,"ĠFRA":10758,"ĠCPS":10759,"diam":10760,"dish":10761,"2223":10762,"pric":10763,"MINA":10764,"utt":10765,"BAN":10766,"Ġ776":10767,"GES":10768,"ÙĬØ¹":10769,"erly":10770,"orer":10771,"ĠHu":10772,"DETA":10773,"ĠSar":10774,"ĠIO":10775,"drop":10776,"Ġrh":10777,"FN":10778,"Ġ796":10779,"URN":10780,"inee":10781,"0500":10782,"NIST":10783,"Ġbov":10784,"Ġ729":10785,"ĠLau":10786,"Ġ881":10787,"=$":10788,"QBM":10789,"IDEL":10790,"Ġfec":10791,"ISON":10792,"duly":10793,"Ġhin":10794,"%;":10795,"STS":10796,"ERCE":10797,"ubs":10798,"Ġkin":10799,"Ġsho":10800,"Ġech":10801,"JOHN":10802,"ĠâĢł":10803,"odyn":10804,"sr":10805,"0545":10806,"Ġ753":10807,"sedi":10808,"Ġ909":10809,"AGO":10810,"Ġâī¡":10811,"ĠÄĳ":10812,"Ġtet":10813,"ĠTub":10814,"ĠØ¢":10815,"viol":10816,"kov":10817,"Both":10818,"OMAS":10819,"Ġ903":10820,"peo":10821,"FCA":10822,"Eval":10823,"Rail":10824,"[&":10825,"chae":10826,"ĠHop":10827,"OOL":10828,"ssen":10829,"libr":10830,"ldg":10831,"rors":10832,"/?":10833,"Ġbir":10834,"Ġ877":10835,"2025":10836,"BLE":10837,"alg":10838,"ÃĬ":10839,"1010":10840,"[(":10841,"ĠCab":10842,"Full":10843,"ĠDS":10844,"ĠTES":10845,"Ġ954":10846,"ugg":10847,"uv":10848,"prog":10849,"Ġ988":10850,"Ġ758":10851,"SERV":10852,"Ġ797":10853,"ĠBDL":10854,"Ġpm":10855,"3333":10856,"0021":10857,"York":10858,"Biom":10859,"aco":10860,"IMP":10861,"ĠIU":10862,"ÙĥÙĥ":10863,"VAN":10864,"Wy":10865,"Ġ791":10866,"ttes":10867,"ROAD":10868,"ĠRAM":10869,"ĠTox":10870,"Ġâĸł":10871,"fax":10872,"Rela":10873,"amo":10874,"WORK":10875,"EZ":10876,"Ġ766":10877,"elli":10878,"vae":10879,"HL":10880,"uscb":10881,"ĉĊĠ":10882,"THOR":10883,"Ġsig":10884,"ĠAlt":10885,"rass":10886,"icio":10887,"bird":10888,"Ġ793":10889,"ĠRIS":10890,"fold":10891,"ĠBil":10892,"ĠSEA":10893,"Ġ005":10894,"unif":10895,"Ã¼":10896,"Jap":10897,"ĠVIR":10898,"ALLY":10899,"<.":10900,"LET":10901,"HAS":10902,"ĠPed":10903,"1966":10904,"Ġ951":10905,"bing":10906,"ĠNSF":10907,"Ma":10908,")**.":10909,"ĠÃł":10910,"ĠROW":10911,"spap":10912,"obil":10913,"lyn":10914,"ĠEdw":10915,"uz":10916,"ĠSir":10917,"aya":10918,"evin":10919,"ĠFox":10920,"Ġnin":10921,"0600":10922,"ĠPF":10923,"AX":10924,"ĠITS":10925,"Ġ845":10926,"ENDA":10927,"Ġ090":10928,"Ġdit":10929,"derw":10930,"BERG":10931,"Ġ783":10932,"ĠPCB":10933,"ĠïĤ":10934,"Ġga":10935,"dl":10936,"ACHS":10937,"JH":10938,"HOLD":10939,"Ãļ":10940,"Ġ772":10941,"DU":10942,"ĠÙĮ":10943,"ipul":10944,"ĠAk":10945,"Ġlad":10946,"uli":10947,"Ġ762":10948,"anas":10949,"Ġ739":10950,"1094":10951,"Ġ((":10952,"jur":10953,"bis":10954,"0046":10955,"ĠMMB":10956,"Ġnts":10957,"wt":10958,"Ġ771":10959,"GCC":10960,"Lead":10961,"0300":10962,"Pal":10963,"Ġ932":10964,"/&":10965,"ĠSPR":10966,"TOR":10967,"pb":10968,"ĠLt":10969,"avas":10970,"eeks":10971,"Ġ855":10972,"Ġ%,":10973,"0027":10974,"Mort":10975,"0123":10976,"PY":10977,"oche":10978,"ÃŃa":10979,"EW":10980,"trif":10981,"hg":10982,"ĠÎ¸":10983,"LOS":10984,"Wind":10985,"crop":10986,"dra":10987,"yb":10988,"ĠVar":10989,"#*#":10990,"acec":10991,"Ġ782":10992,"ĠMDL":10993,"itar":10994,"Ġ918":10995,"TBtu":10996,"Der":10997,"Ġ(&#":10998,"Ġblu":10999,"%),":11000,"1016":11001,"VX":11002,"ÙĬØ§":11003,"3538":11004,"ĠTro":11005,"Ġ769":11006,"Ġ778":11007,"ĠBER":11008,"jn":11009,"sy":11010,"ĠKa":11011,"Ġ853":11012,"LING":11013,"ije":11014,"ÙĬØª":11015,"Ã¦":11016,"Ls":11017,"ĠLit":11018,"ugs":11019,"vens":11020,"ĠVul":11021,"ÙħØ©":11022,"Sent":11023,"Ġdif":11024,"nage":11025,"accu":11026,"Ñĥ":11027,"ĠBle":11028,"=#":11029,"Cla":11030,"OY":11031,"~.":11032,"auc":11033,"Airc":11034,"Merg":11035,"1078":11036,"tow":11037,"ĠBan":11038,"sep":11039,"Ra":11040,"amen":11041,"iban":11042,"Ġ898":11043,"ULAR":11044,"1211":11045,"Ġ861":11046,"ffee":11047,"Ġ923":11048,"pac":11049,"Ġ847":11050,"LRB":11051,"Ġ);":11052,"TIL":11053,"dup":11054,"ĠMir":11055,"Ġ784":11056,"ĠâĪĤ":11057,"ATZ":11058,"illo":11059,"1002":11060,"athe":11061,"Bul":11062,"IUM":11063,"Ġgli":11064,"1630":11065,"ibli":11066,"ĠVen":11067,"PLES":11068,"oreg":11069,"ĠCf":11070,"SEN":11071,"ypes":11072,"nik":11073,"ĠWOR":11074,"Ġ972":11075,"tir":11076,"Ni":11077,"ĠZip":11078,"Ġnce":11079,"lab":11080,"Ġalb":11081,"ĠDom":11082,"Ġ831":11083,"aqu":11084,"ĠIPP":11085,"ĠHER":11086,"ĠDoe":11087,"CLOS":11088,"Drug":11089,"roel":11090,"TYPE":11091,"aran":11092,"ĠBit":11093,"1950":11094,"ØªÙī":11095,"cia":11096,"sust":11097,"Ġ931":11098,"Ġ857":11099,"Ġ759":11100,"Ġ894":11101,"Æ°":11102,"WB":11103,"lav":11104,")'":11105,"xxx":11106,"Ġtut":11107,"izza":11108,"IJ":11109,"gae":11110,"ĠECB":11111,"RAY":11112,"AIRS":11113,"0130":11114,"ceal":11115,"Ġhid":11116,";^":11117,"Ġ952":11118,"Es":11119,"Ġ978":11120,"ECK":11121,"quit":11122,"Ġ944":11123,"Ġbow":11124,"iors":11125,"Ġrv":11126,"ĠYe":11127,"odi":11128,"ĠPEN":11129,"rez":11130,"agu":11131,"Ġ856":11132,"âĢł":11133,"Ġ011":11134,"Alab":11135,"ĠEsq":11136,"Ø¯Ø«":11137,"eva":11138,"Ġ949":11139,"Ġ865":11140,"Bri":11141,"ĠmM":11142,"Ã§":11143,"Ġnil":11144,"Ġ879":11145,"tat":11146,"STA":11147,"Bu":11148,"auer":11149,"nog":11150,"Åł":11151,"ĠÎĶ":11152,"IPM":11153,";@":11154,"hub":11155,"UX":11156,"ĠQBM":11157,"adem":11158,"ocl":11159,"0033":11160,"ĠKal":11161,"Ġcn":11162,"Qs":11163,"nega":11164,"ĠIB":11165,"LH":11166,"HER":11167,"MIS":11168,"Ãª":11169,")],":11170,"FIR":11171,"txt":11172,"wers":11173,"ĠFSA":11174,"Ġ965":11175,",</":11176,"Ġree":11177,"Ġ996":11178,"pila":11179,"lymp":11180,"EQU":11181,"Imp":11182,"VEM":11183,"MAL":11184,"ÙģØ³":11185,"ĠTel":11186,"bond":11187,"ĠSor":11188,"ÙĪØ¬":11189,"UNG":11190,"Kent":11191,"ĠLeb":11192,"abul":11193,"sugg":11194,"gao":11195,"1962":11196,"Ġ885":11197,"ĠEGU":11198,"0035":11199,"->":11200,"ĠTW":11201,"ĠUAV":11202,"entr":11203,"BERS":11204,"Ø¨Ùĩ":11205,"iten":11206,"Du":11207,"Geog":11208,"Neit":11209,"once":11210,"Ġ836":11211,"2330":11212,"Ġ851":11213,"ĠGy":11214,"ĠPCT":11215,"ĠCFC":11216,"ĠSK":11217,"RU":11218,"Ġ056":11219,"ĠWAL":11220,"NAS":11221,"QE":11222,"Ġ(-)":11223,"JS":11224,"oooo":11225,"ĠRFP":11226,"FK":11227,"Ġ975":11228,"Ġ046":11229,"Ðº":11230,"Ġtio":11231,"1234":11232,"TSD":11233,"ÕĮ":11234,"Ber":11235,"Ġses":11236,"raws":11237,"nan":11238,"clic":11239,"CSC":11240,"Dou":11241,"ĠEB":11242,"ĠLIB":11243,"ĠPAP":11244,"uld":11245,"1301":11246,"Flow":11247,"ARGE":11248,"avan":11249,"[&#":11250,"Ġenl":11251,"1961":11252,"ĠUTF":11253,"dc":11254,"Qa":11255,"Ġ852":11256,"1222":11257,"Ġ936":11258,"HIV":11259,"cels":11260,"fc":11261,"mach":11262,"Ġtea":11263,"Amb":11264,"čĊĉ":11265,"TAC":11266,"*:":11267,"idaz":11268,"Log":11269,"TOIA":11270,"ĠAla":11271,"roat":11272,"ovol":11273,"ĠYOU":11274,"Ġthy":11275,"1210":11276,"Ġ933":11277,"Ġich":11278,"0028":11279,"1167":11280,"Ø§Ø¬":11281,"WThe":11282,"Ġ927":11283,"Earn":11284,"0037":11285,"oco":11286,"mite":11287,"Men":11288,"Ġ066":11289,"Ġeq":11290,"olas":11291,"QD":11292,"Ġdt":11293,"2400":11294,"Ã¡s":11295,"ĠDEM":11296,"atso":11297,"horn":11298,"Ġ938":11299,"haul":11300,"tabl":11301,"andf":11302,"Even":11303,"Rele":11304,"1963":11305,"Ġ854":11306,"wick":11307,"FSIS":11308,"TML":11309,"Ø³Ùħ":11310,"1020":11311,"ĠGHz":11312,"INDI":11313,"ĠJUN":11314,"Ġ955":11315,"uti":11316,"RV":11317,":::":11318,"1957":11319,"ghum":11320,"lj":11321,"ANO":11322,"rose":11323,"docs":11324,"urry":11325,"ĠFIS":11326,"ĠLRA":11327,"sees":11328,"aka":11329,"hea":11330,"ĠSEP":11331,"1959":11332,"dos":11333,"ĠBC":11334,"ockv":11335,"prus":11336,"Ġ986":11337,"tech":11338,"ryo":11339,"Kans":11340,"ÙĩÙĦ":11341,"ĠCi":11342,"DNA":11343,"ragm":11344,"Ġoro":11345,",#`":11346,"imi":11347,"phis":11348,"Ġ004":11349,"neap":11350,"QM":11351,"isl":11352,"itos":11353,"heny":11354,"ĠMOS":11355,"Ġ891":11356,"ereg":11357,"pool":11358,"ÙĤØª":11359,"ĠNL":11360,"Midd":11361,"Cir":11362,"1958":11363,"ĠHat":11364,"1840":11365,"APX":11366,"dier":11367,"View":11368,"seg":11369,"Ġ896":11370,"Ġ935":11371,"hum":11372,"ĠOFT":11373,"ROVE":11374,"Ġ//":11375,"ITEM":11376,"QF":11377,"BRW":11378,"HW":11379,"Ġ779":11380,"JC":11381,"heim":11382,"Wisc":11383,";=":11384,"ĠÃ©":11385,"Soil":11386,"Ġ956":11387,"ĠAO":11388,"ĠVP":11389,"ersa":11390,"0538":11391,"1955":11392,"ĠSew":11393,"(-":11394,"bc":11395,"loom":11396,"hon":11397,"Ġds":11398,"Ġ946":11399,"Ġric":11400,"DUCT":11401,"Ġ937":11402,"FOL":11403,"Ãĳ":11404,"DOCS":11405,"1204":11406,"HUD":11407,"MAC":11408,"SKI":11409,"oux":11410,"Indi":11411,"beg":11412,"%-":11413,"send":11414,"ÙĬØ³":11415,"Ġâİ":11416,"BG":11417,"Ġ899":11418,"]+":11419,"ITC":11420,"1130":11421,"eci":11422,"Ġ789":11423,"Ġbun":11424,"ĠOU":11425,"cert":11426,"dual":11427,"Ø¹ÙĦ":11428,"'/":11429,"ĠLot":11430,"_,":11431,"ĠSEL":11432,"Ġmos":11433,"Tim":11434,"Ġtpy":11435,"OTA":11436,"ĠLOD":11437,"erge":11438,"Sand":11439,"atts":11440,"ĠBN":11441,"Heat":11442,"hang":11443,"Ġ942":11444,"REM":11445,"mbH":11446,"ĠMG":11447,"ĠLAN":11448,":!":11449,"hot":11450,"Ġdoc":11451,"ĠSAS":11452,">,":11453,"folk":11454,"ovak":11455,"prin":11456,"opar":11457,"lium":11458,"infr":11459,"acia":11460,"ONES":11461,"Ġ934":11462,"BF":11463,"Mag":11464,"tlor":11465,"arke":11466,"ĠDOJ":11467,"Ti":11468,"impl":11469,"ĠCCD":11470,"Î²":11471,"*%#":11472,"DIR":11473,"ATO":11474,"EDS":11475,"Lat":11476,"Gre":11477,"Hy":11478,"Eas":11479,"Ġyr":11480,"0060":11481,"cg":11482,"Dan":11483,"tun":11484,"ĠAz":11485,"AMER":11486,"LIC":11487,"emat":11488,"2027":11489,"Ġiod":11490,"1005":11491,"LAM":11492,"ĠOM":11493,"NEL":11494,"OVER":11495,"trim":11496,"Opin":11497,"plet":11498,"ITIZ":11499,";!":11500,"0038":11501,"IALS":11502,"QT":11503,"ĠROM":11504,"orre":11505,"orto":11506,"#)#":11507,"Ġary":11508,"Ġ989":11509,"Ġbub":11510,"ķĲ":11511,"Lin":11512,"EAS":11513,"Ġcab":11514,"DOM":11515,"fec":11516,"onde":11517,"fd":11518,"ĠSom":11519,"edin":11520,"8000":11521,"ĠLEA":11522,"Ġ994":11523,"ĠDil":11524,"Spe":11525,"MALE":11526,"Ġfle":11527,"ĠAPR":11528,"Ã¡n":11529,"ĠJa":11530,"Mas":11531,"guar":11532,"Dead":11533,"''.":11534,"Ġ893":11535,"isia":11536,"ockw":11537,"wild":11538,"ĠLTD":11539,"Ġ858":11540,"Ø¹Ùħ":11541,"oyed":11542,"tico":11543,"yy":11544,"ĠBAT":11545,"ĠGod":11546,"rz":11547,"IVID":11548,"CEM":11549,"FAS":11550,"Ġ843":11551,"ZE":11552,"iso":11553,"hart":11554,"UER":11555,"urt":11556,"Ġbee":11557,"vir":11558,"Ġ959":11559,"oter":11560,"CMA":11561,"`&":11562,"*Â«":11563,"ĠÌĦ":11564,"NOAA":11565,"hire":11566,"Ġ009":11567,"far":11568,"ĠArm":11569,"ÙħØ³":11570,"ĠTot":11571,"ĠLR":11572,"4433":11573,"ĠCIV":11574,"ĠPy":11575,"Lic":11576,"lag":11577,"STD":11578,"Mg":11579,"sn":11580,"bri":11581,"ĠMID":11582,"Ø¹ÙĬ":11583,"''''":11584,"zers":11585,"onc":11586,"Ġ983":11587,"1049":11588,"mel":11589,"Ġuma":11590,"Ġnam":11591,"vary":11592,"oxyl":11593,"ADO":11594,"geog":11595,"1940":11596,"Ġ849":11597,"1751":11598,"ĠRwy":11599,",(":11600,"ĠRou":11601,"Ġvap":11602,"Ïģ":11603,"edes":11604,"Ġ887":11605,"Ġtl":11606,"jac":11607,"MIC":11608,"ĠÃĩ":11609,"Ø¬ÙĦ":11610,"ĠEXC":11611,"Comb":11612,"Ã½":11613,"oken":11614,"RIA":11615,"ĠKer":11616,"Ġtb":11617,"Ġ863":11618,"IRE":11619,".\",":11620,"odal":11621,"ĠJoe":11622,"ĠSky":11623,"ONY":11624,"rait":11625,"Leng":11626,"\",\"$":11627,"uson":11628,"zm":11629,"ĠGab":11630,"Ñĭ":11631,"ĠSut":11632,"ĠFHA":11633,"ĠKos":11634,"thew":11635,"-^":11636,"uf":11637,"ĠPAL":11638,"fram":11639,"Ġ\"'":11640,"too":11641,"dua":11642,"dou":11643,"FAL":11644,"Ġ848":11645,"nom":11646,"1945":11647,"UPF":11648,"aspx":11649,"KNO":11650,"ĠHug":11651,"READ":11652,"iste":11653,"Read":11654,"Ġpsi":11655,"Find":11656,"Ġja":11657,"0064":11658,"anie":11659,":,":11660,"lant":11661,"ĠTre":11662,"whic":11663,"ingo":11664,"ASC":11665,"Ġ963":11666,"ioid":11667,"Wal":11668,"Lb":11669,"plat":11670,"CCC":11671,"arri":11672,"PPLY":11673,"CUSS":11674,"icem":11675,"0044":11676,"1150":11677,"pH":11678,"ĠPRC":11679,"Sup":11680,"Ð¼":11681,"ACM":11682,"ifor":11683,"spot":11684,"quen":11685,"wns":11686,"Ø¹ÙĨ":11687,"VJ":11688,"vex":11689,"ZL":11690,"Ġdee":11691,"amy":11692,"kon":11693,"ois":11694,"ĠNGO":11695,"ĠRDI":11696,"Ġ889":11697,"akis":11698,"ĠLCC":11699,"Ġpg":11700,"Ġ939":11701,"ĠHep":11702,"EXAM":11703,"trl":11704,"Ġ985":11705,"IMUM":11706,"Ġuph":11707,"nsic":11708,".*)":11709,"YES":11710,"MAX":11711,"ĠÌĥ":11712,"1046":11713,"Ġenz":11714,"~-":11715,"fro":11716,"\"^":11717,"ĠGet":11718,"dez":11719,"elch":11720,"ĠPin":11721,"lem":11722,";.'":11723,"Ñı":11724,"Ġket":11725,"rapp":11726,"ĠAER":11727,"ardo":11728,"Russ":11729,"ropy":11730,"Ġath":11731,"usts":11732,"Ð²":11733,"Ġcir":11734,"1947":11735,"Ġnos":11736,"Ġko":11737,"OOO":11738,"uela":11739,"/'":11740,"<!--":11741,"ĠMt":11742,"Ġgag":11743,"yard":11744,"1911":11745,"1941":11746,"\\+":11747,"ĠMoh":11748,"Ġurg":11749,"Ġcob":11750,"1912":11751,"ĠBI":11752,"KEY":11753,"Ġ929":11754,"Ø³ÙĨ":11755,"RICH":11756,"Nev":11757,"tium":11758,"7500":11759,"oria":11760,"aris":11761,"Ġ859":11762,"turb":11763,"ixon":11764,"FET":11765,"vacc":11766,"âī¤":11767,"cong":11768,"Dich":11769,"eriz":11770,"Ga":11771,"miti":11772,"UCT":11773,"ĠïĤ·":11774,"EIA":11775,"ĠNas":11776,"GAT":11777,"Ġnth":11778,"URON":11779,"0540":11780,"stem":11781,"ĠOTC":11782,"ĊĠĊĠ":11783,"#(#":11784,"Ġ974":11785,"ANI":11786,"Ġht":11787,"ĠADR":11788,"fis":11789,"hd":11790,"uede":11791,"bly":11792,"ĠïĢ©":11793,"Ten":11794,"Ġ987":11795,"Ġrom":11796,"BK":11797,"ĠSSI":11798,"ĠUI":11799,"Ġ947":11800,"ucks":11801,"Ġ997":11802,"ĠBog":11803,"TRE":11804,"CAM":11805,"rij":11806,"sou":11807,"Ġlun":11808,"wave":11809,"INF":11810,"Blr":11811,"Fail":11812,"lux":11813,"ĠSla":11814,"rady":11815,"shal":11816,",]&#":11817,"mati":11818,"quor":11819,"ĠBoy":11820,"JP":11821,"Ġzur":11822,"ĠPT":11823,"GRA":11824,"mant":11825,"ETTE":11826,"Ci":11827,"Ġoph":11828,"USES":11829,"wl":11830,"ilos":11831,"1050":11832,"Feet":11833,"2211":11834,"sole":11835,"UREM":11836,"Hus":11837,"ĠkW":11838,"Ġ948":11839,"EAU":11840,"past":11841,"âķĲ":11842,"Ġ953":11843,".'#":11844,"Ġies":11845,"Ġhea":11846,"fly":11847,"idos":11848,"TWh":11849,"Ġ968":11850,"Kg":11851,"Down":11852,"kW":11853,"Ġ867":11854,"ĠDG":11855,"Who":11856,";+":11857,"Ô¹":11858,"IBIL":11859,"ACA":11860,"ĠFUT":11861,"Ġlia":11862,"isch":11863,"WOR":11864,"DY":11865,"gly":11866,"ĠCAT":11867,"ĠTac":11868,"WT":11869,"phe":11870,"Sun":11871,"Ġaan":11872,"Ce":11873,"1042":11874,"ravi":11875,"tone":11876,"Ġ(#":11877,"obby":11878,"Ġ991":11879,"gon":11880,"LAB":11881,"ectr":11882,"joni":11883,"ĠCob":11884,"1330":11885,"1949":11886,"PPD":11887,"das":11888,"ARAC":11889,"Wa":11890,"ÙĨØª":11891,"Ġvag":11892,"uez":11893,"Ġ976":11894,"next":11895,"nar":11896,"zes":11897,"Ġiti":11898,"NERS":11899,"!**":11900,"anaw":11901,"Hard":11902,"ĠHIS":11903,"yc":11904,"\"?":11905,"Litt":11906,"Ġgh":11907,"pore":11908,"ĠFWS":11909,"MG":11910,"Ġmph":11911,"Ġ$(":11912,"ÙĥØª":11913,"Gold":11914,"alia":11915,"ĠHFC":11916,"SV":11917,"levi":11918,"lr":11919,"ĠELE":11920,"URA":11921,"LOY":11922,"tert":11923,".!":11924,"ĠMUN":11925,"WAL":11926,"ĠEq":11927,"ligh":11928,"epw":11929,"Ġie":11930,"Ø¹Ø§":11931,"WARD":11932,"'&":11933,"RAM":11934,"foc":11935,"Ġls":11936,"SEY":11937,"weat":11938,"rech":11939,"Van":11940,"YB":11941,"MV":11942,"ufac":11943,"uros":11944,"LED":11945,"čĊĉĉ":11946,"EI":11947,"Jud":11948,"agic":11949,"medi":11950,"rimp":11951,"Kn":11952,"Ġ943":11953,"ĠCli":11954,"phab":11955,"anne":11956,"ĠART":11957,"Îµ":11958,"walk":11959,"Alt":11960,"ski":11961,"ĠDOL":11962,"MJ":11963,"Real":11964,"PAY":11965,"ĠMAP":11966,"alin":11967,"ĠBEL":11968,"ipes":11969,"Ġlav":11970,"bled":11971,"1126":11972,"odon":11973,"Ġïĥ¼":11974,"Ġumb":11975,"Ġben":11976,"MSO":11977,"hom":11978,"MAT":11979,"Ġ873":11980,"ADR":11981,"Ġip":11982,"faa":11983,"arte":11984,"Ġ964":11985,"burs":11986,"usgs":11987,"Ø¯Ø©":11988,"abe":11989,"Vot":11990,"ENA":11991,"ĠGRE":11992,"ĠJet":11993,"RX":11994,"Ġowe":11995,"Ġmuc":11996,"ĠOPM":11997,"1730":11998,"\\'":11999,"ĠUrb":12000,"Ġ957":12001,"ĠLPG":12002,"Hawa":12003,"1954":12004,"Ġwax":12005,"Ġys":12006,"ÃŁ":12007,"lc":12008,"Ġ993":12009,"Ġ984":12010,"etr":12011,"shot":12012,"HSA":12013,"Ġáº":12014,"UARY":12015,"Acqu":12016,"opsy":12017,"ĠPCR":12018,"atia":12019,"Puer":12020,"opts":12021,"Ġ033":12022,"ĠMUR":12023,"ÙĤØ±":12024,"IFF":12025,"hus":12026,":\"":12027,"tf":12028,"ĠCWA":12029,"ĠBes":12030,"lli":12031,"Å¡":12032,"fees":12033,"Room":12034,"live":12035,"Ġcv":12036,"Vent":12037,"etc":12038,"hhs":12039,"1937":12040,"niv":12041,"QV":12042,"Ġ971":12043,"ĠAMS":12044,"/&#":12045,"hp":12046,"illy":12047,"ĠVT":12048,"xs":12049,"nuc":12050,"iae":12051,"RICK":12052,"ASKA":12053,"heit":12054,"ARI":12055,"WLRQ":12056,"ĠURL":12057,"awk":12058,"ĠIsl":12059,"acto":12060,"idar":12061,"ptic":12062,"vet":12063,"WELL":12064,"onn":12065,"1430":12066,"TIO":12067,"ĠTan":12068,"ĠTEM":12069,"0056":12070,"ĠUM":12071,"ĠAna":12072,"ĠOT":12073,"tson":12074,"Ġtan":12075,"yph":12076,"viso":12077,"wire":12078,"Ġ.-":12079,"smo":12080,"pane":12081,"ĠHus":12082,"ĠTam":12083,"ĠOD":12084,"**Â§":12085,"uren":12086,"ĠRG":12087,"Ġain":12088,"1213":12089,"Ġcow":12090,"cgi":12091,"Ġtau":12092,"diet":12093,"ĠFP":12094,"egen":12095,"STON":12096,"ismo":12097,"ibus":12098,"Liqu":12099,",âĢĶ":12100,"Beef":12101,"bors":12102,"Ø´Ø±":12103,"ĠRow":12104,"2045":12105,"unto":12106,"\"#":12107,"ĠGPO":12108,"Ġ973":12109,">>>>":12110,"MPU":12111,"1397":12112,"Ġ869":12113,").]":12114,"JK":12115,"ĠEmp":12116,"FIL":12117,"JR":12118,"ĠFLO":12119,"AUG":12120,"GAS":12121,"ĠMOR":12122,"ĠDub":12123,"ĠVit":12124,"ĠOnt":12125,"Ġlu":12126,"oxo":12127,"arus":12128,"LF":12129,"egg":12130,"blic":12131,"Äŀ":12132,"0547":12133,"0111":12134,"Ġib":12135,"1007":12136,"lg":12137,"SThe":12138,"eggs":12139,"ÙĪØ³":12140,"ĠGW":12141,"ĠISA":12142,"seal":12143,"ECR":12144,"ĠCit":12145,"Õĩ":12146,"Best":12147,"ĠROC":12148,"ĠHad":12149,"lamm":12150,"8103":12151,"Ġ992":12152,"unta":12153,"ewel":12154,"rary":12155,"rats":12156,"ilip":12157,"eron":12158,"ĠPPS":12159,"ĠPel":12160,"OCKY":12161,"ĠSIM":12162,"lng":12163,"Ġ)(":12164,"Poll":12165,"ĠJe":12166,"2112":12167,"JAN":12168,"reda":12169,"ÙĤØ©":12170,"Ġ981":12171,"Pow":12172,"ĠXIV":12173,"ÙĬØ¨":12174,"lite":12175,"ĠHi":12176,"pubs":12177,"ĠSin":12178,"0700":12179,"Ġ982":12180,"QUES":12181,"pez":12182,"1158":12183,"weig":12184,"BAR":12185,"ĠRIA":12186,"Ġ977":12187,"Tri":12188,"UMP":12189,"Ġtho":12190,"ÙĥÙĨ":12191,"ĠCEM":12192,"eph":12193,"=\"_":12194,"ULD":12195,"ACY":12196,"YDRO":12197,"?âĢĿ":12198,"tank":12199,"uton":12200,"Duty":12201,"ĠFAX":12202,"ĠOd":12203,"-&#":12204,"Clos":12205,"fu":12206,"adal":12207,"Ø¨ÙĦ":12208,"fem":12209,"trud":12210,"Ġny":12211,"ĠGul":12212,"derl":12213,"Ġfum":12214,"Mac":12215,"Way":12216,"diss":12217,"alde":12218,"Ø§ØŃ":12219,"feld":12220,"ĠWW":12221,"ĨĴ":12222,"usk":12223,"TEX":12224,"MSA":12225,"DEF":12226,"ĠÙį":12227,"ONIL":12228,"ĠTOG":12229,"NSR":12230,"hez":12231,"Ġak":12232,"1108":12233,"Targ":12234,"+,":12235,"chis":12236,"Ho":12237,"utz":12238,"Ġnal":12239,"ĠBIT":12240,"=(":12241,"kill":12242,"1107":12243,"1206":12244,"ĠMae":12245,"tlef":12246,"#/#":12247,"EDED":12248,"ĠSpa":12249,"0031":12250,"LACE":12251,"aki":12252,"1286":12253,"Ġdd":12254,"zon":12255,"vage":12256,"job":12257,"PYR":12258,"Ġaft":12259,"Ġoch":12260,"Ġ028":12261,"ĠInv":12262,"äº":12263,"uplo":12264,"CHR":12265,"ptom":12266,"Call":12267,"ĠTSL":12268,"0112":12269,"CAN":12270,"MES":12271,"SAR":12272,"*&":12273,"BART":12274,"itus":12275,"Ġpyr":12276,">-":12277,"ĠHH":12278,"XI":12279,"ĠLou":12280,"Ġĉ":12281,"inel":12282,"Foss":12283,"ahn":12284,"ĠTag":12285,"lik":12286,"fee":12287,"PAN":12288,"east":12289,"ĠIFR":12290,"lle":12291,":~":12292,"Gage":12293,"Ash":12294,"ĠMam":12295,"Peak":12296,"lad":12297,"ĠCG":12298,"vie":12299,"sonv":12300,"lv":12301,"Ġ020":12302,"ĠRi":12303,"pic":12304,"1307":12305,"ZD":12306,"OLA":12307,"boxy":12308,"Done":12309,"0043":12310,"Ġhip":12311,"OCI":12312,"1040":12313,"dums":12314,"HIC":12315,"Utah":12316,"1021":12317,"dz":12318,"thor":12319,"Ġ979":12320,"opul":12321,"Av":12322,"ĠEnc":12323,"ecia":12324,"Ø¹Ø¶":12325,"1025":12326,"elly":12327,"fD":12328,"YING":12329,"Guid":12330,"beit":12331,"MEM":12332,"TRON":12333,"ĠAFR":12334,"ĠGB":12335,"sor":12336,"OMIC":12337,"Ġ969":12338,"jan":12339,"icz":12340,"Evid":12341,"ĠWS":12342,"ERK":12343,"Tabl":12344,"etta":12345,"$#":12346,"Ġ967":12347,"ĠGRA":12348,"ROS":12349,".|":12350,"tab":12351,"0539":12352,"ĠOST":12353,"Î¿":12354,"Ġè":12355,"tats":12356,"ĠDie":12357,"*-":12358,"0065":12359,"Big":12360,"Size":12361,"CODE":12362,"ĠGly":12363,"SNCR":12364,"?)":12365,"ĠETC":12366,"auty":12367,"Nuc":12368,"ĠHEL":12369,"Ġ962":12370,"ĠThi":12371,"NAl":12372,"done":12373,"icot":12374,"WAR":12375,"ĠOh":12376,"KIN":12377,"rade":12378,"Cens":12379,"IRA":12380,"ĠDU":12381,"Camp":12382,"rety":12383,"rik":12384,"cam":12385,"ĠCPT":12386,"trap":12387,"ĠVMT":12388,"ĠSon":12389,"JL":12390,"Õģ":12391,"ĠRip":12392,"ĠVEG":12393,";`":12394,"0548":12395,"Ġae":12396,"1948":12397,"ĠPOR":12398,"yste":12399,"Cy":12400,"sin":12401,"Ġ030":12402,"usc":12403,".***":12404,"rita":12405,"Star":12406,"ĠElk":12407,"ijk":12408,"oxam":12409,"\"-":12410,"ĠACS":12411,"ĠVac":12412,"irer":12413,"ä½":12414,"rise":12415,"orab":12416,"agus":12417,"shut":12418,"Ġdy":12419,"ĠROS":12420,")%":12421,"ithu":12422,"Ġ961":12423,"mans":12424,"Ġbic":12425,"fre":12426,"ĠSug":12427,"ĠPic":12428,"ADD":12429,"?&":12430,"itio":12431,"RN":12432,"ĠHCP":12433,"ĠMOE":12434,"ĠLar":12435,"IGA":12436,"HEAR":12437,"olyl":12438,"xell":12439,"obut":12440,"som":12441,"UIS":12442,"1014":12443,"ĠâĢ¡":12444,"dx":12445,"otom":12446,"ĠITE":12447,"ijn":12448,"Jer":12449,"eye":12450,"ĠJAN":12451,"ÕĨ":12452,"ibl":12453,"MIL":12454,"Inb":12455,"Ġtui":12456,"ĠAlf":12457,"MING":12458,"Ġlt":12459,"DEL":12460,"Ġ()":12461,"Ġ**-":12462,"fy":12463,"ĠLIN":12464,"thog":12465,"1113":12466,"ĠRB":12467,"$&":12468,"ein":12469,"QH":12470,"Ġker":12471,"1939":12472,"ĠUSB":12473,"ĠECR":12474,"cave":12475,"ervo":12476,"0066":12477,"star":12478,"4911":12479,"cion":12480,"uo":12481,"Zone":12482,"ovan":12483,"LCS":12484,"ĠRig":12485,"ĠTab":12486,"brou":12487,"1935":12488,"unes":12489,"AFT":12490,"Ġeve":12491,"/)":12492,"fel":12493,"reck":12494,"ĠATS":12495,"+&":12496,"ĠMig":12497,"åħ":12498,"ĠAE":12499,"uest":12500,"Ø§Ø¶":12501,"ĠOre":12502,"ĠDF":12503,"RAE":12504,"1045":12505,"1934":12506,"IDGE":12507,"AGES":12508,"1097":12509,"Blue":12510,"eedy":12511,"1925":12512,"2033":12513,"ĠErn":12514,"ulu":12515,"Â¢":12516,"Sn":12517,"ĠCCC":12518,"alit":12519,"DHS":12520,"Ġ015":12521,"ICR":12522,"arda":12523,"Ġoh":12524,"sic":12525,"sof":12526,"SAL":12527,"kom":12528,"-&":12529,"vati":12530,"1530":12531,"pipe":12532,"ĠBIA":12533,"ĠKo":12534,"agin":12535,"otpr":12536,"Wed":12537,"3213":12538,"anyl":12539,"ĠLia":12540,"ĠLS":12541,"UNA":12542,"Er":12543,"Ġrif":12544,"Ġ063":12545,"anza":12546,"ZC":12547,"EFD":12548,"PLA":12549,"Ø£Ø®":12550,"\");":12551,"ĠGIS":12552,"Mn":12553,"Ġgla":12554,"CBI":12555,"ĠSRM":12556,"Ø§Øµ":12557,"vw":12558,"Ġmp":12559,"1956":12560,"3700":12561,"2035":12562,"ondi":12563,"ĠATC":12564,"borh":12565,"ĠKin":12566,"Ves":12567,"ĠRot":12568,"perb":12569,"debt":12570,"IK":12571,"JU":12572,"Task":12573,"ELES":12574,"Ġral":12575,"nasa":12576,"Ġbom":12577,"Ġale":12578,"ĠBir":12579,"Ġonb":12580,"Ġ070":12581,"iot":12582,"dich":12583,"VH":12584,"WIS":12585,"Ġ(Â°":12586,"Sulf":12587,"ONA":12588,"ĠTIM":12589,"ĠHog":12590,"LLED":12591,"1503":12592,"Ġdol":12593,"kil":12594,"tom":12595,"1026":12596,"Ġ$/":12597,"orf":12598,"0057":12599,"ĠLum":12600,"ĠPPM":12601,"XL":12602,"1923":12603,"EPS":12604,":;":12605,"syn":12606,"feas":12607,"RAD":12608,"ĠVel":12609,"coat":12610,"ashv":12611,"**$":12612,"ĠTAN":12613,"inae":12614,"Ġ007":12615,"ĠMAX":12616,"MU":12617,"Ġpac":12618,"Ġ014":12619,"0103":12620,"ĠMcN":12621,"Ġnie":12622,"Doll":12623,"ĠMos":12624,"phan":12625,"ĠBid":12626,"ouns":12627,"Ang":12628,"ĠABO":12629,"uno":12630,"inv":12631,"HIGH":12632,"Corp":12633,"1015":12634,"';":12635,"ĠUD":12636,"Corn":12637,"ĠBla":12638,"Arch":12639,"cro":12640,"ĠMn":12641,"ĠDV":12642,"ÑģÑĤ":12643,"~,":12644,"ĠEMB":12645,"ĠNTI":12646,"Ø¹Øª":12647,"ĠÐ¿":12648,"gins":12649,"kk":12650,"Civ":12651,"_-":12652,"Ġ(>":12653,"anon":12654,"Hosp":12655,"scf":12656,"Hear":12657,"ĠNHR":12658,"Ġew":12659,"ÙĪÙĬ":12660,"ĠBah":12661,"**[":12662,"few":12663,"1060":12664,"1522":12665,"aro":12666,"RB":12667,"kWh":12668,"nary":12669,"zM":12670,"Path":12671,"OWS":12672,"1223":12673,"ĠACH":12674,"Ã²":12675,"1920":12676,"azz":12677,"ĠIAC":12678,"Ġ012":12679,"[]":12680,"GAA":12681,"Ãĵ":12682,"mc":12683,"tub":12684,"Íĺ":12685,"Ġka":12686,"Ġray":12687,"ĠMMS":12688,"SUP":12689,"pix":12690,"ouch":12691,"ILLS":12692,"Ġtas":12693,":âĢĶ":12694,"Brus":12695,"\\&":12696,"oula":12697,"auf":12698,"Ġned":12699,"ĠTD":12700,"ysil":12701,"Hill":12702,"Ġdth":12703,"kend":12704,"ĠFTA":12705,"allo":12706,"2600":12707,"gray":12708,"!!!!":12709,"Ġinb":12710,"itie":12711,"ilor":12712,"lyl":12713,"ĠAX":12714,"Sy":12715,"Ġdal":12716,"ĠWor":12717,"Paul":12718,"Ġ**!":12719,"vron":12720,"'^":12721,"ĠAEO":12722,"2700":12723,"News":12724,"Ø§Ø²":12725,"ĠLM":12726,"nej":12727,"biom":12728,"ĠDAV":12729,"Ġ050":12730,"ĠÌĭ":12731,"Dig":12732,"fowl":12733,"ĠSAB":12734,"âĪĤ":12735,"GAR":12736,"!&":12737,"ĠWol":12738,"1008":12739,"1951":12740,"Hex":12741,"bia":12742,"cum":12743,"Ġdar":12744,"FU":12745,"Elig":12746,"Poor":12747,"1093":12748,"King":12749,"ATC":12750,"ĠToo":12751,"GAGE":12752,"Ġciv":12753,"1946":12754,"onto":12755,"ĠPad":12756,"ĠPET":12757,"achs":12758,"ĠXVI":12759,"CJ":12760,"thin":12761,"frac":12762,"Ġrhe":12763,"ĠPu":12764,"ĠPOP":12765,"ĠLag":12766,"zion":12767,"NULL":12768,"ĠPIN":12769,"Ġorb":12770,"edto":12771,"eca":12772,"ISI":12773,"rubs":12774,"Due":12775,"ipha":12776,"anis":12777,"ĠGAR":12778,"0900":12779,"ĠNu":12780,"film":12781,"Iowa":12782,"Inf":12783,"ĠFi":12784,"1009":12785,"ĠESR":12786,"ĠOri":12787,"'_":12788,"hill":12789,"ESA":12790,"esc":12791,"Ġ(*)":12792,">&":12793,"ØŃØ§":12794,"Ġ.\"":12795,"iane":12796,"ĠEXT":12797,"ĠHF":12798,"1909":12799,"Cond":12800,"0106":12801,"Ø±Ø¶":12802,"gif":12803,"ĠTCE":12804,"1830":12805,"Ġkon":12806,"ISTR":12807,"ERED":12808,"\",,,":12809,"/\">":12810,"thri":12811,"Ð´":12812,"ĠCub":12813,"Veg":12814,"nea":12815,"\\\":":12816,"Ġfic":12817,"Ġ040":12818,"OCIA":12819,"quef":12820,"FROM":12821,"velt":12822,"ei":12823,"ĠJUL":12824,"1226":12825,"ĠDkt":12826,"Ø§Ø·":12827,"KW":12828,"db":12829,"ului":12830,"espo":12831,"8888":12832,"oton":12833,"ĠAnt":12834,"1936":12835,"ĠPPP":12836,"daq":12837,"zu":12838,"GER":12839,"Ġyo":12840,"ZO":12841,"wau":12842,"ITES":12843,"0047":12844,"Hay":12845,"weed":12846,"Ġsof":12847,"1081":12848,"akh":12849,"midt":12850,"ĠAx":12851,"UQ":12852,"IOX":12853,"PIC":12854,",!":12855,"OCT":12856,"EOF":12857,"Bra":12858,"ESE":12859,"nold":12860,"ĠSCA":12861,"čĊĠč":12862,"?\"":12863,"Ġ025":12864,"1308":12865,"ĠHAM":12866,"ecos":12867,"ĠNom":12868,"OOOO":12869,"Ba":12870,"1102":12871,"Rob":12872,"ĠCox":12873,"Rs":12874,"ĠCSA":12875,"%(":12876,"ĠSIS":12877,"$)":12878,"ĠÃĤ":12879,"ĠNec":12880,"ĠCUS":12881,"pher":12882,"CZ":12883,"2067":12884,"Ġphy":12885,"Expl":12886,"Bat":12887,"IANA":12888,"WER":12889,"ĠNWR":12890,"ÙģØ¹":12891,"Ġç":12892,"Ġhoc":12893,"taic":12894,"IRD":12895,"Ġcem":12896,"ĠRac":12897,"riel":12898,"ilis":12899,"0039":12900,"LINE":12901,"nu":12902,"ĠCos":12903,"ĠHex":12904,"neut":12905,"zin":12906,"BILE":12907,"Hou":12908,"ĠCho":12909,"ĠGI":12910,"UTE":12911,"grp":12912,"reth":12913,"onga":12914,"ripp":12915,"anci":12916,"ĠBUT":12917,"evit":12918,"KN":12919,"API":12920,"Ġ-**":12921,"NPRM":12922,"0029":12923,"acic":12924,"ĠâĢķ":12925,"ĠEPS":12926,"olt":12927,"ĠFt":12928,"QMD":12929,"ĠKle":12930,"jour":12931,"-{":12932,"vac":12933,"2029":12934,"eno":12935,"Ġzon":12936,"Then":12937,"UTY":12938,"ÙĪÙĤ":12939,"ĠJos":12940,"0201":12941,"occo":12942,"Ġ006":12943,"Ġost":12944,"Ã©n":12945,"ĠTVA":12946,"isot":12947,"igma":12948,"Ju":12949,"ĠNSA":12950,"POSE":12951,"1944":12952,"MX":12953,"ylon":12954,"ĠAAA":12955,"Og":12956,"sume":12957,"ĠÅĵ":12958,"1022":12959,"RIPM":12960,"iret":12961,"TCT":12962,"Ġuit":12963,"JT":12964,"mess":12965,"3301":12966,"wis":12967,"1214":12968,"-((":12969,"RQ":12970,"ĠHom":12971,"anu":12972,"plen":12973,"arma":12974,"Ns":12975,"orin":12976,"wal":12977,"Load":12978,"Ġ$.":12979,"nr":12980,"Ġraz":12981,"Ġ085":12982,"ĠACP":12983,"nen":12984,"Ot":12985,"ynyl":12986,"esa":12987,"Ġhen":12988,"iese":12989,"Ġply":12990,"alli":12991,"iiii":12992,"Ġroo":12993,"Ġcel":12994,"Merc":12995,"vot":12996,"eror":12997,"xls":12998,"ĠSz":12999,"JE":13000,"ĠBad":13001,"Ġsie":13002,"ĠMov":13003,"pla":13004,"ĠTAB":13005,"':":13006,"ĠLay":13007,"ĠWis":13008,"Libr":13009,"mw":13010,"irts":13011,"cket":13012,"ĠADJ":13013,"Tech":13014,"usta":13015,"Wyom":13016,"rak":13017,"Ġthr":13018,"ĠVin":13019,"Ġcra":13020,"0330":13021,"assa":13022,"ÎĶ":13023,"ĠMah":13024,"ØµÙĦ":13025,"Ġcry":13026,"-*":13027,"ĠTUR":13028,"atum":13029,"ä»":13030,"Les":13031,"ĠïģĿ":13032,"ĠDim":13033,"1952":13034,"1915":13035,"Ġ021":13036,"Ġrea":13037,"Ġvor":13038,"ncia":13039,"ĠRis":13040,"aret":13041,"bres":13042,"VQ":13043,"RG":13044,"ZI":13045,"olls":13046,"(.":13047,"ĠNig":13048,"*),":13049,"ĠACI":13050,"Prec":13051,"ĠZn":13052,"Ġ073":13053,"Ġina":13054,"onge":13055,"0048":13056,"magn":13057,"8221":13058,"ĠASH":13059,"ienc":13060,"Ġ013":13061,"1029":13062,"edit":13063,"ĠLOW":13064,"yw":13065,"jpg":13066,"CHES":13067,"ASON":13068,"MARK":13069,"1953":13070,"âĢ¢.":13071,"KM":13072,"1028":13073,"ĠDET":13074,"ENSA":13075,"GTT":13076,"eq":13077,"1320":13078,"ĠPW":13079,"fron":13080,"rues":13081,"NEC":13082,"Ġdum":13083,"Cot":13084,"GTR":13085,"lton":13086,"\"]":13087,"3100":13088,"ĠObs":13089,"ĠMAL":13090,"Ġhem":13091,"uges":13092,"ĠSTI":13093,"Ġive":13094,"ĠCau":13095,"anic":13096,"0054":13097,"uria":13098,"ĠSEM":13099,"nish":13100,"1106":13101,"Gulf":13102,"ĠABC":13103,"BEN":13104,"ohl":13105,"1203":13106,"tsv":13107,"Ġnov":13108,"ĠFTE":13109,"ithe":13110,"Ø±Ø³":13111,"Ġdoi":13112,"'';":13113,"YG":13114,"STER":13115,"opro":13116,"ogo":13117,"AYS":13118,"ĠRL":13119,"ĠAld":13120,"zh":13121,"oriz":13122,"0107":13123,"ĠAH":13124,"JUL":13125,"Ġadm":13126,"tb":13127,"ĠMEE":13128,"ĠACO":13129,"lO":13130,"ĠPAN":13131,"TIME":13132,"ahr":13133,"itim":13134,"rony":13135,"Aven":13136,"ptly":13137,"-[(":13138,"ARKS":13139,"Ø±Ùī":13140,"1104":13141,"ĠLAS":13142,"odec":13143,"0104":13144,"Ġial":13145,"Ġlly":13146,"cand":13147,"sule":13148,"Ġdan":13149,"1938":13150,"0075":13151,"YM":13152,"1066":13153,"1114":13154,"1149":13155,"ĠJar":13156,"alfa":13157,"idi":13158,"ylin":13159,"Ø¨Øª":13160,"omp":13161,"Ãį":13162,"1027":13163,"PSE":13164,"asm":13165,"hund":13166,"AMQQ":13167,"Lab":13168,"Ġond":13169,"FOIA":13170,"ĠLAA":13171,"THLY":13172,"DX":13173,"amma":13174,"Ġ'\"":13175,"1024":13176,"ĠJUS":13177,"Div":13178,"atz":13179,"Ġ($)":13180,"Ġspi":13181,"bore":13182,"kh":13183,"UNDA":13184,"Ġuno":13185,"sav":13186,"1750":13187,"Orig":13188,"apa":13189,"ĠAmp":13190,"EME":13191,"Tot":13192,"2712":13193,"etz":13194,"INST":13195,"uras":13196,"yure":13197,"Ãŀ":13198,"ĠAck":13199,"ĠCow":13200,"ĠUB":13201,"earc":13202,"3272":13203,"got":13204,"TSB":13205,"cler":13206,"cock":13207,"Pb":13208,"1820":13209,"sha":13210,"Town":13211,"MOR":13212,"HTML":13213,"Mand":13214,"Ġmad":13215,"!.":13216,"bach":13217,"0108":13218,"Oak":13219,"ĠJur":13220,"vine":13221,"ĠDal":13222,"ohn":13223,"ORGE":13224,"Elec":13225,"vend":13226,"Vic":13227,"ambi":13228,"iety":13229,"PSD":13230,"2905":13231,"ĠKol":13232,"$$$$":13233,"UTF":13234,"Prac":13235,"ptor":13236,"ĠSab":13237,"EDI":13238,"_&":13239,"nota":13240,"ĠGov":13241,"Atl":13242,"Ġ::":13243,"ietn":13244,"KT":13245,"0530":13246,"inos":13247,"imat":13248,"nez":13249,"ÙĪÙĩ":13250,"Ġwy":13251,"Jour":13252,"ulo":13253,"Mel":13254,"Mul":13255,"Ġ017":13256,"ÙĥØ§":13257,"âİ":13258,"sere":13259,"eive":13260,"1933":13261,"Writ":13262,"skin":13263,"AMC":13264,"inas":13265,"]&":13266,"bace":13267,"ĠMun":13268,"ĠVS":13269,"Ġ\",":13270,"ĠKre":13271,"nett":13272,"Ġsty":13273,").**":13274,"ÙĬØ®":13275,"DIME":13276,"Ġ031":13277,"2250":13278,"mind":13279,"ĠFit":13280,"ĠIAS":13281,"Ġki":13282,"ĠHem":13283,"Jo":13284,"ilds":13285,"avia":13286,"ĠÃ¦":13287,"ĠSSC":13288,"thi":13289,"ĠHAS":13290,"bab":13291,".Â·":13292,"oyer":13293,"Ġnau":13294,"fab":13295,"^-":13296,"aric":13297,"ĠHOL":13298,"esy":13299,"onta":13300,"Sea":13301,"ensa":13302,"kows":13303,"ĠSIL":13304,"COA":13305,"ritt":13306,"Hen":13307,"Ġ\"(":13308,"Dom":13309,"Ġine":13310,"Ken":13311,"NPS":13312,"Ïĥ":13313,"mony":13314,"perm":13315,"ECTS":13316,"Ġà":13317,"iona":13318,"arin":13319,"ĠIIU":13320,"uM":13321,"%$":13322,"isop":13323,"ROW":13324,"2050":13325,"Ġana":13326,"itiv":13327,"flat":13328,"Cri":13329,"1312":13330,"IER":13331,"angl":13332,"#&":13333,"1096":13334,"ungi":13335,"Ġmb":13336,"ÕĬ":13337,"GHG":13338,"ĠUnd":13339,"Ġ039":13340,"laz":13341,"alb":13342,"TZ":13343,"irl":13344,"2501":13345,"Ġnn":13346,"1323":13347,"ĠORD":13348,"ĠATF":13349,"Ġsue":13350,"Ġ''":13351,"Sav":13352,"REA":13353,"ĠLEE":13354,"]âĢĶ":13355,"halt":13356,"Hig":13357,"ĠROG":13358,"GAC":13359,"ĠDRV":13360,"ĠSie":13361,"OLE":13362,"ĠCd":13363,"urel":13364,"rmoc":13365,"lact":13366,"-~":13367,"1221":13368,"wait":13369,"Germ":13370,"Tons":13371,"anus":13372,"THYL":13373,"bag":13374,"Cour":13375,"ANDS":13376,"ĠJen":13377,"issa":13378,"Ġdir":13379,"ĠBET":13380,"ĠPil":13381,"iej":13382,"DEM":13383,"unct":13384,"rank":13385,"esi":13386,"Just":13387,"Cas":13388,")--":13389,"1236":13390,"png":13391,"Ġtic":13392,"seq":13393,"igs":13394,"CRIB":13395,"aryn":13396,"Ġord":13397,"WIN":13398,"1316":13399,"ixes":13400,"aja":13401,"ĠØ¦":13402,"Far":13403,"Ġdl":13404,"Dept":13405,"ĠLak":13406,"Ds":13407,"**(*":13408,"Mi":13409,"åı":13410,"1908":13411,"Ray":13412,"ÙĨØ³":13413,"0041":13414,"amas":13415,"ARCH":13416,"FEMA":13417,"Emph":13418,"MPLA":13419,"(%)":13420,"ĠJTD":13421,"eipt":13422,"ÙģØ§":13423,"ÏĦ":13424,"cdn":13425,"Are":13426,"KC":13427,"Ġneo":13428,"Jl":13429,"ffs":13430,"took":13431,"âĹĭ":13432,"pal":13433,"surg":13434,"oxyp":13435,"9930":13436,"ZX":13437,"1901":13438,"ĠFul":13439,"**&":13440,"litt":13441,"cery":13442,"ÑĮ":13443,"ĠDAM":13444,"ÙĪØª":13445,"zoel":13446,"lees":13447,"Ġonw":13448,"ĠAy":13449,"otts":13450,"riva":13451,"Flu":13452,"fere":13453,"Hun":13454,"Fut":13455,"rept":13456,"MCR":13457,"Ec":13458,"ĠWag":13459,"park":13460,"elas":13461,"Foot":13462,"SEP":13463,"ĠICP":13464,"ÙģØ©":13465,"TOX":13466,"plot":13467,"VYT":13468,"Ċĉĉĉ":13469,"ĠJA":13470,"resa":13471,"2060":13472,"Scen":13473,"1914":13474,"Ġ%.":13475,"Ġnh":13476,"ĠFal":13477,"Ġhrs":13478,"Ġ027":13479,"BON":13480,"Mur":13481,"odat":13482,"INED":13483,"RON":13484,"Ø£ÙĬ":13485,"Ġcz":13486,"aque":13487,"vium":13488,"POSI":13489,"Ġhp":13490,"ĠRV":13491,"1055":13492,"scen":13493,"vec":13494,"Ġcf":13495,"!(!(":13496,"IH":13497,"CONS":13498,"Take":13499,"pil":13500,"ĠIPM":13501,"Bre":13502,"ĠPIP":13503,"ygon":13504,"ILE":13505,"ĠĠĊĠ":13506,"roge":13507,"1942":13508,"aney":13509,"0102":13510,"why":13511,"eway":13512,"Ġlib":13513,"<?":13514,"BH":13515,"ĠPSI":13516,"Por":13517,"Ġtou":13518,"Clim":13519,"Ġati":13520,"Ġ_.":13521,")].":13522,"FIED":13523,"amer":13524,"Ġtat":13525,"cp":13526,"HON":13527,"EIGN":13528,"ĠOmn":13529,"mens":13530,"epro":13531,"zez":13532,"Stor":13533,"lack":13534,"ĠAUD":13535,"Ġxx":13536,"1011":13537,"Bost":13538,"1929":13539,"ioac":13540,"harm":13541,"Clin":13542,");\"":13543,"9944":13544,"3636":13545,"ËĨ":13546,"spar":13547,"5312":13548,"sold":13549,"JW":13550,"Î¹":13551,"euro":13552,"CHEM":13553,"mier":13554,"Six":13555,"ĠNB":13556,"0830":13557,"dil":13558,"Anti":13559,"+#":13560,"FAX":13561,"Upd":13562,"ĠLif":13563,"ÐµÐ½":13564,"Dim":13565,"logo":13566,"wel":13567,"ferc":13568,"pump":13569,"Upb":13570,"SEM":13571,"1056":13572,"ĠĠĠč":13573,"ĠCOP":13574,"oup":13575,"ĠPAS":13576,"YEAR":13577,"san":13578,"inen":13579,"ĠLaf":13580,"univ":13581,"UTES":13582,".âĢĵ":13583,"atr":13584,"ppe":13585,"Gal":13586,"EIV":13587,"^&":13588,"QY":13589,"Ġchi":13590,"ĠSaw":13591,"lm":13592,"ĠCVJ":13593,"%`":13594,"Typ":13595,"IPP":13596,"ÙħÙĦ":13597,"yvin":13598,"NMFS":13599,"âĢĸ":13600,"tet":13601,"ĠAFB":13602,"...,":13603,"3376":13604,"0430":13605,"Ġesp":13606,"Ġ018":13607,"ĠEug":13608,"Ġnox":13609,"Ġks":13610,"iy":13611,"2401":13612,"tm":13613,"1115":13614,"}}":13615,",\\":13616,"iba":13617,"Fer":13618,"diog":13619,"HAN":13620,"asty":13621,"ĠACE":13622,"blue":13623,"ĠNAD":13624,"sky":13625,"Attn":13626,"Quan":13627,"ĠSON":13628,"zel":13629,"Î¸":13630,"tren":13631,"SUR":13632,"UO":13633,"|--|":13634,"Ġaa":13635,"ĠSEE":13636,"lym":13637,"APS":13638,"0630":13639,"5455":13640,"3178":13641,"ppl":13642,"ÙĩØ±":13643,"SITE":13644,"ĠLex":13645,"1043":13646,"ento":13647,"neal":13648,"tog":13649,"ĠFIP":13650,"dL":13651,"Ta":13652,"cov":13653,"ĠMUL":13654,"ÙĦØ¶":13655,":/":13656,"ĠDUR":13657,"ĠOtt":13658,"onf":13659,">]":13660,"join":13661,"naph":13662,"ĠTit":13663,"Ġzip":13664,"ULAT":13665,"SER":13666,"lby":13667,"ĠVHF":13668,"ikes":13669,"yen":13670,"Stra":13671,"ĠLIS":13672,"JB":13673,"Jose":13674,"YA":13675,"JUN":13676,"ĠCIS":13677,"ĠCTG":13678,"ÄĻ":13679,"ulg":13680,"7072":13681,"Ġupr":13682,"orkp":13683,"0230":13684,"1537":13685,"ĠCPA":13686,"ACCO":13687,"OWN":13688,"Å¶":13689,"ĠFay":13690,"yet":13691,"EREN":13692,"Pi":13693,"Wat":13694,"ĠKEY":13695,"2230":13696,"task":13697,"omac":13698,"ĠBOR":13699,"XV":13700,"1295":13701,"eese":13702,"ANES":13703,"Pul":13704,"ĠÏĨ":13705,"metr":13706,"BIN":13707,"BELL":13708,"CEN":13709,"ĠCel":13710,"ĠOV":13711,"ILS":13712,"ĠRon":13713,"ĠJam":13714,"ĠTu":13715,"cim":13716,"ïģ½":13717,")|":13718,"ĠSIG":13719,"PACT":13720,"RSP":13721,"ÄĤ":13722,"ĠFMC":13723,"raf":13724,"Ġ008":13725,"ÃĶ":13726,"ĠVL":13727,"ĠIHS":13728,"Ø³Ø¥":13729,"PTO":13730,"gear":13731,"tta":13732,"zine":13733,"DQ":13734,"Ø§Ø´":13735,"ĠSat":13736,"ĠlO":13737,"1240":13738,"!'":13739,"oxaz":13740,"ĠÎ»":13741,"Æļ":13742,"adic":13743,"ĠRUN":13744,"Pit":13745,"ĀĀ":13746,"tele":13747,"Ġoi":13748,"aph":13749,"tos":13750,"salt":13751,"ECO":13752,"ĠMd":13753,"cala":13754,"PRES":13755,"OLES":13756,"1304":13757,"3300":13758,"1605":13759,"/\"]":13760,"1231":13761,"Õĭ":13762,"ĠMH":13763,"ript":13764,"ĠMSC":13765,"1797":13766,"pill":13767,".âĢı":13768,"gc":13769,"Ã¬":13770,"ĠFER":13771,"ĠDIP":13772,"ĠPag":13773,"ĠEH":13774,"Ġcs":13775,"odib":13776,"otod":13777,"ĠAra":13778,"maha":13779,"Ġrg":13780,"tik":13781,"ĠÃį":13782,"lend":13783,"ĠHAZ":13784,"JOR":13785,"Î½":13786,"ĠTRI":13787,"Ġrew":13788,"Ø±Ùħ":13789,"Why":13790,"ĠARM":13791,"ĠKan":13792,"Ġbei":13793,"ĠAvg":13794,"gep":13795,"hene":13796,"ĠÏĥ":13797,"root":13798,"vit":13799,"ĠJOS":13800,"Frid":13801,"æľ":13802,"ĠPOT":13803,"NQ":13804,"ĠUSD":13805,"pas":13806,"vul":13807,"enas":13808,"Dies":13809,"1205":13810,"pile":13811,"Ġlan":13812,"wast":13813,"titi":13814,"LAR":13815,"ETT":13816,"ĠFAM":13817,"ĠCFP":13818,"bad":13819,"WHO":13820,"PRIA":13821,"Ġese":13822,"Ġsua":13823,"ASES":13824,"BOE":13825,"#,#":13826,"1535":13827,"ĠING":13828,"tota":13829,"anwh":13830,"ĠCry":13831,"1520":13832,"ĠAux":13833,"GCT":13834,"ĠBD":13835,"jgrp":13836,"ĠÐ²":13837,"cott":13838,"ĠYO":13839,"corn":13840,"olec":13841,"ĠAGL":13842,"Ø¨Ø¹":13843,"ĠâĪĳ":13844,"Avia":13845,"ĠEIN":13846,"icop":13847,"1910":13848,"ĠAY":13849,"Grow":13850,"VG":13851,"Ġjam":13852,"1023":13853,"etle":13854,"ĠDTC":13855,"POT":13856,"1804":13857,"ĠLan":13858,"*.&#":13859,"Ġ._":13860,"~'":13861,"idan":13862,"oka":13863,"Ġ023":13864,"anca":13865,"1943":13866,"ĠERV":13867,"3500":13868,"ĠRut":13869,"ĠECA":13870,"eni":13871,"arf":13872,"exec":13873,"ĠMF":13874,"0070":13875,"OPER":13876,"nick":13877,"1601":13878,"|/":13879,"0053":13880,"3428":13881,"ghs":13882,"ĠEit":13883,"esv":13884,"Circ":13885,"midd":13886,"KB":13887,"ÑĦ":13888,":///":13889,"Ġonl":13890,"ctl":13891,"Ġmaj":13892,"EXPL":13893,"KINS":13894,"ĠEIB":13895,"yon":13896,"JF":13897,"Ġ024":13898,"Ø±Ùĩ":13899,"Äħ":13900,"Ġlug":13901,"Ġsic":13902,"osto":13903,"1225":13904,"Ġsiz":13905,"ardw":13906,"ĠECC":13907,"ceae":13908,"ĠTs":13909,"1818":13910,"ĠNAV":13911,"ĠPOW":13912,"DN":13913,"onas":13914,"WTH":13915,"1315":13916,"anos":13917,"ongs":13918,"OIG":13919,"lel":13920,"0063":13921,"Ø±Ø¯":13922,"ĠSid":13923,"ĠLub":13924,"Ļ¦":13925,"ĠChi":13926,"ĠAUG":13927,"Mond":13928,"1006":13929,"wil":13930,"âĢĶ,":13931,"equi":13932,"](":13933,"uric":13934,"ĠVo":13935,"arah":13936,"Crit":13937,"yel":13938,"3777":13939,"DLE":13940,"TANA":13941,"wich":13942,"POUL":13943,"ANSI":13944,"ackw":13945,"uget":13946,"hin":13947,"Ġ($/":13948,"1511":13949,"ĠPFC":13950,"Tues":13951,"XXXX":13952,"*[":13953,":#":13954,"iki":13955,"NONE":13956,"ĠAMM":13957,"cod":13958,"ĠSTP":13959,"atel":13960,"rmom":13961,"TSS":13962,"ACS":13963,"SAs":13964,"2040":13965,"Ĥ¬":13966,"diox":13967,"wid":13968,"ĠGED":13969,"ĠLH":13970,"AMI":13971,"void":13972,"CHER":13973,"ĠSho":13974,"atie":13975,"ĠRY":13976,"1696":13977,"Ġsau":13978,"Unkn":13979,"Mus":13980,"kr":13981,"ĠKom":13982,"urus":13983,"Rare":13984,"angs":13985,"Ġomb":13986,"ĠUF":13987,"Ġmt":13988,"Yea":13989,"nah":13990,"JG":13991,"tok":13992,"Card":13993,"Ġtec":13994,"3110":13995,"ĠMSP":13996,"0322":13997,"0119":13998,"owdy":13999,"8925":14000,"MCA":14001,"ĠTOX":14002,"SEA":14003,"1119":14004,"tai":14005,"ĠRPS":14006,"tum":14007,"Ġ051":14008,"ĠFra":14009,"MEN":14010,"say":14011,"âĢľ[":14012,"ersU":14013,"}-":14014,"ÃĢ":14015,"IFT":14016,"ĠKir":14017,"ĠNac":14018,"ĊĊč":14019,"ASTM":14020,"Ġgim":14021,"2130":14022,"ILA":14023,"1599":14024,"dead":14025,"etus":14026,"Ġdys":14027,"weg":14028,"0116":14029,"uga":14030,"TOP":14031,")_":14032,"sson":14033,"3212":14034,"ĠCul":14035,"ĠTRO":14036,"Ġblo":14037,"ĠSTS":14038,"Ġnac":14039,"phc":14040,"OMA":14041,"ØªØŃ":14042,"frm":14043,"Sex":14044,"CELL":14045,"ĠMU":14046,"Ġnod":14047,"IOUS":14048,"lora":14049,"pit":14050,"ĠRoc":14051,"rv":14052,"Ġ019":14053,"beef":14054,"gain":14055,"iera":14056,"PONS":14057,"QN":14058,"1773":14059,"Ġ022":14060,"ĠGH":14061,"3019":14062,"Dall":14063,"1256":14064,"ĠOUR":14065,"odic":14066,"0105":14067,"Fly":14068,"^.":14069,"geny":14070,"ĠBak":14071,"ĠAgu":14072,"Ġphe":14073,"noaa":14074,"ĠIo":14075,"yuns":14076,"1725":14077,"Alex":14078,"ØªÙĬ":14079,"caus":14080,"Tank":14081,"ĠTHO":14082,"ĠTy":14083,"Mach":14084,"acu":14085,"ĠRul":14086,"Loan":14087,"mCon":14088,"aven":14089,"IU":14090,"2896":14091,"Whit":14092,"Ġ(%":14093,"Fees":14094,"tins":14095,"SAM":14096,"0188":14097,"Ġ065":14098,"ĠRy":14099,"ĠTah":14100,"earl":14101,"ĠVe":14102,"Ġ#(#":14103,"CURR":14104,"Quar":14105,"1526":14106,"ĠTHC":14107,"adru":14108,"FLU":14109,"Ġach":14110,"arta":14111,"áº¿":14112,"Ft":14113,"derp":14114,"lage":14115,"ĠPSE":14116,"ĠKur":14117,"hide":14118,"\":{\"":14119,"ISCO":14120,"MACT":14121,"ĠELL":14122,"NU":14123,"ĠkHz":14124,"KV":14125,"MPLI":14126,"1012":14127,"0125":14128,"Ġprz":14129,"Hold":14130,"econ":14131,"Adm":14132,"jj":14133,"osti":14134,"Ġfen":14135,"ucca":14136,"erin":14137,"SCO":14138,"riot":14139,"1145":14140,"Ment":14141,"BURG":14142,"ELA":14143,"WAII":14144,"-:":14145,"1521":14146,"peak":14147,"0049":14148,"2727":14149,"ĠHOW":14150,"ĠGun":14151,"RIC":14152,"teri":14153,"ÙĪØ¹":14154,"DoD":14155,"ĠMPa":14156,"ĠÎ³":14157,"ĠKaz":14158,"olan":14159,"Ñĩ":14160,"3900":14161,"PUR":14162,"ØµØŃ":14163,"Ġnem":14164,"webs":14165,"OCs":14166,"MOND":14167,"glut":14168,"lang":14169,"0730":14170,"ĠTT":14171,"oac":14172,"Ġail":14173,"ĠDAS":14174,"Ġ,,":14175,"ÅĿ":14176,"ESI":14177,"4400":14178,"ppb":14179,"ĠWES":14180,"phyl":14181,"ĠMik":14182,"ZONE":14183,"ĠXV":14184,"Ġowl":14185,"IGNA":14186,"uler":14187,"+/":14188,"0122":14189,"1065":14190,"uu":14191,"Roy":14192,"Ġ026":14193,"ÑĢÐ°":14194,"%\"><":14195,"ĠAIM":14196,"onam":14197,"DEA":14198,"OSP":14199,"0114":14200,"ĠAMR":14201,"isse":14202,"ĠAlk":14203,"ĠOg":14204,"ĠECL":14205,"Ger":14206,"EOUS":14207,"1922":14208,"hatt":14209,"eres":14210,"ĠTL":14211,"ocom":14212,"Ġloy":14213,"1019":14214,"stet":14215,"Ġ016":14216,"enny":14217,"REN":14218,"ordo":14219,"ĠBac":14220,"doe":14221,"ĠSPA":14222,"exa":14223,"ĠMeg":14224,"2324":14225,"mac":14226,"ĠRab":14227,"NBS":14228,"ĠLY":14229,"1905":14230,"0930":14231,"cine":14232,"ĠMIT":14233,"Ġ097":14234,"Ġust":14235,"nots":14236,").)":14237,"DIF":14238,"mag":14239,"ĠSAP":14240,"1350":14241,"ranc":14242,"Arr":14243,"Ø¯Ø§":14244,"\"&":14245,"1404":14246,"xon":14247,"Ġ037":14248,"Ben":14249,"Pont":14250,"Abs":14251,"Prel":14252,"ÙĥÙĦ":14253,"rear":14254,"Ĥ¨":14255,"ĠKIL":14256,"Unif":14257,"hept":14258,"ÙĬÙĤ":14259,"ĠDW":14260,"Dkt":14261,"+)":14262,"ĠFc":14263,"zd":14264,"nek":14265,"Ġcui":14266,"RING":14267,"Ġé":14268,"Ġjaw":14269,"3600":14270,"isto":14271,"epam":14272,"KANS":14273,"ÙĪØ¨":14274,"onen":14275,"ĠGWh":14276,"oldt":14277,"ADS":14278,"ecue":14279,"2800":14280,"iant":14281,"infl":14282,"Wall":14283,"ĠÃ¡":14284,"Ã±o":14285,"ĠJER":14286,"Prom":14287,"Ġsli":14288,"Î»":14289,"ĠOph":14290,"Lew":14291,"-)":14292,"ĠJay":14293,"0067":14294,"WX":14295,"tiza":14296,"muno":14297,"ĠMCL":14298,"ĠKam":14299,"Ġ083":14300,"ĠDaw":14301,"Pan":14302,"Ġmai":14303,"sti":14304,"EXP":14305,"ĠJew":14306,"ĠGN":14307,"ĠARC":14308,"ĠHyp":14309,"php":14310,"ĠFW":14311,"UY":14312,"SCC":14313,"Ap":14314,"Nit":14315,"oyle":14316,"1057":14317,"ako":14318,"ewa":14319,"Sher":14320,"ĠGeo":14321,"hell":14322,"ĠLac":14323,"baj":14324,"nist":14325,"#$":14326,"Eur":14327,"MONT":14328,"1105":14329,"Benz":14330,"ĠCs":14331,"nder":14332,"ĠTSF":14333,"1506":14334,"1035":14335,"ĠAuc":14336,"stay":14337,"ĠWHE":14338,"big":14339,"grou":14340,"Ġ035":14341,"bee":14342,"ETI":14343,"SHIP":14344,"1116":14345,"ĠAAC":14346,"orda":14347,"ĠNDA":14348,"DK":14349,"[\"":14350,"Ãĺ":14351,"ĠEve":14352,"2028":14353,"ĠARS":14354,"1514":14355,"FCC":14356,"Ġved":14357,"ĠQJ":14358,"hman":14359,"iev":14360,"ĠACR":14361,"epid":14362,"ĠOCT":14363,"ĠLem":14364,"Ġjed":14365,"1890":14366,"ĠAub":14367,"1919":14368,"dro":14369,"loat":14370,"Ġue":14371,"APHY":14372,",)":14373,"IDES":14374,"ĠATE":14375,"igni":14376,"Lee":14377,"nev":14378,"tenu":14379,"?.":14380,"ĠRib":14381,"TRI":14382,"UDE":14383,"petr":14384,"iesU":14385,"3495":14386,"ĠArk":14387,"1217":14388,"ĠFFD":14389,"ATCH":14390,"boat":14391,"otto":14392,"ĠVR":14393,"ĠSPS":14394,"elaw":14395,"GRE":14396,"GWh":14397,"xii":14398,"ĠOND":14399,"1711":14400,"ĠVHA":14401,"ĠTap":14402,"rios":14403,"ĠBLS":14404,"ĠDic":14405,"Cand":14406,"ĊĊĉ":14407,"ĠIH":14408,"ĠÅ":14409,"PHY":14410,"Ġaj":14411,"ESP":14412,"ØµØ±":14413,"ĠByr":14414,"Tom":14415,"ĠHil":14416,"1175":14417,"Ġvat":14418,"=-":14419,"3701":14420,"âĢĻ:":14421,"ĠPod":14422,"esso":14423,"0059":14424,"Chan":14425,"twit":14426,"KP":14427,"ĠICC":14428,"ĠPTC":14429,"1092":14430,"Ġcis":14431,"1604":14432,"ĠRFS":14433,"MID":14434,"Ġgn":14435,"eigh":14436,"0126":14437,"VING":14438,"ROP":14439,"QO":14440,"ĠKN":14441,"MAP":14442,"mega":14443,"ildf":14444,"Ġuc":14445,"upd":14446,"@@@?":14447,"3335":14448,"URS":14449,"ACO":14450,"xies":14451,"ĠRIV":14452,"ĠGes":14453,"1570":14454,"kish":14455,"ĠØ¸":14456,"ĠOrd":14457,"ĠbDD":14458,"ĠYak":14459,"Ġave":14460,"ugos":14461,"ĠCRE":14462,"ĠRFA":14463,"ĠMIR":14464,"ĠGSE":14465,"Ġ%)":14466,"ĠDVD":14467,"%\"":14468,"ĠICD":14469,"Ital":14470,"PRA":14471,"ĠASP":14472,"Race":14473,"ÙħÙĩ":14474,"ÙĬÙģ":14475,"\\.":14476,"agi":14477,")=>":14478,"NPO":14479,"ĠBOP":14480,"ARB":14481,"0150":14482,"prov":14483,"$!":14484,"tivi":14485,"anil":14486,"iliz":14487,"BJ":14488,"prel":14489,"ĠADV":14490,"ilst":14491,"igne":14492,"ĠâĢ°":14493,"maf":14494,"exus":14495,"Hot":14496,"Fa":14497,"IPA":14498,"Ġphc":14499,"uchy":14500,"NSI":14501,"1117":14502,"ERIC":14503,"TSF":14504,"Magn":14505,"chy":14506,"Cell":14507,"\\\">\\":14508,"Î³":14509,"?**":14510,"2340":14511,"dwin":14512,"'(":14513,"KES":14514,"osin":14515,"efs":14516,"?,":14517,"ãģ":14518,"ieu":14519,"esse":14520,"2860":14521,"ĠAGE":14522,"flag":14523,"nak":14524,"Ġ,.":14525,"ĠFle":14526,"ĠFEE":14527,"Ġ071":14528,"MRID":14529,"Ġgut":14530,"isti":14531,"LG":14532,"..&":14533,"0032":14534,"1215":14535,"ĠPU":14536,"ĠPPL":14537,"Ġvid":14538,"THS":14539,"UNTS":14540,"JN":14541,"ĠHRS":14542,"%*":14543,"MPON":14544,"happ":14545,"Dri":14546,"uci":14547,"Bea":14548,"ĠAus":14549,"Gly":14550,"milk":14551,"qua":14552,"2209":14553,"bted":14554,"yam":14555,"ĠPCC":14556,"JUD":14557,"TEM":14558,"Pati":14559,"ĠOX":14560,"ĠREF":14561,"ĠCoc":14562,"Ġoth":14563,"Ġfry":14564,"ĠRUS":14565,"ĠPos":14566,"ĠANO":14567,"ĠOA":14568,"Ġaes":14569,"\"?>":14570,"ollo":14571,"ortf":14572,"WECC":14573,"lift":14574,":âĢı":14575,"pun":14576,"onit":14577,"arca":14578,"0088":14579,"Past":14580,"ĠFif":14581,"Dura":14582,"ROR":14583,"ÙĪØ²":14584,"yla":14585,"Ship":14586,"2327":14587,"1931":14588,"Ġpau":14589,"2201":14590,"ĠSSM":14591,"eful":14592,"undo":14593,"Â°,":14594,"cope":14595,"pf":14596,"ĠdÃ©":14597,"ĠAGA":14598,"ĠPLC":14599,"'!":14600,"Ġplc":14601,"ODS":14602,"1293":14603,"ĠFus":14604,"Mari":14605,"ĠMaz":14606,"ĠOBD":14607,"ĠWTC":14608,"ĠToy":14609,"0090":14610,"Ġcin":14611,"0068":14612,"ĠZo":14613,"`%":14614,"Ġunt":14615,"1913":14616,"BIL":14617,"yler":14618,"ĠBPA":14619,"Mic":14620,"1309":14621,"GOV":14622,"ÃĮ":14623,"ØªØ¹":14624,"ÏĢ":14625,"KEN":14626,"/).":14627,"Bran":14628,"3055":14629,"ÙĤÙĩ":14630,"sv":14631,"Feed":14632,"gel":14633,"gia":14634,"1928":14635,"TRUM":14636,"..-":14637,"Opp":14638,"Pred":14639,"ĠCIF":14640,"ĠCCT":14641,"ÙħÙĬ":14642,"ĠNut":14643,"ĠBW":14644,"OSHA":14645,"Asp":14646,"Cut":14647,"tiz":14648,"UGI":14649,"ĠStd":14650,"]=":14651,"Tw":14652,"hev":14653,"),(":14654,"3401":14655,"GREG":14656,"aty":14657,"TIGA":14658,"jen":14659,"LJ":14660,"Sac":14661,"ĠDON":14662,"STAR":14663,"KIND":14664,"ĠCha":14665,"Eu":14666,"Ġ064":14667,"2054":14668,"ïģ¬":14669,"GY":14670,"2213":14671,"ĠOTA":14672,"ĠCov":14673,"dB":14674,"ĠHed":14675,"1044":14676,"1054":14677,"ĠWP":14678,"Ġort":14679,"1228":14680,",_":14681,"ĠEss":14682,"rk":14683,"Pes":14684,"Same":14685,"LIST":14686,":</":14687,"*!":14688,"emna":14689,"Agg":14690,"0073":14691,"recy":14692,"Eth":14693,"LAKE":14694,"Ġtn":14695,"Ø±Ø£":14696,"dent":14697,"ĠCem":14698,"sate":14699,"WIDE":14700,"ĠKE":14701,"1802":14702,"ĠkWh":14703,"Egg":14704,"Ø¬Ø¯":14705,"]</":14706,"0086":14707,"Bon":14708,"vee":14709,"MUN":14710,"Ġvib":14711,"âĢŀ":14712,"cers":14713,"tj":14714,"Ġ041":14715,"1667":14716,"Sect":14717,"NED":14718,"FX":14719,"Ġ029":14720,"iog":14721,"ĠGLO":14722,"Fab":14723,"0076":14724,"ECs":14725,"Â°.":14726,"ÙİÙİ":14727,"Diss":14728,"1305":14729,"iper":14730,"TK":14731,"ĠAPA":14732,"@@?":14733,"gag":14734,"Navy":14735,"osci":14736,"MCC":14737,"**);":14738,"%/":14739,"ĠBF":14740,"egal":14741,"Cool":14742,"qs":14743,"1245":14744,"1207":14745,"SOC":14746,"Îº":14747,"Ġxt":14748,"ĠOsw":14749,"ĠGAL":14750,"1907":14751,"9876":14752,"Ġrk":14753,"Did":14754,"Righ":14755,"ĠMV":14756,".+":14757,"ĠPSC":14758,"nine":14759,"1047":14760,"@#":14761,"\\\",":14762,"wd":14763,"æĪ":14764,"1154":14765,"xiii":14766,"Guar":14767,"tism":14768,"ankr":14769,"1452":14770,"ĠSSN":14771,"MZ":14772,"1313":14773,"ĠSUS":14774,"auto":14775,"1218":14776,"Ġelk":14777,"orid":14778,"Ig":14779,"0146":14780,"???":14781,"WIL":14782,"1640":14783,"alph":14784,"ODI":14785,"WEEN":14786,"fav":14787,"**&#":14788,"eav":14789,"ĠLOS":14790,"bol":14791,"ĠDER":14792,"LW":14793,"poor":14794,"0625":14795,"Ġeld":14796,"erey":14797,"kit":14798,"ĠSRS":14799,"2906":14800,"Ø®Øª":14801,"ĠATP":14802,"Ġ!(":14803,"ĠMEP":14804,"ablo":14805,",~":14806,"Verm":14807,"Ġ088":14808,"host":14809,"rede":14810,"AMID":14811,"ĠÃ¢":14812,"ĠHEA":14813,"Ġ))":14814,"ĠDed":14815,"MK":14816,"Avg":14817,"YER":14818,"OPIN":14819,"NAT":14820,"ĠPGI":14821,"0162":14822,"ĠDin":14823,"ĠHOR":14824,"urea":14825,"^^^":14826,"NOW":14827,"ĠEMS":14828,"Ø¬Ùĩ":14829,"ØŃØª":14830,"ĠLOG":14831,"UW":14832,"hyp":14833,"1274":14834,"ĠOTS":14835,"ABB":14836,"THIS":14837,"airb":14838,"DH":14839,"uy":14840,"ĠSV":14841,"ĠGF":14842,"ĠPCS":14843,"ĠHDD":14844,"Vote":14845,"NOV":14846,"hof":14847,"zhe":14848,"rH":14849,"Ġwed":14850,"UCK":14851,"ĠAi":14852,"PLAN":14853,"gee":14854,"ipit":14855,"opez":14856,"YH":14857,"ĠBG":14858,"WAn":14859,"ĠIRB":14860,"Ġlis":14861,"2350":14862,"Ø±Øª":14863,"1455":14864,"GRJ":14865,"iest":14866,"sipa":14867,"1550":14868,"rete":14869,"9643":14870,"olla":14871,"Equa":14872,"Ġodd":14873,"poly":14874,"Ġ$-":14875,"ewp":14876,"ÙĪØ¶":14877,"ĠVC":14878,"ERVE":14879,"1018":14880,"Trim":14881,"ĠFRM":14882,"Ġ.)":14883,"dele":14884,"ovi":14885,"ĠJJ":14886,"Ġkt":14887,"0118":14888,"1279":14889,"0074":14890,"**:":14891,"OURS":14892,"wife":14893,"PHO":14894,"atar":14895,"ĠBuy":14896,"Ġluc":14897,"1586":14898,"ĠCSI":14899,"1255":14900,"Ġroz":14901,"Ġ077":14902,"Ġski":14903,"iels":14904,"IGAN":14905,"ĠTIP":14906,"1850":14907,"verr":14908,"loop":14909,"ĠMau":14910,"ÃŃs":14911,"PARA":14912,"surf":14913,"Cler":14914,"inia":14915,"Ġeu":14916,"OECD":14917,"0129":14918,"ofol":14919,"ĠZZ":14920,"opor":14921,"Ø³Ø§":14922,"ĠOE":14923,"0495":14924,"1311":14925,"CHS":14926,"cite":14927,"ENTH":14928,"Cycl":14929,"8220":14930,"cano":14931,"ĠPf":14932,"rex":14933,"ĠPon":14934,"thus":14935,"ĠHB":14936,"ORP":14937,"Ġ*(":14938,"aple":14939,"Bio":14940,"Seg":14941,"ĠSul":14942,"CTS":14943,"Clay":14944,"1036":14945,"ĠÃĪ":14946,"YO":14947,"ĠâĹ":14948,"pren":14949,"TAM":14950,"ĠLEX":14951,"lop":14952,"ALTY":14953,"([":14954,"vr":14955,"Ġ!!":14956,"mere":14957,"ĠFix":14958,"ĠâĪļ":14959,"ĠFan":14960,"cede":14961,"Ġ079":14962,"ĠISR":14963,"âī¥":14964,"Ġoft":14965,"cox":14966,"Ġile":14967,"Ġdex":14968,"Ø¹Ùĩ":14969,"DEQ":14970,"2244":14971,"1013":14972,"bact":14973,"1303":14974,"ĠDSI":14975,"tolu":14976,"ĠGap":14977,"ĠQa":14978,"mj":14979,"ĠLip":14980,"arce":14981,"ĠATM":14982,"rizz":14983,"riev":14984,"Die":14985,"gz":14986,"Ġeac":14987,"ïĢģ":14988,"uas":14989,"ĠBH":14990,"TINE":14991,"ĠNFS":14992,"orma":14993,"ukon":14994,"dies":14995,"dan":14996,"sS":14997,"ĠInn":14998,"ĠSTD":14999,"4500":15000,"CAT":15001,"enum":15002,"XJ":15003,"ĠAbd":15004,"COT":15005,"alen":15006,"ĠEnt":15007,"Ġ\"$":15008,"ersE":15009,"mala":15010,"ZH":15011,"FQ":15012,"ØŁ":15013,"Ġ055":15014,"zza":15015,"memb":15016,"LARA":15017,"aper":15018,"fn":15019,"asse":15020,"PEG":15021,"çĶµ":15022,"ĠDIA":15023,"PW":15024,"aben":15025,"ecto":15026,"Bou":15027,"bts":15028,"TOWN":15029,"unre":15030,"Ġih":15031,"Ġdib":15032,"Ġ053":15033,"NSF":15034,"Cd":15035,"TEN":15036,"ĠHED":15037,"1041":15038,"Ġoce":15039,"ĠLut":15040,"Ã¢":15041,"Ġspo":15042,"Æ°á»":15043,"Ġapr":15044,"Ġsky":15045,"Ġxml":15046,"ĠSPE":15047,"(âĢľ":15048,"Ġfod":15049,"1048":15050,"(!":15051,"enna":15052,"GCA":15053,"Tube":15054,"mica":15055,"Ġase":15056,"1329":15057,"HOUT":15058,"eli":15059,"bru":15060,"plis":15061,"ĠAh":15062,"ĠPBS":15063,"ĠWT":15064,"1364":15065,"1618":15066,"equa":15067,"stad":15068,"2599":15069,"ĠTib":15070,"LEV":15071,"0329":15072,"ĠNik":15073,"enia":15074,"Ġuni":15075,"Enh":15076,"1017":15077,"ĠECO":15078,"chet":15079,"Barb":15080,"ĠMOU":15081,"1518":15082,"dif":15083,"Mit":15084,"hoe":15085,"0094":15086,"atta":15087,"Suff":15088,"RW":15089,"Ġdv":15090,"Ġ054":15091,"ttn":15092,"ÙĬØ¡":15093,"1265":15094,"1927":15095,"ĠCRC":15096,"ĠDew":15097,"doj":15098,"5026":15099,"vu":15100,"ĠISC":15101,"otol":15102,"secs":15103,"ESH":15104,"isle":15105,"EAK":15106,"redo":15107,"ĠPEP":15108,"ĠWAY":15109,"0115":15110,"0080":15111,"derc":15112,"seil":15113,"tube":15114,"kens":15115,"ĠBT":15116,"3345":15117,"POST":15118,"Ġnou":15119,"iph":15120,"LK":15121,"0120":15122,"roec":15123,"omi":15124,"ĠFRE":15125,"ingU":15126,"1437":15127,"ĠLNB":15128,"1475":15129,"Rank":15130,"miny":15131,"EUS":15132,"tac":15133,"0134":15134,"babb":15135,"Ġsup":15136,"Ġ059":15137,"reim":15138,"ENRY":15139,"BRA":15140,"ĠPie":15141,"PUFF":15142,"1058":15143,"kept":15144,"1926":15145,"tru":15146,"(âķĲ":15147,"OAS":15148,"Ġ(``":15149,"lord":15150,"eads":15151,"alum":15152,"ĠGEO":15153,"icus":15154,"olym":15155,"Ġsoy":15156,"ogan":15157,"lac":15158,"ospa":15159,"ECIF":15160,"sac":15161,"~:":15162,"PDO":15163,"1916":15164,"Ġ038":15165,"uaz":15166,"åĪ":15167,"1918":15168,"Ġek":15169,"NAJ":15170,"ooo":15171,"ĠPWR":15172,"ĠFu":15173,"Ð¾Ð²":15174,"oC":15175,"atth":15176,"aids":15177,"OCS":15178,"Camb":15179,"zeg":15180,"ÙĤÙĦ":15181,"ĠWo":15182,"clo":15183,"2714":15184,"Ġuld":15185,"Ġ036":15186,"tied":15187,"Cod":15188,"Cult":15189,"Ġboy":15190,"VLAP":15191,"bark":15192,"ĠJEW":15193,"IW":15194,"ej":15195,"Zn":15196,"gm":15197,"iney":15198,"RAP":15199,"LOCA":15200,"NAC":15201,"_|":15202,"oris":15203,"EK":15204,"cid":15205,"Repl":15206,"-**":15207,"âĢĶ*":15208,"pap":15209,"ĠCMP":15210,"1504":15211,"ELLY":15212,"fing":15213,"cms":15214,"bd":15215,"Ġ043":15216,"ĠÏģ":15217,"CUS":15218,"Fall":15219,"ĠHOM":15220,"Hi":15221,"ĠDT":15222,"ĠRN":15223,"ĠEW":15224,"?:":15225,"usz":15226,"1932":15227,"Ġ086":15228,"cci":15229,"ĠÐ¸":15230,"è¡":15231,"AFS":15232,"ĠHab":15233,"Ġ068":15234,"ĠRee":15235,"ĠPOS":15236,"Ø¯Ùĩ":15237,"dle":15238,"ahu":15239,"ĠÃ£":15240,"ĠGD":15241,"Vit":15242,"ZK":15243,"]/":15244,"ĠNCA":15245,"ĠPMN":15246,"JDP":15247,"1137":15248,"1515":15249,"`*":15250,"beta":15251,"iei":15252,"ĠÎ¼L":15253,"XP":15254,"GSA":15255,",:":15256,"Ġ067":15257,"pts":15258,"=+":15259,"afe":15260,"JACK":15261,"ĠSAT":15262,"1177":15263,"alic":15264,"ocul":15265,"Ġrhy":15266,"1401":15267,"neit":15268,"grat":15269,"Ġnep":15270,"ĠHU":15271,"1268":15272,"Ġavg":15273,"lip":15274,"Ala":15275,"Bell":15276,"Keep":15277,"Ġcd":15278,"UAV":15279,"mr":15280,"1151":15281,"ĠTul":15282,"IFO":15283,"Ġ049":15284,"ĠPam":15285,"Ġreq":15286,"ĠLN":15287,"Ø¯Ø±":15288,"ĠOEM":15289,"cfr":15290,"ĠLud":15291,"Ġalc":15292,"4900":15293,"bot":15294,"Ġfog":15295,"ipm":15296,"ĠGuy":15297,"Get":15298,"wra":15299,"Skip":15300,"iri":15301,"eco":15302,"ĠKi":15303,"ĠCEA":15304,"alm":15305,"dera":15306,"ĠÏĢ":15307,"1120":15308,"Ġ034":15309,"isky":15310,"1299":15311,"2617":15312,"ĠCNG":15313,"Iron":15314,"elen":15315,"ĠRWY":15316,"alez":15317,"amus":15318,"Brid":15319,"DOJ":15320,"1118":15321,"Ġ076":15322,"agor":15323,"vera":15324,"Luc":15325,"_\\`":15326,"Fac":15327,"yah":15328,"/^":15329,"tho":15330,"SBA":15331,"trig":15332,"Ġ057":15333,"1310":15334,"1658":15335,"tens":15336,"1417":15337,"udio":15338,"VIA":15339,"Wide":15340,"2913":15341,"cfs":15342,"COs":15343,"1129":15344,"ĠDir":15345,"Ġ045":15346,"ĠTug":15347,"hert":15348,"EH":15349,"Ġ069":15350,"ĠBRE":15351,"ĠĊĠĠ":15352,"ĠLAT":15353,"ĠWer":15354,"AMM":15355,"voir":15356,"1423":15357,"\"@":15358,"EMES":15359,"ÆĮ":15360,"belt":15361,"ONEY":15362,"ĠLun":15363,"HRI":15364,"ĠPGS":15365,"peia":15366,"TAH":15367,"ĠDJ":15368,"iteh":15369,"1921":15370,"'*":15371,"hh":15372,"ÙĪÙģ":15373,"Ġ'.":15374,"ilo":15375,"1806":15376,"Ġduc":15377,"SSI":15378,"dium":15379,"ZT":15380,"Sit":15381,"ĠIDA":15382,"hrs":15383,"0127":15384,"Å¾":15385,"ÙĪÙī":15386,"Ġupp":15387,"ĠFAB":15388,"LLEC":15389,"BLS":15390,"Flex":15391,"Hall":15392,"APOL":15393,"cav":15394,"1306":15395,"prod":15396,"%**":15397,"1705":15398,"ĠSEF":15399,"PGI":15400,"ogg":15401,"chez":15402,"{}.":15403,"push":15404,"ØĽ":15405,"1244":15406,"gap":15407,"2439":15408,"ĠCRS":15409,"ĠLTE":15410,"Yel":15411,"pock":15412,"0084":15413,"dyn":15414,"uay":15415,"Sedi":15416,"pion":15417,"ĠMEX":15418,"Ġire":15419,"/,":15420,"ĠGUI":15421,"ĠXL":15422,"wort":15423,"Esc":15424,"Ka":15425,"Aqu":15426,"..,":15427,"WES":15428,"/_":15429,"Ġ089":15430,"Sem":15431,"1314":15432,"wor":15433,".._":15434,"adia":15435,"Ġgov":15436,"Ġ047":15437,"ĠCCH":15438,"ĠRAC":15439,"adly":15440,"CNS":15441,"FESS":15442,"erd":15443,"ctal":15444,"TERM":15445,"spro":15446,"1501":15447,"ÙĮ":15448,"abwe":15449,"1209":15450,"1227":15451,"Ġtoe":15452,"0085":15453,").(":15454,"amar":15455,"âĺ":15456,"orem":15457,"chee":15458,"ĠSay":15459,"Ġâĺ":15460,"Mt":15461,"quez":15462,"ĠWWW":15463,"3173":15464,"Tob":15465,"1208":15466,"ĠGay":15467,"1032":15468,"dv":15469,"3201":15470,"ĠAIF":15471,"ĠÃħ":15472,"Fill":15473,"uese":15474,"ĠFou":15475,"INTS":15476,"0544":15477,"ouds":15478,"Ġtel":15479,"lens":15480,"atb":15481,"tip":15482,"anka":15483,"BRO":15484,"3067":15485,"0135":15486,"1917":15487,"1122":15488,"\"}":15489,"bold":15490,"male":15491,"gren":15492,"Ġ095":15493,"ĠGUE":15494,"APPE":15495,"ogly":15496,"Ġard":15497,".^":15498,"ĠPIL":15499,"Ġpeo":15500,"Tes":15501,"Xl":15502,"osex":15503,"Ll":15504,"TTT":15505,"iji":15506,"Hart":15507,"Seat":15508,"Ġdc":15509,"ĠPEC":15510,"pani":15511,"ĠOHV":15512,"Ġpom":15513,"1202":15514,"1139":15515,"AIM":15516,"CCP":15517,"Bern":15518,"ĠZe":15519,"ĠDCN":15520,"ĠĠčĊ":15521,"ĠPHO":15522,"2288":15523,"IPO":15524,"CPO":15525,"bush":15526,"DON":15527,"ĠÃĥ":15528,"Dise":15529,"Jean":15530,"mea":15531,"ĠCec":15532,"ĠAro":15533,"agul":15534,"NAN":15535,"alte":15536,"stri":15537,"><\\/":15538,"0095":15539,"Cast":15540,"sd":15541,"ÙħØ´":15542,"ĠCED":15543,"ÙħØª":15544,"TTE":15545,"Fis":15546,"YC":15547,"Ð¿":15548,"inga":15549,"9870":15550,"vl":15551,"otin":15552,"chl":15553,"DJ":15554,"ĠIon":15555,"1388":15556,"lew":15557,"0096":15558,"iseb":15559,"3211":15560,"3001":15561,"erra":15562,"Ġsv":15563,"itte":15564,"ĠCIO":15565,"auk":15566,")..":15567,"hab":15568,"ICT":15569,"Ø§Ø³":15570,"Mu":15571,"ROLL":15572,"Ġ099":15573,"ĠMAS":15574,"else":15575,"NMR":15576,"2037":15577,"Ġkom":15578,"XM":15579,"PMA":15580,"1034":15581,"azon":15582,"odel":15583,"dol":15584,"erks":15585,"Ġova":15586,"Core":15587,"Je":15588,"FLOW":15589,"1335":15590,"enci":15591,",$":15592,"3266":15593,"Et":15594,"ĠESF":15595,"2502":15596,"bons":15597,"Ġ084":15598,"ĠNPL":15599,"houn":15600,"ĠrÃ©":15601,"Py":15602,"ĠOpt":15603,"nrc":15604,"MAIL":15605,"ĠAbu":15606,"Ġwol":15607,"Suc":15608,"ĠCEN":15609,"Ġ.:":15610,"2436":15611,"DAQ":15612,"lez":15613,"ĠSES":15614,"Linc":15615,"Ġya":15616,"ĠSOU":15617,"ĠHTT":15618,"iage":15619,"ĠAFS":15620,"acin":15621,"sear":15622,"ĠDas":15623,"ĠPCM":15624,"ithi":15625,"Airw":15626,"REP":15627,"'')":15628,"))))":15629,"OPEN":15630,"ĠÐ½":15631,"Prog":15632,"ĠTRT":15633,"ELY":15634,"GGT":15635,"1606":15636,"9920":15637,"ĠPg":15638,"FUND":15639,"Ġnue":15640,";<":15641,"OAc":15642,"Sr":15643,"1661":15644,"ĠPCA":15645,"?_":15646,"ĠKay":15647,"Pas":15648,"1064":15649,"ĠICA":15650,"ÙĩØ¯":15651,"vour":15652,"anan":15653,"Ġiso":15654,"OPR":15655,"ĠLor":15656,"++++":15657,"Ġlys":15658,"Ġïģ¯":15659,"tas":15660,"Ġ032":15661,"ĠNap":15662,"ĠSHO":15663,"APCD":15664,"xes":15665,"xl":15666,"1144":15667,"Ġite":15668,"TES":15669,"kle":15670,"ĠDCM":15671,"aza":15672,"0156":15673,"sort":15674,"ĠAIG":15675,"2026":15676,"1157":15677,"NREL":15678,"'',":15679,"yls":15680,"inac":15681,"2402":15682,"1176":15683,"NEPA":15684,"oug":15685,"ĠLCD":15686,"ĠSUN":15687,"âĢ¡":15688,"emo":15689,"0042":15690,"Ġvom":15691,"%!":15692,"bay":15693,"wk":15694,"gett":15695,"-/":15696,"ĠDog":15697,"ĠÑģ":15698,"adec":15699,"ĠOAS":15700,"ZG":15701,"uart":15702,"nery":15703,"arek":15704,"VF":15705,"1288":15706,"ALEX":15707,"ĠPN":15708,"ĠISP":15709,"meal":15710,"ĠHMO":15711,"roug":15712,"Ġgum":15713,"ĠTEN":15714,"ĠMEN":15715,"Cita":15716,"ĠUIF":15717,"XW":15718,"Ġ078":15719,"Ġhac":15720,"ĠFru":15721,"Ġvin":15722,"Cit":15723,"isol":15724,"nap":15725,"NK":15726,"2101":15727,"ĠEro":15728,"aski":15729,"sip":15730,"BDA":15731,"ĠCay":15732,"2031":15733,"ERO":15734,"qq":15735,"ipb":15736,"ĠJoy":15737,"romb":15738,"1576":15739,"Las":15740,"Ġ(&":15741,"IAR":15742,"Ġery":15743,"Ġ061":15744,"UMIN":15745,"IFOS":15746,"lij":15747,"lus":15748,"0144":15749,"EAL":15750,"Vern":15751,"orah":15752,"ĠERC":15753,"1123":15754,"tool":15755,"pref":15756,"mom":15757,"ĠFB":15758,"mins":15759,"alc":15760,"ĠKh":15761,"ĠPII":15762,"Stk":15763,"ysty":15764,"Ġfou":15765,"Ġ042":15766,"Ġbak":15767,"IQ":15768,"0310":15769,"2039":15770,"2901":15771,"0701":15772,"verd":15773,"welf":15774,"],&#":15775,"Ġght":15776,"ibou":15777,"liti":15778,"Furn":15779,"lib":15780,"Ġsia":15781,"Ġcub":15782,"Ð·":15783,"ĠSIN":15784,"^,":15785,"THEN":15786,"Ø«ÙĦ":15787,"QUID":15788,"Â¡":15789,"Salt":15790,"blow":15791,"tras":15792,"Ø¶ÙĬ":15793,"Ġ044":15794,"ĠSMP":15795,"').":15796,"DPC":15797,"...]":15798,".<":15799,"Sens":15800,"Bed":15801,"CCT":15802,"ĠCed":15803,"Gall":15804,"plar":15805,"muta":15806,"Ġzz":15807,"orkg":15808,"ĠOst":15809,"Ġ093":15810,"acea":15811,"5500":15812,"ĠNPR":15813,"1620":15814,"1924":15815,"'>":15816,"ATI":15817,"Ġ074":15818,"Face":15819,"ĠGG":15820,"ĠTSP":15821,"1347":15822,"ĠACA":15823,"asey":15824,"vn":15825,"LAF":15826,"Tay":15827,".**;":15828,"0199":15829,"ĠDy":15830,"ĠïĻ":15831,"NSPS":15832,"ÏĤ":15833,"1875":15834,"zek":15835,"Raw":15836,"Ø¬Ø¨":15837,"Para":15838,"XR":15839,"anni":15840,"GED":15841,".$":15842,"ĠHRI":15843,"Ji":15844,"ĠIMF":15845,"fb":15846,"ĠKon":15847,"ĠUG":15848,"Deg":15849,"sb":15850,"unsw":15851,"Bark":15852,"Ø¬Ø±":15853,".?":15854,"fla":15855,"ĠRol":15856,"1611":15857,"izi":15858,"ĠCPP":15859,"!,":15860,"LEE":15861,"2042":15862,"Mak":15863,"jl":15864,"ĠPVC":15865,"PAA":15866,"arns":15867,"adig":15868,"1378":15869,"'~":15870,"Rand":15871,"ALLS":15872,"ĠGir":15873,"dog":15874,"cham":15875,"1289":15876,"olyb":15877,"ĠIBM":15878,"ylen":15879,"ĠIsd":15880,"pick":15881,"1216":15882,"PSI":15883,"Roll":15884,"DREN":15885,"BANK":15886,"OLS":15887,"TEA":15888,"REW":15889,"cem":15890,"Cook":15891,"amie":15892,"rocy":15893,"Judg":15894,"Sett":15895,"phic":15896,"ĠZim":15897,"fenc":15898,"ĠANC":15899,"Ear":15900,"Ãģ":15901,"ctr":15902,"Oi":15903,"aaaa":15904,"Cre":15905,"undy":15906,"ĠEDF":15907,"pai":15908,"åľ":15909,"1125":15910,"TJ":15911,"ĠACK":15912,"lain":15913,"jer":15914,"akth":15915,"ÙħØ¯":15916,"ĠNAC":15917,"ĠRTR":15918,"ĠCav":15919,"fon":15920,"btn":15921,"jon":15922,"Ack":15923,"Ġ087":15924,"ĠIQ":15925,"Stop":15926,"Turn":15927,"LAC":15928,"Pent":15929,"Ġ075":15930,"1891":15931,"1617":15932,"2059":15933,"Ġvy":15934,"ĠHwy":15935,"ackl":15936,"Å¼":15937,"0083":15938,"rar":15939,"ranz":15940,"JEFF":15941,"ĠUg":15942,"eous":15943,"whom":15944,"Ġâľ":15945,"uje":15946,"Aid":15947,"Subs":15948,"EJ":15949,"itax":15950,"dip":15951,"ĠEPC":15952,"ĠWIC":15953,".''.":15954,"FOA":15955,"scan":15956,"ÙĤØ·":15957,"LEAR":15958,"Ġquo":15959,"mini":15960,"Ġbif":15961,"ĠDOB":15962,"Braz":15963,"FIP":15964,"1493":15965,"rior":15966,"1053":15967,"ORM":15968,"ĠEHR":15969,"idiz":15970,"ĠGel":15971,"ĠWM":15972,";),":15973,"Ġlor":15974,"ĠEis":15975,"1748":15976,"ĠICS":15977,"ĠHUB":15978,"NODE":15979,"ĠAlg":15980,"\"`":15981,"3068":15982,"3175":15983,"Au":15984,"oons":15985,"rika":15986,"BTU":15987,"shi":15988,"pc":15989,"ĠCIT":15990,"7110":15991,"ĠCDR":15992,"ĠRoh":15993,"ICs":15994,"'\\":15995,"IAC":15996,"fes":15997,"Week":15998,"1298":15999,"nula":16000,"mato":16001,"CHE":16002,"3229":16003,"Ġua":16004,"1881":16005,"7777":16006,"Cham":16007,"ĠLV":16008,"@,":16009,"+$":16010,"OPYR":16011,"adro":16012,"1038":16013,"Ġ==":16014,"Ġope":16015,"iken":16016,"ĠGh":16017,"-->":16018,"ĠBeg":16019,"ango":16020,"Ø£Ùħ":16021,"ereo":16022,"Ø¨ØŃ":16023,"HED":16024,"NAV":16025,"ĠÎ¼M":16026,"ĠSny":16027,"napp":16028,"ĠSed":16029,"2382":16030,"ĠïĢģ":16031,")))":16032,"ĠDOI":16033,"Ġgeb":16034,"ĠFRL":16035,"baum":16036,"ĠStr":16037,"FFIC":16038,"1237":16039,"Va":16040,"6667":16041,"ucat":16042,"Cf":16043,"Jac":16044,"^/":16045,"Ø«Ø±":16046,"ELER":16047,"ĠRU":16048,"1033":16049,"Ġsap":16050,"0145":16051,"IVAN":16052,"ANDA":16053,"ĠRid":16054,"Wr":16055,"rids":16056,"ĠNCI":16057,"iped":16058,"UBA":16059,"Az":16060,"ORNE":16061,"ĠMEL":16062,"IMO":16063,"ĠCn":16064,"2657":16065,"ecd":16066,"NDIC":16067,"chb":16068,"1186":16069,"adap":16070,"ADEL":16071,"ĠESC":16072,"ĠOc":16073,"3400":16074,"ITIC":16075,"Tor":16076,"onne":16077,"Pend":16078,"âľ":16079,"XQ":16080,"1402":16081,"Ġck":16082,"Ġ.]":16083,"nk":16084,"Ġvoy":16085,"?\\":16086,"(%":16087,"copl":16088,"Used":16089,"CDF":16090,"vill":16091,"ĠUd":16092,"ureU":16093,"FAM":16094,"ĠXXI":16095,"Nay":16096,"ĠANA":16097,"ĠMln":16098,"Roof":16099,"ĠSAE":16100,"Ġdew":16101,"1322":16102,"('-":16103,"æĸ":16104,"ĠExh":16105,"sym":16106,"lte":16107,"NAM":16108,"ĠNU":16109,"1252":16110,"1703":16111,"1835":16112,"ĠMcL":16113,"Ġ091":16114,"1813":16115,"coa":16116,"ĠCAB":16117,"^'":16118,"Ace":16119,"orns":16120,"amon":16121,"Lean":16122,"ĠBSA":16123,"ĠADC":16124,"âĨĴ":16125,"MEF":16126,"Mode":16127,"ÑĤÐµ":16128,"MHT":16129,"agna":16130,"arez":16131,"SJ":16132,"Ġthu":16133,"ISM":16134,"dios":16135,"ahy":16136,"ĠFIB":16137,"rul":16138,"Ġpis":16139,"chiv":16140,"PK":16141,"à¸":16142,"Ġhn":16143,"chin":16144,"1333":16145,"XO":16146,"hler":16147,"ÕĦ":16148,"VAT":16149,"obl":16150,"stin":16151,"[=":16152,"ariz":16153,"ĠTFT":16154,"1903":16155,"1405":16156,"ENTO":16157,"1172":16158,"1071":16159,"ĠBt":16160,"Riv":16161,"ĠHob":16162,"Ġoss":16163,"heid":16164,"jas":16165,"ĠRah":16166,"(){":16167,"Â·-":16168,"âī¦":16169,"),]":16170,"1219":16171,"atee":16172,"ĠKor":16173,"ĠSeb":16174,"Boe":16175,"Ġgaz":16176,"âĢĺ[":16177,"Fla":16178,"Ġrpm":16179,"eln":16180,"ĠBOE":16181,"pork":16182,"esan":16183,"1321":16184,"aac":16185,"æĶ":16186,"áº£":16187,"1155":16188,"ORAT":16189,"pn":16190,"Ã£o":16191,"EIP":16192,"TAX":16193,"Has":16194,"Ġ081":16195,"[/":16196,"eo":16197,"team":16198,"EVP":16199,"1714":16200,"ZY":16201,"eton":16202,"Wi":16203,"1039":16204,"dern":16205,"ĠMDR":16206,"Anth":16207,"PQ":16208,"odo":16209,"3101":16210,"icc":16211,"ĠLAM":16212,"Ru":16213,"gard":16214,"ĠHir":16215,"hdad":16216,"Was":16217,"ĠDol":16218,"Ð¹":16219,"heed":16220,"xv":16221,"ĠPig":16222,"Ah":16223,"ĠDos":16224,"FEB":16225,"arom":16226,"ecan":16227,"ĠBON":16228,"Ã©d":16229,"1505":16230,"à¯":16231,"2892":16232,"%]":16233,"4162":16234,"jor":16235,"1650":16236,"tila":16237,"ĠAES":16238,"ĠCHP":16239,"Ġbri":16240,"ĠERS":16241,"lide":16242,"zar":16243,"~%":16244,"8037":16245,"çĶ¨":16246,"Ġbij":16247,"ĠLav":16248,"ĠBSE":16249,"ĠKR":16250,"zk":16251,"ĠVM":16252,"WLED":16253,"TTON":16254,".,.":16255,"tc":16256,"ĠGob":16257,"zia":16258,"ĠJU":16259,"bip":16260,"Ġtib":16261,"ĠKra":16262,"ĠØŁ":16263,"Ġ094":16264,"ĠEye":16265,"+.":16266,"Ġeco":16267,":_":16268,"KF":16269,"EAST":16270,"5922":16271,"chip":16272,"blog":16273,"ÆĲ":16274,"?âĢĻ":16275,"1801":16276,"NAL":16277,"1067":16278,"1502":16279,"Ġ072":16280,"Ø±ÙĤ":16281,"iamo":16282,"Ġofw":16283,"rati":16284,"ĠÎ¼l":16285,"ĠRfD":16286,"1275":16287,"xa":16288,"1249":16289,"pis":16290,"uan":16291,"ĠOce":16292,"Ġerv":16293,"ltr":16294,"Oral":16295,"Made":16296,"ĠKas":16297,"ĠOFA":16298,"TIU":16299,"ĠTON":16300,"erel":16301,"Ġnap":16302,"ĠASE":16303,"obac":16304,"0137":16305,"arst":16306,"1418":16307,"rero":16308,"Â¬":16309,"ĠRTC":16310,"ĠEVP":16311,"Copy":16312,").*":16313,"Ġej":16314,"Ġnei":16315,"ecte":16316,"ĠÂ¡":16317,"tg":16318,"ĠECU":16319,"Rapp":16320,"Ġino":16321,"ĠTDD":16322,"ĠMDA":16323,"0124":16324,"_\"":16325,"ĠaDD":16326,"alan":16327,"anut":16328,"Ġyrs":16329,"ĠCPI":16330,"Ô¼":16331,"ĠGWP":16332,"Ãĸ":16333,"1031":16334,"']":16335,"uing":16336,"ĠICT":16337,"ZJ":16338,"Dam":16339,"ĠBun":16340,"3027":16341,".))":16342,"Mot":16343,"ĠVFR":16344,"1338":16345,"yll":16346,"Ġ.'":16347,"Î·":16348,"etna":16349,"1069":16350,"1173":16351,"Ġwie":16352,"bard":16353,"Ġix":16354,"0154":16355,"Canc":16356,"2711":16357,"inol":16358,"ĠEEC":16359,"quet":16360,"Ġbez":16361,"ĠMts":16362,"OTE":16363,"ĠJM":16364,"ĠCPL":16365,"math":16366,"esp":16367,"sf":16368,"Ñħ":16369,"reh":16370}