#version: 0.2
Ġ i
â Ģ
t o
Ġ c
i o
a l
o f
s e
d e
Ġ of
io n
a r
i t
Ġ p
s t
l e
_ _
n g
m e
Ġ f
o u
i ng
Ġ w
. .
Ġi n
h a
Ġ č
Ġ b
Ġ to
i c
t ion
Ġ t
Ġ r
i s
v e
ï ¿
Ġ s
Ġ C
Ġ 1
l a
ï¿ ½
n e
r o
0 0
Ġr e
Ġ S
c e
a s
Ġ e
Ġc o
me n
r t
o t
Ġ A
Ġ D
__ __
Ġ d
Ġ m
r a
men t
ha t
Ġ 2
Ġ P
Ġ n
p e
i l
Ġ (
u r
.. ..
Ġ de
g e
i e
Ġt hat
Ġ I
c t
Ġf o
Ġ T
l y
Ġ h
Ġb e
Ġ F
t h
Ã ¿
Ġfo r
a tion
r i
i r
Ġi s
to r
i f
Ġ M
c o
p o
u n
c h
n s
l o
e e
s s
f e
la i
Ġ N
de r
a se
Ġ R
Ġp ro
n ce
m p
Ġ B
t a
it h
l i
t s
Ġ as
âĢ Ļ
st a
Ġ se
Ġn ot
Ġ O
Ġs u
Ġ ha
0 1
____ ____
Ġco n
a y
u e
Ġ 0
a b
a d
r s
Ġw h
i g
Ġ E
a ge
Ġ L
Ġ 3
f o
i le
h is
Ġw ith
ar e
p t
a c
b e
r m
.... ....
ou n
Ġ al
i d
i ve
Ġb y
ou rt
n y
ĠC o
ĠD e
Ġ v
Ġp e
o c
Ġ y
it y
a p
âĢ ľ
d ing
Ġ U
u s
Ġ un
ic e
Ġh e
Ġt his
i de
Ċ Ġ
d a
âĢ Ŀ
Ġ 4
ar t
ĊĠ Ġ
ve r
o w
th e
u t
Ġe x
ĠT h
ĊĠĠ Ġ
Ġ W
l d
ĊĠĠĠ Ġ
r u
i st
Ġw as
a ny
Ġ J
fe n
Ġ 5
ur e
Ġ g
i ne
lai n
Â §
Ġ H
n c
e c
Â ł
ĠTh e
ie s
it ion
d i
q u
Ġp r
Ġm a
Ġs h
k e
a m
ĊĠĠĠĠ Ġ
Ë Ĩ
b tor
ile d
u l
lain t
ot h
sta t
Ġy ou
Ġ ap
Ġm o
o l
da n
u m
a i
fen dan
u se
E R
i al
Ġ |
Ġ 6
Ã¿ Ã¿
d u
Ġ any
ro m
) .
o ne
it e
e st
Ġ j
ĊĠĠĠĠĠ Ġ
lai m
if f
n a
1 0
ta t
ar y
' s
ir e
Ġ are
i m
Ġ G
a g
âĢ ŀ
laint iff
Ġ $
Ġw e
Ġ ac
Ġ li
Ġ ad
O N
Ġ 7
Ġf rom
n k
oth e
o b
ĠI n
u d
stat e
1 2
Ġd is
Ġc ourt
Ġ1 9
ï¿½ ï¿½
1 9
be r
Ġ la
Ġi t
othe r
Ã ½
r ee
ic h
ou ld
tion s
po rt
u ment
Â ¿
Ġ me
Ġ âĢľ
Ã ¾
ĠR e
ai n
a ct
h t
f f
il l
v ide
Ġpr e
ab le
O R
o p
ĠD oc
c l
m m
tat e
Ġ -
oun t
1 1
________ ________
Ġc ase
Ġun der
âĢ ļ
u st
n al
ĠN o
d s
........ ........
Ġp art
a me
Ġre s
Ġ le
t t
Ġha ve
2 0
Å ½
p r
Ġc laim
a nk
00 0
Â ¯
fo r
fendan t
ou t
Ġ2 01
A T
E D
Ã Ĥ
Â ¶
Ã Ĺ
ĠS tate
âĢ Ķ
ĠP age
Ġap p
Æ Ĵ
e m
Ġn o
r ic
i p
ie d
Ġ 8
the r
ch e
Ã »
Ġcon t
se s
Ġe n
m a
Ġwh ich
- -
Ġ .
Ġ1 0
Å ł
l l
âĢ ĺ
1 5
I N
Ġwh e
âĢ ĵ
Ġ 9
Ġ other
ite d
Â ·
ment s
Ġh is
1 3
Ã º
u al
c tion
) ,
ĠC ourt
s o
Ã ·
Ġ Â§
al l
Ġ state
i me
de d
Ġ st
Ġ ne
âĢ ł
pe rt
E S
Ġ [
1 6
Ġha s
fe r
lo w
se d
i a
Ġd o
. ,
Ġco mp
Ã «
Ġsu b
Ã Ł
t ing
la n
1 4
Ġal l
Ġ "
e rm
co r
Ġin t
s u
l ic
e ct
Ġ *
c y
q ue
Ã ©
r der
t ition
i b
ar d
fo rm
D e
Ġde btor
E N
ĠF iled
Ġ1 2
C ase
de n
f t
Ã ĵ
Ã µ
Ġc h
Â Ń
Ã ļ
Â ¢
I T
âĢ ¡
č Ċ
n o
Ã Ĵ
1 7
r v
ri al
Ġint e
âĢ ¦
e a
Ã ¯
Ġ ag
Ġ ab
Å ¡
2 2
Ġc a
A N
Ġ2 00
ĠO F
Ã Ń
Â °
1 8
Â µ
ru pt
Ċ Ċ
ic al
la t
cl u
pert y
Ġ ob
m i
ĠU n
ank rupt
ou r
se n
ankrupt cy
I S
Â «
ĠDoc ument
ut e
Ġ1 1
Â ¡
is s
Ġhe r
Ġi f
e ar
ation s
Â º
ra t
e ss
Å ¸
Ġs o
Å ĵ
le d
Ã ¡
Ã ¶
z e
Ã Ĳ
s c
Ã ĥ
Â »
Â ¥
ve n
I C
I ON
ĠP laintiff
Ã ´
Ġm ay
n ing
Â ®
qu ire
i v
2 5
Ã ģ
h o
Ġ1 3
o ver
Ġ Y
Ã Ī
Ġ V
Ã ķ
âĢ ¢
Â ´
T h
e x
Ë ľ
Ġ ar
r y
po n
c a
Ã ¨
ne r
Ġ lo
u b
rs o
Ġsu ch
A L
Ġp o
Ġpe r
o rder
Ã Ŀ
n ion
ou g
Ã Ľ
il ing
Ā Ā
Â ¤
i nion
se l
a v
Th e
) (
2 01
Ã ĺ
lat e
Ġc r
ĠS e
2 4
Â ¦
ha n
2 3
Â ½
Â ª
que st
tt e
op inion
ric t
if ic
ra tion
rt h
â Ĥ
Ã ¸
ĠF o
ne y
pr e
Å Ĵ
ra n
co n
âĢ ¹
ig ht
Å ¾
ne d
âĢ º
Ġi ts
Ġco m
Ġen t
Ġf i
Ġin clu
ce ss
di v
D D
w e
it t
Ã ĸ
ĠP ro
Ġ one
Â ¾
O U
Ã ª
2 1
Â ±
ng e
Ã ĩ
ĊĠĠĠĠĠĠ Ġ
Ã °
âĤ ¬
Â ©
l ie
is ion
Ġwe r
Ġwer e
sta n
m o
Ġf iled
for e
Ġw ould
Ġt ra
Ġre quire
Ġpe tition
as o
Ġp ur
Ã ĳ
Ġha d
0 7
den t
Ã ®
a ch
Ã ¼
pt e
p p
r k
Ġco ns
Ġ k
Ġw ill
Ġp ay
ist rict
lo y
ine d
d ic
form ation
pe c
. âĢĿ
d r
ĠState s
ig n
Ã ¢
Ġt ime
Ġ K
Ġde fendant
A R
Ġf a
Ã ¤
â Ħ
Ġap pe
âĢ °
sen t
mp loy
Ã ¬
Ġm ust
Â ²
is h
il ity
= "
Ġinte r
5 0
it ies
e rt
Ġ u
âĦ ¢
ĊĠĠĠĠĠĠĠ Ġ
Ã Ħ
j ect
o d
Ġ #
pe n
ft e
v a
] (
Ġla w
ĠE x
Ġpro vide
Ã ŀ
Ã £
e nce
pe r
du le
Â £
rv ice
fte r
rat e
vide nce
c v
c u
n ly
# #
Ġyou r
3 0
st e
2 8
fendan ts
ul t
um ber
C o
Â ¬
Ġal so
Ġy ear
2 6
Ġpro perty
n ow
p h
e di
Â ¨
Ġbe e
Ġ am
d ition
i ze
Ġpe rso
Ġ1 5
ve d
Ġbee n
Ġd a
tor s
it s
Ġj ud
2 7
u le
w o
io r
Ã ±
ĠM o
ha pte
oug h
I n
2 00
Ġ use
il y
fo n
Ġwh o
c k
t y
fon t
t tor
hapte r
b le
ttor ney
che dule
ra ct
Ã ħ
" "
Ã¿Ã¿ Ã¿Ã¿
r ea
Ġt han
ĠDe btor
]( /
Ġsh all
ĊĠĠĠĠĠĠĠĠ Ġ
Ã ł
ËĨ ËĨ
a u
o nly
e y
ff ic
00 00
ĠS t
Â ¸
o i
ma n
Ã Ĭ
Ġ2 0
oun sel
e t
id ual
Ã ²
Ã ¹
. )
Ġd id
Ġ act
Ġe vidence
tor y
ĠC ase
du ct
N D
me r
Ġt a
div idual
Ġ1 8
Ġin formation
Ġof f
Ġre g
ĠE n
t erm
0 4
ow e
ĠC ir
e w
oi n
l le
ur r
Ġ only
Ã Ļ
itt e
ĠUn ited
Ġ19 9
ri g
0 6
g ment
e ir
Ġt rial
ĠS ec
h eir
Ġt heir
Ã Ķ
Ġ order
Ġ1 4
al e
Ġclaim s
0 8
Ã ¥
2 9
mi n
Ã Į
aso n
if ied
0 3
po s
0 5
co m
n ment
0 9
a id
me d
Ġp laintiff
Â ¹
oun d
................ ................
Ġ l
s ue
Ġco mm
ure d
c r
oin t
ca use
Ġ /
a w
Ġb ut
Ã İ
Â ³
ĊĠĠĠĠĠĠĠĠĠ Ġ
na t
Ã ī
l low
us ine
Ġf act
Ġal le
Ġre ce
if y
r n
Ġwhe ther
ĠP e
Ġde b
ur y
Ã ľ
ĠCo n
Ġis sue
to n
y le
r r
e ly
sc ri
ĠI f
ig h
Ġw o
Ã Ĩ
ar a
ar ge
ce e
Ġf iling
Ġ1 6
u tion
co me
fe ct
Ġt est
e g
ĠS u
-- --
a st
ĠI nc
T R
Ã ĭ
st it
Ġe mploy
Ġsu p
n n
h ey
p ro
Ġwith i
Ġwithi n
ĠC h
ir st
urr e
Ġt hey
Ġapp ro
Ġi m
ver y
Ġe ach
" >
ie n
ec k
Ã ¦
Ġmo r
EN T
________________ ________________
ĠF e
ce d
A S
ï¿ ¾
di a
Â Ĩ
< /
a fter
E C
nc y
iss ion
Ġag ree
Ġc ert
Ġbe cause
usine ss
Ġk now
7 5
Ã į
t al
c ount
Ġ &
Â ¼
Ġč Ċ
pe ct
a ns
Ã ³
der al
ie w
3 3
4 4
ĠEn t
Ġfo llow
Ġmo tion
t d
Ã §
ĠB ankruptcy
00 000
Ġp ri
p pe
Ġmor e
Ġb o
t ta
th o
s p
Ġde term
Ġd ay
Ġ after
i se
t ely
n u
Ġag ain
Ġma de
H E
Ã ı
ĠS ee
Ġi mp
st ru
A M
f fect
to m
) ;
a nce
Ġob j
Ġc ounsel
Ġ1 7
Ġde c
Ġas s
Ġp la
Ġst yle
ase d
Ġ out
dr ess
Ġ ge
Ġb ankruptcy
ĠS T
Ġn ame
ĠB o
late d
Ġf ile
ĠDe fendant
sta nce
Ġs p
3 5
Ġ stat
ĠA ND
itte d
Ġda t
. "
Ġbe fore
Ġdat e
Ġre cor
ĠI N
n th
le t
Ġf ee
Ġs pec
n ts
ĠH e
U R
O T
k ing
n ding
Ġac tion
Ġv al
o pe
o ve
e se
ib le
li g
ĠEnt e
p y
IN G
tte r
ĠA n
t w
ou s
o m
Ġtra ns
Ġapp lic
ĠEnte r
ou se
Ġn umber
Ġar g
Ġwhe n
la tion
ĀĀ ĀĀ
ta i
Ġinter est
Ġher e
ĠFo rm
ĠCo mp
ĠS chedule
Ġre ason
m ar
Ġjud gment
le ss
Ġin dividual
ĠJ ud
ru st
ner al
L E
9 9
3 4
Ġse rvice
ĠA d
ĊĠĠĠĠĠĠĠĠĠĠ Ġ
Ġre quest
Ġre v
rth e
Ġ age
Ġdo e
Ġdoe s
Ġre port
Ġagain st
r ie
p art
3 6
Ġsup port
g a
R e
Ġt e
Ġse e
io us
ĠCo de
Ġt erm
Ġm ar
t ial
ur ing
h ib
r ough
e l
Ġas se
y s
ĠEnter e
ĠEntere d
5 5
ĠD istrict
p ri
Ġoff ice
m ber
Ġsh ould
Ġcr edi
i der
d it
Âł Âł
L A
let e
Ġrece ive
\ [
Ġw a
Ġ ow
Ġse n
ĠCo mm
\ ]
h ese
ar ing
ĠM a
Ġt hese
ĠA ct
ĠR o
h ip
0 2
Ġd oc
f ul
Ġj oint
3 8
ĠW e
ĊĠĠĠĠĠĠĠĠĠĠĠ Ġ
Ġr a
De btor
a ttorney
Ġde f
Ġyear s
age s
Ġh o
Ġb usiness
ien t
Ġprovide d
Ã Ģ
* *
g ra
ĠN ew
ĠM ar
a tta
ran t
l u
Ġab out
Ġsh e
L C
Ġch il
Ġ au
Ġli m
ub lic
Ġca n
ĠM ain
ac k
min ist
Ġse c
7 8
ob j
e mp
ĠDe fendants
Ġ 00000
Ġt wo
I D
Ġperso n
ĠD IS
le ment
s h
ĊĠĠĠĠĠĠĠĠĠĠĠĠ Ġ
che d
l ish
over nment
3 9
Ġ2 8
Ġb oth
su a
li ne
ex t
ot tom
Ġinclu ding
N o
Ġpro cee
n der
4 6
sua n
suan t
d obj
n dobj
e ndobj
AT ION
4 5
g i
Ġc hapter
c ha
x x
e dit
ĠP r
Ġg o
Ġrequire d
ot e
n ation
Ġ attorney
ĠR ule
a ir
ĠDe sc
lo r
Ġam ount
ire ct
Ġv io
lie f
OU R
3 7
rea t
k s
R O
Ġ over
4 8
\ *
ĠA s
un ity
Ġdis c
d o
Ġ atta
I L
v ing
fer ence
im a
rig ht
ĊĠĠĠĠĠĠĠĠĠĠĠĠĠ Ġ
Ġp ol
am ily
ide n
3 1
ri b
quest ion
men d
m s
T H
A C
na nc
Ġc ould
ab ility
Ġpr ior
lan t
cr e
Ġle g
C h
ee n
Ġab ove
Ġ Âł
Ġ2 5
Ġalle ge
Ġse p
E L
se c
scri be
h rough
a ff
Ġse ction
Ġt hrough
F F
Ġex t
ad ding
le s
ĠN ame
ffic ial
la ss
is o
ĠST AT
; ">
Ġso me
Ġsen t
Ġh im
Ġr ight
Ġf e
ĠM r
4 9
n ds
ĠT HE
ke t
po sed
Ġcomp lete
Ġinclu de
IC T
R I
Ġdoc ument
Ġca use
Ġpart ies
4 7
it le
d is
Ġs a
ul ar
Ġg u
so n
ne f
Ġma n
ĊĠĠĠĠĠĠĠĠĠĠĠĠĠĠ Ġ
Ġday s
ĠO R
6 6
v i
dition al
ra nce
gi n
la tions
Ġnot ice
Ġ question
Ġu pon
Ġm i
Ġt ho
Ġe qu
ĠJ u
Ġw hat
t ly
al s
Ġ qu
ĠD a
Ġdis m
O M
Ġco nce
if e
nanc ial
b y
/ )
b ottom
ce ment
ith e
Ġad dress
r ro
Ġfollow ing
stit ution
Ġin to
Â Ħ
Ġ ope
Ġsub ject
Ġ19 8
Ġpro v
Ġ ve
Ġin come
M ENT
5 6
ec tion
ĠC laim
ithe r
Ġdeb ts
ĠFo r
ĠS h
Ġ av
Ġcont ract
TR ICT
i nation
D a
as h
hib it
ĠD o
ure s
ĊĠĠĠĠĠĠĠĠĠĠĠĠĠĠĠ Ġ
ĠJud ge
ke d
Ġpur po
ĠT his
Ġtho se
C H
u rthe
p adding
le ct
ĠC al
Ġchil d
Ġ )
st r
Ġwo rk
OUR T
Ġsh ow
Ġd istrict
Ġpart y
i nc
Ġwith out
Ġdec ision
, *
Ġse t
v al
r po
e rial
Ġe ven
F o
n i
ing s
ĠIn t
ne ss
O fficial
7 9
Ġmo nth
Ġi dent
ĊĠĠĠĠĠĠĠĠĠĠĠĠĠĠĠĠ Ġ
al th
e rs
Ġs i
fer e
ia t
ĠA ppe
ar r
Ġf irst
stan d
U S
owe ver
Ġwhe r
urthe r
Ġwher e
Ġau tho
s ses
va n
Ġsep ara
t erial
b o
Ġrev iew
h em
ĠDIS TRICT
ĠP art
Ġ2 6
Ġ2 9
Ġno n
/ ),
Ġp a
me dia
I V
ĠC ount
ific ation
ĠC OURT
ĊĠĠĠĠĠĠĠĠĠĠĠĠĠĠĠĠĠ Ġ
ist e
Ġt hem
Ġu p
Ġc le
Ġres pon
Ġde n
D ER
a ve
5 8
Ġf ac
Ġp ar
Ġ aff
y pe
ute d
ste d
ĠI t
t hat
Ġin j
oun ts
Ġre le
ĠW h
sta b
7 6
U n
ĠB est
w h
ĠJ o
I I
Ġfor m
I f
ai la
ation al
Ġr ule
ĠI L
ot al
n tly
Ġpart ic
fen se
l lant
Ġne e
ĊĠĠĠĠĠĠĠĠĠĠĠĠĠĠĠĠĠĠ Ġ
ig ned
Ġma ke
ĠD E
ĠA pp
Ġp lan
Ġta x
Ġd irect
we r
b a
ĠT O
Ġrecor d
Ġpo s
rie f
4 0
Ġ3 0
I M
ific a
as s
Ġcon duct
im o
w w
r al
Ġ op
Ġco l
e fore
e am
Ġp ublic
u g
Ġbe nef
io d
ne rs
Ġpre sent
Da t
Dat e
Ġf un
7 7
Ġext e
ree t
ĊĠĠĠĠĠĠĠĠĠĠĠĠĠĠĠĠĠĠĠ Ġ
Ġd uring
ĠL LC
8 8
stab lish
N T
Ġac count
N IT
Ġpur suant
st s
igh ts
P laintiff
Ġs ame
5 9
g r
> >
Ġe ffect
be rs
ĠInt e
al le
4 2
Ġ Z
âĢ İ
ĠPlaintiff s
Ġ0 9
r est
iat e
ĊĠĠĠĠĠĠĠĠĠĠĠĠĠĠĠĠĠĠĠĠ Ġ
no r
ic ial
Ġcom pe
ra ge
g ree
Ġappe al
ff ice
ĠI d
Ġli ne
i nal
Ã¿Ã¿Ã¿Ã¿ Ã¿Ã¿Ã¿Ã¿
nat e
ĠPro perty
o k
aila ble
< <
ĠA c
âĢ ı
1 00
ime s
tai n
Ġse r
Ġcons ider
T OR
ĠL e
ical ly
ce n
ĠM e
ĠG e
con d
ĊĠĠĠĠĠĠĠĠĠĠĠĠĠĠĠĠĠĠĠĠĠ Ġ
Ġemploy ee
Ġval ue
v ol
Ġres pect
ra ns
p tion
Ġg ive
Ġta ke
ĠC r
il ities
ta ined
R E
ro l
ve st
ES S
3 2
Ġagree ment
Ġre lief
Ġservice s
Ġc ha
Ġprocee ding
T ER
Ġex p
Ġto tal
ĊĠĠĠĠĠ ĊĠĠĠĠĠĠ
ĠH o
Ġb ased
s ize
Ġge neral
r ing
m ary
media tely
ĊĠĠĠĠĠĠĠĠĠĠĠĠĠĠĠĠĠĠĠĠĠĠ Ġ
Ġsepara t
Ġres ult
men ded
Ġseparat e
it al
Ġhe aring
tw een
ra ph
rust ee
Ġuse d
Ġstate ment
ro n
E n
Ġex pen
Ġco rr
Ġ3 6
rat ive
Ġd ue
Ġfa il
se r
Ġ ĊĊ
ĠO n
ur is
imo ny
Ġw r
Ġc ri
ĠY e
O L
5 7
ĠO rder
D E
AT E
---- ----
sec ured
y st
NIT ED
j ud
Ġleg al
Ġsub m
Ġcont i
E x
Ġreason able
ĊĠĠĠĠ ĊĠĠĠĠĠĊĠĠĠĠĠĠ
ve s
Ġj ury
pri a
em ber
ĊĠĠĠĠĠĠĠĠĠĠĠĠĠĠĠĠĠĠĠĠĠĠĠ Ġ
Ġ0 8
a x
dic tion
Ġcon f
ĠSTAT ES
Ġbo x
po ns
Ġ Q
Ġpre ce
Ġp le
ag raph
Ġli st
Ġre pre
Ġin stru
Ġcr edit
Ġin c
ee t
g o
Ġf ound
dr e
Ġe stablish
ur ity
Ġhe ld
4 1
Ġpe rm
Ġd am
ffic ient
ar m
c tions
ĠYe s
Ġdeb t
8 6
Ġp age
ar ding
pos ition
ĠSe rvice
ĊĠĠĠĠĠĠĠĠĠĠĠĠĠĠĠĠĠĠĠĠĠĠĠĠ Ġ
Ġinte n
Ġ( âĢľ
w ith
lo s
r c
cl us
Ġre t
Ġp aid
Ġfe deral
yst em
ĠO ffice
Ġ2 2
9 6
our ce
a tte
Ġ oc
Ġf urther
Ġper iod
Ġnot e
Ġcom men
Ġma terial
S ee
Ġad minist
Ġg overnment
Ġde s
Ġbe tween
Ġe ither
ĊĠĠĠĠĠĠĠĠĠĠĠĠĠĠĠĠĠĠĠĠĠĠĠĠĠ Ġ
uris diction
Ġ us
v ic
ou ses
rpo ration
dic a
Ġent e
= =
Ġc ir
ĠC ity
co mp
Ġj ust
Ġun less
ir m
Ġreceive d
t ive
stance s
Ġ aw
Ġpla ce
pria t
priat e
Ġpay ments
urre d
ĠO ther
Ġalle g
ĠD is
Ġallege d
ĠAn d
Ġperso nal
I P
Ġp h
Ġd ist
I R
ce pt
Ġ2 1
Ġprov ision
Ġ our
str eam
ĊĠĠĠĠĠĠĠĠĠĠĠĠĠĠĠĠĠĠĠĠĠĠĠĠĠĠ Ġ
Ġstat ute
Ġr ights
p x
ĠA l
OU NT
I d
Ġim mediately
ĠR E
Ġre f
Ġf ul
c al
Ġb as
4 3
ĠS o
Ġb rief
Ġs aid
9 8
T ION
S T
Ġre co
ĠP a
c um
to p
Ġne w
part ment
r ity
Ġg rant
Ġage ncy
ĀĀĀĀ ĀĀĀĀ
> </
Ġcomp laint
ĠSt reet
ss ion
ill ion
i ns
lan d
Ġav ailable
Ġt r
it led
il ar
ima t
Ġco py
Ġg r
imat e
Ġ1 00
Ġfi nancial
ke r
al ly
ĠB e
Ġcase s
a ce
t ure
ĠPe tition
ĠMo tion
ĊĠĠĠĠĠĠĠĠĠĠĠĠĠĠĠĠĠĠĠĠĠĠĠĠĠĠĠ Ġ
ĠFe deral
Ġ199 6
ur n
n ot
a mp
Ġ2 3
Ġma tter
Ġbe ing
ar ds
Ġarg ue
ĠCount y
iden t
Ġ <
Ġne cess
Ġcon dition
e p
h ree
A c
Ġente r
Ġt hree
r efore
im ilar
mi nal
× ª
0000 00
o rk
it ing
Ġcert ain
Ġpol ic
Ġch arge
× Ļ
Ġma i
Ġm y
h i
Ġfact s
Ġknow n
cor ding
iv il
n other
U M
Ġad ditional
Ġal low
ĠCon t
ĠD r
ĊĠĠĠĠĠĠĠĠĠĠĠĠĠĠĠĠĠĠĠĠĠĠĠĠĠĠĠĠ Ġ
Ġ stand
ĠSec tion
Ġsu mm
Ġmai n
Ġ Â¶
9 2
Ġ0 6
p ay
if o
Ġ0 3
Ġ0 7
Ġatta ched
ig ation
ĠJ a
ĠB ank
Ġ2 7
a nother
, âĢĿ
ve lo
Ġoffice r
cu it
Ġprece ding
ĠT o
eg o
ĠN ot
y e
Ġde fendants
Ġcont e
Ġ X
ĠEx hibit
Ġin s
E T
Ġsent ence
Ġcredi tors
ĠL a
P A
AN D
ï¿½ï¿½ ï¿½
Ġn one
P e
Ġarg ument
Ġ# :
Ġ2 4
ĊĠĠĠĠĠĠĠĠĠĠĠĠĠĠĠĠĠĠĠĠĠĠĠĠĠĠĠĠĠ Ġ
Ġapplic able
n ue
Ġc ount
____ __
i i
d ical
6 8
Ġwe ll
Ġd if
Ġpay ment
Ġpro t
u tions
5 1
ol ding
G E
ver e
C C
Ġapp ly
O S
nc ip
ize d
Ġdism iss
ro ss
"" ""
lo g
Ġpro cess
' t
Ġtest imony
Ġfi nding
b order
van t
Ġdebtor s
ch arge
Ġcle ar
5 00
ic le
N one
Ġin su
us to
Ġe t
5 4
× Ľ
Un ited
ĊĠĠĠĠĠĠĠĠĠĠĠĠĠĠĠĠĠĠĠĠĠĠĠĠĠĠĠĠĠĠ Ġ
con t
ns ion
la w
fer r
r p
f amily
Ġpro per
AM E
Ġcorr ect
u tory
ĠF OR
dica t
Ġc ar
\ _
Ġstate d
dicat e
ËĨËĨ ËĨËĨ
( Â¢
nn ot
ĠA ttorney
Ġj urisdiction
ĠS um
ĠL aw
Ġent itled
Ġact iv
Ġoc c
Ġcha nge
ve l
9 7
ĠL o
Ġ0 5
ĠT e
ferr e
Ġappro priate
ferre d
ER T
c ase
ĠRe s
u mer
ro w
oug ht
Ġin vol
rate d
00 1
Ġ sta
ĠIN C
Ġt itle
Ġla be
Ġpre p
Ġli ke
× ¥
Ġ ;
Ġli sted
co lor
ĊĠĠĠĠĠĠĠĠĠĠĠĠĠĠĠĠĠĠĠĠĠĠĠĠĠĠĠĠĠĠĠ Ġ
ric a
urre n
Ġexte n
of tw
Co n
oftw are
cen t
a th
l ied
Ġ another
urren t
d ay
.. .
6 7
Ġco lle
Ġ 01
le ft
Ġ3 8
DD DD
Ġfo rth
En t
Ġreg u
stan tial
× Ł
ĠL i
i ning
Ch eck
Ġ0 4
al ign
N E
Ġ atte
mo n
5 3
) :
. *
ĠRe port
Ġe rro
led ge
ĊĠĠĠĠĠĠĠĠĠĠĠĠĠĠĠĠĠĠĠĠĠĠĠĠĠĠĠĠĠĠĠĠ Ġ
Ġbas is
a nal
ĠY ou
× §
Ġ opinion
ut y
ou p
ĠS tat
ĠOR DER
Ġwo r
Ġbe low
ĠDa t
: #
ĠCo py
P P
Ġow n
LA IM
Ġpr of
F OR
ia n
R ESS
ĠA L
ĠDat e
w ise
e rc
ĠCh eck
al f
5 2
op le
r ga
ess ion
ĠU S
r et
ch o
ri ze
Ġme r
Ġac c
ĊĠĠĠĠĠĠĠĠĠĠĠĠĠĠĠĠĠĠĠĠĠĠĠĠĠĠĠĠĠĠĠĠĠ Ġ
ar ation
Ġad m
Ġconce r
are n
ĠComp any
ĠA ss
gra m
ĠM ay
ĠComm ission
× Ŀ
co ns
ar ch
Ġcont rol
O C
Ġdis p
Ġin vest
ners hip
ifo rn
ÂłÂł ÂłÂł
m bers
S tate
Ġreg arding
u a
iforn ia
Ent e
Ġexpen ses
Ente r
U D
ĠJo h
ire d
Ġden ied
R A
Ġ0 2
be rt
9 0
Ġ201 0
cum stances
Ġres pons
ĠBo x
Ġc ap
ig nat
age ment
C E
Ġse tt
ĊĠĠĠĠĠĠĠĠĠĠĠĠĠĠĠĠĠĠĠĠĠĠĠĠĠĠĠĠĠĠĠĠĠĠ Ġ
Ġsp ouses
ab ly
it ation
................................ ................................
ir d
× Ķ
Ġ3 7
Ġe very
I A
Ġcommen cement
scribe d
Ġdam ages
P ro
lig ations
DD RESS
Enter e
Entere d
Ġs ale
Ġlim ited
ĠClaim s
Ġho me
z ation
ve rt
ĠS a
gree ment
U NITED
Ġpurpo se
ĠG o
t ext
Ġn a
Ġfa iled
ve rs
Ġnecess ary
um n
d y
Ġla t
Ġsp ouse
ir ec
pt ember
Ġex ist
T imes
un t
ĠA t
Ġapplic ation
Ġs imilar
Ġ âĢĺ
ĠL ist
li n
Ġpro b
ĊĠĠĠĠĠĠĠĠĠĠĠĠĠĠĠĠĠĠĠĠĠĠĠĠĠĠĠĠĠĠĠĠĠĠĠ Ġ
Ġlabe led
le r
Ġdeterm ine
inc lu
TH ER
co very
âĢ Ĺ
Ġ200 8
R ED
T otal
## #
Ġcredi tor
Ġs chedule
ĠC O
6 0
ĠM c
Ġ anal
Ġper form
Ġfee s
Ġsumm ary
Ë Ļ
Ġpartic ular
19 8
× ĳ
r di
are d
ar s
ĠC LAIM
Ġc lass
ĠP RO
ĠA DDRESS
Ġcon vic
× ¦
ot ing
N ame
× ¤
ĠDe partment
ven ue
ĠN e
AN T
j o
Ġpo i
ual ly
ive ly
Ġalleg ations
ignat ure
ba n
Ġco sts
9 5
ifica t
rm al
ce mber
ificat e
ĠY ork
ËĻ ËĻ
ĊĠĠĠĠĠĠĠĠĠĠĠĠĠĠĠĠĠĠĠĠĠĠĠĠĠĠĠĠĠĠĠĠĠĠĠĠ Ġ
Ġun t
7 4
id th
ĠP ar
IT Y
9 1
clus ion
to ck
ip a
id a
ing ton
Ġnee d
Ġw it
L e
is ing
Ġcon clu
r tion
Ġex emp
nu ary
Ġin it
ĠC t
l li
Ġ3 1
IC E
7 0
Ġre aso
ig a
v ious
Ġle ast
ge n
fere n
Ġ \[
Ġsu fficient
ns ation
Ġ200 9
ï¿½ï¿½ ï¿½ï¿½
Ġ1 01
il li
9 4
mar gin
Ġlat e
Ġca nnot
$ âĢĻ
Ġf ra
Ġre m
Ġpolic y
c to
mend ment
pre me
M o
Ġex ec
Ġfail ure
ĠSum mary
Ġvio lation
Ġsu pp
Ġ4 8
Ġm is
Ġse cond
ru g
Ġ \*
c ation
Ġpar agraph
Ġc e
le y
, "
nge r
de s
Ġra t
S e
Ġwh ile
ĠA ug
Ġdocument s
ĊĠĠĠĠĠĠĠĠĠĠĠĠĠĠĠĠĠĠĠĠĠĠĠĠĠĠĠĠĠĠĠĠĠĠĠĠĠ Ġ
st ic
Ġw ar
ice s
rt g
Ġbe lie
ĠC hapter
ĠComp laint
Ġre lated
ma t
Ġt reat
ĠCopy right
Ġdef ined
ĠC ON
cto ber
ĠJu ne
ng th
scri ption
ĠC e
o rig
ive r
Ġr o
ĠCir cuit
o ng
Ġspec ific
Ġ201 2
ĠS ub
ĠA greement
Ġc usto
ĠA M
Ġde cl
Ġla st
pr il
ĠCal ifornia
h alf
ys is
Ġ201 1
da nce
un ic
Ġres ide
Ġme a
Ġasse rt
Ġt hi
Ġb ack
Ġcir cumstances
Ġmi n
j ust
Ġ Â·
n ne
ĠRe g
Ġpri ncip
Ġs ystem
stan ding
vere d
me rica
dia n
Ġ201 4
Ġpa t
p la
e ad
T ype
se que
Ġinsu rance
Ġpro duct
na nce
ĊĠĠĠĠĠĠĠĠĠĠĠĠĠĠĠĠĠĠĠĠĠĠĠĠĠĠĠĠĠĠĠĠĠĠĠĠĠĠ Ġ
a mended
Ġe ar
o rdi
I G
ur al
Ġterm s
6 4
b it
Ġpe nal
Y e
Ġgive n
ĠT hat
ĠN OT
Ġme mbers
Ġc al
l ies
A d
Ġle ss
ĠSe ptember
S oftware
Ġ200 7
ĠCr edi
Ġ201 3
Ġpro du
EN D
Ġinj ury
9 3
Ġjud ge
ol der
D oc
ĠJu ly
Ġ201 5
rize d
ĠF i
U L
nc ing
feren t
Ġsub stantial
pe rv
sel f
ĠWh e
ph one
Ġrequire ments
co mm
w ay
Ġ201 6
se e
ĠS pec
Ġac cor
ĠF irst
Ã¿ Ã¾
× ĺ
Ġtest ified
Ġissue s
r ies
D A
Ġfi nal
ĠY our
Ġme dical
Ġpur cha
Ġpro posed
Fo r
n tion
7 3
ful ly
ase s
De fendant
ns o
Ġb ur
ur ities
ute s
ra tor
Ġstate ments
ĠN umber
dic t
Ġcomplete d
Ġplaintiff s
Ġsh are
av o
ri f
Ġtr ue
da t
Ġpurpo ses
ban d
ĠI ns
Ġco rporation
nate d
ĠDe cember
Ye s
ma il
Ġreaso ns
Ġexten t
Ġve h
T his
Ġde velo
ĊĠĠĠĠĠĠĠĠĠĠĠĠĠĠĠĠĠĠĠĠĠĠĠĠĠĠĠĠĠĠĠĠĠĠĠĠĠĠĠ Ġ
ĠMar ch
Ġcri minal
Ġ orig
Ġs ay
p a
ĠC ert
Ġcomm unity
D o
Ġcounsel ing
Ġre al
dat e
6 5
Ġpro ced
Ġ4 2
Ġmonth ly
Ġe ng
Ġconti nue
ĠW ith
Ġp ract
ida t
× ŀ
Ġrecor ds
idat e
th ough
N S
a de
sp a
il t
Ġunt il
; </
ra w
Ġrepre sent
Ġgrant e
Ġgrante d
Ġh igh
aren t
ĠA ll
A P
Ġemploy ment
ĠJa nuary
6 9
Ġh owever
Ġcon ne
Ġs ur
wh e
Ġre ad
Ġc are
ĠL ast
Ġother wise
Ġw ww
Ġs ign
i ation
l ing
Ġph ys
lo se
ĠRo man
ĠO ctober
i ary
Ġrat e
W h
Ġt rustee
is sed
ER S
t is
Ġne g
Ġm illion
Ġmo st
ran d
Ġ om
Ġn ow
× ¨
N AME
S t
Ġfi n
Ġqu al
ive s
ra tions
P age
P art
Ġda ta
rr e
ĠP o
mar ily
le phone
Ġpetition e
r ary
f rom
se ssion
iso n
ĠGe neral
itte n
ĠA pril
Ġerro r
p s
ib ility
st imate
Ġrele vant
cre tion
rtg age
e refore
ab ilities
Ġappe llant
ĠIn dividual
im um
ĠC ar
use d
ĠS U
un der
E Q
6 3
7 2
Ġinclu ded
ĊĠĠĠĠĠĠĠĠĠĠĠĠĠĠĠĠĠĠĠĠĠĠĠĠĠĠĠĠĠĠĠĠĠĠĠĠĠĠĠĠ Ġ
S ub
h erefore
C hapter
Ġt herefore
i stance
× ļ
Ġde li
ste r
× Ĵ
ĠSu preme
I F
Ġprovision s
Ġin f
b t
Ã¿ Ã½
ĠP A
W e
Ġpetitione r
ow n
Ġin dicate
× ł
b ru
ic k
Ġ5 0
Ġemployee s
ine s
Ġproceeding s
Ġme ans
a il
ne t
Ġdif ferent
Ġ ans
Ġadminist rative
8 0
ĠBo ard
a ult
Ġenter e
Ġentere d
6 2
vi ro
Ġin de
________________________________ ________________________________
k a
Ġprovide s
ra ble
ĠH owever
d le
Ġcol umn
ĠI S
× ľ
âĢĿ )
viro nment
Ġin cre
po i
oc iate
ĠS ta
AR T
Ġful l
Ġ- -
Ġ200 6
Ġdeterm ined
ĠFe d
ĠCo m
a use
Ġbe half
P OR
ĠPr e
C L
los ure
Ġdis charge
Ġde ta
pr ess
ĠCo rp
ra ting
Ġpos ition
Ġautho rity
bru ary
g n
it ations
ĠAug ust
7 1
ĠSu pp
ĠC OM
o rga
Ġaccor dance
xx xx
cha nge
P T
Ġac tions
tis f
Ġ10 6
ĠMa n
Ġlate r
us band
stitution al
ED U
cor po
A s
s sed
O n
Ġpoi n
ĠB ut
r ess
ie ld
f i
ct e
ĠP lan
ho ld
ic t
l ar
Ġb rea
E M
ĠE d
Ġob ject
it igation
Ġac cess
is k
w ard
oc ial
Ġ200 5
ret ary
st case
Ġ* *
Ġsh eet
Ġappro ved
Ġdist rib
Ġt ype
Ġpri marily
p i
poi n
Ġinit ial
Ġcon stit
Ġde scribed
ĠN O
Ġ amended
ior ity
cte d
ĠA T
ide ration
> <
ĊĠĠĠĠĠĠĠĠĠĠĠĠĠĠĠĠĠĠĠĠĠĠĠĠĠĠĠĠĠĠĠĠĠĠĠĠĠĠĠĠĠ Ġ
Ac count
Ġh ow
Ġconcer ning
S u
no is
Ġemploy e
u il
Ġ201 9
× ĵ
ic a
cho ol
ment al
C r
ĠJ oint
Ġfin d
stru ction
IN T
D t
Ġdism issed
ĠJ e
we d
ĠA merica
illi am
Ġbenef it
Ġpoin t
co de
Ġrespon se
6 1
ly ing
ĠT ex
ĠA r
Ġf amily
B TOR
pe d
our se
spa n
ish e
ĠT otal
gen t
Ġargue s
cording ly
Ġd uty
owe r
fere d
E X
qu a
Ġd rug
ea t
Ġpo ss
Ġindividual s
Ġna ture
Ġde fense
be stcase
v o
ĠSh e
Ġorig inal
Ġstand ard
ĠC lass
z o
A D
Ġprior ity
li ance
ima tely
Ġ201 7
poin t
ac tion
Ġf our
Ġe state
lie n
ie r
ource s
ha s
id ing
Ġ ~
Ġdis cretion
Ġen for
ag o
Ġsi x
va nce
b ur
a nn
ie nce
De code
Ġcourt s
lli nois
Ġex am
Ġde pos
if ically
Ġprot ect
) ).
Ġmi nor
Ġrequest e
H e
se cu
k i
n tial
ĠPage ID
v ice
al se
RED IT
ĠNo ve
Ġimp ro
Ġconsider e
Ġconsidere d
Ġdeterm ination
ĠSec retary
Ġ4 0
f act
F e
Ġre mo
for med
× ¡
Ġwa t
% ;
se t
Ġrequeste d
Ġcons umer
Ġw ay
Ġ âĢĶ
U E
ĠNove mber
Ġam ounts
Ġr ai
Ġmonth s
. âĢĻ
c ri
line s
stan t
ĠT rans
ĠA u
Ġcon ta
Ġal t
Ġpre jud
ĊĠĠĠĠĠĠĠĠĠĠĠĠĠĠĠĠĠĠĠĠĠĠĠĠĠĠĠĠĠĠĠĠĠĠĠĠĠĠĠĠĠĠ Ġ
Ġhe alth
na n
Ġrequire s
200 8
ec tions
ne w
Ġ201 8
gr ound
la ting
it able
/ /
rso n
NE Y
pen dent
th ing
me s
Ġmar ket
Ġf avo
ĠP ay
Ġsec ured
c ourt
Ġthi nk
Ġcondition s
Ġanal ysis
ca t
Ġinterest s
× ©
Ġcompe nsation
Ġ :
lo sed
ee ts
Ġ5 00
o o
ĠNot ice
Ġknow ledge
a ffect
Ġli ability
8 5
Ġinc urred
u ation
alle nge
ro ng
Ġissue d
Ġpro gram
Ġ âĢĵ
Ġoffice rs
mon st
Ġ- --
Ġconne ction
Ġasse ts
EQ EQ
Ġcomp any
ice n
laim s
ĠFe bruary
ve rage
ĠCe n
8 9
w idth
ap p
ĠV e
su b
ĠM s
AT ED
Ġestablish e
Ġpre vious
Ġfun ds
idate d
Ġre st
art e
sen tat
r eg
r ead
un d
Ġad dition
Ġfollow s
Ġstat utory
b k
w as
ĠThe r
Ġdis covery
Ġent ity
ist rate
AS E
ive rs
ĠR a
× ¢
8 4
Ġtra de
fo rt
nu ation
lai med
e ign
A pp
it ive
de btor
Ġwr itten
ĠT H
Ġper cent
me rs
state s
j ury
s a
T S
ĠCen t
Ġatte mp
R U
ĠTher e
ĠJoh n
ut ure
8 2
Ġsa tisf
Ġrem ain
ri a
ĠA m
Ġagree d
Ġsa fe
Ġsubm itted
Ġho ld
Ġb ro
Ġcon clusion
Ġmo ney
Ġalt e
iste n
Ġbenef its
itt ee
8 7
AN K
Ġ ,
Ġfa ir
L P
OT ION
Ġres ul
Ġun secured
ĊĠĠĠĠĠĠĠĠĠĠĠĠĠĠĠĠĠĠĠĠĠĠĠĠĠĠĠĠĠĠĠĠĠĠĠĠĠĠĠĠĠĠĠ Ġ
ĠUn secured
isten t
De fendants
ĠC ha
C A
ĀĀĀĀĀĀĀĀ ĀĀĀĀĀĀĀĀ
ĠK e
ĠC le
TOR NEY
Ġh ouse
Ġbur den
ash ington
ng u
Ġans wer
Ġlo ng
ĠC ivil
Ġha n
ne l
Ġe lect
Ġproper ly
ĠB ar
Ġme e
i z
va t
Ġgo od
ll ing
EDU LE
al ue
CH EDULE
Ġse ver
iden tial
ĠI llinois
id dle
Ġde ny
== ==
Ġhere i
Ġch eck
ĠAd minist
S E
L Y
Ġv ar
qu idated
ud ge
THER N
Ġle vel
p port
u lation
ec ause
oun ds
C F
ĠService s
ou rs
Ġstate s
B ER
Ġple a
Ġatta ch
u c
ot t
Ġex erc
ven t
arr ied
k now
Ġactiv ities
Le ngth
l f
ission s
Ġcont rib
Ġseparate d
qu ir
amp le
Ġs it
ĠG overnment
A ppe
w a
Ġex pert
ĠAL J
Ġc all
Ġ3 5
ad ing
ote ntial
ĠW L
P ERT
vat e
Ġus ing
lations hip
8 1
Ġpos session
ĠO b
Ġma king
Ġ affect
ĠSec urity
ĠUn der
iv ing
lle e
Ġbrief ing
Ġe s
ĠL oc
m ic
ne n
200 7
il ty
ï ģ
th is
\_ \_
× ķ
Ġoff icial
ur suant
g ge
Ġ ï¿½
la s
nso n
c ing
ĠC A
Ġf alse
e ason
Ġpo st
C Y
i sed
8 00
â Ī
dre n
Ġrele ase
OR ITY
O F
Ġ4 5
r eason
m b
ou th
Ġc ourse
Ġtrans fer
Ġla n
Ġser ved
inclu ding
8 3
Ġof fense
k t
16 0
× Ĳ
REDIT OR
Ġgu ilty
Ã¿Ã¿Ã¿Ã¿Ã¿Ã¿Ã¿Ã¿ Ã¿Ã¿Ã¿Ã¿Ã¿Ã¿Ã¿Ã¿
ip ment
pe a
s pon
l late
; ;
nc ies
g ht
Ġsu perv
e ncing
O W
& #
u rance
Ġ3 3
t ime
ĠPetition e
ĠPetitione r
Ġre ference
o rt
Ġre du
Ġcomm o
Ġha ving
it a
h ird
ĠâĢľ [
irec tor
Ġt hird
reat e
ra c
fe rs
Ġveh icle
-------- --------
Ġd ri
Ġlan d
Ġperso ns
## ##
Ġpresent e
Ġf ive
Ġpart nership
ĠInte rest
Ġe le
ilt e
Ġle tter
Ġprob ation
ipa t
M a
of f
Ġpresente d
Ġherei n
Ã¿Ã¿ Ã¿
Ġpenal ty
cat e
ipat e
Ġde ath
ol unt
S CHEDULE
ĠDE BTOR
E E
PERT Y
wo rk
ĠG r
pre sent
ic ago
Ġident ify
cor d
Ġalte r
ic o
ĠC a
com mend
Ġre c
ĊĠĠĠĠĠĠĠĠĠĠĠĠĠĠĠĠĠĠĠĠĠĠĠĠĠĠĠĠĠĠĠĠĠĠĠĠĠĠĠĠĠĠĠĠ Ġ
Ġcommo n
RI ORITY
Ġsec urity
pte d
T e
Ġ owe
lu de
Ġch allenge
ade qua
ilte r
ĠM i
tai ning
201 4
S A
ĠI I
me stic
Ġ art
ing le
Ġom itted
Ġtake n
Ġpe ople
Ġrequire ment
Ġcert ificate
vironment al
p uted
ver se
ĠInte r
s pect
T o
201 3
F R
Ġf uture
ĠIn come
b ts
Ġde monst
Ġd i
P O
Ġlo cal
l s
r it
Ġre nder
Ġh olding
Ġ200 4
t rans
e o
Ġ3 4
Ġex cept
tte rs
S ignature
ngu age
ĠSt e
O D
m ith
Ġprincip al
h io
ĠM OTION
IS ION
ĠI D
ĠTex as
for d
Ġch ar
il le
Ġsi nce
ge ther
age d
Ġ '
r ied
se ction
ol ic
Ġb ank
I AL
Ġnote d
un ited
ion s
Ġsign ifica
Ġestablishe d
TER N
em s
g ing
Ġlo ans
ne x
ar ily
Ġtreat ment
Ġhere by
Ġres ol
ĠD av
Ġmo d
g y
ĠPro ced
Ġ6 0
m iss
ict im
Ġcon tained
u ch
ĠAppe llant
Ġass istance
Co mp
ï¿½ âĢŀ
Ġla ck
A n
ËĨ Ã¨
ĠN ational
200 9
Ġst ill
A B
man d
ĠA mendment
Ġope ration
orga ni
c cess
IL L
pe tition
Ġco st
Ġre p
____ _
read y
Ġpro secu
Ġlo ss
ER V
ĠT ra
d stream
Ġso le
Ġrule s
n dstream
Ġ __
F ilter
Ġval ign
est e
n b
Ġprejud ice
e ndstream
rthe rn
Ġt ru
ic s
ĠW a
Ġs tock
ste ad
Ġspec ial
Ġare a
h ing
Ġob ligations
ĠTh us
D C
Ġd ig
den ts
Ġr isk
e mploy
Ġsett lement
lai ned
air s
Ġle ase
Ġmee ting
v iew
ĠJud gment
ĠB ANK
1 12
Ġdirect e
min ation
Ġdirecte d
C ourt
× ĸ
Ġhan d
Ġ4 4
ĠA S
Ġli able
ĠSa n
nen t
Wh e
Ġli ght
Ġ3 2
Ġcause d
ĠRule s
Ġp otential
ĠA ny
ĠDe cl
i na
Ġasse ss
Ġbelie ve
l us
201 0
il s
Ġent ire
Ġimp r
Ċ ĊĠĠĠĠĠĠ
A G
Ġ3 9
Ġsubm it
Ġex ce
Ġsh eets
Ġpol ice
Ġrespons ible
ĠMo r
B o
Ġfor ego
eat e
Ġop port
Ġ4 7
Ġ20 20
Ġgeneral ly
Ġwa n
se nce
ĠM em
ĠCredi tors
Ġfinding s
ĠRes pon
ĠC H
Ġob tain
201 1
201 6
se rv
ĠWhe n
Con t
Ġle ave
Ġlo a
la y
Ġto ld
× £
ĠHe alth
C R
Ġforego ing
Ġ very
Co mm
N umber
u dent
ĊĠĠĠĠĠĠĠĠĠĠĠĠĠĠĠĠĠĠĠĠĠĠĠĠĠĠĠĠĠĠĠĠĠĠĠĠĠĠĠĠĠĠĠĠĠ Ġ
ĠF lo
ĠG u
ĠÂ§ Â§
f fort
ĠO pe
b r
uil ding
201 2
ear ing
Ġpla ns
othe rs
ĠDe scribe
Ġ1 10
y ear
Ġl ife
ue d
t r
ce rt
C V
Ġne ver
Ġi mm
T j
I m
Ġdec ide
Ġim port
ale n
Ġautho rized
C ol
po se
ĠT itle
pr iority
ie wed
ge ncy
Ġde e
id av
ut ive
ĠT rustee
lat ive
ge nce
Ġas ked
M arried
S h
Ġad dre
ar dian
Ġb r
Ġwat e
wh ich
Ġc urrent
t ic
Ġcr eate
Ġdevelo p
ar ms
ĠW illiam
o li
log y
Ġwate r
Ġ4 1
Ġdo n
Ġla nguage
Ġ4 3
M S
y o
m all
Ġh ours
Ġ2 000
act e
ĠA ff
Ġ6 6
ĠN a
ĠPa t
Ġe val
ame s
Ġfac tors
ĠSchedule s
Ġjud icial
Ġconvic tion
Ġac ce
Ġv ictim
li quidated
ĠM ag
ĠB a
ĠAppe als
Ġgo ing
ĠA b
ĠDebtor s
Ġwit ness
tor e
x imately
V ER
Ã¿ Ã»
ĠSTAT E
Ġno r
Ġposs ible
Ġme mber
ee s
x t
Ġm ight
ac ity
ul ing
ĠCOM P
Ġad just
Ġsever al
× Ĺ
Ġquestion s
iste r
T HE
Ġwho se
Ġ ann
ĠC ounsel
Ġ200 3
Ġactiv ity
tta ch
ĠPRO PERTY
Ġpart ner
A ttorney
ĠORDER ED
quire d
ĠI s
ĊĊ ĊĊ
Ġreason ably
ge r
B B
Ġsec urities
ĠL ine
________________________________________________________________ ______
âĢĿ ).
Ġe stimate
ĠM iddle
pre t
gra ph
LA INT
Ġar rest
Ġ4 9
Ġsu gge
tai ns
Ġ200 2
Ġnee ded
mat e
AR D
Ġ low
Ġd iv
Ġto gether
Ġg ran
ĠT r
ĠT ax
ĠPe r
b ility
Ġ +
ke rs
Ġal ready
Ġinstru ctions
ĠB E
Ġregu lations
Ġle ft
Ġex pect
S C
le x
Ġsi mp
ir med
N A
Ġinten t
F irst
n ition
ĠDe c
Ġar bit
Ġex ample
ordi n
ï¿½ _
Ġcons ideration
Ġact ual
pe rs
Ġreco gn
s pec
Ġ5 6
c ial
U T
ĠC ri
al t
Ġ4 6
ĠAd dress
co no
rso nal
iso nment
Ġs c
Ġf ire
ting e
Ġreg ard
ĠB y
Ġeffect ive
ap pro
o id
Ġact s
cate d
ri n
Ġattorney s
Ġman agement
Ġwan t
Ġname s
P r
Ġinvol ved
al ance
Ġloa n
ĠW o
Ġh arm
ĠNo n
ffect ive
u p
ne sses
Ġab use
EC UR
ĠCo ng
Ġun it
o ds
b ack
ee p
Ġpat e
Ġchil dren
i x
S p
201 5
Ġ able
ĠP h
arr e
ĠW ashington
ĊĠĠĠĠĠĠĠĠĠĠĠĠĠĠĠĠĠĠĠĠĠĠĠĠĠĠĠĠĠĠĠĠĠĠĠĠĠĠĠĠĠĠĠĠĠĠ Ġ
Ġre n
P o
la use
ĠL LP
Ġcon stitutional
ha el
b s
Ġc ivil
Ġsu f
Ġbe gin
Ġse x
R o
Ġpe nding
Ġpro ject
ive d
Ġad ded
ĠN A
arte r
ĠF L
Ġcert ify
Ġwar rant
Ġe ffort
Ġ others
la ck
p ired
;"> <
Ġre lationship
ye r
ËĻËĻ ËĻËĻ
Ġfra ud
ES T
I t
Ġar ising
ra y
Ġocc urred
Ġp ower
A m
Ġv is
Ġident ified
Ġeven t
D is
ĠF ra
Ġaw ard
I ES
i mp
t ect
Ġmo tions
tinge n
tingen t
________________ ________
IT H
O P
C TION
I E
Ġv iew
c le
Ġperm it
ph e
um a
Ġob lig
ï¿½ Â¯
., *
e ver
Ġattemp t
Ġsup ra
h older
. ]
ĠOffice r
L IN
Ġl icen
ĠB ecause
ĠG ive
Ġass ociate
Ġprof ession
ĠA PP
ĠH a
Ġ air
ĠNo rth
ĠDo e
Ġdig its
Ġte ch
ua t
ct ive
ĠFi nancial
Ġshow ing
Ġdef i
mo tion
ĠE mploy
Ġtime s
ĠCr edit
n h
C ON
Ġequ ipment
Ġt rust
Ġl itigation
Ġdis cu
Ġra ther
ĠS ol
ĠA N
ap pe
Ġfact ual
Ġ _
ron ic
" :
Ġs igned
ĠE X
Ġstat us
Ġclear ly
Ã¿ Ãº
Ġmea ning
Ġas su
ON E
r g
S H
Ġdirect ly
od y
qu oting
Ġ >
ha m
Ġneg li
Ġe lig
UR E
I B
de l
ĠProced ure
Ġse arch
ĠJ ust
Ġ9 0
@ ï¿½
Ġ ver
Ġpro of
Ġgu ardian
ta ge
Ġsignifica n
Ġm any
Ġsignifican t
Ġret urn
Ġab ility
mp tion
Ġreport e
nb sp
........ ....
u ro
O ther
Ġca t
Ġdes ig
M A
ĠF iling
Ġme t
ic hael
uat e
vert ical
Ġsu it
OR THERN
Ġv ac
Ġacc ounts
ĠMor e
Ġs ite
Ġful ly
Ġpri v
ĠThe se
r ce
go v
ĠI II
e f
ta ble
ĠO ne
nat ive
y l
Ġorder e
Ġordere d
UM BER
C O
Ġallow e
Ġallowe d
Ġs chool
: //
Ġtax e
Ġmar ried
ĠT c
Ġ18 0
Ġfavo r
ĠA D
Ġcri me
ist ical
Ġ adequa
ĠAc cordingly
Ġcomp ly
un ction
ĠCert ain
Ġperform ance
ile s
ĠB ro
Ġmo rtgage
one s
W H
201 9
Ġbe st
IV ISION
pay ment
Ġconte nds
ĠčĊ Ġč
che s
ĊĠĠĠĠĠĠĠĠĠĠĠĠĠĠĠĠĠĠĠĠĠĠĠĠĠĠĠĠĠĠĠĠĠĠĠĠĠĠĠĠĠĠĠĠĠĠĠ Ġ
Fo rm
D ATE
ĠA fter
Ġ200 1
Ġde ad
ĠU NITED
row n
Ġpurcha se
AR Y
Ġconte n
S ec
Ġen d
ĠSu ite
Ġge t
Ġ a
Ġa n
Ġan d
Ġa t
ĠO f
d raw
e nance
ag ree
Ġcontract s
ĠN E
Ġp arent
Ġma jo
ha ve
ie f
Ġw ee
O b
Ġproduct s
z a
reason able
Ġ ÃĤ
iste d
o ks
nu fact
Ġfo n
ÂłÂłÂłÂł ÂłÂłÂłÂł
Ġb ar
Ġd ou
emp t
Ġlaw s
mer cial
Ġap point
va ns
ale d
Ġdisc ri
Ġwh y
ĠDe p
ĠCont ract
ge d
Ġcomm unic
Ġman ner
sentat ive
Ġpr ec
Ġspec ifically
Ġ6 06
ĠB usiness
Ġdecl are
ï¿½ âĢļ
ial ly
ĠD IVISION
Ġd own
Ġsu ccess
US T
nex pired
ĠEx ec
ĠCo rporation
EC T
n formation
Ġre med
ĠN UMBER
Ġper jury
h us
A A
Ġne t
Ġex press
Ġme as
AN S
t enance
ĠZ IP
A l
Ġapp lied
no rmal
du cation
ĠIns urance
i nformation
Ġimpr isonment
Ġpo rtion
OR POR
Ġphys ical
Ġcusto dy
Ġfon t
ing e
ri ne
ĠState ment
Ġme et
Ġc ash
Ġdisp ute
âĢĶ âĢĶ
ub lish
Ġfor mer
P H
ĠMo n
Ġtaxe s
Ġfi nds
Ġ mental
ĠCle rk
ï¿½ âĢĺ
Ġcolle ction
ra cy
Cr edi
ordin ary
201 7
ĠThe y
200 6
Ġgr oup
P RIORITY
olunt ary
Ġinten ded
gr eg
Ġob tained
ser ved
ĠN ote
Ġ5 5
ou ts
ara n
1 10
ĠCO DE
Ġj ob
ĠAT TORNEY
Ġemploye r
Ġt hus
Ġapp lies
Ġreside nce
Ġmea n
Ġprevious ly
Ġcon sent
per ience
ĠT m
Ġf r
ĠS mith
Ġrequest s
ĠN ON
Ġbrea ch
ĠS ocial
Ġe l
Ġb i
B e
ĠS c
R S
tt lement
ĠCo ns
Ġret ur
c iting
s to
ĠMag istrate
i nuation
ĠJ UD
o se
Ġof fer
Ġs ought
Ġte n
z ard
Ġlim itations
Ġcal cu
1 01
Ġcharge d
x imum
P a
Ġ ................................................................
ĠC iv
ĠW est
sp ital
l p
ga n
cee ding
C RI
ĠO hio
il d
Ġl arge
De scription
ar ies
Ġent ry
ĠC REDITOR
o s
Ġreporte d
Ġs mall
Ġprep are
201 8
ke n
ra ft
le ase
"> <
ĠE CF
Ġinter pret
Ġconta ct
ĠThe refore
Ġf ar
n ies
Ġow ned
M r
ĠD ist
A Y
Ġbr ought
ic les
ra i
Ġm ult
ĠIn formation
Ġval id
Ġbe lief
ĠD iv
Ġpro ble
X X
Ġ ________________________________
Ġfor ce
Ġno rmal
Ġte lephone
ĠCong ress
Ġ 00
em po
Ġallege s
Ġspec ified
Ex hibit
OR DER
Ġgr ound
Ġg over
et e
de fendant
nan t
ĠSol utions
Plaintiff s
RU PT
Ġsafe ty
ĠDoc ket
ĠE vans
Ġcat ego
Ġof fen
Ġdeterm ining
Ġsub seque
Ġprocee d
F late
Flate Decode
RUPT CY
idav it
d oc
Ġsale s
i able
date d
Ġfor eign
Ġclaim a
A W
Ġ6 00
Date d
Ġad o
if t
Ġs ingle
Ġdismiss al
ĊĠĠĠĠĠĠĠĠĠĠĠĠĠĠĠĠĠĠĠĠĠĠĠĠĠĠĠĠĠĠĠĠĠĠĠĠĠĠĠĠĠĠĠĠĠĠĠĠ Ġ
Ġcomm itted
Ġc laimed
ĠN Y
6 00
Ġincre ase
ign ment
Ġs to
ĠT X
ĠO p
Ġso ld
Ġa mend
ac y
ER E
ĠHe r
ĊĊ Ċ
l ue
âĢŀ ï¿½
Ġsub stance
Ġim posed
Ġtrans ferred
ĠS ERV
ie ncy
âĢĿ ),
ĠBANK RUPTCY
ring e
Ġ1 12
lic ation
Ġcol span
Ġin corpo
Ġpre mi
P S
ne ous
us sed
Ġinde pendent
K H
ut ies
Ġwit nesses
Ġwa iver
ĠT imes
lle r
IS S
organi zation
ĠSta n
ĠW ho
lic a
EL L
Ġpe nsion
it ize
In t
Ġp un
H usband
P R
ĠT rust
Ġt ext
ĠP ri
Ġun able
ÃŁ Ã¿
d ge
Ġopport unity
ĠCent e
r nal
AM OUNT
e lated
Ġe ns
se arch
ĠS ch
ww w
ye d
ivers ity
Ġse lf
Ġappro ximately
ot a
ĠO k
Ġre ject
3 00
ĠSe cond
Ġgovernment al
C ount
ou is
F END
Ġexp lained
e of
le n
ĠT R
p ar
o rce
Ġto p
Ġ ÂĨ
Ġ men
G H
Ġequ ity
du st
âĢ¦ âĢ¦
Ġex clu
Ġgr ounds
ĠI F
Ġorder s
oc iation
Ġbe come
as se
Ġexerc ise
t ies
Ġconclu ded
Ġm uch
ĠRo bert
FEND ANT
P TION
Ġst ep
r elated
Ġs che
Ġact ually
]( #
' r
'r e
S D
ad a
gra ms
Ġp ages
' m
ĠAs se
Ġsent encing
ECUR ED
no n
Ġshow n
Re port
rand um
r se
L a
Ġac cu
ĠB r
Ġ ave
Y ou
Ġdefi nition
ra nge
Ġp ain
f a
Ġcharge s
ĠA mended
O H
th od
Ġleg is
s ol
su it
ric k
Ġtime ly
O IS
A t
ï¿½ ÃĹ
P D
we alth
Ġ </
dis c
Ġcal led
ĠCente r
G A
yo n
Ġpro m
Ġsee k
M e
s ident
Ġs ource
ĠMan agement
Ã¿ Ãµ
ĠL E
o pen
Ġreport s
t rial
Ġsh ort
Ã¿ Ã«
Ġk i
um b
Ġ5 07
Ġsub section
f n
ĠDa ta
v ille
bo r
EC F
has is
g al
ĠJ r
ree n
P E
Ġ7 5
ĠAmerica n
Q U
IT ION
Ġ5 2
Ġin st
Ġpro ve
port ation
ĠWe ll
Ġdis ability
Ġpr ice
Ġ( "
Ġvio lated
Ġ5 4
ĠM ich
lie r
we ight
Ã¿ Ã¯
d ar
b ut
Ġ5 3
Ch icago
ĠA ction
Ġde position
ĠAl though
Ġimp act
Ġf ree
ĠGr oup
Ġrai sed
Ġinclude s
e spon
Ġpri vate
Ġdef ault
Ġenfor cement
outs ide
Ġexemp t
Ġsee king
Co m
pro perty
: **
Ġimpro per
ĠLi abilities
pen ses
: *
Ġpract ice
Ġconclu de
ï¿½ Ã·
Ġow ner
Ġma iling
ĠS ystem
late s
Ġproced ures
S U
Ġma tters
AL UE
AS TERN
m t
r eof
# Â¢
Ġcom b
Ġh ar
Ġadm itted
Ġconti nu
Ġde pen
N ot
Ġac cept
g u
ĠComm unity
Ġple ad
Ġage n
a k
urre ntly
Ġref lect
Im age
e reof
h ereof
Ġdate d
P M
Ġex cee
Ġent ities
ĊĠĠĠĠĠĠĠĠĠĠĠĠĠĠĠĠĠĠĠĠĠĠĠĠĠĠĠĠĠĠĠĠĠĠĠĠĠĠĠĠĠĠĠĠĠĠĠĠĠ Ġ
ca n
Ġinvest igation
ne s
it ary
Ġwho m
L ast
Ġlike ly
Ġit self
Ġline s
ĠA CC
G R
con duct
IF IC
ale s
Ġexist ing
it ical
co pe
Ġ5 7
ourt h
ĠE s
Ġex perience
pe e
rea fter
C ity
il iate
ES CRI
c ounsel
Ġpate n
Ġe cono
ĠWh ile
Ġw ife
Ġam ong
Ġt hereof
I nc
lo ck
li d
Am ount
ĠCo l
ĠP ub
to tal
00 01
Ġ5 9
ea ch
Ġcon struction
qu is
y ou
Ġprep ared
Whe n
Ġdisc lose
ĠF inal
ĠComm ittee
Ġser ious
Ġ~ ~
r d
rre d
Ġdes igned
Ġ2 25
Ġmake s
E AL
Ġav oid
C T
ar ded
Ġnot hing
Fo n
Ġterm i
Ġclaima n
ĠG R
Ġclaiman t
udge t
Ġlo cated
yon d
s y
Ġresul ts
Ġcap acity
AN CE
Ġoblig ation
us ing
usine sses
D ING
Ġcom ment
Ġc ross
Ġser ve
Ġma nufact
Ġvar ious
su ch
ri da
Ġi d
u me
! ï¿½
` ï¿½
Ġdo mestic
Ġfail s
ĠJoh nson
du ction
ĠNON PRIORITY
ĠWith i
ĠWithi n
h ough
Ġchar acte
Ġce n
Ġdisc ussed
e i
Ġbegin ning
rai n
Ġunder stand
e ntion
il la
lien t
Ġeng aged
ĠSU B
ĠH ave
ta n
ĠAd d
Ġstand ards
e rit
Ġinten tion
ĠA venue
Ġw rong
Ġne xt
d irect
Ġcons istent
Ġ198 3
e rest
Ġappe ar
Ġto ok
Ġt hough
ill s
ĠV alue
Ġperm itted
Fon t
M ar
Ġd ol
ven tion
Ġdecision s
ser ve
Ġhis tory
pay e
ĠS outh
paye r
rate s
Ġaw are
Ġ ut
N ew
ishe d
Ġsupp lement
Ġsp ace
uma n
am a
ron t
um bers
S a
Ġg ra
Ġmain tenance
ĠM il
is one
ĠA nn
Ġ20 21
ve y
ĠI ll
Ġreg ular
ã Ģ
Ġpre su
ĠP la
Ġpaten t
Ġsimp ly
Ġre lating
Ġobj ection
Ġden ial
ĠC ap
# ï¿½
Ġchange s
Ġcontinue d
h n
um ns
Ġowe d
Ġma ximum
Ġremain ing
Ġ5 1
) )
ĠIn de
ĠHo me
200 5
ro om
Ġcomm it
Ġcen t
Ġagen t
ur s
ine n
Ġex cess
ĠH olding
ĊĠĠĠĠĠĠĠĠĠĠĠĠĠĠĠĠĠĠĠĠĠĠĠĠĠĠĠĠĠĠĠĠĠĠĠĠĠĠĠĠĠĠĠĠĠĠĠĠĠĠ Ġ
ner gy
4 00
ne e
ĠH ar
Ġb uilding
il i
Ġre commend
ning s
A ll
m ay
âĢ¢ âĢ¢
ĠJust ice
Â° ï¿½
Ġ outside
Ġre stitution
ns ive
ĠP ART
ur cha
Ġprof it
o g
Ġ10 9
Ġde t
R IS
Ġhe lp
Ġ1 20
ĠF ee
ide lines
Ġcompe t
Ġdepos it
Ġprot ection
Ġhouse hold
ĠLo a
ica t
Ġp ut
Ġave rage
} ï¿½
ĠO N
ĠEvans ton
ĠIL LIN
is cal
" ï¿½
Ġfac ility
Ġin e
ra p
ĠILLIN OIS
ri st
ĠCredi tor
_ ï¿½
S pec
o ral
ac tions
rpo rate
Ġ5 8
we ll
o rs
Ġmain tain
ty pe
ĠA rt
Ġ6 5
Ġindicate d
greg a
li min
; "
icat e
i stant
Ġre ferred
ĠRe al
J u
ĠAu tho
ĠSpec ify
U AL
Ġconduct e
{ Â¶
Ġconducte d
ĠLoa n
ic ult
n de
Ġd uties
ĠD ATE
hib its
L ist
se rif
ĠN AME
Y Y
r is
ĠW ife
Ġel se
Ġe rred
LC S
x e
ute r
Ġ lien
Ġ199 9
r ry
J o
ĠR ich
Ġschedule s
irec tors
zard ous
Ġope rating
Ġexemp tion
i nh
av ings
Ċ Č
vi sed
Ã¿ ÃŁ
Ġra nge
ify ing
Ġver dict
Ġad v
ESCRI PTION
lan ts
P RO
Ġs ide
Ġ z
Ġpolic ies
Ġargument s
ri zo
i nce
ĠP ublic
b ankruptcy
n ch
Ġgran ting
ĠA ir
Ġlim it
Ġr ow
ure au
Ġelig ible
iff icult
r ef
Ġfa ith
ĠSu pport
Â¯ ï¿½
C OM
AC T
ĠEx change
I s
Ġfun ction
Ġb usinesses
M R
p ies
ĠI LCS
Ġbe yond
B L
Ġinstru ction
der s
w ill
âĢļ #
c laim
ublish e
e vidence
ĠI ND
Ġd one
ĠS O
ĠSe n
v ision
Ġcomp liance
ĊĠĠĠĠĠĠĠĠĠĠĠĠĠĠĠĠĠĠĠĠĠĠĠĠĠĠĠĠĠĠĠĠĠĠĠĠĠĠĠĠĠĠĠĠĠĠĠĠĠĠĠ Ġ
Ġequ itable
M ember
âĢ Ĳ
m y
Ġage ncies
. '
Ġm il
ĠM ichael
itt le
ĠAd ditional
ĠE qu
p laintiff
e rnal
Ġst ud
P L
e present
r epresent
back ground
po nent
A V
ue l
be as
qu ot
f iled
e port
Ġappe ars
Ġf urn
Ġsta y
Ġcom ments
P OS
S ection
Ġsee ks
ĠC l
Ġk new
Ġimp lement
Ġun law
Ġappe als
Ġdes ign
r eport
Ġfor ec
ĠF R
rt y
N ORTHERN
Ġin formed
ke s
mer ce
S chedule
Ġcon c
ĠDav id
Ġappro val
ĠComm o
T r
ine r
Ġobj ections
ĠJ ames
ĠW il
Ġb alance
âĢł ï¿½
Ġimport a
Ġadjust ment
Ġcert ification
Ġalter native
Ġpre vent
ĠCLAIM S
pro vide
ie l
it iga
âĢļ ï¿½
Ġac comp
ho to
ge s
if ies
ĠZ ip
Ġdistrib ution
Ġshare s
$ ï¿½
vide n
ara nce
v ar
whe ther
Ġco verage
ĠA R
amp les
ĠSec ured
do n
Ġname d
Ġne ar
Ġ3 00
Ġcontrib utions
Ġrev iewed
ga t
" ,
per ior
ur ies
o ld
ĠW al
ĠTh om
u la
i ses
limin ary
Ġpartic ipate
Ġwe ight
Ġexce ption
ct rine
Ġ ...
a nies
Ġnote s
Ad dress
rin t
b ased
Ġce ll
0000 01
ĠCo lle
ĠRe lated
ĠCommo n
Ġmaterial s
de term
B y
ï¿½ Â£
ue r
know ledge
ĠCommission e
Ġrender e
dict ment
r ri
Ġrendere d
Ġp ast
ĠMem o
ĠCommissione r
ĠDiv ision
ĊĠĠĠĠĠĠĠĠĠĠĠĠĠĠĠĠĠĠĠĠĠĠĠĠĠĠĠĠĠĠĠĠĠĠĠĠĠĠĠĠĠĠĠĠĠĠĠĠĠĠĠĠ Ġ
l lants
H A
ĠDe bts
irm ation
n dent
ĠEn vironmental
r em
M ISS
] ï¿½
Ġsu sta
No rthern
Ġ3 42
U N
late ral
Ġle ases
Ġc lause
g ain
Ġme thod
ĠGe o
oc k
w ould
ĠS p
Ġassociate d
f ield
co l
F ax
B A
Ġta king
Ġlo cation
Ġdeta ils
ut ing
Pro perty
Ġrow span
Ġpriv ile
reate r
log ical
mo r
IV E
Ġ ________
t ra
Ġst ru
Ġsupport e
Ġdiv orce
e as
Ġad verse
we n
Ġr uling
Ġident ification
II I
ĠW ITH
Ġemploye d
alen dar
Ġsu m
Ġsupporte d
Ġcomp lain
Ġs ig
ublishe d
Ġany thing
Ġdisc losure
Ġc lose
ĠA G
sen ts
ĠRe p
tion e
pla y
Ġmult ip
ĀĀĀĀĀĀĀĀĀĀĀĀĀĀĀĀ ĀĀĀĀĀĀĀĀĀĀĀĀĀĀĀĀ
EQEQ EQEQ
Ġ199 8
Ġfe lo
ĠO r
Ġsta ff
ĠW hat
Ġaccu rate
I FF
C urrent
Ġpla ced
whe r
w n
B Y
Ġconstit ute
Ġs cope
r ge
"""" """"
wo od
Ġf ill
ï Ĥ
ĠPe rsonal
. ;
h eo
Ġqual ified
ĠW AS
pr ie
Ġequ al
Ġde gree
ĠH OL
Ġ7 2
tione d
Ġe nc
M AN
==== ====
ĠLoc al
ue s
L i
sen ting
Ġvio lations
Ġ ordinary
Ġwith draw
ĠL ab
NS ECURED
Ġt heo
ÂŃ ï¿½
Ġki n
Ġ6 3
ĠO nly
quir ing
Ġg ross
Ġappe llate
ĠF IN
ĊĠĠĠĠĠĠĠĠĠĠĠĠĠĠĠĠĠĠĠĠĠĠĠĠĠĠĠĠĠĠĠĠĠĠĠĠĠĠĠĠĠĠĠĠĠĠĠĠĠĠĠĠĠ Ġ
Pe tition
Ġfa iling
Ġ lie
ĠPA Y
ĠL ouis
ĠP R
n one
G D
ER IC
Ġh usband
Ġ open
Ã« Ã¿
ĠStan d
ĠD irector
n line
Ġcomp le
ĠFlo rida
gat e
.... .
Ġof fered
Ġterm ination
Ġens ure
Ġwr iting
h ings
b al
Ġ =
Ġf irm
ĠB Y
ĠWa t
T Y
Ġmo ved
D IS
Ġ199 3
li ned
Ġit ems
ference s
Ġt hings
Ġb ring
Ġad vance
03 7
ĠL eg
f air
Ġconvic t
Ġgo ods
V e
Ġass igned
ĠCh ar
ĠS E
M C
10 6
ĠC L
inh erit
ĠF ill
AN C
Ġprosecu tion
Ġ199 7
Ġassert s
Ġdate s
pi racy
st yle
Ġha beas
Ġaff irm
ĠN one
ĠR EC
ËĨËĨ ËĨ
ran ch
h ol
Ġassert e
Ġdo ing
Ġasserte d
F C
. :
Ġ ke
ur der
Ġdef ic
Ġ1 11
Ġr un
ĠM A
Ġbo ard
Ġd ifficult
icate d
Ġrespon dent
y p
P Ã¥
lig ht
ĠM art
Ġlo nger
ĠSh eet
Ġkin d
Ġdevelo ped
Ġprov iding
Ġcont ro
e reafter
Ġknow ing
h ereafter
M IN
ha nk
Ġconf lic
Ġprodu ce
Ġb illion
Â´ ï¿½
ĠCo lo
G e
w i
un ds
Ġdeny ing
tor ies
ËĨËĨËĨËĨ ËĨËĨËĨËĨ
age r
ĠH ouse
T Ãł
ĠF und
ĠUn ion
Ġn umbers
ia na
Ġtru th
ĠPar k
A ttach
Ġimporta n
y a
ve ment
Ġimportan t
Ġcolle ct
C laims
12 5
cor r
ĊĠĠĠĠĠĠĠĠĠĠĠĠĠĠĠĠĠĠĠĠĠĠĠĠĠĠĠĠĠĠĠĠĠĠĠĠĠĠĠĠĠĠĠĠĠĠĠĠĠĠĠĠĠĠ Ġ
Ġ7 7
ist s
Ġexp lain
Ġ oral
Ġst ri
ire ment
pe t
Ġf iscal
OT AL
T C
ĠRe cord
ĠDis miss
wher e
Ġ8 0
Ġcap ital
Ġ6 4
ĠSe ttlement
los ing
ei n
u dule
Ġimp air
Ġcont rary
e ight
f ace
Ġcar ry
ure r
Ġ7 8
ht t
DDDD DDDD
Ġph one
ĠThom as
Ġin quir
ir gin
ous ing
un ities
Ġnegli gence
empo rary
Ġde ce
s igned
ĠAc count
ĠP ol
nth ly
m n
Ġare as
T ex
Ġexam ination
ĠB ureau
ĠB ur
Ġele ments
ĠV a
T A
Ġdesig nated
Ġse ll
Ġ9 9
EN S
ĠLa n
Ġg ave
ĠT ime
ĠC AL
Ġs al
Ġope rations
ĠWilliam s
B S
V alue
Ġv oting
u lated
sp ite
ĠPe n
Ġch o
pos ing
Ġadequa t
ĊĠĠĠĠĠĠĠĠĠ ĊĠĠĠĠĠĠĠĠĠĠ
Ġadequat e
10 4
Ġc ame
Ġassess ment
âĢ¡ (
Ġren t
Ġb udget
Ġe mail
Ġi ll
C al
Ġdevelop ment
Ġdam age
ite s
Ġ standing
Ġ6 7
ack son
ĠPro gram
ĠPar agraph
Ġmajo rity
Ġcont ra
Ġvac a
wer e
Ġdo ctrine
Ġe ight
bur se
Ġt al
Ġcom mercial
Ġmin imum
Ãº Ã¿
Ġme mo
nce s
? ï¿½
ĠOb ligations
Ġch oo
Ġp lain
oun c
Ġsepara tely
b ing
Ġear lier
AS S
cert ain
Ãµ Ã¿
ar n
Ġper formed
A GE
l t
Ġe m
Ġ1 13
o nce
ther e
Ġresul ting
ĊĠĠĠĠĠĠĠĠĠĠĠĠĠĠĠĠĠĠĠĠĠĠĠĠĠĠĠĠĠĠĠĠĠĠĠĠĠĠĠĠĠĠĠĠĠĠĠĠĠĠĠĠĠĠĠ Ġ
wa t
Ġaffect e
Ġaffecte d
Ġtra ining
c laims
p tions
d t
Ã¾ Ã¿
cri pt
ĠCh ief
Ġinvest iga
ï¿½ âĢł
ĠSec urities
25 0
Ġwho le
inen t
ï¿½ Â§
C op
N e
Ġwor ds
Ġs y
ĠPat e
part ic
ĠB rown
Ġ10 7
rint e
Ġb u
Ġde fen
Ġco vered
al ing
................................ ................
Ġt hereafter
Ċ ĊĠĠĠĠĠ
__ _
Ġprodu ction
Ġ7 0
2 12
sh all
Ġtrans action
Ġrece iving
de c
h r
ĠMe dical
Ġdiscri mination
Ġsome one
" )
du led
Ġdee med
ĠCri minal
Ã» Ã¿
holder s
po rtion
ib ilities
Ġwork ing
Ġfa ce
Ġagree ments
Ġmer its
Ġc lient
ï¿½ âĢİ
Ġins ured
clus ive
Ġlo ok
Ġ1 15
ul l
Ġsex ual
H S
le ction
ï¿½ âĢı
if th
Ġoff set
U nder
i pt
Ġc urrently
Ġpr ison
W L
J a
lic able
ĠInc lude
pr of
no logy
Ö ²
cu p
Ġal though
Ġpro grams
Ġphys ic
ĠMore over
Ġes sent
Appe llant
ĠCon stitution
ounc il
Ġwe n
Ġa mendment
Ġinj uries
Ġ6 8
rn ational
dis play
Ġbox e
Ġb a
oc ation
be cause
n ded
Ġcontrol led
ĠÂ¶ Â¶
] .
e ce
us h
" #
z ing
Ġwr ite
if ts
Ã½ Ã¿
Ġpri mary
Ġl ot
Ġsuf fered
ĠIndividual s
No n
s sel
Ġc l
Ġwen t
Ġact ing
ĠC FR
Ġin mate
Ġda nger
Ġaff idavit
ĠCert ificate
ne cess
Ġs top
200 4
ro ad
W ho
ĠSpec ial
Ġc ited
Ġlaw suit
Ġconvict e
Ġ9 8
Ġconvicte d
Ġ9 4
Ġboxe s
Ġg reater
Ġsit uation
Ġsugge st
oth ing
100 1
10 8
viden t
Ġcont ext
ber g
Ġaddre ssed
mor e
Ġc itize
Pe r
ni tor
nne s
Ġco pies
Ġmil itary
Ġab sence
all s
I Z
ii i
ĊĠĠĠĠĠĠĠĠĠĠĠĠĠĠĠĠĠĠĠĠĠĠĠĠĠĠĠĠĠĠĠĠĠĠĠĠĠĠĠĠĠĠĠĠĠĠĠĠĠĠĠĠĠĠĠĠ Ġ
Ġmer ely
ĠP olic
rt e
we rs
part y
ist ing
Ġeven ts
ien ts
Ġ6 2
Ġdou bt
Ġnot ify
ĠStat istical
m itted
ĠS ET
Ġs tore
ĠJ ones
ir ma
C t
sh e
pe nsation
ĠDecl aration
Ġprocee ds
Ġd u
D F
ĠčĊ ĠčĊ
Ã¯ Ã¿
Ġin form
emp hasis
u lations
s id
Ġfor ms
N OT
Ġlow e
ĠACC OUNT
ĠPart y
g s
Ġ199 5
AT ES
Ġrespon d
Ġi lle
ee d
ct ure
ĠE ach
du ced
ĠR iver
ai ns
Ġco me
grega t
Ġregu lation
Ġ4 92
gregat e
Ġsep aration
che r
Ġsu s
Ġinf ringe
ĠAct ive
Ġeffort s
ĠP ursuant
ĠC ASE
rm a
Ġass ignment
Ġpe rt
ĠG a
Â¶ ï¿½
ro ll
ri ve
Ġa ud
Ġ( *
ĠAM OUNT
Ġpenal ties
ific ations
Ġre pea
Ġneg ot
ider s
port e
ri dge
t ural
Ġp ass
D G
Ġargue d
f iling
10 9
Â¦ ï¿½
Ġde lay
Ġma il
Ġv ide
LAINT IFF
p aid
Ġrecogn ized
ĠAm ount
jud gment
C OUNT
IT T
Ġ( $
ian t
C ar
u ck
Sp ouse
Ġ3 33
K E
uate d
ĠRo ad
Ġ once
Ġ6 1
ER AL
arr is
& ï¿½
Ġm urder
Ġtype s
h ouse
Ġarbit ration
Ġdeli vered
AP TER
D ec
N a
ĠHOL DING
Ġd raw
one y
ĠK a
Ġcon ference
ha d
du ctions
Ġ7 22
Ġal ong
pos al
Ġsubseque n
Ġge ne
Ġsubsequen t
20 2
irgin ia
Ġse q
Ġa f
Ġnee ds
. ï¿½
Ġm other
ĊĠĠĠĠĠĠĠĠĠĠĠĠĠĠĠĠĠĠĠĠĠĠĠĠĠĠĠĠĠĠĠĠĠĠĠĠĠĠĠĠĠĠĠĠĠĠĠĠĠĠĠĠĠĠĠĠĠ Ġ
Ġunder lying
C S
Ġinte rv
Ġrepresent e
t est
Ġunlaw ful
Ġrepresente d
MENT S
da m
Ġlowe r
Ġdemonst rate
Ġex change
Ġfac tor
Sub type
Ġan t
Ġn ational
Ġpartic ipa
co nc
y our
n z
Ġcomm ission
i nue
Ġ1 14
ha ust
âĢĺ ï¿½
âĢ ī
ERS ON
ST ATE
Ġcle rk
Ġcount y
ro p
Ġconstit utes
ip ulation
Ġne ither
Ġre mand
li m
Ġas k
se rvice
Ġadminist rator
Ġre fer
G L
Ġ9 6
ba t
ns wer
Ġwee k
me t
Ġ x
Ġco de
Ġprotect e
Ġ ove
Ġprotecte d
ncip al
Ġde duct
10 5
ĠW ar
yl van
dust ry
Ġs pee
Ġ ult
Ġ100 7
employ e
Ġremo val
Ġ1 19
t ernal
i um
ĠE lect
ĠF urther
Ġsatisf ied
20 20
Ġfee t
Ġ199 4
~ ~
ail ure
Ġmultip le
Ġu nexpired
ĠJo se
Ö ¸
ĠS H
Cop y
p lain
c c
Â¿ ï¿½
Ġe ducation
g h
F ER
Ġinst all
mer gency
Ġapplic a
vi n
Ġtax payer
ĠNOT IC
ĠH is
ĠE ng
ORPOR ATED
n to
w r
ĠM iss
Ġa tt
FF FF
ĊĠĠĠĠĠĠĠĠĠĠĠĠĠĠĠĠĠĠĠĠĠĠĠĠĠĠĠĠĠĠĠĠĠĠĠĠĠĠĠĠĠĠĠĠĠĠĠĠĠĠĠĠĠĠĠĠĠĠ Ġ
S ON
ĠB O
Ġ6 9
ylvan ia
ro s
O FF
Ġaff irmed
Ġexte nsion
Ġac knowledge
ï¿½ Â¥
ĠJUD GE
ine e
i no
inclu de
Ġ25 44
we l
ĠE PA
Ġ ________________________
Ġli abilities
Ġde vice
Ġco rporate
ĉ ĉ
Ġcir cuit
ĠD O
ĠF ar
ï¿½ [
Ġlicen se
ĠP O
mi na
ĠF a
ĠRe quest
T E
Ġdiscu ssion
ĠPr ep
Ġcon vers
Ġ7 6
Ġcreate d
ĠNOTIC ED
e quire
Ġ1 17
Ġden ies
Ġk eep
mo st
ĠINC ORPORATED
r equire
T ax
Ġpract ices
D istrict
S R
mar k
Ġmer it
ĠCa n
rie r
ist ration
ÃĪ Ã¨
erm o
H o
M c
h olding
du c
Ġremed y
Ġ9 7
Ġp hoto
Ġdid n
Ġcon str
F iling
Ġ Ãģ
Ġbo n
li ke
ng ing
i zation
nce d
Â Ĺ
qu al
ï¿½ ~
Ġ7 4
po ses
Ġpro mp
erm a
Ġelect ronic
Ġaddre sses
čĊ Ġč
ĠTh ird
c ame
Fe deral
ns ylvania
ĠB ra
Ġde scription
ĠA ve
iate d
M B
Ġd irector
Ġdecide d
au tho
Ġgu aran
| ï¿½
Ġshow s
Ġf arm
ĠBank r
ĠOk ay
ie ty
ra do
ĊČ Ġ
Ġb ase
/ ).
Ġe lement
Ġ âĢļ
Ġexpen se
Ġ9 5
lle ct
S um
ĊĠĠĠĠĠĠĠĠĠĠĠĠĠĠĠĠĠĠĠĠĠĠĠĠĠĠĠĠĠĠĠĠĠĠĠĠĠĠĠĠĠĠĠĠĠĠĠĠĠĠĠĠĠĠĠĠĠĠĠ Ġ
ĠS ignature
âĢ ĥ
ĠM ex
.âĢĿ ).
ï¿½ }
ĠT a
ĠRe view
irma tive
ĠU NSECURED
ĠD uring
Ġfra udule
ĠS P
t ection
Ġc alendar
ĠL td
r ece
10 7
" .
emp tion
ĠF r
Ġdisp uted
Ġado pted
Ġwor ked
Ġv ote
Ġb ill
ĠI V
ee r
ĠCREDITOR S
Ġaff iliate
fe it
ĠPart ies
ri ff
ĠA CTION
ĠAM ERIC
ĠD EN
nce r
il led
i ndent
ĠAS S
L AR
ĊČĠ Ġ
Ġwa ste
de f
10 2
ĠC CH
Ġw ages
Ġcon tains
ĠPre sident
IV ID
Ġhe ard
Ġmo tor
Ġ1 50
ig u
Ġproced ure
Ġinquir y
Ġreg ister
ĠAdminist ration
Te lephone
ha v
tom s
ar c
. âĢĶ
Ġprodu ced
State s
Ġecono mic
n dividual
Ġdeta iled
AC K
ï¿½ Â®
Co de
al a
ĠNOT ICE
ide nce
Ġw i
e que
ĠTe ch
Ġ âĢĻ
Ġenfor ce
y d
10 3
nal d
ĠCo rr
Ġent ries
15 0
Ġveh icles
2 000
th rough
ĠEs q
ĠPay ments
tect ive
i ations
k ins
Ġconti nuation
I ED
o le
Ġcon seque
porte d
co hol
m ust
I O
D S
ĊČĠĠ Ġ
Ġcons piracy
Ã· ï¿½
Ġcert ified
Ġad jud
Ġs ure
ĠAsse ts
Ġwe a
C M
Ġcomp anies
Ġac cording
ÃĹ ï¿½
C ir
Ġre ach
IVID UAL
Ã¿ Ã¼
stit ute
Ġinsu fficient
av ing
Ġ @
ste rn
ĠMo rtgage
Ġreco ver
Ġfelo ny
I FOR
ĊĠĠĠĠĠĠĠĠĠĠĠĠĠĠĠĠĠĠĠĠĠĠĠĠĠĠĠĠĠĠĠĠĠĠĠĠĠĠĠĠĠĠĠĠĠĠĠĠĠĠĠĠĠĠĠĠĠĠĠĠ Ġ
Ġpr isone
M i
Ġcatego ry
Ġre a
ĠM ary
Ġto rt
Â¤ ï¿½
Ġacc ident
i ndividual
ĠRe pre
AL L
Ġdrug s
Ġinvest ment
scri bing
cen tage
corr ect
xe d
media t
Ġ4 00
Ġstatute s
Ġinvol ving
ish ing
tt ing
Ġf ine
Ġretur ned
mediat e
Ġinterpret ation
vic tion
Ġar ound
Ġconf idential
arre d
Ġfo c
ËĻËĻËĻËĻ ËĻËĻËĻËĻ
\_\_ \_\_
M E
ĠSu ch
12 0
Ġst udent
ĠOpe ned
Ġanal y
Ġ8 9
G Dt
Ġjoint ly
ĠH ow
nu ine
OR Y
ĠLab o
ou ther
Ġhim self
Ġinstru ments
with out
ĠT rial
Ġve ssel
Ġrepre sentative
Ġve rs
;"> &
Ġexist s
am b
serv ation
Ġ %
Ġper io
Ġreport ing
Ġint ro
Ġimm unity
Ġd irectors
Ġse ven
ĠO fficial
ï¿½ Â·
r ein
ue st
Ġg un
Ġexist ence
Ġhe ad
Ġfac ilities
lo od
se ss
ï¿½ ]
ï¿½ "
Ġde p
Ġin ven
Ġpe rs
ha se
S B
ĠM R
ĠIND IVIDUAL
Ġinc ident
D U
AN Y
ĊĠĠĠĠĠĠĠĠĠĠĠĠĠĠĠĠĠĠĠĠĠĠĠĠĠĠĠĠĠĠĠĠĠĠĠĠĠĠĠĠĠĠĠĠĠĠĠĠĠĠĠĠĠĠĠĠĠĠĠĠĠ Ġ
. \[
Ġro om
ĠL im
Ġrepresent ation
state ment
ĠAppe al
ĊČĠĠĠ Ġ
Ġcons oli
Ġ8 5
Å½ ËĨ
Ġexpress ly
owe rs
Ġau to
Ġtheo ry
e le
ĠEx penses
Ġbro ad
Ġin stitution
Sa n
Ġbe gan
Ġrate s
ĠDe f
Ġdischarge d
ĠU se
Ġ2 44
ĠV ALUE
11 8
W ith
lic it
t erest
ĠLoc ation
tt n
Ġrai se
po l
Ġage nts
man ded
sh aring
N IA
Ġ \
Ġ organization
Ġt ry
Ġsu e
Ġ7 35
Ġle ad
iga n
ĠCon tingent
P h
su pport
Ġaff airs
Ġvaca t
lo o
way s
Ġacce pted
iss ible
B R
as ka
ĠH earing
Ġdead line
ĠFor eign
Ġcomm issions
c ar
Ġfun d
Ġs ocial
id uc
w ide
B ankruptcy
Ġ ÂĦ
lat ure
ri m
ÃĤ a
ag ain
rizo na
T O
Ġ7 3
velo p
sentat ives
Ġcons ult
8 037
ĠCon f
doc ument
A ss
ï¿¾ ï¿¾
ession al
Ġc ity
ï¿½ ÂŃ
ĠI T
ĠF ac
ĠGR ANT
Ġine ffective
n terest
á Ħ
Ġsubstantial ly
Ġe ver
ĠRe ce
dic ation
ĠA FF
pa t
Ġco ope
Ġcol lateral
rse y
n ternal
Ġhold s
Ġ10 3
Ġin stant
Ġad vice
C ASE
ĠNe v
Ã¿ Ã¶
i nternal
ĠAr e
ĠM ass
Ġm al
outher n
no rable
Ġre lied
ĠIn vest
Ġin stead
Ġsa nc
cons istent
Ġsay s
ĠA la
ex am
Ġj uro
Ġtreat e
Ã¿Ã¿Ã¿Ã¿Ã¿Ã¿Ã¿Ã¿Ã¿Ã¿Ã¿Ã¿Ã¿Ã¿Ã¿Ã¿ Ã¿Ã¿Ã¿Ã¿Ã¿Ã¿Ã¿Ã¿Ã¿Ã¿Ã¿Ã¿Ã¿Ã¿Ã¿Ã¿
P ART
ĊĠĠĠĠĠĠĠĠĠĠĠĠĠĠĠĠĠĠĠĠĠĠĠĠĠĠĠĠĠĠĠĠĠĠĠĠĠĠĠĠĠĠĠĠĠĠĠĠĠĠĠĠĠĠĠĠĠĠĠĠĠĠ Ġ
rac tor
bs ite
wat e
ï¿½ (
Ġe na
Ġre com
Ġtreate d
! !
ĠCON S
Ġ1 18
ĠO H
Ġlim itation
ĠDE FENDANT
Ġl ittle
ĠPr of
OM E
Ġan tic
du ce
ĊČĠĠĠĠ Ġ
Bo x
AR K
Ġpoi nts
as ion
ĠDa n
Ġwr it
ob ile
"" "
n ic
Ġ8 4
Ġh our
T OTAL
Ġde fect
r tions
lica t
Ġtest ing
j a
ĠPolic y
ï¿½ Â¢
ĠL AW
ĠSe rv
ĠE ASTERN
Ġse lect
S o
necess ary
ide d
Ġperm a
i nterest
Petition e
ppe d
L L
ND ER
Petitione r
IFOR NIA
wate r
Ġrespons ibilities
ĠHo nor
licat e
Ġvacat e
B E
ki n
n ical
ï¿½ âĢľ
Ġconclusion s
Ġ7 9
______ _
da ta
ĠPro posed
Ġrepea t
be fore
ï¿½ Â°
Ġ _____
ĠT f
N ONE
AT TORNEY
Ġexec uted
× ³
Ġg as
Ġad vised
IL ING
Ġar range
este rn
Ġp p
Ġt emporary
Ġob served
ï¿½ &
e h
ĊĠĠĠĠĠĠĠĠĠĠĠĠĠĠĠĠĠĠĠĠĠĠĠĠĠĠĠĠĠĠĠĠĠĠĠĠĠĠĠĠĠĠĠĠĠĠĠĠĠĠĠĠĠĠĠĠĠĠĠĠĠĠĠ Ġ
Ġplead ings
Ġmo ve
ĠE state
ĠRespon dent
Ġ `
Doc ket
ĠM ON
OR K
y ers
Ġb order
Ġis su
use s
S P
Ġrece ipt
br aska
s um
lor d
ï¿½ Â¿
Ġrequest ing
N ER
Ġ âĢ¢
Ġc ard
11 1
Ġwa ived
ĠA gency
sp ace
Ġcon tain
Ġexpect e
Ġexpecte d
Ġre quiring
Ġlo sses
ke ts
ĠA p
Ġappe llee
ĠMil ler
m it
k y
G O
v io
ag no
Ġre venue
ĠR ES
S I
Ġass ault
Ġs avings
ï¿½ ^
da tory
Ġ20 22
UM M
Ġjust ice
ĠI mp
Ġnot ified
Ġdiscu ss
Ġtest ify
ï¿½ âĢ¦
b usiness
Ġexemp tions
vident iary
Ġto o
a stern
" âĢ¡
ï¿½ !
Ġex c
Ġocc ur
al so
Ġprob able
ï¿½ Â«
Ġback ground
m ission
unic ip
F A
Ġha zardous
C laim
V E
Ġinj unction
ï¿½ï¿½ï¿½ï¿½ ï¿½ï¿½ï¿½ï¿½
Ġr ob
IC ES
Ġy et
Ġreject e
Ġrejecte d
ĠDav is
Ġre search
ĠAss ociate
u mp
Ġ ____
ĠLan d
Ġperform ing
de nce
Ġpla cing
ĊĠĠĠĠĠĠĠĠĠĠĠĠĠĠĠĠĠĠĠĠĠĠĠĠĠĠĠĠĠĠĠĠĠĠĠĠĠĠĠĠĠĠĠĠĠĠĠĠĠĠĠĠĠĠĠĠĠĠĠĠĠĠĠĠ Ġ
Ġcont inge
ke ting
ĠU pon
cr edi
ĠA lle
ERT IFIC
Ġde pri
AC H
Ġ1 16
ĠA ttach
Ġpro hib
Ġso lid
Ġb ound
Ġha ppe
200 3
Ġeffect s
A fter
with i
k o
ĠQ u
e na
withi n
C a
iso ry
Ġqual ity
O B
ĠHer e
Ġinitial s
ĠS tock
T D
are nts
The r
hav ior
oli na
ns a
ĠH igh
ï¿½ #
x Åĵ
D ESCRIPTION
ĠK o
f ra
Ġsome thing
Ġattempt e
Ġattempte d
j ection
urre nder
ĠMe dic
: :
ĠV irginia
Ther e
ar g
Ġcommen ced
ic iary
ĠAMERIC A
Ġst r
ĠMex ico
** **
Ex amples
Ġres ources
Ã¿ ÃŃ
Ġow nership
ffic iency
ĠDe pt
B ank
ĠNo rthern
Ġbo oks
ĠC urrent
ad o
Ġdis agree
app licable
D kt
Ġdol lar
unicip al
ĠNE W
ĠCh e
UR Y
ĠW is
ĠB ay
ĠA gent
ĠPay ment
c raft
ĊĠĠĠĠĠĠĠĠĠĠĠĠĠĠĠĠĠĠĠĠĠĠĠĠĠĠĠĠĠĠĠĠĠĠĠĠĠĠĠĠĠĠĠĠĠĠĠĠĠĠĠĠĠĠĠĠĠĠĠĠĠĠĠĠĠ Ġ
L o
iduc iary
Ġalleg ation
e rein
ĠH ol
Ġpre liminary
Ġ6 01
h erein
ĠF arm
qu id
ĠIn dia
Ġple ading
Ġ4 04
Ġpro prie
Ġ199 0
na ging
Ġcr e
ee l
Ġag gregate
ÃĲ A
ĠUS A
× ĥ
pla ce
duct s
ĠA nge
Ġoffen ses
Å½ ËĨÃ¨
Ġsatisf y
xxxx xxxx
port s
. (
---------------- ----------------
Ġann ual
e nsion
le a
ĠCAL IFORNIA
Ġreco very
w ards
Ġcomp uter
Ġg a
Ġs ize
Ġremo ved
Ġop tion
Ġde v
ch eck
Ġmar ital
;"> &#
ï¿½ Â¶
ans as
u rth
Ġb ody
rinte d
N O
D u
Ġexcee d
Ġcusto mers
Su pp
ĠInte rnational
ĠDis c
Ġprofession al
ĠW H
the ir
iz ing
Ġstat ing
Ġbe came
Ġh older
Ġ7 1
ĠCap ital
o ns
Ġde cre
ĠRe t
Ġg ot
stan tive
ĠL ife
ĠArt icle
Ġli ve
Ġsh o
Ġho spital
ĠE l
ĠA nswer
Ġre lat
ĠF ourth
POR T
ĊČĠĠĠĠĠ Ġ
ri ved
ck s
ri zation
D O
stit utions
d if
T op
\* \*
sel ves
Ġte rri
ag ing
] ,
Ġma g
n da
trans form
Ġco ver
ĊĠĠĠĠĠĠĠĠĠĠĠĠĠĠĠĠĠĠĠĠĠĠĠĠĠĠĠĠĠĠĠĠĠĠĠĠĠĠĠĠĠĠĠĠĠĠĠĠĠĠĠĠĠĠĠĠĠĠĠĠĠĠĠĠĠĠ Ġ
ĠInter net
Ġref used
Ġtrans fers
E mail
ria n
wen ty
us al
ns hip
Ġde mand
M M
ĠA rizona
B a
ĠS ha
R ight
ĠRe venue
Ġun its
Ġre ve
ĠPen nsylvania
ic ation
Ġre payment
pre ssed
var iant
ï¿½ '
Ġs w
c are
Ġunder signed
Ġun i
fo llow
L V
ï¿½ Â´
00 6
Ġof t
Ġsole ly
De scribe
Ġ199 2
ï¿½ Â»
ĠS EC
Ġpremi ses
Ġs aw
div ision
c ked
11 7
Ġal one
Ġc ounts
s ing
Ġopinion s
em ical
ĠContract s
Ġpa pers
Ġrest ric
ita t
Ġappro ach
Ġalleged ly
ĠKe n
Ġtrans actions
Ġtermi nated
ip ation
Ġit em
Ġincre ased
ĠB u
T ON
erma n
Ġge nuine
r ey
ï¿½ Â¦
ĠN et
ĠDis puted
ĠD kt
ï¿½ {
i rt
Cr edit
Ġex haust
i nline
Ġcount ry
Ġ ur
F iled
Ġ8 3
ermo r
Ġreview ing
ermor e
c han
* ,
urth ermore
Ġresol ution
J ECT
ĠMo nthly
Ġconcer ns
ĠWh ite
are r
ĠP ER
Ġact e
S S
Ġqu ot
pr ession
ho od
lo n
Ġacte d
ER ATION
ĠDe n
e to
ĠAc cording
ĠR ob
S ched
IR M
ĊĠĠĠĠĠĠĠĠĠĠĠĠĠĠĠĠĠĠĠĠĠĠĠĠĠĠĠĠĠĠĠĠĠĠĠĠĠĠĠĠĠĠĠĠĠĠĠĠĠĠĠĠĠĠĠĠĠĠĠĠĠĠĠĠĠĠĠ Ġ
wo r
ĠJ ackson
Ġpurcha sed
Ġ15 2
D L
Ġp op
Ġfollow e
ĠWat e
dr ew
w ho
Ġg reat
Ġeval uation
Ġ10 2
Ġt able
E AR
ĠL ee
ĠCh icago
Re s
Ġin dictment
Ġal cohol
ig ure
ĠPate n
IG N
a ting
co vered
Ġvide o
Ġfollowe d
Ġ10 4
Ġun reasonable
Ġany one
m ain
ĠAN Y
Ġear ly
IL ED
ote d
iso r
ĠC are
× Ĥ
B C
ĠPaten t
Ġre tal
po ne
Ġ âĢŀ
Ġen ough
Ġac r
Ġpresu mption
I AM
Credi tor
h eight
ä ĳ
Ġs pea
ĠWo r
is m
Ġse rv
Ġf low
n ations
le nce
Sh eet
con f
Ġmar ks
Ġequ ally
7 00
C ert
ic ing
è ¢
ĠP M
again st
Ġ9 3
ĠAff airs
Spec ify
Ġexclu ded
Ö ³
nc is
Ġrece n
ĠSERV ICE
Attach ments
Ġrecen t
dis puted
Ġprepare r
â ľ
Ġrespons ibility
ĠC ouncil
Ġdoc ket
quis ition
Ġproble m
s im
ĠNote s
Ġdis position
Ġoft e
Ġst reet
EM OR
Ġ199 1
ĠWate r
c ir
Ġacr e
ĠApp lication
Ġproble ms
Ġ5 56
IC H
Ġen ha
B efore
Ġproced ural
Ġredu ce
ĠP L
Col umns
Ġofte n
ĠG reen
r eto
ĠMemo randum
able d
3 01
Ġexec utive
W idth
ï ¾
Ġofficial s
Ġf ines
ar ce
Re spon
ĊĠĠĠĠĠĠĠĠĠĠĠĠĠĠĠĠĠĠĠĠĠĠĠĠĠĠĠĠĠĠĠĠĠĠĠĠĠĠĠĠĠĠĠĠĠĠĠĠĠĠĠĠĠĠĠĠĠĠĠĠĠĠĠĠĠĠĠĠ Ġ
ĠLa ke
C REDITOR
Ġret irement
t han
duct ing
Ġsystem s
Ġ10 5
ï ½
Ġli ving
d om
i j
ĠExec utive
N C
Ġ2 50
Attorney s
V ID
ĠS chool
Ġ ]
Ġregu la
K e
Ġt urn
11 5
p ublic
× Ģ
htt p
c ounts
whe n
Ġmo net
ï¿½ âĢ¡
A O
pen t
Ġt ur
ĠE ven
ĠCons umer
IT LE
ĠD C
Ob ject
ĠT erm
ĠVe h
Ġacce p
ĠC ard
ĠAdminist rator
e reto
ishe r
h ereto
Ġb g
h ts
Ġcon stru
ĠUn iversity
s ign
Ġ8 8
=" #
Ġ Ċ
/ ï¿½
Ö ·
I AN
ĠF amily
ĠF rom
S tat
Ġro le
Ġtra ffic
ĠAss ociation
FOR M
ĠNo v
x icated
He ight
Ġcompet e
cor ds
ree k
Ġaff irmative
Ġcons u
Ġde ductions
Ġbg color
Sched ul
Ġconte ntion
i pe
ĠD id
UR RED
Ġhigh e
mat ic
ĠI dent
â ķ
commend ation
Ġhighe r
Ġstud y
Ġstep s
â ī
par agraph
EC LAR
AND UM
Ġprivile ge
55 7
IN E
Ġg row
Ġqu arter
Ġw al
13 0
p ur
Ġlim its
Ġille gal
appro priate
ug ht
- ï¿½
le ments
ite ria
bert y
Ġ ________________
Ö ±
ĊĠĠĠĠĠĠĠĠĠĠĠĠĠĠĠĠĠĠĠĠĠĠĠĠĠĠĠĠĠĠĠĠĠĠĠĠĠĠĠĠĠĠĠĠĠĠĠĠĠĠĠĠĠĠĠĠĠĠĠĠĠĠĠĠĠĠĠĠĠ Ġ
Ġm iles
ĠEx empt
Ġdisc losed
ĠFlo o
wi n
u ts
i nations
Ġp ublished
ĠColo rado
Ġsche duled
umer ous
it z
Ġsa mp
11 6
Ġcle a
Ġext ra
Ġr ise
ĠLe ases
EMOR ANDUM
% )
H IB
Ġfa ther
V A
ĠLouis iana
partic ular
Ġv ia
are s
edi a
Ġprosecu tor
Fe d
ĠD rive
Ġcause s
f low
Ġmeas ure
Ġp sy
ĠAPP EAL
\ <
FOR E
Ġmain tained
urr ing
Ġwhat ever
ĠPa ul
Ġparagraph s
AT URE
Ġsuperv ised
Ġmonet ary
J oint
Ġknowing ly
Ġdeli be
D Q
t ro
ĠCommon wealth
ĠO P
.âĢĻ âĢĿ
D r
Ġautho r
Ġwi n
Ġexec utory
pert ies
ĠC V
Ġle s
Â¢ :
ol s
Ġsentence d
ĠF ile
R C
v s
i aries
Ġlo o
R Q
Ġperson nel
P rinted
Ġet c
ĠS to
Ġsett ing
Ġin dustry
U H
ĠCar olina
gr ess
li able
rro wer
æ ķ
ĠG ra
R ule
alen t
Ġlo st
ĠRespon se
= ï¿½
Ġphysic ian
X Object
ĠInterest s
los ures
Ġpre sence
Ġ4 44
; ï¿½
200 2
ra tors
itat e
ish ment
ĠFloo r
d ue
e by
ar k
e quest
ĠOF F
Ġna tural
p ursuant
ĠSa fe
Ġincorpo rated
Ġestimate d
HIB IT
D W
Ġmo nitor
ËĨ s
le ading
Ġaw arded
3 12
ĊĠĠĠĠĠĠĠĠĠĠĠĠĠĠĠĠĠĠĠĠĠĠĠĠĠĠĠĠĠĠĠĠĠĠĠĠĠĠĠĠĠĠĠĠĠĠĠĠĠĠĠĠĠĠĠĠĠĠĠĠĠĠĠĠĠĠĠĠĠĠ Ġ
Ġg iving
1 19
tan t
20 4
r equest
Ġcontinge n
Ġcontingen t
ĠNev ada
sol ute
r eby
ĠAss istant
Â¥ ï¿½
ĠUn liquidated
ins o
Ġbelie ved
Ã¿ Ã´
rma n
ĠDIS MISS
~ ï¿½
Ġde scribe
) ï¿½
b ation
C e
ĠAppe llee
ay lor
so me
e reby
ĠT wo
ĠPol ice
Ġove rt
Ġfr eque
b ro
arge t
ĠD ue
h ereby
Ġcri mes
G MENT
cons i
UD ING
G S
Ġ9 2
Ġpre ss
Ġadm ission
tt y
O O
ï Ģ
as k
Ġindicate s
De f
consi n
Ġte ll
s is
ĠB ased
ĠC lar
Ġf ield
ĠMa terial
Cont inuation
be d
Ġf ew
P C
ĠU NDER
Ġsub stances
ses sed
( âĢľ
me mber
ow ner
âĢĶ ï¿½
Ġle ngth
Ġmin utes
ĠPr ior
M ay
Â« ï¿½
Ġop tions
inso n
Ġt ri
Ġmis conduct
Ġro ad
Ġex clusion
ĠLabo r
Ġapplic ations
ĠPe ople
Ġapplica n
Ġpay able
E F
Ġapplican t
ĠJe rsey
9 00
âĤ¬ âĤ¬
Non priority
w est
Ġ10 8
Ġe videntiary
ion al
con stitutional
di x
Ġresult e
ĠV A
Ġb ad
Ġresulte d
P F
as ing
Ġprep aration
one d
Ġad vert
ç ĳ
Ġt hereto
ĠSen t
ran ts
Ġsupport ing
200 1
ĠV II
Ġmo ving
Ġma naging
ber y
! âĢŀ
Ġp adding
ĠDe fense
Ġdecl aration
nder s
ow s
h earing
ipate d
Ġve rif
ÆĴ A
ear s
IS TR
Ġrest rict
Ġ8 7
ĠE ast
id s
ĠO THER
d f
b een
c ap
ĠS CH
Ġ8 6
Ġ2 45
ïģ ¯
Ġcomplain ts
20 6
Ġsuperv ision
ĠPo st
mo nth
11 4
Ġb arred
Ġ6 12
a a
Ġsusta ined
ĠT hank
Ġreside s
ĠB lack
ĠLe ase
ĠO ct
ara t
l ars
rie vance
ea n
ĠW ork
ĊĠĠĠĠĠĠĠĠĠĠĠĠĠĠĠĠĠĠĠĠĠĠĠĠĠĠĠĠĠĠĠĠĠĠĠĠĠĠĠĠĠĠĠĠĠĠĠĠĠĠĠĠĠĠĠĠĠĠĠĠĠĠĠĠĠĠĠĠĠĠĠ Ġ
da ho
ĠD u
Ġforec losure
employe d
l D
ĠAdminist rative
Ġmar gin
Â® ï¿½
J UD
co ding
ĠR EL
pe ction
Ġm ot
Ġnotice s
u rt
e ft
ott e
ĠDep uty
E stimate
Dis puted
ĠW i
Ġconce rn
velop ment
Ġ12 7
Ġmo de
pe rson
Ġprisone r
Ġatte ntion
W R
Ġconsider ing
ig ration
Count y
Ac cordingly
ĠV oluntary
ĠA nal
D R
ach ie
99 9
Ġ198 7
ĠI ss
Ġre pay
T itle
Ġper centage
Ġn umerous
Ġde scribing
A X
ĠINC URRED
OU THERN
l io
o ing
Ġfavo rable
Ġgu idelines
ĠF ire
owe d
B I
id ance
Ġ âĢ
pe rm
le e
Ġc lar
ï¿½ $
Ġappoint e
Ġappointe d
Inc lude
pr ec
Ġcorr espon
ï¿½ Ëľ
Ġpromp tly
Ġarg u
ia ns
ĠRich ard
Ġhere to
ĠJose ph
Ġcomm ittee
con viction
am i
ad minist
ĠI m
Ġsec tions
Ġfurn ish
Ġre ly
Ġ8 1
Ġsche me
ĠAu to
Ġf all
v ation
E d
J udge
ĠF ifth
Ġin vo
ĠA v
Ġalleg ing
Ġconstr ued
C K
Ġcredi bility
d id
Ġcount e
R Y
ĠT ITLE
ĠIN S
Ġthrough out
> ï¿½
ĠM rs
Ġst rong
Ġ16 5
li a
ÃĲ a
do e
ĠMar k
h eft
cont inuation
Ġconflic t
Ġj e
Ġ !
Ġsuf fer
cle ar
Ġfile s
disc losed
me a
Ġessent ial
of t
ĠMa t
Ġme ss
Ġrele ased
Ġt heft
ĠP g
Ġinter nal
H H
Ġrepeat e
Ġ3 79
fi nding
Ġfor ward
ï¿½ Â¤
ver sed
ow a
rga n
Pr e
Ġun fair
Un liquidated
direct ly
ï¿½ âĢ¹
IT IES
Ġrepeate d
as sed
P ON
ĠCont rol
Ġbelie ves
ĠP ERSON
Ġ ..
Ġpre scribed
ĠA rm
know n
ĊĠĠĠĠĠĠĠĠĠĠĠĠĠĠĠĠĠĠĠĠĠĠĠĠĠĠĠĠĠĠĠĠĠĠĠĠĠĠĠĠĠĠĠĠĠĠĠĠĠĠĠĠĠĠĠĠĠĠĠĠĠĠĠĠĠĠĠĠĠĠĠĠ Ġ
Ġ9 1
CON S
. -
ĠC IV
Ġappoint ment
Ġst art
11 3
ĠRe v
urcha se
Ġs k
________________________________ ________
Ġmod ified
ract ice
Ġma t
ce l
ĠS ur
ar i
A ttn
Ġmag istrate
Ġdisc ip
ĠHo norable
00 8
ĠAl so
ĠP LAINTIFF
L I
Ġaw ay
e quired
Â» ï¿½
[ ï¿½
ri age
ca ine
Ġregister e
c hapter
ĠW as
Ġregistere d
Ġbe havior
law are
a ired
Ġatte n
f r
ĠSc ott
Ġco r
Ġ2 78
Ġ198 8
Ġear nings
Ġinterv iew
tho ds
ĠS C
EN CE
ĠUn it
Ġwe bsite
wh ite
c cee
Ġequ iv
Ġcalcu lated
3 75
ĠC R
âĢ¡ ï¿½
Ġremed ies
Ġerro neous
Ġsub stantive
Ġcompe l
ĠJa n
ĠAn der
Ġr out
Ġphoto graph
ĠFra nk
âĢı ï¿½
Ġl itiga
\ \
ĊĠĠĠĠĠĠĠĠ ĊĠĠĠĠĠĠĠĠĠĊĠĠĠĠĠĠĠĠĠĠ
ĠSt udent
" (
ĠF air
Â§ ï¿½
IT E
ĠE nergy
r equired
Ġst rate
Not ice
ĠSpec ifically
âĢľ ï¿½
Ã¿ Ã©
ĠAb out
Ġuse s
Con tingent
ĠL EX
ĠB l
Ġb ottom
ide s
Ã¿ Ã¸
o il
A ug
Ġfraudule n
m c
Ġc ur
dit ures
Ġfraudulen t
ĠAd v
Ġin h
ĠTh o
Ġdeli very
ĠH arris
Ġv ol
Ġlevel s
pone nts
ĠChar les
Ġp owers
Ġde partment
form s
d ist
Ġnecess arily
ĠNon priority
Ġunder standing
Ġregula tory
ĠTra de
Ġf ront
IN ION
^ ï¿½
ĠL y
N I
Ġ198 6
E mploy
Ġpos sess
ĠCon ference
b b
ste i
Ġthem selves
Ġ2 55
OR T
Ġinfringe ment
ECLAR ATION
ĠC ash
IG H
ĠC laimed
Ġ12 2
' ï¿½
Ġdri ver
Ġbon d
ĠSTATE MENT
i tory
Ġagree s
đ đ
Ġ2 38
ge neral
Ġtr ied
Ġrea ched
Ġasse t
Ġde spite
Ġrecogn ize
Â· ï¿½
h reat
F L
u de
Ãĳ t
Ġt hreat
ĊĠĠĠĠĠĠĠĠĠĠĠĠĠĠĠĠĠĠĠĠĠĠĠĠĠĠĠĠĠĠĠĠĠĠĠĠĠĠĠĠĠĠĠĠĠĠĠĠĠĠĠĠĠĠĠĠĠĠĠĠĠĠĠĠĠĠĠĠĠĠĠĠĠ Ġ
stei n
ĠApp ro
ĠA g
ot s
DD D
ĠR ights
ID ERATION
Ġfire arm
ĠFra ncis
with standing
sim ile
, ,
Ġ8 2
w ar
Ġdee d
A K
ĠN i
Sub total
00 4
H a
Ġpersonal ly
ma king
C B
J e
"> &#
âĢ° ï¿½
Ġ__ _
ĠLEX IS
He r
ut ual
ĠSET OFF
gate d
pe ople
Ġ aid
ic ious
c i
Ġadm it
Ġcontinu ing
CL US
Ġal lo
ĠHa n
Ġprincip les
prof it
×Ļ ×Ķ
Ġto day
ma de
Ġsur face
Ġt wenty
umb ia
Ġconvic tions
ĠL u
ĠC OU
al low
âĢ¦ ï¿½
ir ms
Ġfor feit
am ount
Ġap art
z ations
Re v
n do
Ġsimilar ly
n j
ĠExec utory
Ġ7 92
× ´
W i
Ġpre va
ĠT est
Ġno vo
Ġ old
val id
ĠC OUNT
ĠPro tection
Ġcr itical
Ġim pose
Ġin consistent
Ġs ources
P ursuant
ĠNe b
Ġcommunic ations
Ġthi rty
este r
counsel ing
Ġestimate s
pro ceeding
h reate
ĠC reek
ĊČĠĠĠĠĠĠ Ġ
{ ï¿½
ĠC AR
ĠS oc
ĠMich igan
Ãĵ M
la sses
ĠP RIORITY
Ġf iduciary
Ġt hreate
OS E
Ã¾ Ã¾
Ġope rate
Ã¿ ÃĽ
co gn
las ka
Ġcon taining
x imate
s pons
13 6
Ġbe tter
r espon
orga n
Ġt herein
Ġdi vide
phe r
Ġcomb ined
W il
Ġparticular ly
En coding
Ġn ine
Sp ace
Ġcr iteria
S ource
lan ation
cont ract
ĠD OC
Ġadminist e
N Y
stru ctions
Ġfo od
Ġ achie
W K
ĠI daho
Ġre ta
now rap
it che
Ġconten t
Ġlie ns
Ġcont emp
e nts
Ġre lates
z z
: \
h ead
ĠNe braska
V I
Ġcall s
mon d
ĠEnt ry
m l
for cement
Ġvio lence
Ġst u
CLUS ION
w hat
Ġin v
Ġ5 22
ĠS ix
Ġsen d
Ġob vious
cor p
Ġse vere
Ġdi agno
âĤ ª
ĠFinal ly
Ġimpair ment
ĠCOMP LAINT
Ġ3 57
comm o
Ġmer e
unic ations
Ġadequa tely
pos ure
Ġchallenge s
Ġop position
ĠIN TER
× ±
ul ts
b i
Ġ" \[
F ac
e stablish
s ton
Ġpat ient
us ion
iv ity
ĠPe nsion
alt e
R eg
c s
day s
ĠHo spital
NOT ICE
OU ND
Ġact ive
e me
Ġappe ared
ĠWhe r
ab e
Ġprece dent
ĠEmploy e
Ġexten ded
19 86
Ġperma nent
" ?
ĊĠĠĠĠĠĠĠĠĠĠĠĠĠĠĠĠĠĠĠĠĠĠĠĠĠĠĠĠĠĠĠĠĠĠĠĠĠĠĠĠĠĠĠĠĠĠĠĠĠĠĠĠĠĠĠĠĠĠĠĠĠĠĠĠĠĠĠĠĠĠĠĠĠĠ Ġ
to ff
un ctive
UMM ARY
00 5
Ġre ally
Ġp arents
Ġfor um
Ġsupport s
% ï¿½
Ġre im
Ġin dica
Ve r
Ġren tal
Ġappe arance
â ĸ
ĠD i
ĠM AR
A r
Int e
Ġc losed
Ġf am
\ ï¿½
ag ue
+ ï¿½
ĠR u
20 5
ĠDe bt
R a
Ġv olunt
Ġsupplement al
sh ould
ar o
Ġspec ies
Ġy e
s Å½
the y
âĢ¹ ï¿½
P ER
ĠIndia na
Ġwant e
cont inue
C ERTIFIC
Ġwante d
DE FENDANT
: ï¿½
ĠO w
id den
Ġsub sid
L ine
T rans
imilar ly
NS EL
Ġpa nel
Ġtra vel
Ġredu ced
Ġas pect
F inal
ĠC UR
m illion
Ġinstall ments
Ġdo o
Co debtor
Ġd ra
g b
ien d
MENT AL
Ġpro mi
l ife
Ġdec ree
oun ded
ĠInde e
An d
Ġparticular s
ĠIndee d
Ġli sts
Ġt hereby
CL UDING
ĠWith out
Ġe mp
ĠP EN
C P
Ġsub division
ĠEx emption
Co lor
it imate
e cord
ric ult
the n
W KH
Ġ Â©
mi nate
Ġwor kers
Ġen vironmental
f ac
Ġf it
T T
off ice
LE Y
W a
Ġh tt
Ġlegis lative
van tage
ĠIN V
Ġha bit
ara tory
Ġam b
ĠMo o
inge r
Ġh uman
Ġr ad
ĠAnder son
O Y
Ġcusto mer
Ġ198 9
æ ħ
ĠRepre sentative
Ġrespon ded
t ts
âĢĻ ï¿½
Ġapp are
Å¡ i
ro ve
G G
r ecord
ven th
X i
ĠFr e
ĠPro ceeding
spect ive
A merica
ra d
A H
ab out
ing u
ËĨ Ã©
01 6
Ġ15 9
Ġdoo r
T able
. **
ĠE vidence
corpo ration
ta nce
Ġguaran t
ĠSu perior
Ġreco ns
Ġredu ction
Ġle t
Ġsay ing
rig hts
AB LE
Ġ198 4
Â© ï¿½
D OC
ta ct
Ġ7 07
ĊĠĠĠĠĠĠĠĠĠĠĠĠĠĠĠĠĠĠĠĠĠĠĠĠĠĠĠĠĠĠĠĠĠĠĠĠĠĠĠĠĠĠĠĠĠĠĠĠĠĠĠĠĠĠĠĠĠĠĠĠĠĠĠĠĠĠĠĠĠĠĠĠĠĠĠ Ġ
ĠS w
mo ns
14 0
po ena
Ġh ousing
âĢ¦âĢ¦ âĢ¦âĢ¦
for ce
Ġresol ve
ĠAdditional ly
ĠM et
lo bal
r ep
is a
Ġsee n
comp any
doe s
IN CLUDING
ĠMc C
Com ponent
J ud
y n
G o
ib ly
Ġin stitutions
F ill
Ġex act
ãĢ °
ĊČĠĠĠĠĠĠĠ Ġ
ol low
I X
Ġmis represent
D av
Â¤ âĢĻ
no rs
ĠOp inion
motion al
EC TION
Ġcent e
am o
ĠNo r
ir ection
s ig
ĠPri ncipal
v d
Ġperm ission
Ġindividual ly
Ġmajo r
nation al
dec ision
ĠS ho
C U
Â± ï¿½
. ).
n ote
ĠWher e
Ġex clusive
rib ution
Ju ne
ĠTH IS
av ailable
Al though
t ical
ar able
Ġ2 24
igh th
Ġwe igh
Ġag gra
a nder
S O
12 6
bur g
13 5
Ġab solute
m is
ORPOR ATION
B its
Ġmain tains
bo n
Ġh ard
Ġla bor
ĠStand ards
ĠCent ral
Ġallow ing
Ġun disputed
Bits Per
Ġte le
vers y
â ģ
Ġg ifts
Ġpa per
ĠL ea
o ries
r eh
BitsPer Component
U BL
Ġcente r
âĢº ï¿½
ched uling
ĠH aw
rp us
RIS A
Ġpre trial
Ġimpro ve
Ġdeli ver
iso ns
aila bility
sent ence
ĊĠĠĠĠĠĠĠĠĠĠĠĠĠĠĠĠĠĠĠĠĠĠĠĠĠĠĠĠĠĠĠĠĠĠĠĠĠĠĠĠĠĠĠĠĠĠĠĠĠĠĠĠĠĠĠĠĠĠĠĠĠĠĠĠĠĠĠĠĠĠĠĠĠĠĠĠ Ġ
ven ile
Ġpur sue
ĠMart i
âĢ¢ ï¿½
ĠWhe ther
mi nated
tt le
20 3
sub stantial
ĠE RISA
Ġconten d
Ö ´
I ns
ifo rm
âĦ¢ ï¿½
W est
Ġterri tory
Ġadminist ration
15 6
ĠV I
ĠMon t
' ve
e ll
. \
com men
Ġsupp ly
Ġout come
ĠH ill
e nsive
Ġsur v
Ġre versed
o ry
ve rthe
Ġrecor ded
G ray
- $
Ġad d
Ġele ction
Ġs olic
ou rage
ÃŁ Ã½
ie t
Ġv o
m ine
ÂłÂłÂłÂłÂłÂłÂłÂł ÂłÂłÂłÂłÂłÂłÂłÂł
Ġ ................
Ġab a
u ne
ĊČĠĠĠĠĠĠĠĠ Ġ
ĠB rief
B ecause
ir s
b ama
Ġuse ful
el t
UR THER
verthe less
v is
de fendants
g ments
ĠG A
ĠRa ther
Ġ6 04
ĠIn stead
provide d
ĠI RS
Ġre manded
Mo r
ass ment
ĠMar sh
Ġp lus
Ġquot ation
Ġgover ning
Ġmin d
duc ational
01 8
S K
mp son
ĠE le
B ottom
Ġ ven
Ġregard less
ĠM O
Ġs ignature
H ER
Ġde part
Ġrem ains
Ġ198 2
state d
; ,
ha b
sto od
24 5
Ġe mergency
comp lete
Ċ ĊĠĠĠĠĠĠĠ
Ġwor d
Ġchange d
the w
ĠIt em
r ich
is ks
ous a
Ġg rand
ĠM y
æ ¥
Ġqu a
ill ing
G B
Ġco caine
âĪ Ĵ
Ġdist ingu
3 50
00 7
Ġ198 5
Ġ4 01
FORM ATION
Ġdif ference
ĊĠĠĠĠĠĠĠĠĠĠĠĠĠĠĠĠĠĠĠĠĠĠĠĠĠĠĠĠĠĠĠĠĠĠĠĠĠĠĠĠĠĠĠĠĠĠĠĠĠĠĠĠĠĠĠĠĠĠĠĠĠĠĠĠĠĠĠĠĠĠĠĠĠĠĠĠĠ Ġ
Â¬ ï¿½
Ġdis reg
Ġt rea
ĠMON TH
âĢĶâĢĶ âĢĶâĢĶ
E IN
Ġinf lue
Ġout lined
I RE
Ġre lative
Ġfo ot
I J
im mediately
Ġc losing
nnes see
Ġrecommend ation
ĠR d
IC AL
im al
ĠCON T
ission e
ĠStat us
ĠK ing
20 8
AS T
Ġdecre ase
Ġut il
ATION S
ĠP C
ĠAl t
C itation
ĠWil son
Ġc us
Ġreside d
ĠCo r
cons ider
Ġr ational
Ġrec ip
ĊČĠĠĠĠĠĠĠĠĠ Ġ
n vest
f fe
pri se
Ġex hibits
Su ite
ĠR ec
the m
Ġple ase
i k
00 9
ee nth
Ġ ÆĴ
Ġexce ptions
ĠMarti n
:# Â¢
Ġman datory
Ġpar ts
co ver
Ġab sent
Ġun de
Ġst ip
Ġass ociation
âĢĥ âĢĥ
De vice
O G
ĠF act
ĠN W
Ġdetermine s
lu ded
alle y
Ġob taining
ĠEx t
na me
Ġmar k
Ġle ar
ĠAssociate s
ĠT ER
6 25
J M
ĠPla ce
ï¿½ âĢĿ
[ ]
Ġtech nical
Ġeng age
Ġacre s
Ġexec ution
Ġ3 01
Ġrespect ive
ĠY ORK
Â¿ Â¯
ew is
F S
A b
19 9
rg ia
â Ķ
ĠSU PP
ĠLe tter
um ing
lus ion
ĠS outhern
Ġin ves
Ġla nds
Ġreg istration
ĠF ailure
de z
vert e
Doc ument
ĠTrans portation
Ġover ru
A u
ĠT aylor
Ã¿Ã¿ Ã¾
Ġ________________________________ _
13 4
Pe ople
ĊČĠĠĠĠĠĠĠĠĠĠ Ġ
Ġv oluntary
Ġe as
ĠSUB JECT
ĊĠĠĠĠĠĠĠĠĠĠĠĠĠĠĠĠĠĠĠĠĠĠĠĠĠĠĠĠĠĠĠĠĠĠĠĠĠĠĠĠĠĠĠĠĠĠĠĠĠĠĠĠĠĠĠĠĠĠĠĠĠĠĠĠĠĠĠĠĠĠĠĠĠĠĠĠĠĠ Ġ
Ġado pt
Ġrecom mended
ĠMem bers
i nvest
ĠBe nef
igu ous
x ic
Ġd ise
Ġcir cum
Ġde al
Appe llee
ANC IAL
ĠAnge les
Ġj u
Ġmeas ures
Ġcommunic ation
este d
Ġallow s
Ġen vironment
ught e
nanc ing
ËĨ Å½
Ġto ward
Ġse a
issione r
Ġsufficient ly
ĠT EX
Ġwee ks
court s
n umber
Ġmi sta
L S
ÃĴ Ã¿
G u
EX HIBIT
ta data
M W
H owever
u ations
âĢİ ï¿½
Ġn ar
Ġre tained
arat e
be nef
ĠR ico
Ġvio late
ĠAL L
Ġpart ners
Ã« Ã½
k eep
Ġtrans cript
ĠT ru
ĠSERV ICES
iss ue
uer to
Ġarrest e
ĠF urthermore
ĠNo s
Ġissu ance
dis charge
if iable
Ġarreste d
ĠG over
Ġme chan
Ġexcess ive
ron ically
Ġsubseque ntly
Ġqua n
b ar
ĠC usto
bo ok
ĠS ince
Debtor s
Ġe li
ughte r
ï¿½ ;
iv able
Ö ¹
mb ly
4 01
Ġco rpus
Ġpat ients
Ġme thods
In dividual
seque ntly
u late
Ġi g
Ġi rre
IC K
ain ing
C le
L Q
2 15
ĠCode btor
Â¿ _
. Â·
Ġobject ive
ĠS al
ĠPage lD
ĠC OR
Ġjust ify
Ġrespect fully
n ite
Ġ9 00
* ï¿½
ĠTR ANS
Ġre verse
ĊČĠĠĠĠĠĠĠĠĠĠĠ Ġ
Ġen ded
Ġexp lanation
Ġ[ ]
Ġ2 12
N ING
tom obile
M s
ĠL OC
Ġrob bery
urr ence
ĠPo rt
.... ..
Color Space
llate ral
Ġquan t
Ġdanger ous
ĊĠĠĠĠĠĠĠĠĠĠĠĠĠĠĠĠĠĠĠĠĠĠĠĠĠĠĠĠĠĠĠĠĠĠĠĠĠĠĠĠĠĠĠĠĠĠĠĠĠĠĠĠĠĠĠĠĠĠĠĠĠĠĠĠĠĠĠĠĠĠĠĠĠĠĠĠĠĠĠ Ġ
ĠDEN IED
Ġsy mp
m as
Ġsh owed
Ġim mediate
Ġestablish ing
M O
22 5
Ġre lig
ÃŁ Ã¾
ĠCom merce
Ġexp licit
14 6
Ġsh ip
Ġtru ck
Ġrecommend ations
L ocation
h ought
Ġt hing
k ee
Comp laint
' d
Ġt hought
â ĺ
Ġun liquidated
F rom
Sec ured
Ġrelat ives
Ġinj ured
, ï¿½
23 5
ĠClar k
ce s
ro t
IS T
Ġcon vi
g overnment
c itation
A PP
ĠR est
ĠUS C
rt a
Ġdis abled
u lative
ĠC IR
ĠCodebtor s
C ap
ĠDe laware
A IR
A ct
ĠE N
Ġprep aring
x y
ĠF ees
n ied
e ld
ĠBO X
vate d
ou ri
E ASTERN
Ã« Ã¾
Ġcompe nsa
Ġult imately
ĠPer iod
Ġdisp utes
E l
un dre
ï¿½ /
C I
Ju ly
12 1
Ġex i
ĠE astern
Ãĳ Ãĳ
Se cond
ach use
99 8
n f
Ġlo g
Ġex pressed
ĠP et
Ġconf irmation
stic s
Ã» Ã½
ess o
ĊĠĠĠĠĠĠĠĠĠĠĠĠĠĠĠĠĠĠĠĠĠĠĠĠĠĠĠĠĠĠĠĠĠĠĠĠĠĠĠĠĠĠĠĠĠĠĠĠĠĠĠĠĠĠĠĠĠĠĠĠĠĠĠĠĠĠĠĠĠĠĠĠĠĠĠĠĠĠĠĠ Ġ
de bts
e spons
Ġ organi
12 8
Ġb lood
Ġperm its
Ġmen tioned
14 2
wo rth
L aw
r ite
Ãµ Ã½
ĠA laska
st ro
d istrict
19 91
nce l
Ġatt rib
ĠE E
Ġtest s
âĢĿ );
C D
it ch
e view
ĠS TR
Ġme di
burse ment
ĠWis consin
g ation
Ġm unicipal
Comm unity
Ġrepre sents
Ġsanc tions
Ġtrans portation
Ġacc used
dition s
achuse tts
ï ¼
8 75
Ġpun itive
Ġass isted
ĠF ree
ĠGe n
Ġmo del
Ġcount erc
rr is
Ġdou ble
O rder
Ġcol umns
ego ry
) **
j e
Ġenha nce
âĢĵ ï¿½
Ġse ized
20 21
ou l
su pp
01 9
ru m
ue z
ĠMoo r
Ġg rievance
P arms
Decode Parms
Ġans wers
V ALUE
ĠS oftware
ĀĀĀĀĀĀĀĀĀĀĀĀĀĀĀĀĀĀĀĀĀĀĀĀĀĀĀĀĀĀĀĀ ĀĀĀĀĀĀĀĀĀĀĀĀĀĀĀĀĀĀĀĀĀĀĀĀĀĀĀĀĀĀĀĀ
Ġinto xicated
Â¿ ÃĹ
ĠIN FORMATION
× ²
ĠCOMP ANY
Ġ198 1
âĤ¬ ï¿½
18 0
Ġin ference
Ġ oil
S M
li nk
ĠE NT
áĦ ĳ
Ġmod ification
ĠF URTHER
Ġtech nology
r eview
comp laint
cor e
pr ing
Ġdepos its
Ġident ity
Ġass ist
ĠFIN ANCIAL
Ġin correct
r espons
Ġassu me
Ġg arn
ĠLeg al
ric al
service s
Ġrep air
Ġke y
Ġle a
Ġnegli gent
Ġlegal ly
Ġas ide
t G
ĊĠĠĠĠĠĠĠĠĠĠĠĠĠĠĠĠĠĠĠĠĠĠĠĠĠĠĠĠĠĠĠĠĠĠĠĠĠĠĠĠĠĠĠĠĠĠĠĠĠĠĠĠĠĠĠĠĠĠĠĠĠĠĠĠĠĠĠĠĠĠĠĠĠĠĠĠĠĠĠĠĠ Ġ
2 16
Ġt yp
o per
ĠLi ability
Ġstru cture
Ġdepen dents
Â¿ Ã·
ĠAnal ysis
Ġaccess ories
Whe r
ĠLe nder
Ġaffiliate s
Ġins pection
13 7
======== ========
ĠO ver
pen dix
ĠE ffective
ĠMi n
ce p
Mo tion
ĠG ar
n ct
de bt
âĢ¹ Â¢
ĠF la
ĠM other
F i
Ġre pla
Ġsus pen
g ations
Ġ1 000
Ġpartic ipation
ĠPro ject
æ ¹
ĠColle ction
12 4
ĠA gain
Ġdev ices
Ġinstru cted
Ġac ross
Ġdri ving
ar ma
ĠP uerto
ĊČĠĠĠĠĠĠĠĠĠĠĠĠ Ġ
s ame
Ġsen se
Ġconcer ned
Ġposs ibility
b oth
CC ITT
part ies
Fax Decode
CCITT FaxDecode
Ġex isted
Ġimp aired
ĠCOU NSEL
P ay
Ġdead lines
Ġerro rs
ĠNa ture
atta ch
ï¿½ âĢĶ
ĠP ac
ĠVeh icle
ris to
Ġpotential ly
A FF
Ġope rated
Comp lete
Ġadministe r
Ġow ing
ĊĠĠĠĠĠĠĠĠĠĠĠĠĠĠĠĠĠĠĠĠĠĠĠĠĠĠĠĠĠĠĠĠĠĠĠĠĠĠĠĠĠĠĠĠĠĠĠĠĠĠĠĠĠĠĠĠĠĠĠĠĠĠĠĠĠĠĠĠĠĠĠĠĠĠĠĠĠĠĠĠĠĠ Ġ
g ni
ĠM S
ĠCom pensation
p ut
ĠM od
ous ton
13 8
lu ding
ĠU N
follow ing
W N
OH N
IP UL
Ġst ation
Ġuse r
Ġpro sec
Ġc lin
y ing
Ġasse rtion
ir man
ĠAPPEAL S
M U
M I
Ro bert
Ġcontrol s
Ġappe aled
12 2
pe l
r eme
A U
Ġr isks
J H
cont rol
Device Gray
fe deral
ĠH uman
ĠM al
Ġbank s
t wo
Ġamend ments
ĠINC OME
12 7
E P
ĠCol umbia
( ï¿½
ĠE ducation
ua na
âĢĿ ;
Ġresol ved
Ġal ways
Ġconsoli dated
ug h
ĠR od
ĠJud icial
STATE MENT
Se ptember
be ll
Ġs ol
ĠIn dian
ĊĠĠĠĠĠĠĠĠĠĠĠĠĠĠĠĠĠĠĠĠĠĠĠĠĠĠĠĠĠĠĠĠĠĠĠĠĠĠĠĠĠĠĠĠĠĠĠĠĠĠĠĠĠĠĠĠĠĠĠĠĠĠĠĠĠĠĠĠĠĠĠĠĠĠĠĠĠĠĠĠĠĠĠ Ġ
dis miss
Ġpart ial
Ġex posure
ĠMoor e
AL E
Ġ12 5
reason ably
nor e
g un
Ġimp lied
Ġsta ge
Ġ 000
Ġauthor ities
O pe
O K
Ġocc asion
Ġantic ipated
as is
V H
pos session
D ECLARATION
ĠRE QU
7 35
b ank
licate d
4 15
2 10
C ha
ĠStand ard
C W
Ġout standing
Ġclaim ing
Ġ ________________________________________________________________
Ġprohib ited
G U
Ġautho rize
Ġchoo se
e ns
Ġre vers
ga ap
19 99
ĠSub ject
ide nts
Ġrep ly
ĠCri m
po ss
Ġoffen der
ï¿½ ?
ĠMONTH LY
A F
ÃĲ ËĨ
ï¿½ :
c ould
R B
O ffice
O ne
Ġfun ctions
a nied
Ġin no
ï¿½ Â±
(Â¢ âĤ¬
exam ination
ĊĠĠĠĠĠĠĠĠĠĠĠĠĠĠĠĠĠĠĠĠĠĠĠĠĠĠĠĠĠĠĠĠĠĠĠĠĠĠĠĠĠĠĠĠĠĠĠĠĠĠĠĠĠĠĠĠĠĠĠĠĠĠĠĠĠĠĠĠĠĠĠĠĠĠĠĠĠĠĠĠĠĠĠĠ Ġ
rte d
M P
T X
Ġrespon ses
Ġexi gent
Ġexten d
Ġperio ds
year s
Ġ19 78
ĠForm s
Ġpur ported
ĠAla bama
Ġh alf
p ing
Â¿ Â¿
j urisdiction
Ġac quired
Ġpay ing
Ġb lack
\ ^
A ny
Ġstu dents
o Ã¿
Ġpar ole
ĠGo od
ĠC OL
ĠTH AT
ĠP RE
oun ding
M H
ĠPro ducts
20 7
ĠP l
que s
Ġcho ice
Ġcom merce
Ãº Ã½
Ġd irection
Ġinter ro
ĠDe pos
Ġappe llants
Ġcons ide
c lass
quis ite
c ity
St e
Ch ar
ĊĠĠĠĠĠĠĠĠĠĠĠĠĠĠĠĠĠĠĠĠĠĠĠĠĠĠĠĠĠĠĠĠĠĠĠĠĠĠĠĠĠĠĠĠĠĠĠĠĠĠĠĠĠĠĠĠĠĠĠĠĠĠĠĠĠĠĠĠĠĠĠĠĠĠĠĠĠĠĠĠĠĠĠĠĠ Ġ
Ġtermi nate
mina tory
Ġpo rtions
01 0
W illiam
14 5
O hio
âĪ ¢
. ),
) -
y al
Ġha nds
ĠBr e
ac count
ĠC lause
Ġvers ion
Ġ ÂĹ
ÃĤ i
ĠMe r
Ġstri ke
ĠH am
è¢ Ī
Ġremo ve
Ġleg itimate
h eld
Ġart icle
cir cumstances
ĠM ot
ĠD ay
Ġ âĢ¦
Ġretur ns
se rt
Ġmemo randum
Ġbro ke
Ġovert ime
ile y
Ġchallenge d
ĠM AT
Ġpert inent
13 9
00 3
ï¿½ `
Ġst rict
Ġgran ts
lin ary
Âµ Ã¿
Ġdelibe rate
Ġst e
D P
ng ible
Wher e
Mor e
Ġpremi um
ĠJUD GMENT
ĠReport e
Ġp aren
ĠC as
Ja nuary
comm od
ga tive
wel ry
Ġbas ic
" !
Ġas king
ĠCh rist
unt ary
ĊĠĠĠĠĠĠĠĠĠĠĠĠĠĠĠĠĠĠĠĠĠĠĠĠĠĠĠĠĠĠĠĠĠĠĠĠĠĠĠĠĠĠĠĠĠĠĠĠĠĠĠĠĠĠĠĠĠĠĠĠĠĠĠĠĠĠĠĠĠĠĠĠĠĠĠĠĠĠĠĠĠĠĠĠĠĠ Ġ
Ġinc arce
12 3
' $
ula tory
it ial
P Ã¡
Ġco ordi
Ġsu spect
Ġcontro versy
co llect
ĠPr iority
Ġaccount ing
Ob ligations
~ Â¿
PA Y
ï »
SH IP
Ġconsu mers
Ġretal iation
ĠN ow
T ext
Credi tors
ĠSu per
Ġac cr
Ġoc cup
T ho
ĠWo od
lo ng
R EL
Ġlack s
e ng
ĠJudge s
Ð ĺ
Ġfun ding
Ġ3 66
EQEQEQEQ EQEQEQEQ
Ġw age
sp ouses
va tive
Ġcomple tion
ĠM I
Ġma ch
ol ly
ĠSystem s
Y our
12 9
19 98
ĠC ORPORATION
x A
" ).
Ġp ack
ĠP ete
do r
ĠIn dicate
ĊĠĠĠĠĠĠĠĠĠĠĠĠĠĠĠĠĠĠĠĠĠĠĠĠĠĠĠĠĠĠĠĠĠĠĠĠĠĠĠĠĠĠĠĠĠĠĠĠĠĠĠĠĠĠĠĠĠĠĠĠĠĠĠĠĠĠĠĠĠĠĠĠĠĠĠĠĠĠĠĠĠĠĠĠĠĠĠ Ġ
b ody
M AND
Ġwill ful
ĠLi n
A J
Ġ5 21
ÃĦ D
Q W
h l
Ġbenef iciary
Ãº Ã¾
4 50
ĠB uilding
Ġin stance
spec ific
Ġdis covered
ĠAutho rity
Ġbi nding
19 97
20 9
Ġcertificate s
credi tors
ĠM ur
Ġinitial ly
Ġs po
io s
ĠP al
Ġ6 05
ĠN ORTHERN
lement al
Ġp lant
P g
po lic
ĠSe p
âĢĹ ï¿½
to s
Ġte am
ro e
ma terial
na tor
Ge neral
reat ment
Ġdet ention
Ġconseque nces
Ġcomp lex
ĠRe search
ĠCH APTER
Ã¿ Ã°
ĠIn d
ĊĠĠĠĠĠĠĠĠĠĠĠĠĠĠĠĠĠĠĠĠĠĠĠĠĠĠĠĠĠĠĠĠĠĠĠĠĠĠĠĠĠĠĠĠĠĠĠĠĠĠĠĠĠĠĠĠĠĠĠĠĠĠĠĠĠĠĠĠĠĠĠĠĠĠĠĠĠĠĠĠĠĠĠĠĠĠĠĠ Ġ
Ġch emical
ĠL itigation
hi n
Ġe nergy
ĠS un
æ ½
ĠU t
Y S
Ġ12 8
Her e
Ġe motional
ĠEmploy ment
Ġpol itical
Ġre liance
ON D
Ġinvol ves
ch ar
Ëľ ï¿½
Ġpro posal
Ġinven tory
op tion
Ġobject s
ĠRa t
Ġf loo
Ġf uel
17 5
Ġsit uated
Ġgu idance
ĠRe lease
ke y
Ġatta ck
G F
ĊČĠĠĠĠĠĠĠĠĠĠĠĠĠ Ġ
ne g
Ġsentence s
Ġr u
Ġar ises
ĠRe commendation
ong oing
ĠPro cess
ir ing
ĠPrep arer
19 96
ĠMa ster
Ġpo rt
Ġdol lars
Na ture
ĊĠĠĠĠĠĠĠĠĠĠĠĠĠĠĠĠĠĠĠĠĠĠĠĠĠĠĠĠĠĠĠĠĠĠĠĠĠĠĠĠĠĠĠĠĠĠĠĠĠĠĠĠĠĠĠĠĠĠĠĠĠĠĠĠĠĠĠĠĠĠĠĠĠĠĠĠĠĠĠĠĠĠĠĠĠĠĠĠĠ Ġ
Ġconclu des
c itations
V EN
ĠT ri
ac c
30 6
ĠâĢ ĭ
gi ns
C ounsel
CH APTER
198 3
ĠDisc losure
Ġdefic iency
AC COUNT
i nct
oug las
la p
Ã¯ Ã½
d p
16 7
ĠV ol
× ģ
Ġrece ntly
ĠCase s
ĠN av
ï ·
Ġcomb ination
# Â£
u pon
lie nts
WH ERE
ĠC ross
ĠPro bation
15 5
ĠSix th
Ġhabit a
ĠM D
30 5
ĊĠĠĠĠĠĠĠĠĠĠĠĠĠĠĠĠĠĠĠĠĠĠĠĠĠĠĠĠĠĠĠĠĠĠĠĠĠĠĠĠĠĠĠĠĠĠĠĠĠĠĠĠĠĠĠĠĠĠĠĠĠĠĠĠĠĠĠĠĠĠĠĠĠĠĠĠĠĠĠĠĠĠĠĠĠĠĠĠĠĠ Ġ
n na
Ġregular ly
Ġelig ibility
Ã¿ Ã¹
END ED
ge ne
............ ..
ce ne
ĠSe pt
Ġpublic ation
Ġbe d
ĠG as
Ġexam ine
ordi nance
dust rial
Ġform al
Ġre but
hr e
qu are
se ll
Ġbo ok
as ive
Ġequiv alent
corpo rated
Ġsite s
ĠEmploye r
con ne
ĠCOUNT Y
ĠS igned
Ġconf irmed
ĠB efore
ure rs
01 4
ç ¿
ĠTe nnessee
29 8
.... ...
Ġda ily
ĊĠĠĠĠĠĠĠĠĠĠĠĠĠĠĠĠĠĠĠĠĠĠĠĠĠĠĠĠĠĠĠĠĠĠĠĠĠĠĠĠĠĠĠĠĠĠĠĠĠĠĠĠĠĠĠĠĠĠĠĠĠĠĠĠĠĠĠĠĠĠĠĠĠĠĠĠĠĠĠĠĠĠĠĠĠĠĠĠĠĠĠ Ġ
Ġsupp lies
Ġtry ing
Â¢ ï¿½
Ġvalid ity
ran da
D ATED
Ã¿ Ãļ
pe rsonal
14 8
Ġhe ar
Ġdistrib uted
Ġ12 9
äĳ Ħ
` âĢŀ
appe al
ĠFrancis co
Ġpr ices
Ġsue d
Ġadm issible
ĠB oth
ire s
Ġun paid
Ġman age
ĠMary land
Ġ12 6
sub ject
em o
Ġinvol ve
ĠDocument s
oc c
ĠBe ll
ĊĠĠĠĠĠĠĠĠĠĠĠĠĠĠĠĠĠĠĠĠĠĠĠĠĠĠĠĠĠĠĠĠĠĠĠĠĠĠĠĠĠĠĠĠĠĠĠĠĠĠĠĠĠĠĠĠĠĠĠĠĠĠĠĠĠĠĠĠĠĠĠĠĠĠĠĠĠĠĠĠĠĠĠĠĠĠĠĠĠĠĠĠ Ġ
ĠO ur
ĠDec ision
Ġz one
ĠFor d
Ġapply ing
Co ns
Â¨ ï¿½
Ġb io
rc han
lan ds
â Ŀ
Ġv irt
Ã¿ Ã¡
Ã¿ ÃĴ
. [
Ġena ct
ĠInter nal
J S
Ġ4 16
Ġme dia
ile r
Ġg ain
d d
Ġse rif
ĊĠĠĠĠĠĠĠĠĠĠĠĠĠĠĠĠĠĠĠĠĠĠĠĠĠĠĠĠĠĠĠĠĠĠĠĠĠĠĠĠĠĠĠĠĠĠĠĠĠĠĠĠĠĠĠĠĠĠĠĠĠĠĠĠĠĠĠĠĠĠĠĠĠĠĠĠĠĠĠĠĠĠĠĠĠĠĠĠĠĠĠĠĠ Ġ
mo ving
ĠBl vd
Ġcom ponents
ĠE IN
ĠGeo rge
Ġcharacte r
Ġ198 0
Ġopport unities
rant e
.) ;
e qu
ij uana
13 3
b rief
ĊĠĠĠĠĠĠĠĠĠĠĠĠĠĠĠĠĠĠĠĠĠĠĠĠĠĠĠĠĠĠĠĠĠĠĠĠĠĠĠĠĠĠĠĠĠĠĠĠĠĠĠĠĠĠĠĠĠĠĠĠĠĠĠĠĠĠĠĠĠĠĠĠĠĠĠĠĠĠĠĠĠĠĠĠĠĠĠĠĠĠĠĠĠĠ Ġ
COM P
ĠEX P
Ġposition s
e ro
D B
RE E
15 9
Ġs urrender
Ġcre d
Ã» Ã¾
Ö µ
Ġ19 74
M G
Ġmod ify
ĊĠĠĠĠĠĠĠĠĠĠĠĠĠĠĠĠĠĠĠĠĠĠĠĠĠĠĠĠĠĠĠĠĠĠĠĠĠĠĠĠĠĠĠĠĠĠĠĠĠĠĠĠĠĠĠĠĠĠĠĠĠĠĠĠĠĠĠĠĠĠĠĠĠĠĠĠĠĠĠĠĠĠĠĠĠĠĠĠĠĠĠĠĠĠĠ Ġ
19 94
Ġsubm ission
pre ce
Ġdoes n
it ude
Ġcatego ries
e v
ee k
Ġinj unctive
Ġcheck s
P arent
if est
Ġwea pon
Ġinde mn
Jo hn
28 5
ĠAlle n
risto pher
Ġcitize n
w al
eas ury
3 10
fi nancial
0 20
ATION AL
per form
ĠJ O
Ġwh ite
ï¿½ âĦ¢
ĊĠĠĠĠĠĠĠĠĠĠĠĠĠĠĠĠĠĠĠĠĠĠĠĠĠĠĠĠĠĠĠĠĠĠĠĠĠĠĠĠĠĠĠĠĠĠĠĠĠĠĠĠĠĠĠĠĠĠĠĠĠĠĠĠĠĠĠĠĠĠĠĠĠĠĠĠĠĠĠĠĠĠĠĠĠĠĠĠĠĠĠĠĠĠĠĠ Ġ
Ġfar mers
Ġrepre sentatives
Ġunder stood
Ġargu ing
t imes
Ġ3 55
ĠClaim a
ĠD ATES
F la
. /
Ġimproper ly
r Åĵ
Ġdeta il
u x
ĠF DA
ĊĠĠĠĠĠĠĠĠĠĠĠĠĠĠĠĠĠĠĠĠĠĠĠĠĠĠĠĠĠĠĠĠĠĠĠĠĠĠĠĠĠĠĠĠĠĠĠĠĠĠĠĠĠĠĠĠĠĠĠĠĠĠĠĠĠĠĠĠĠĠĠĠĠĠĠĠĠĠĠĠĠĠĠĠĠĠĠĠĠĠĠĠĠĠĠĠĠ Ġ
ĠEx pen
Ãµ Ã¾
ĠDan iel
Ġlaw yer
it ness
17 0
Ġmonitor ing
Ġhearing s
W o
ze d
Ã¿ K
rea ch
Ġsupp lying
isher men
li ability
ĊĠĠĠĠĠĠĠĠĠĠĠĠĠĠĠĠĠĠĠĠĠĠĠĠĠĠĠĠĠĠĠĠĠĠĠĠĠĠĠĠĠĠĠĠĠĠĠĠĠĠĠĠĠĠĠĠĠĠĠĠĠĠĠĠĠĠĠĠĠĠĠĠĠĠĠĠĠĠĠĠĠĠĠĠĠĠĠĠĠĠĠĠĠĠĠĠĠĠ Ġ
Ġc iting
Ġ14 0
Ġpri n
Â· Â·
Ġ6 11
ma tter
Ġre de
30 3
âĢĶ |
Int erest
xx x
Ġinten d
ĠT ur
ĊĠĠĠĠĠĠĠĠĠĠĠĠĠĠĠĠĠĠĠĠĠĠĠĠĠĠĠĠĠĠĠĠĠĠĠĠĠĠĠĠĠĠĠĠĠĠĠĠĠĠĠĠĠĠĠĠĠĠĠĠĠĠĠĠĠĠĠĠĠĠĠĠĠĠĠĠĠĠĠĠĠĠĠĠĠĠĠĠĠĠĠĠĠĠĠĠĠĠĠ Ġ
FFFF FF
Ã½ ÃĮ
ĠDE F
s ic
13 2
Ã¯ Ã¾
ho ma
Ã° ÆĴ
0 22
01 5
ine z
M L
19 5
m art
ï¿½ @
Ġair craft
Ġdepos itory
ĠC amp
Ġin valid
IC O
ul li
ur ch
ĠTrans fer
America n
le vant
Ġp assed
ï¿½ âĢĻ
alte r
Re ason
ĠFo od
Å¡ a
us a
PE PE
Ġ20 2
Ãł ËĨ
ĊČĠĠĠĠĠĠĠĠĠĠĠĠĠĠ Ġ
vision s
ĠT RI
S OUTHERN
L ED
alle ged
Ġcolle cted
Ġco debtor
13 1
Copy right
Ġpop ulation
ĠTax e
ĠHe n
ĠW estern
ĠSu perv
mar ks
Ġnet work
tho ny
Ġapp arent
RO M
ĠUS DC
Ġwrong ful
Li nk
Ġsc ient
Ġ13 0
C iv
Ġes to
19 93
ĠDate s
Ġhappe ned
Ġtr e
ĠCON TR
Â¸ ï¿½
ĠMe tadata
24 0
Ġe d
lai ns
Ġman ager
ĠTaxe s
the rs
Ġrestric tions
H R
Â£ ï¿½
Ġde pendent
ĠB ill
Ġ {
ĠL ewis
rga ni
Ġe sc
ĠGRANT ED
be s
23 9
Ġdemonst rated
Ġsimp le
Ġconce n
30 4
ĠH ERE
De cember
19 0
Ġre tain
over flow
Ġdece dent
Ġn ight
ĠE stimate
v y
Ġu ne
Ġentire ly
ra tory
Ġ4 77
B O
198 4
ic able
pen ding
ra b
Ġinvestiga t
ĠS W
ĠGeo rgia
Do mestic
ollow ing
Ġp ic
ĠPERSON AL
ĠOk la
ÃĴ m
Jud gment
is ha
Ġd r
autho rized
Ġmis leading
Ġen jo
r ence
Ġinvestigat e
ĠAlt e
ĠDe ducting
ĠLeg is
mp t
ge rs
ĠOpe rating
il dren
Ġr gb
Ġsec ure
Ġc itation
M arch
25 5
Ġeval uate
nal ty
âĢ¢âĢ¢ âĢ¢âĢ¢
h im
Ġf ishing
ï¿½ï¿½ ï¿½ï¿½ï¿½
ul ting
ïģ ±
" ;
hab il
16 1
âĢļ !
W O
Ġcounte r
Ġ ordinance
reh ensive
s ur
e ra
pro cess
Ġow ners
L D
Ã¿Ã¿ Ã½
Ġsal ary
ta nts
Res ources
Ġle tters
Ġprov ider
ĠF AC
ot el
ĠLo ng
Ġcharacte ri
Ġ7 50
ĠWell s
Ġc lients
Ġc oup
pe nsion
ĠA mend
idav its
e pre
Ġli ved
Ġac quisition
n wealth
ĠS am
present ation
Ġfun da
com ing
Ġw ish
ĠAutho rized
Ġ ÃĲ
d ale
01 7
W S
Ġre i
document s
al las
ÃĪ Ãĩ
Ġann ou
d ra
ĠSo me
Ġsto rage
Ad minist
IN S
2 20
Ġye s
au to
Ġ7 78
ppe l
AT T
c tor
ĠF ILED
ĠGu idelines
ë ¿
@ âĢŀ
ĠOP INION
Ma n
CONS IDERATION
Âº Ã¿
not ice
EN ERAL
Ġ3 50
p ÃĤ
GR OUND
B ar
Ġconcen t
ĊČĠĠĠĠĠĠĠĠĠĠĠĠĠĠĠ Ġ
ĠI RA
t ers
Ġill ness
Ġdesign ation
Ġintention al
ÃĹ _
Ġde man
ĠRep ly
ENT IAL
ĠP H
ne ver
F H
R ich
Ġen ding
ĠA rk
ĠM AN
Ġ225 5
Ġd ili
Ġaccomp anied
i nde
Ġde fe
16 6
Ġdefen ses
čĊ ĠčĊ
Ġ________________________________________________________________ __
na med
ĠDe l
Se rvice
li hood
Ġconte nts
tect e
Ġj ail
ĠOp position
Ġcont ractor
tecte d
Final ly
ĠFor est
Ġproject s
ip s
Ġ6 67
LE MENT
ĠA DA
ĠMarsh al
Ã» Ã»
k Ã¿
e ch
198 5
Ġal imony
ĠF unds
Ġv oid
ĠIdent ify
........ .
G r
t ention
Ãĺ a
rante d
Ġfoc us
Ġpun ishment
AM ES
r epre
ER K
ĠJ ury
Ġrei n
Ġacknowledge d
Ġf la
arte d
ĠDe velopment
ĠS f
AR E
23 0
ge ry
n come
PART MENT
Ġ12 1
Ġ5 29
Wh ile
U TION
Ġcertain ly
urre ncy
Ġsugge sted
f ill
ĠD ESCRIPTION
ĠW ay
cr et
n tal
Ġvolunt arily
phe n
Ġ20 5
ĠNi nth
p lan
2 14
Ġread ing
Ġdeduct e
Ġdeducte d
Ġ4 03
r eo
33 3
ĠCo llateral
Ġprom ul
Ġcompete n
Ã· _
ï¿½ -
Ġcompeten t
rig uez
quid ation
........ ..
t z
2 13
16 8
ĠAn t
23 8
le ad
esso r
ous ly
Ġdise ase
rac tors
pos itive
Ġ2 37
ĠA li
' '
ï¿½ \
âĢļ (
Ġass ig
ĠA ge
ife r
commen cement
). )
ph ia
s ystem
ĠAs set
30 9
Ġident ical
ï¿½ Â¨
cent e
Ġcontract ual
B r
ze r
d uring
âĢ Ł
OU T
Ġpro perties
el ly
Ġselect e
ĠE ighth
ĠLE AD
s hold
ĊČĠĠĠĠĠĠĠĠĠĠĠĠĠĠĠĠ Ġ
ÃĪ Ã¹
Ġselecte d
c ations
Ġf irms
Ġ ................................................
Ġapart ment
Ġju venile
Ġman date
J O
Ã¾ Å¸
ĠComp l
agree ment
ï¿½ âĢĵ
ĠA lex
Ġsh ot
Ġsub poena
M ichael
ĠA f
U ND
ĠDis covery
m d
n ta
e z
ĠDoe s
Ġ ................................
Estimate d
Ġcorrect ly
Ġass ign
ĠTR UST
Ġ ongoing
Ġse lling
Ġ3 29
nder son
Ġrec all
pay ments
Ã½ Ã½
19 95
Ġfac ie
Ġma iled
ATION SHIP
ĠF rm
a h
34 2
ĠPr isons
Ġrepresent ations
ĠAlte r
ve sted
Â® Â¿
Ġra ce
EN CY
rot e
Ġco lor
Ġca using
s ho
Ġ8 00
Ġfra me
log ies
ĠE R
arc ia
C ivil
US S
VER N
m ing
15 3
ĠF mt
ccee ff
ay e
ran ty
ĠJ kt
ĠSf mt
Ġassert ing
del phia
Ġgu ilt
18 8
ĠW ill
Ġpr ee
ho me
m ington
Ver Date
se y
Ġbo nds
ï¿½ |
il ler
198 9
Ġplan ning
ĠR ight
hi la
Ġprincip le
Ġdistrib ute
19 92
Ġexerc ised
Ġ19 15
Ġes pec
adequa t
Ġop posing
E Y
4 04
adequat e
Ġmor ning
ĠRe lief
Ã¨ Å½
Ġs oftware
s chedule
ĠH older
ĠL icen
Ġassu med
ï¿½ .
De partment
ya n
ĊČĠĠĠĠĠĠĠĠĠĠĠĠĠĠĠĠĠ Ġ
Ġjuro rs
L M
Ġ3 03
I p
ĠD ie
fen der
st ing
bat e
ĠMass achusetts
ACK GROUND
ĠTe lephone
J F
Ġtrea ting
ĠBo rrower
Ġvis it
V W
r ele
ĠBo n
W ashington
Ġpriv acy
Ġsub paragraph
ĠP ower
Ã¿ ÃĿ
ĠD D
j ections
ert ain
Ġ12 3
bo ld
U CTION
le vel
Ġcontinue s
ĠMa iling
Ġser ies
Ġsugge sts
Ġpla us
e ta
P ÆĴ
Ġhabita t
R ENT
dis cri
Fac simile
$ âĢĿ
22 6
Â¯ Â¯
M edia
ph y
Ġsymp toms
pre p
organ ized
ĠT d
17 6
Ġsignifica ntly
Ġf ishermen
ale r
Ġ4 05
F E
P I
ĠR ay
Ġdocument ation
ĠOb jection
ĠFar go
Ġ1 75
Ġso n
Ġre member
ĠM ad
ins urance
ĠFL SD
illa ge
Ġ357 1
ï ĥ
i ncome
J URY
Ġpro ce
ĠSe rif
J D
Ġli quidated
ĠMiss ouri
ç ī
ĠYou ng
G IN
cente r
Â¶ âĢĶ
Ġ20 6
Ġenc ourage
Ġw ire
ĊČĠĠĠĠĠĠĠĠĠĠĠĠĠĠĠĠĠĠ Ġ
P ar
p ts
Ġlaw ful
0 25
nan dez
ĠSen ior
be tween
Ġvacate d
Ġs pent
14 4
the se
Ġb id
Ġdecl aratory
ËĻËĻËĻËĻËĻËĻËĻËĻ ËĻËĻËĻËĻËĻËĻËĻËĻ
N ESS
Ġespec ially
Ġcontro lling
Ġchoo ses
ĠW ILL
ĠE ar
á Ģ
à ¨
f ile
Ġref usal
Ġlegis lature
â ¼
ÃĹ ÃĹ
ĠA me
Ġal most
ï¿½ >
Ġse ts
Ġparticipa nts
Ġre ck
US E
Ġstud ies
ĠRa n
ï¿½ Â¡
Ġaf for
g ar
Ġke pt
30 2
19 6
R ES
W ER
Ġrespect ively
14 7
ĠV ice
Ġres ident
' ll
ĠE li
Ġ Ãĵ
hin d
ection al
ĠC ause
ĠMedic are
Ġdis order
ri vol
u table
Ġtax able
Ġexam ined
âĢŀ "
Y N
Ġvictim s
ĊĠĠĠĠĠĠĠĠ ĊĠĠĠĠĠĠ
ĊĠĠĠĠĠĠĠ ĊĠĠĠĠĠĠĠĠĠĊĠĠĠĠĠĠĠĠĠĠ
M T
han d
Ã¾ ÃŁ
ĠCha nge
J L
IC HA
Ġre l
Ġins urer
ĠLo s
ĠPro vide
Ġrent e
Ġbrief s
h nson
Sum mary
............ .
B P
Ġ12 4
Ġinstru ment
MA ILING
30 8
AT IVE
Ġun ion
iv ities
ĊČĠĠĠĠĠĠĠĠĠĠĠĠĠĠĠĠĠĠĠ Ġ
Ġse ems
ĠPr et
Ã¾ Ã½
Ġra il
Ġdifficult y
Ġbroke rage
un a
ï¿½ âĢ°
ĠV alley
ri vative
ĠQ ual
ï¿½ Â¬
X a
19 88
ï¿½ +
17 9
ine ment
Ġle d
ĠCal cu
ĠTho mpson
fi nition
u k
Ġfi xed
ĠR ock
# :
ES TERN
Ġreck less
Ġin ferences
Ãĺ A
Ġindica ting
oc iations
UR ANCE
7 50
ï¿½ =
co py
27 5
ĊĠĠĠĠĠĠĠĠĠĠĠĠĠĠĠĠĠĠĠĠĠĠĠĠĠĠĠĠĠĠĠĠĠĠĠĠĠĠĠĠĠĠĠĠĠĠĠĠĠĠĠĠĠĠĠĠĠĠĠĠĠĠĠĠĠĠĠĠĠĠĠĠĠĠĠĠĠĠĠĠĠĠĠĠĠĠĠĠĠĠĠĠĠĠĠĠĠĠĠĠ ĊĠĠĠĠĠĠĠĠĠĠĠĠĠĠĠĠĠĠĠĠĠĠĠĠĠĠĠĠĠĠĠĠĠĠĠĠĠĠĠĠĠĠĠĠĠĠĠĠĠĠĠĠĠĠĠĠĠĠĠĠĠĠĠĠĠĠĠĠĠĠĠĠĠĠĠĠĠĠĠĠĠĠĠĠĠĠĠĠĠĠĠĠĠĠĠĠĠĠĠĠ
14 9
Ġne gative
No rmal
ĠA verage
16 9
ng r
Ã¨ Âº
Ġconsult ation
com pensation
h ar
Ġas sessed
Ġim pe
Ġjuro r
16 5
Ġprocess ing
18 6
Ġ13 5
Ġspee ch
Ġ2 07
ad dress
V a
Ġse iz
Ġj o
Ġhar assment
ĠSafe ty
ict ures
Ġre fers
Dav id
u tor
Cal ifornia
Ġre lies
Ad ditional
ĠH all
A greement
ce ption
Ġlo se
M EMORANDUM
Ġunde rta
il o
Ġ5 50
Ġun necessary
24 6
........ ...
lim ited
TR ANS
ICHA EL
stit uted
Ġserv ing
Ġs ound
Ġdiv ision
rie rs
ĠQ uest
19 90
16 4
17 8
Ġsh aring
Ġmar keting
ĠCo nc
ut ation
IFIC ATION
O A
Comm o
bo ard
Ġj oin
Ġf ourth
ra m
ĊČĠĠĠĠĠĠĠĠĠĠĠĠĠĠĠĠĠĠĠĠ Ġ
d idate
ile rs
G I
Ġmo ot
Sec urity
irm ing
Ġi rr
pro ced
ED UL
Ġcopy right
me di
âĢļ âĢļ
Ġfloo r
Ã¿ o
LA W
B IL
Ġwin d
e nded
Ġab used
22 8
ĠS D
St udent
h ousa
pri n
ïĤ ·
23 6
Ġappro ve
ĠElect ric
Ġfac il
e rro
Ġr ac
rivol ous
________ ____
fo lio
Ġadm its
v id
Ġto xic
Ġ36 5
dict e
Ġplace s
ĠReg ister
ta h
pon de
dicte d
b ase
la ce
Ã¿ Ãķ
Ġorgani zations
Ġw idth
ĠRE PORT
Ġi de
ĠGo ld
ĠA U
ĠFe b
med ical
ĠSub total
Ġfor ma
ra se
ĠFac ility
Ġwa ive
Ġc ut
cogn ition
ĠCIV IL
Ãļ M
Ġt housa
Ġproprie tor
ust i
Ġsur ve
St reet
r ve
Ġexpert s
mar ize
ĠINTER EST
ĠFa ther
Ġcarry ing
/ );
ĠD rug
lor e
Ġno rth
ĠD un
Ġf arms
ff rey
Comp any
Ġarrange ment
ĠSent encing
p ÆĴ
Ġdoc tor
Ġinterest e
Te nn
Ġnon profit
Ġintereste d
B ased
18 5
P ri
Ã¿ Ã®
ĠSe nate
Ġpri ma
ĠAppe llate
ĠAd vance
M art
ĠW ash
alle gations
ĊČĠĠĠĠĠĠĠĠĠĠĠĠĠĠĠĠĠĠĠĠĠ Ġ
ï¿½ âĢº
Ġext reme
O r
Ġconstit uted
Wi n
def ined
Ġdri ve
Â§ Â§
h ow
spec ify
Ġin directly
Ġdet e
Ġ36 2
Ġh undre
Ã· Ã·
Ġinst al
ap point
Ã° ÃĤ
ï¿½ %
be l
polic y
no ld
Ġprom ote
Ġloo king
Ġjob s
ĠHERE BY
Ġelect ronically
ĠMar ket
e ither
hila delphia
Ġ13 6
ĠAc counts
ye s
mo ny
Ġ15 7
à ł
ego n
Ġpro hibit
" /
N ove
C LAIM
Ġar ise
i nu
15 8
ĠCh ild
Ġst ipulation
IS H
Ġinmate s
ly n
Ġmar ijuana
EE FF
owe ll
PD F
Ġ20 8
B T
Ġcompe tition
Ãĵ A
14 1
ĠF ED
ï¿½ *
Ġaspect s
CC EEFF
i nto
ĠCo ok
se p
me ry
18 9
S L
usti n
W ife
Ġcommen ce
ĠINV ENT
O ctober
particular s
Ġ66 33
Ġsett led
ĠPret rial
15 4
ĠF irm
Ġcon ven
29 9
0 24
a ts
f irst
OU SE
Cont ents
ĠVa n
ĠAn drew
Ġse ar
Ġc ure
Ġ venue
o rg
Ġrecor ding
de li
com pet
ĊČĠĠĠĠĠĠĠĠĠĠĠĠĠĠĠĠĠĠĠĠĠĠ Ġ
Ġacc oun
Ġre lation
ï¿½ ,
H U
Ġear ned
tat ive
Ġru led
op port
Ġpurcha ses
ĠRe cords
ili ar
d c
Ã¿ Ã²
ĠRes idence
5 22
19 3
so ry
PF G
Co rporation
Ġli nk
ĠS UMMARY
ain t
Ġmista ke
ĠâĢĺ âĢĺ
h idden
Ġt rib
Ġb od
âĢĿ :
li p
Ġlim iting
EN DER
ĠT im
ï¿½ Â¸
Ġra n
su p
Ġbe ar
arg ument
ĠCo nso
ĠCon ne
P ub
Ġnot ification
Ġsupp lied
ĠF E
Ġbar gain
ĠD EC
Ġinves tors
Ac ct
ï¿½ âĢ¢
Ġ15 6
ol l
% %
llect ual
vers ary
Ġig nore
ts o
ct ic
Ġtake s
ĠHouse hold
stan ds
we igh
ĠA da
Ġgu ide
............ ...
Ġland lord
rig inal
Ġre d
h y
ĠEx plain
Â¶ Â¿
198 7
ec ked
Ġplea ded
u Ã¿
tho se
Ġpetition ers
0 28
C lass
" ),
REL ATIONSHIP
Ġ[ /
Ġp asse
ĠReport s
x a
ĠO rgani
Ġeffect ively
s ch
o pt
ĠLim ited
Ġz ip
Ġgive s
17 7
Ġar ose
00 2
A IN
Ġsu sp
26 0
ĠU nexpired
ĊČĠĠĠĠĠĠĠĠĠĠĠĠĠĠĠĠĠĠĠĠĠĠĠ Ġ
Ġintention ally
n vol
ishe s
ĠMan ager
t ary
A nnot
M ER
I EL
ip ts
Ġdu ly
G M
cal cu
poss ible
De bts
other wise
IR ST
Ġappare ntly
4 25
Ġadv ise
Nove mber
ĠCol umn
ĠAttorney s
rat ure
now n
Ġ................................................................ ................
Ġrepre senting
ns ing
iso rs
ĠReg arding
ĠAppe llants
Ġwill ing
l ary
au per
de fense
14 3
Ġsu per
Ġreaso ning
27 4
e nding
Ġhigh ly
ve rable
lo a
Ġsumm ons
ĠWi n
Ã¶ ÃĴ
ĠReg ular
Ġinflue nce
Ã« Ãº
ĠH art
A pril
UBL IC
Ġ3 78
IE F
test imony
Â´ âĢº
ĠPart ic
Ġsu perior
J C
Ġc y
ITION S
Ġ13 4
Ġf ranch
nnes ota
Ġreference s
ourt eenth
Ġdismiss ing
Ġw ide
Ġ13 2
ĠR am
T hat
Ġrelig ious
Ġsu its
15 7
Ġphys ically
Ġrev ised
o ath
$ âĢļ
ĠF ine
Ġe ducational
N ational
Åĵ r
ĠI owa
ry a
Ġow ns
ĠRat e
p ublished
Ġbecome s
Ö ¼
Ġprov iders
Ġope ning
G overnment
ĠRe d
pa n
ver al
ĠON LY
ran ting
Ġaff idavits
Ġv iewed
ĊČĠĠĠĠĠĠĠĠĠĠĠĠĠĠĠĠĠĠĠĠĠĠĠĠ Ġ
ĠA B
ĠW right
h igh
Ġuse rs
âĢŀ !
ĠM E
Ġdraw n
ĠPe rson
18 4
Ġau tomobile
i nvol
u ng
il lo
Ġant i
to ne
Ġ5 30
OM M
Ġover all
reg arding
Ġw rote
ou ble
22 4
ĠClaima n
Date s
ĠClaiman t
Ãļ Ã¿
L AND
ut ical
ĠLOC ATION
ï¿½ Â©
Tax e
ĉĉ ĉĉ
rick land
Ġnar row
em pe
Ġad vantage
ex penses
ĠF ax
Taxe s
Ġh ouses
ĠW A
graph ic
5 50
The se
ĠM ember
19 7
Ġ13 3
Ġvalue s
Ġb la
ĠFi nding
j unction
Ġref unds
Ġdec iding
Ġcomp lained
Ġexcee ds
ĠB la
X A
Ġstru ct
K K
se tt
Ġp ie
3 07
u i
22 7
se x
âĢľ [
Ġbrief ly
0 23
Ġ {Â¶
4 05
Ġre ma
la yed
ĠMo rgan
0 50
Ġbe ars
ĠFi nance
z i
Ġcommunic a
24 8
ĠS imilarly
su fficient
ĊĠĠĠĠĠĠĠĠĊĠĠĠĠĠĠ ĊĠĠĠĠĊĠĠĠĠĠĊĠĠĠĠĠĠ
a f
Ġprof its
ar ations
âĢĻ âĢĻ
198 2
Ġ13 7
Ce n
0 26
Ġtal king
Ġmo b
e ven
pe s
-- -
Ġ(âĢľ [
Ġca mp
Un secured
r ne
Ġc lasses
ĠS ales
Ġt hre
Â¡ ï¿½
Ġcomp ared
auper is
d own
ĊČĠĠĠĠĠĠĠĠĠĠĠĠĠĠĠĠĠĠĠĠĠĠĠĠĠ Ġ
ĠPr ice
Ġ16 0
15 1
G T
lic ations
Ġsusta i
ĠWe b
ĠTRI AL
ĠCo sts
ĠA sh
ĠB ack
Ġsett lements
pre ad
Ġpsy cho
W A
Ġbe hind
ifica n
Ġ2 36
ĠRe covery
Ġb lock
ĠD am
ĠG rand
spect fully
Ġmal icious
Aug ust
Ġway s
ĠArm y
ri x
ĠM AG
ĠEn forcement
ĠCourt s
nder e
iv a
B ut
Â¯ _
tso n
Ġrema ined
Ġautho rization
Ġ2 10
il ton
Ġ13 1
Ġl ite
ĠT able
prin t
dif ference
no logies
Ġconvers ation
Ġinterpret e
ÃĤ h
Ġop posed
Ġass ociations
B ase
Ġgroup s
ex p
Ġjurisdiction al
Ġintro duced
Ġcon form
lig ible
Ġqu ite
Ġtal k
t itled
j oint
ĠM ac
e lief
ENT S
itche ll
ĠBro ad
) ),
rya n
Ġ oath
ĠSt ipulation
Ġex hibit
t ry
to rial
Ġinh e
Ġac commod
YY Y
Ġexclu de
Ġhe a
K A
N ote
de e
ponde rance
IA BIL
Ġpro position
ĠK im
ĠDe ta
0 27
Ġ2 16
Ġidentify ing
it ting
ĠGo nz
Ġ3 58
Ġco mes
Ġinhe r
Ġ6 36
ĠRE V
Ġt u
Ġholder s
r elief
ĠIs land
Ġsustai n
Ġso o
âĢĶ| ^
Ġrepeated ly
: .
em a
B M
Ġc arried
Ġwor ld
Ġre new
Ġde aling
ĊČĠĠĠĠĠĠĠĠĠĠĠĠĠĠĠĠĠĠĠĠĠĠĠĠĠĠ Ġ
ĠCon n
ĠC ra
Ġt arget
ĠIn ven
Ġhe av
Ġf ish
Ġconduct ing
Ġdif fer
F ra
Ċ Ġč
Ġfunction al
Ġthre shold
Ġc itations
Media Box
âĢĿ ,
ËĨ A
ĠF our
Ġ2 27
Ġdeterm inations
ĠWal ker
Ġlist ing
ien ds
ĠItem ize
Ġ Ãļ
Ã¶ Ã¿
Su preme
wo rn
ĠO il
ÃĽ K
ac tory
ĠCha se
ING S
Ġm itiga
Ġlike lihood
ina fter
ch iat
alle nging
ĠINVENT ORY
Ġ2 20
Ġpre sents
Ġinc ap
inclu des
Ġje welry
Ġrecons ideration
as ions
ow ned
âĢĿ ï¿½
Ġexp a
ĠI mm
Ġwork s
ĠPEN AL
Ġme dication
22 2
len t
Ġ2 35
ua ting
0 30
O p
Ġp ul
ĠRES PON
Ġac qu
Ġc ites
ea ting
ĠE L
ope rative
× °
17 4
ĠV io
ĠY YYY
ĠL A
ĠSCH EDUL
0 29
S c
Ġsup press
ph ys
Ġmess age
ĠTr easury
18 7
G a
ĠJ R
I LE
Ã· Â¯
Ġins ide
Ġfair ly
ĠA rea
.âĢĿ );
app lication
Ġsoo n
OR D
Ġprec ise
Ġca ncel
Ġcomple tely
Ġsu fficiency
ĠHolding s
Ġesto ppel
ifican t
burse ments
ĠJ J
ho e
ĠCon struction
t itle
Ġad j
ĠP ur
continue d
ĠT own
Ãī Å½
bit ration
d ation
co nce
T ra
Respon dent
ĠRob inson
22 3
Ġdeposition s
Ġso rt
su perv
Ġcon stitution
ĠD irect
ĠL ar
Fe bruary
ĠAp pendix
V oluntary
( "
Ġdisreg ard
Ġ225 4
03 9
Ġthreate ned
ser ves
Ġref und
Ġdisc losures
Ġmach ine
un less
ĠAff idavit
bt e
m j
Ġcommunica t
J A
23 4
ita n
Ġ38 9
Ġocc urs
illi ps
Ġfurnish ings
b u
stru ct
ĠCo ast
oc al
Ġena cted
Ġgrow th
Ġrecip ient
Ġspea k
Ġof fers
Ġatten d
Ġman ifest
Ġcon clus
Â¤ Â¤
Ġ2 40
Ãļ Ãļ
Ġstr eam
ĠM id
Ġcommunicat e
Ġimplement ation
ĠS y
ĠA pr
le ar
ou d
Ġpro c
Ġente ring
rso ns
Ġoffer ing
Ġestablishe s
J ames
âĢļ âĢŀ
Ġbrea ched
ulli van
\_\_\_\_ \_\_\_\_
co ncer
Ã¿ Ãª
Ġex pe
ĠF un
ĠS ign
ĠE ll
Ġincorpo rates
uck y
Ġ\ `
M AR
Ġreg ist
ĠPA GE
23 7
Ġt w
cal led
ĠC M
J R
ĊČĠĠĠĠĠĠĠĠĠĠĠĠĠĠĠĠĠĠĠĠĠĠĠĠĠĠĠ Ġ
ĠDE PARTMENT
, '
Ġinter state
Ġessent ially
Ġun constitutional
ĠM IN
p age
rica n
Ġpos itive
ob by
ĠA llow
Ġmar ked
ĠFL SA
Annot s
Ġ14 4
Ġpo sses
yd ro
Ġcom ponent
ĠSec tions
ol f
ĠLegis lature
E Ãĳ
ĠS M
ÃŁ Ã»
ss ment
Ġperio dic
Ġ20 3
Ġcar rier
ĠC ro
Ġst arted
ĠWor ld
Ġin ad
O V
Åł b
ig ations
ï¿½ âĤ¬
Ġge o
T a
Ġc ra
Ġ3 28
Ġme dic
ĠH ousing
Ġdefen d
Ġe mb
Ġar rived
a nts
ĠAv ailable
arma ce
bte d
ĠRe f
Ġeas ily
_ ÃĹ
ï ¯
le man
Ġgover n
ĠRes ources
ea h
ĠL I
A p
ĠN J
e lect
Ġpro ximate
n ight
Ġ4 50
ĠF D
habil itation
cono mic
Ġwarrant e
US A
Ġwarrante d
22 9
Ġcon vey
Ġcontrib ution
Â´ Â¿
Ġho st
Ã¿ k
Ġvio lates
dicate d
$ Â¥
Ġoblig a
Ã¿ Âµ
âĢĿ âĢĻ
collect ively
rro w
Ġde le
o nline
ĠB RO
i nf
Ġpre ven
Ġcan didate
ri ft
AC E
ĠUn its
ĠConf idential
Ġdefinition s
OS S
ĠNa t
Ã¯ Ã»
ĠU T
Ã¿ Ãĸ
Ġs cene
age ncy
our nal
Ġallow ance
Ġse lection
ĠU p
Ġshare holders
Ġaggra vated
ĠPac ific
Ġ13 8
Ġattach ments
ĠF ROM
Ġde stro
Ġen able
Ġforfeit ure
ĠKen t
26 6
f ive
19 4
34 6
o v
K a
Ġb ag
ĠA gree
ĠG E
ĠM N
be n
ÆĴ M
Ġnear ly
Ö ¾
Ġconc ur
18 1
ĠE Z
Ġhis tor
ISTR ATE
us ation
ÃŁ Ãº
Ġorig i
Ã« Ã»
Ġ2 33
) );
Ġ5 01
isha ble
U B
mploy ment
im als
rib utions
ï¿¾ï¿¾ ï¿¾ï¿¾
prece ding
it rust
Ġ19 79
e inafter
Ġb ul
28 0
stat ing
determ ined
Ġom issions
ID ENTIAL
r einafter
Ġpro gress
e al
e reinafter
h ereinafter
EAL TH
f s
Ġfunda mental
Ġwo rth
Ġobject e
Ġobjecte d
Se n
15 2
iden tal
ĠS il
Ġlear ned
mp h
Ġ3 22
me ans
Ö »
Ġqual ify
a e
ĠL IABIL
to l
ĠSh are
Ġprotect ive
Ġmob ile
state ments
Ã½ Ã¾
appe llant
Ġv ice
the less
ĠY OU
IPUL ATION
Ex cept
us ual
ĠP E
Ġdist ress
p ractice
ĠD NA
24 24
ĠSh eets
VER AGE
Ġins iders
act ive
Ġch ecked
OS URE
ĠT ext
Ġdeman ds
Da n
han nel
ad ditional
ĠS ale
Ġoverru led
Ġmar riage
ĠT ype
Ġprejud icial
Ġco ve
Ġmeeting s
Re cord
go mery
Ãµ Ã»
cr edit
Ã¿ Ãĵ
Ã¸ A
ĠRe quired
ne ll
Ġ................................................................ ................................
ĠShe riff
Ġinher e
IT IN
ĠTRANS FER
AIR S
Ġattemp ting
ĠAFF IRM
M ON
ĠRo om
Ġart ic
ta x
employ ment
ĠST E
ĠLa t
ĠD ouglas
S EC
ĠMo tor
J B
Ġreflect s
O c
Ġd ry
wa n
P B
å ¿
Ġpro spective
" $
Ġpract icable
r ec
Ġattemp ts
i tor
Ġprob ably
ĠINS URANCE
Ġchar itable
Ġ Â¸
Def ined
Ġhe ars
= #
Ġsig ns
ĠM ee
r el
Ġre late
p arent
ĠM is
Pa t
armace utical
Ġ15 3
Ã¿ Ãŀ
Ñ Ł
el son
w are
Ġsuperv isor
Ġret ro
18 2
Ġident ifiable
Ġ13 9
50 4
26 5
Ġimpact s
Ġcont est
IT S
Ġof the
Ġuni que
Ġsamp le
Ġ3 12
appro ved
f ound
Ġcap able
ĠI ts
ĠB lue
ï¿½ )
u able
verte d
________________________________________ ______
v iding
Ã¤ Ã®
abe th
Ġge tting
Ġprob ability
ĠPro tective
Ġwaste s
pro per
n titled
ht ml
L B
a ster
CERTIFIC ATE
\] ,
du str
p df
Ġlicen sed
g g
H ow
ä Ħ
ob ject
Ġpoint e
ĠMar ine
ĠFi n
Ġexte nsive
Ġ14 6
33 5
G AN
oc a
Ġprec lude
dam ages
Ġcitize ns
Ċ ĊĠĠ
23 3
ĠW I
Ãļ i
ĠMat thew
ip pi
Ġpublic ly
Ad d
01 3
p ha
] :
e ntitled
Ġimpair ments
CU IT
arre n
25 6
17 3
na nts
ĠMi nnesota
Ġ3 10
MISS ION
Ġaccomp lish
Ġobliga t
âĢŀ âĢŀ
Ġs urr
Ġjudge s
ĠTX SD
Ġsig ning
] ;
Ġ3 05
Ġdistrib utions
Ġcharacteri stics
EN SE
Ġwo men
à ¤
F IN
La n
Ġt im
è ł
Ġ14 5
Ġso il
arc ot
Ġs ir
Ġ15 5
htt ps
ck ing
cons ideration
Ġadvert ising
Ġobligat e
B cs
ĠO ut
Ġapp ra
nk nown
1 000
ri d
dustr ies
AND ARD
Z A
Ġsto pped
âĢļ )
Ġult imate
ur se
D H
WL RQ
ĠMo tions
Ġla cked
co lle
G Y
ï¿½ âĢĹ
W W
OC I
Subtotal s
st al
âĢĿ .
ĠK ansas
è Ĳ
D uring
su ccess
ur ned
Å¸ Ã¿
Ġsig nal
Q uest
la tor
F T
Ġ20 4
lant ic
Ġdist inct
Ġ14 9
ā ā
ĠF AA
ĊČĠĠĠĠĠĠĠĠĠĠĠĠĠĠĠĠĠĠĠĠĠĠĠĠĠĠĠĠ Ġ
19 78
Ġinte g
Ġsuspen ded
to wn
IM E
Ãĵ Ãĵ
ONE Y
19 79
ĠOkla homa
employ ees
Ġdivide nds
Ã¾ Âº
H Q
L U
Ö ¶
ĠIn jury
Â¶ âĢľ
ĠTh ose
ĠFor ce
inc tion
Ġexpen ditures
sent encing
ĠMc K
Ġrev o
G C
term ination
Cen t
st all
Ġ15 8
POS ITION
Ġdiscip linary
ĠHaw ai
Ġhe ight
od ity
ĠSU P
Ġpointe d
ke l
50 8
i nk
ga tories
Ġwas n
Â¯ Ã·
Ġassociate s
ĠCusto mer
22 1
! âĢļ
mat ically
Ġreceive r
2 11
Ġoriginal ly
Ġconvi ncing
Ġinter national
Ġ2 30
urcha ser
æ į
.âĢĿ )
ic ide
Ġd iversity
24 7
25 8
U pon
ĠE T
s k
al o
Ġjud gments
ĠOffice rs
Ġ4 08
Ġadminister e
Ġli ves
Ġreside nts
c usto
Ġadministere d
Ġ Ãĺ
Ġbrea k
s ide
ĠC D
Ġmaterial ly
Ġ7 00
Ġcheck ing
ual ty
le rs
44 0
k k
me mbers
ĠB as
is able
it ig
2 17
sh ow
ĠS tore
Ġde rived
ï «
Ġun like
c S
not ing
ĠPRO C
Ġexplicit ly
be ing
du cing
it ure
E ET
ĠBe n
Ġcho sen
establish e
id ge
è ĳ
Ġcontra st
H G
nne th
f fer
ĠP UR
le gal
ri zing
^ Â¿
Ġtra ding
16 3
ĠDO E
Ġun known
Ġcl ub
Ġinter ve
da cted
Ġpay roll
cu ssion
iss ippi
Ġalter nat
alle r
n corporated
r NI
Ġin stances
Ġse ller
Ãº Ãº
F D
OUR CE
Ġm iss
F r
Ġaba n
Ġ14 1
50 5
Ġun just
Ã¨ t
Ġcus tom
Ġse al
ĠName s
Ã¤ t
la m
ĠCIR CUIT
ËĨËĨËĨËĨ ËĨ
AR L
Stat istical
Ġcons iste
Pe rson
ÃĲ i
Ġp ipe
Ġ29 6
36 0
Ġme rchan
ha ps
ĠN C
support e
ĠM d
ns us
En vironmental
Ġdec line
19 76
Ġle aving
F O
A mendment
AS H
Ġcredi ble
ĠAFF AIRS
require ment
rtg ages
E ven
Ġhears ay
Ġentire ty
Ġcoope rative
ĠB R
í Ł
s us
supporte d
ĠW rite
Ġdefe a
pt r
Ġcontinu ance
ÃĹ Â¯
Ġdefea t
ĠZ Ip
Ġpromul gated
pur pose
Ġfam iliar
ING TON
Ġconf inement
mp tions
ild life
gr oup
Ġdec lined
29 0
à ¢
la ys
A verage
Ġ14 8
Ġope rator
ĠPart ners
administ rative
ri z
Ġla tter
OL L
ĠS im
ĠLe o
ĠSt r
Ġclin ical
Ġmin im
ope z
Ġme dian
Ġgo e
cept ive
ca st
Ġus ually
B N
Ġp l
Ġdue s
inc urred
ĠE S
198 1
IJ I
Ġph rase
Ġ15 1
ĠP lease
yp othe
Ã¤ Ãĩ
Ġmee ts
B usiness
ie ns
Ġpre serve
OR E
Ġhtt p
_ Â¯
Ġsuccess ful
ĠSupp lemental
Ġ5 03
He alth
ab ove
Ġpresent ly
ĠReport ing
Ġemploy ers
Ġs ha
Âµ Âµ
24 9
Ġsumm ar
Ġgoe s
na ting
Ġrai ses
ĠCha irman
Ġ2 48
Ġf em
Ġ14 7
Ma t
Â¶ Â¶
im m
DIS TRICT
Re spectfully
Â¡ âĢŀ
od d
ĠMc G
Ġf t
Ġoffice s
dan t
ĠLi ke
24 4
Ġt ea
23 1
ËĨ Ãª
Ġs outh
d ro
U se
Ġp led
Ġvol ume
W Ã¿
lo ss
18 3
g ic
Ġsta mp
ĠExt ension
E ach
ET S
ĠG arcia
Wil mington
G K
Appe al
Ġaud io
Ġfi nance
rpo rations
IN C
Ġrele ases
Ġ5 04
la bo
ertain ment
Ã¤ c
æ µ
Ġ4 36
C hase
us courts
Ex ec
che rs
L R
27 6
ĠF alls
Ġoc cu
Ġac cordingly
Ġpa tte
sta u
à ©
Ġsal aries
Ã¸ a
PRO PERTY
Ġ14 2
z abeth
ĠC T
q ÃĬ
Ġ17 9
Ġreim bursement
inee ring
t ract
W ar
Ġparen tal
aro n
ĠM el
Ġaffor ded
Ġocc urrence
n ard
sa tisf
Ġ16 9
ut t
ç ķ
27 8
Ġdiscri minatory
P LAINTIFF
Ġ17 0
Ġaddress ing
Ġconvers ion
ê ¿
m al
ĠAn thony
V D
l k
Ġpla cement
Ġ2 13
IN A
, \
Ġal ien
ÃĹ Ã·
No rth
Ġ15 4
ite r
25 3
Ġra ting
ĠC ounts
Ã¿Ã¿Ã¿Ã¿Ã¿Ã¿Ã¿Ã¿Ã¿Ã¿Ã¿Ã¿Ã¿Ã¿Ã¿Ã¿Ã¿Ã¿Ã¿Ã¿Ã¿Ã¿Ã¿Ã¿Ã¿Ã¿Ã¿Ã¿Ã¿Ã¿Ã¿Ã¿ Ã¿Ã¿Ã¿Ã¿Ã¿Ã¿Ã¿Ã¿Ã¿Ã¿Ã¿Ã¿Ã¿Ã¿Ã¿Ã¿Ã¿Ã¿Ã¿Ã¿Ã¿Ã¿Ã¿Ã¿Ã¿Ã¿Ã¿Ã¿Ã¿Ã¿Ã¿Ã¿
f avo
V S
ĠHo n
lle n
Ġstrate gy
Ġassess ments
Ġt rig
pro cee
Ġ3 07
34 0
Ġwh olly
so lid
o e
l ution
OT T
Ġcent ral
Ġrout ine
w y
Ġfacil itate
ĠOr egon
n as
24 1
5 01
ĠTrans cript
Ġcont empt
Ġpre ponderance
Ġpress ure
ĠEd ward
28 1
h Å½
ĠEE OC
G W
rea ts
ÂŃ Â¥
Ġproject e
27 0
Ġprojecte d
Ġd ied
e reo
Ġ19 76
ï¿½ î
man n
Ġsur vey
Ġ2 42
Ġfee l
Ġm ap
G Ãĳ
Ġav ailability
Ġirre levant
3 30
ce nce
Ġfor ced
Ġfa ult
28 8
Ġse cret
%) $âĢĻ
Ã¬ Å½
ĠMart inez
Ġlegis lation
ĠK elly
ĠGive n
19 2
198 0
ine ss
jud ice
H D
Ġut ility
ĠReg ulations
ĠP urchase
ĠMe d
Ã¾ Ãļ
Ġ16 8
50 6
19 1
W E
ale z
Ġreference d
Ġcon fer
Ġ19 7
IT LED
Ġad option
ĠCh ristopher
i ration
Ġcalcu lation
Ġgover ned
che duled
ÂŃ Â¯
ru dent
Ġe rr
ĠServ s
ĠSp ouses
Base Font
ive n
ĠDis ability
ard y
ĠAc c
ĠREC E
Ġdiscretion ary
fe ree
ĠRod riguez
Ġpro ng
ĠEmploy ee
Ġ4 32
ĠL P
à ¸
h era
Ġcommit ment
mm a
Ġdecl ared
ĠCl ub
ĠLo ans
Ġaud it
Ġsit ting
Ġstr e
Ġjust ified
ÃĹ Â¿
50 3
Ġanswer e
Ġbe aring
Ã¿ Âº
go ing
25 9
Ġanswere d
Ġmanufact urer
Ã¾ Ã»
Ġprin t
Ġdist ur
Ã« Ã«
ĠF ish
ĠInvest ment
Ġv s
Ġin adequate
H Å½
ĠCheck ing
Ġclass ified
Ġ19 77
Ġpatte rn
Ġ2 15
ĠAG ENCY
` Ëľ
C USS
ÆĴ L
F IDENTIAL
Ġ2 29
Ġinvol vement
Ġmen tion
k h
e alth
pect e
ĠF ourteenth
Ġinterprete d
OC K
4 06
ĠCON CLUSION
Ġcolle ctions
Ġharm less
Ġ19 34
ni x
= '
, âĢĻ
Ġde m
Ġin dication
Ġphysic ians
h ereo
U P
Ġm us
ç ģ
ĠLea ve
S tock
ç į
s aid
Ġenact ment
ĠA CT
o logy
ct s
us sell
BB BB
w eek
ĠD irectors
23 2
Ġ5 06
Ġca ution
Ġt hereo
Ġstat istical
Ãµ Ãµ
38 0
ĠC lin
ut i
ca de
Ġcon sec
_ Ã·
ËĨ Ã¹
OU S
ag a
sa fe
Ġt hera
35 9
ĠN ation
ĠAda ms
per iod
Ġ4 66
[ [
Ġre cre
35 5
Ġthereo n
ĠTh ree
ĠHow ard
K Ã¿
Ġdis posal
Ġs ick
Ġinf ra
ve rance
T UR
LE ASE
Ġres idential
Ġconce aling
ĠV al
ĠIn structions
Ġ2 26
Ġ5 02
h ealth
oun tain
ĠT D
Ġadjud ication
ĠTEX AS
V IR
N G
A ff
Ġd raft
Ġus ual
Ġ online
pos ite
Ġneg lect
Ġdili gence
ĠAli mony
ime ly
................................................................ ................
Ġsus pension
Ã¿Ã¿Ã¿Ã¿ Ã¿Ã¿
ll s
amo n
} **
Ġrespons ive
ĠS ea
More over
ĠCom mercial
ĠMAG ISTRATE
Ġst ra
B ERT
J K
v G
lic t
Ġh ired
Ġauto matic
ricult ural
ĠM ic
** *
Ġcomp lied
ac ing
U U
wr itten
f urther
ie ncies
ĠT AX
secu tion
serv ing
pol is
E A
Ġrespon dents
æ Ħ
b all
Ġ19 75
Ġecono my
sh are
Ġexperience d
Do e
im i
Ġseiz ure
16 2
Ġ. âĢĿ
ÃĴ Ã½
Ġval uable
Ġexp iration
Ġch allenging
Ġcolle ctive
C l
z y
Th us
Ġ Â£
sta ge
W hat
Ġcert ifies
Ġpo sted
ĠPAY MENT
ot als
CUSS ION
ĠReg ulatory
ĠB each
OU P
ĠR ad
nn is
Ġin ta
Ass istant
Ġparticipate d
4 08
Ġabsolute ly
ns i
" '
Ġmo vant
Ġocc asions
aran t
ĠDe scription
D q
Ġent it
ndere d
ĠP aid
Ġle ased
_ Â¿
Ġ4 15
Ġquestion e
mea nor
ĠPete r
th ree
ĠW el
ĠU NIT
lo cation
ĠSte ven
ĠFo rt
, ]
ã °
âĢļ @
Ġ14 3
ish ments
stand ard
ĠDie go
Ġregu lating
O f
Ġ ËĨ
ring ing
m issed
26 8
ĠNe ither
ĠC y
ĠG rant
Ãº Ã»
o z
æ ĳ
Ġfiling s
Ġtur ned
ĠG O
go od
34 3
ĠO nce
28 6
Bank r
Ġstip ulated
as ks
Ġquestione d
ĠLi berty
29 6
T rustee
P l
iss a
4 10
ctic ut
ĠF UND
N et
de cess
ĠRep ublic
Ġinvol untary
Ġsurr ounding
ÃĽ Ã¿
Ġaccep tance
Ċ ĊĠĠĠĠ
S ta
Ġ5 44
Ġem issions
Ġ3 88
Ġ3 06
â ½
Ġa fore
Ġ16 6
________________________ _____
26 7
it i
ĠAss istance
ON S
17 2
it als
t u
Ġreve aled
17 1
ĠRE G
ĠA RE
ĠEx h
ÃŃ Ã¿
ount e
s i
Ġe r
Ġwar ranty
ac a
4 75
Ö ½
j Å¡
ĠEqu ity
Ġobligate d
le g
comm issioner
ĠMod ified
ia ting
ÆĴ a
C FF
se cond
Ġp auperis
ĠN ATURE
Ġcom ing
OR TH
di se
3 25
ĠF O
ĠG lobal
ĠM itchell
Ġpro ved
ã Ħ
Ġcon fe
ĠVe nue
ĠF ollowing
ĠO K
f un
OW ING
Ġ opt
vio lation
rece ived
ĠSte ve
CE ED
ic ion
A I
d oned
ĠLa ne
Ġwhich ever
ale rs
Ġspec ify
ĠCourt room
ÆĴ B
ar di
ĊČĠĠĠĠĠĠĠĠĠĠĠĠĠĠĠĠĠĠĠĠĠĠĠĠĠĠĠĠĠ Ġ
Ġs oc
comm unications
33 6
ĠAM ENDED
Ġass uming
J RI
H C
ac cu
un ch
ĠReporte r
Ġdef ines
ĠâĢľ âĢĺ
W D
ĠV ete
ew art
Cap ital
usa n
b id
Ġ5 23
z Ã¿
n ity
t rustee
Ġ5 55
ha size
d b
atte ry
3 20
ĠIn itial
Ġpo r
ĠG il
ĠCUR RENT
Ġs m
Ġles ser
Ġlabe l
6 50
ĠR U
pecte d
Ġm ile
sum mary
ract ices
Z Z
ard o
Ġcontemp lated
IV ER
W C
ĠTe le
ĠU tah
Ġdemonst rates
2 19
wel ve
Ġpar king
Ġbu y
Ġdepen ding
Ġins ider
ac r
ge t
ïģ ®
ĠRo se
Ġc ite
Ġc as
Ġac quire
Ãĵ L
Ġ19 0
umb us
Ġs core
ĠR ptr
Ġfi nancing
Ġlie u
Ġconta cted
ba tive
Ġcompe lling
Ġ2 19
Ġclass ification
ice nsing
Ġun a
ĠG ree
Ġad ult
aso ns
Ġful fill
ãĢ° ãĢ°
man agement
ĠCon sent
s w
Ġ2 11
Ġ2 46
7 01
Re lated
03 6
Ġ3 04
jo r
Ġf rivolous
Ġsur gery
XX XX
Ġrender ing
Ġtra i
Ġaf ford
Ġadjust e
ĠB rian
Ġmedi um
Ġowe s
rele vant
P lan
P Ãł
Ġrece ivable
Ġexact ly
Pr ior
ĠIn stitution
Ġinter ference
ca nnot
ENT ION
Ġ18 9
Ġp hase
Ġsh ift
Ġun iform
de monst
ÃĬ r
ist ics
33 4
S mith
ĠM EMORANDUM
ce a
Ġh y
Ã» Ã¯
b ra
x im
Ġfr iend
Ġreceive s
DDDD DD
Ġm ine
t ech
dis covery
27 7
Ġ16 7
ĠD AV
t ire
Ġto ols
ĠCh arge
ĠčĊĠčĊ ĠčĊĠčĊ
Ġcomm a
Ġtrai n
stru cture
Ġv ague
Ġpro hibits
Ġun certain
d ol
Ġf eat
D Y
27 9
ä Ĳ
Â¯ ÃĹ
Ġimm inent
ĠOrgani zation
6 01
c us
Ġp ictures
W ages
Ġf elt
19 74
v Å¡
ĠG al
Ġpro ving
ge o
ĠC ITY
ĠDe tective
Ġreflect e
le as
Ġ3 09
Ġreflecte d
P UT
UM ER
determ ination
ĠRe n
Ġappro a
Ġ ^
ur d
Ġjo ined
rt s
ì Ī
establishe d
ĠRe form
Ġcons isting
Ġb us
Ġle ading
ro r
Ġ| |
Ġ18 5
ey e
Ġ4 09
og le
Î Ĩ
Ġ2 22
Ġdefect ive
Â¶ âĢ¢
Ġpert aining
h our
** {Â¶
Ġadv isory
4 09
Ġda ughter
Ġenhance ment
E mp
ĠDEFENDANT S
f ree
Ġe st
Âµ Ã½
ĠIn dictment
Ġdu ration
Mo n
ua n
Ġpetition s
Ã¿ Ã±
Ġsatisf actory
25 7
Ã¿ Ãĥ
Ġfe ll
K I
ĠRe lationship
graph y
do min
ĠLaw s
ĠOpe rations
l ding
ËĨ Ã¢
employ ee
# âĢł
Ġeng aging
Ġf lu
ĠM M
ÃĪ ÆĴ
Ġp ra
s ki
Ãº Ã«
Ġ16 1
2 18
24 3
Ġlo cations
Col lection
ral d
velo pe
oth y
ÃĦ DD
Ġwhere i
nne l
Å½ Å½
su its
Ġwherei n
sol ution
ic iaries
ÃŁ ÃŁ
ĠRe quire
E O
fo ot
ĠS avings
iss ued
li gence
Ġun r
Â² 8
26 4
ĠPENAL TY
Ġ20 9
28 4
Ġ2 14
ĠB AR
Ġ âĢĿ
Ġ Ëľ
W AL
Ġmain taining
ĠM ust
Ġs cheduling
vic t
L IC
ul f
Tho mas
li dated
a B
ĠP UBLIC
Ġrev ocation
T I
Ġf light
ĠDo mestic
val ue
Ġquarter ly
Ġnegot iations
se ttlement
Ġ ....
Ġba n
av a
ÃĴ I
st ract
Ġpate nts
ĠBa ker
Ġtrans mission
ex empt
Ã¿ ÃĤ
Ġ2 23
Ġg ar
50 9
ĠB ACKGROUND
S ch
Ġun ions
ĠH as
ar io
i la
plaintiff s
Ġ17 7
Ġdefic ient
ĠR ail
Ġta pe
R EC
Ġ2 34
u asive
AT H
ĠR O
Ġ3 08
Ġsea t
Lan d
D I
Ġ________________________________ ________
lo ad
Ġcom bat
âĪ ĳ
20 22
á ħ
Ġe fficient
Ġim position
Ġsub stitute
Ġfee d
Ġbur de
Ġexp ired
ĠM ach
ĠDec ree
e spect
Ã¿ Ã¬
lica n
"""" ""
37 6
K o
Ġag o
ET ITION
ĠY ear
Ġj uris
Ġe ase
POS ED
ĠTech nology
Ġaccomp any
ĠRe serve
Ġ17 8
ĠMee ting
Ġbod ily
ĠRo ss
Ġcons ists
ul ings
ĠSTR EET
ĠV o
De p
ĠCorr ect
Ġgo al
29 5
H V
Ġ16 2
r espect
art ers
ĠCalcu late
Ġ3 30
ã Ī
s ult
Ġas ks
T rial
$Â¥ $âĢĻ
ST AT
cr ete
ĠPa per
W V
domin ium
đđ đđ
Ġwor ker
ĠG U
Ġadvance d
Ġdist inction
ĠB ou
Ġho nor
ina ting
il ly
Ġ4 75
Ġal ia
Ġtra ditional
F igure
$âĢĻ âĢĿâĢĻ
Ġ4 02
ĠCL ERK
u ff
st ar
A nsi
Ġtyp ically
App ro
W I
- .
Win Ansi
WinAnsi Encoding
Ġgo als
ĠCon sequently
$âĢĿ Â¤âĢĻ
Ġconclu ding
26 3
Ġv a
Ġaccr ued
ĠSt ep
ĠApp le
ĠSe ller
Ġincap able
ĠPart nership
Ġpo o
ĠCh ina
ÃĽ I
Ġ16 4
ç ½
i am
acr e
î ¯
Ġpo se
ï Ĺ
eta mine
. \]
Ġprejudice d
Ġscient ific
appoint e
li sted
Dec l
ch ild
appointe d
03 5
EN TR
Ġad versary
pr ior
ĠSan ta
C IV
ĠP i
Ġaccept ing
GO VERN
Ġpre scription
mi nant
Ġnow rap
26 9
Ġdis positive
le ep
Ġrun ning
Ġpro portion
Ġprohib ition
ste rs
v ard
Ġs im
Ãĥ A
Â¯ Â¿
T el
Ġcoup le
) /
d q
ĠM ONEY
25 2
Ġloo ked
Ġachie ve
ĠREC OMM
34 5
28 7
Ġ17 6
uc lear
25 4
Ġ4 23
Ã¾ Ã«
ï Ł
Ġ3 02
Ġconf irm
ĠM utual
Ġsho oting
Ġf alls
Ġmembers hip
Ġhome stead
M K
ÂŃ âĢŀ
Ġdepri ved
Ã¥ Å½
Ġ4 10
50 2
Ġincre asing
Ġvar iety
Ġreasonable ness
val uation
ĠG ENERAL
Ġf ear
r don
Å¡ h
ã ¸
nn ifer
Ð Ķ
ÃĪ Ã¡
i Z
Ġass ure
Mo rtgage
Ġdis count
Ġrad io
Sh e
ge ntly
ËĨ ÆĴ
ĠPER JURY
Ġse ssion
ÃĴ o
dis cretion
ng le
di n
24 2
O k
âĢĺ âĢĺ
ĠMo rris
Ġinit iated
Ġc our
ĠV eg
ï¿½ï¿½ âĢı
vious ly
pria tely
IE W
â Į
Â· _
dif ferent
Ġcomp rehensive
â Ĺ
ĠR OB
Ġtruth fully
ã ģ
petition e
ga tory
Ġsuffer ing
Ġstore d
Ġom ission
ap a
illa nce
N ATURE
" -
trans ferred
ex plain
log ist
ĠN M
jud icial
men s
ĊČĠĠĠĠĠĠĠĠĠĠĠĠĠĠĠĠĠĠĠĠĠĠĠĠĠĠĠĠĠĠ Ġ
ĠJ OHN
ĠMa il
} }
Ġf ig
F M
Ġaccu racy
Ġrestrict e
Ġb it
Ġga ng
Ġrestricte d
Ġ$ -
R R
Ġcare fully
æ ±
Ġn ation
ĠIn stru
Ġreview s
Â° Ëľ
ĠS Y
U I
ÂłÂł Âł
' ,
c b
ĠAme ric
Ġconf usion
ACT ED
count y
lin que
ÃĲ h
ËĨ a
ĠF ield
Ã¯ Ã¯
Ġp u
M iss
Ġnew spa
Ġattrib utable
Ph one
ex clu
3 99
e b
H N
55 6
ĠL ien
Ġwar rants
F a
is sory
rizo n
Ġcon ve
"> \*
Ġcusto dian
t ur
Ġlicen ses
ĠThe n
Ãµ Ãº
ĠAc cess
ÃĤ A
ricult ure
Ġco rro
Ġk n
Ã´ Å¸
Ġ19 70
J E
ĠB al
P G
Ġ16 3
Ġconside rations
Ġpre decess
Ġparticipa ting
ĠElect ronic
Ġref using
Ġcontact s
LA B
ĠEx press
Ġbur g
nne tt
ie rs
Ġsub chapter
comp liance
ute rs
uil d
H O
col umn
x o
ENS ES
ĠT RA
H ar
M y
Ġsome times
AN E
ist ence
Ġmanufact uring
ĠBe r
28 9
Ġeval uating
35 6
ĠE M
Ġ q
ha mph
Ġwat ers
à ¡
X P
Ġh ypothe
Ã½ u
p D
ĠJe ffrey
Ð Ĵ
trans fer
Ġstri king
fi n
B D
Ġrev ision
ex erc
33 2
ue ss
Ġd up
29 7
cont ro
cel la
IT NESS
Ġse toff
Ġhea t
da nger
lli ns
COMP LAINT
Ġextra ordinary
Ġse em
Åł Åł
WHERE FORE
ĠF ound
c d
A KH
Ġfr iends
ve t
Ġaffect ing
ï ¶
Part y
de gree
Ġ5 09
keep ing
J ose
Me dical
petitione r
mo d
Ġpo ses
ĠT ro
33 8
amb ling
AT A
con tingent
Ġvio lating
ĠA VERAGE
ĠF OUR
ĠS HE
Ġ18 2
ï¿½ï¿½ âĢİ
ÃĲ M
c as
r ra
34 8
44 4
Ã© Ã©
Ġhundre d
n ia
Z IP
ha w
ĠBra d
ĠSP OUSE
AS ES
Ġpro ven
Ġin difference
38 6
ĠB US
ĠAnn ual
p lea
UL L
Ġope ned
f ailure
ĠFact s
Ġs pons
Ġcl othing
Ġt ips
lf are
Ġimport ance
Ġinter net
ult ip
Ġ" [
Ġ________ ______
Ġhigh est
Ġ18 8
ĠPr em
alle ges
ĠSte phen
Ġdece ased
ch ing
Ġ2 99
âĢ¦ âĢŀ
Ġpe t
sett led
Ã¿ m
Ġ3 75
Ġg ir
ift een
vere ign
33 9
46 6
Ġof fe
Sum marize
Ġelse where
Ġ5 10
ru it
ĠD IR
ĠB alance
ĠF BI
Ġ2 49
ĠL TD
ut r
Ġvac ation
rece ive
Ġbi rth
Ġannou nced
Ġpasse nger
ä Į
ĠC arter
Tax payer
â Ĩ
Do nald
D i
U nexpired
Ġ3 27
ĠNet work
ĠS pe
Ġelect ric
Ġsit uations
Ġarbit rary
Ġm ale
ĠAff iliate
ĠH EALTH
ĠA ward
lican t
Ö ¿
Ġexplain ing
h reats
Ġaccep table
48 0
ĠComp lete
fa iled
wor kers
ĠSho rt
ĠSET T
ĠSum mons
Ã¿ Ã¤
Ġt hreats
ĠN ET
L Å½
ĠOw ner
ë ¾
Ġschool s
e sult
Ġfor med
ĠP ractice
Ġcorrespon dence
ĠPh il
( )
4 07
è Ī
Ð ŀ
âĢŀ âĢļ
Ġwar ning
Ġbe nch
Ġre serve
55 5
do ing
Ġad ding
ĠSta y
ĠIn stitute
Ġ17 2
The refore
r b
Ġcompet itive
Ġt empe
ĠSUPP ORT
ĠH unt
Ġ________________________ ______
r esult
Ġba nc
Ġse que
Ġfurn ished
Ġ2 39
Ġ18 6
Ġdif ferences
rem o
ĠCa t
ĠL au
qual ified
ENT ER
ton io
Ġ ÃĬ
[ _
a F
Ãĵ N
oul der
In formation
hamph etamine
ĠSt ud
Ġm id
Â° âĢļ
Ġs worn
is al
miss ible
ĠHigh way
M D
Ġdepart ure
Ġ3 17
Ġcor e
cri minal
f eet
Ġsc ree
ĠMiss issippi
Ġ stab
Ġ29 7
. ](/
ĠGu ard
8 50
conne ction
Ġhe l
46 0
Ġconf ront
37 0
UL T
Ã¿ a
4 03
ĠB d
wh ile
28 3
Ġ4 30
Ġcompensa t
R X
Ġappe aring
Ġ19 73
ĠRE POR
ĠWh ich
; '
Ġf igure
n tire
u o
ota t
i nj
Ġ17 1
ĠPro duct
Ġspo ke
it ution
Ġpermit ting
r io
ĠTh rough
ï µ
ÃŁ Ã«
cert ificate
ĠR ED
Ġr ulings
ĠRe cognition
5 07
ĠGo ogle
ä Ĩ
Ġt rier
Ġcompensat e
Ġre quisite
Ã¿ Ãĺ
; #
Ġpresent ation
ĠCONS UMER
sto ne
" =
Ġadjuste d
VIR ON
Ġaw ards
Ġ5 52
L LC
Ġve t
Ġ19 5
Ġinte lli
ĠFrank lin
ĠCo rporate
Ġinvest ments
UR ES
case s
Ġ Ã¢
Ġsubmit ting
employe r
f ire
ĠCO VID
il ies
R ese
po wer
Ġcons ul
ex cept
47 7
ĠBa n
C OURT
Ġunt imely
è Į
Ġun usual
Ġsusp icion
Ä ŀ
ĠSUB TOTAL
Ġfinal ly
Ġ17 3
! #
ĠC ru
i tors
Ġproce sses
Ã¿ O
ir k
U C
Ġpla y
ĊČĠĠĠĠĠĠĠĠĠĠĠĠĠĠĠĠĠĠĠĠĠĠĠĠĠĠĠĠĠĠĠ Ġ
Ġpol lution
e ffect
ÃĪ A
que z
ĠFinding s
Ġre lying
H B
**** ****
ĠM oney
Ġ2 17
Ã» k
Con f
e ntire
Ġcorrespon ding
Ġille g
tr e
um ulative
Ġbargain ing
ĠS ECURED
ĠS A
Ġas certain
scri ptions
pro duct
il ot
Ġsubm its
Ġ5 05
ĠD EDU
Ġrestrict ive
pp ing
Ġrecom men
ct ing
mina ting
ĠAppe arance
ious ly
ĠV E
if ting
ï º
Ġqu ick
gni z
Ġ3 19
ma ke
ar ison
Ġplaus ible
Ã» K
des ig
Ã¿ z
brief ing
ã Ĳ
Ġconne cted
, &
36 5
Ï İ
49 0
otat e
25 1
Ġ2 18
Ġin vention
34 1
Ġup date
36 6
ĠN elson
[ .]
Ġobject ives
Ġ2 76
Ġcounterc laims
ĠMar shall
Ġmisrepresent ation
Ġha c
ese e
ĠTER MIN
Commo nwealth
Ãĵ i
Ġrout e
î ¿
æ ī
! "
pri ses
Ġrevenue s
M OTION
19 77
Ġfraudule ntly
sep arate
ĠBo oks
ident ified
Employ e
Ġco rporations
Ġposses sed
hapte rs
Ġin appropriate
Ã¾ Ãĥ
t rust
Ġcomp licated
Ġ8 41
Ġd ic
Ġincre ases
ĠTe nn
Ġemp hasize
Å½ Å¡
Ġremain der
ĠB IA
Ġher self
ë ½
Ġar med
Ġpreva iling
ĠRe mo
provide s
Sub ject
: /
~ âĢĶ
Ġles see
ECT IVE
ĠW E
Ġ17 4
TOR Y
ĊČ ĊĊ
c ash
27 2
Ġpract ical
Ġreta il
ĠGovernment al
g t
Ġh ope
áĦĳ áĦĳ
ĠGR OUP
grega ting
Ġhtt ps
Ġ3 41
Ġnot ing
ÃŁ Ã¯
Ġmod ifications
03 8
ĠEx hibits
ĠB io
Ġ ÃĪ
ut ral
ĠRich ards
n struction
L O
M V
v ile
Ġimm igration
J W
Ġb all
ĠDe ath
Ġann ually
Ġdig ital
Ãł ÆĴ
B rief
ĠPh illips
ĠN ich
pat ient
ĠO pp
5 10
Emp hasis
Ġ19 4
ĠO ak
M ag
Ġch ief
Ġeval uated
Ġ19 6
Ġpartnership s
Ġap prec
ĠREL IEF
Ġ2 28
Z I
ĠWILL IAM
ÃĦ G
Ġelect e
Ï į
Ġp lat
Ġ2 75
Ġelecte d
n ning
Ġfreque ntly
Ã¶ Ã½
ĠCA USE
Ġs mo
ĠD R
K S
Ãµ Ã¯
Ġ4 99
Ġaban doned
arr ison
act ivities
Ġpro bative
IN ESS
Ġnot withstanding
ĠL et
33 7
ã µ
ĠProf essional
Ġbring ing
ĠAgree ments
ĠFD IC
Ġse verance
ĠF Y
Ġin sert
Ã¿ u
ĠEqu ipment
vi ation
Ġre liable
de m
i nstruction
Â» Â»
ĠJO INT
ĠPo s
ĠLaw rence
Ġhappe ns
CON CLUSION
ĠR FC
Åĵ p
Ġdesig nate
Ġse ns
Ġcommon wealth
Ġsanc tion
De ducting
34 9
Ġreg ion
Ġmar kets
ĠS r
Âº Ã½
âĢ¦ âĢł
mpt e
ĠR ho
col n
do rse
Ġread ily
Ġma iden
Ġt ree
ĠInven tory
Ġmo ves
Ġs quare
Ġ18 3
T L
Ġ5 12
S ocial
Ġre organization
la st
ICT ION
ri ns
OM AS
ĠBon d
Ġspee d
Ġimpro vement
ĠHen ry
ĠDe sign
ä Ī
34 7
Ãļ Ã½
ĠST ILL
un able
S outh
r as
act s
h D
ĠKent ucky
Ġrest ra
ĠProced ures
Ġco ll
ĠAU TH
Q H
ĠComm unications
& Ëľ
ĠKa n
ËĨ Åł
Ġle arn
p l
ĠCODE BTOR
ĠT ow
ext ra
ĠReg ional
ob iles
Ġhour ly
S N
Ġ4 07
ï £
Ã¾ ÃĴ
VIRON MENTAL
Ġb ills
29 2
Ġ2 32
yal ty
u ge
MIN AL
op h
ica ta
35 7
Ġtrans port
cl ient
ĠWith draw
Ġin cen
il iation
s chool
Ġfor esee
cella neous
be lie
ÂŃ ÂŃ
Ġn arcot
F ile
Ġh ire
Ġvac c
Ġki nds
35 8
Ġto wn
be sto
ĠSe venth
determ ine
Ġadj our
Ġsubject e
b d
Ġpoo r
Ġsubjecte d
ĠCL ASS
Ġfeat ures
ĠPla za
Ġbro ker
ĠFor mer
Ġde ems
G AL
ĠOFF IC
ĠSh ares
Ġpreva il
ĠDef ault
ĠM us
act ual
ible s
ĠR idge
one st
Ġsuccess ors
p rom
% ,
Ġne igh
D RA
Ġdam aged
Ġfar mer
Ġeng ine
Ġ4 25
Ġ18 1
Ġe p
Ġrail road
ĠA mo
ĠC ast
Ġrepla cement
Ġcons c
imo r
- ,
Ġrevers al
ĠA tty
imo n
Ġocc urring
Ġt ask
e state
ĠB ru
ĠH EAR
nge rs
ĠUt ilities
Ġinte rim
reg ulations
w illiam
ĠS ullivan
Ġdiscussion s
ĠDe position
Ġirr ep
ĠL ines
Part nership
ĠC ERT
Ġgene rated
w Ã¿
ĠF ri
Ġsh ared
Ġeli minate
Ġla y
Ġ5 54
ĠT j
ì Ĭ
ĠEng lish
ĠDOC U
$ ____________
nat han
H IP
ĠDe fender
Ġconta mination
P ËĨ
Ġprevent e
ĠSt ar
AGE MENT
Ġc li
ĠP oint
ĠSt ewart
ĠL opez
ta il
Ġtw ice
39 8
Ġvet e
ĠDe spite
ob ligations
n able
ment ally
ĠJ urisdiction
Ġun authorized
O ur
Y ES
è¢Ī è¢Ī
Ġconsider s
ĠLo ss
ĠH ouston
ĠAttach ment
den ied
Ġconce al
Ġno rm
Ġc ru
$ </
ĠTime ly
æ ĩ
G ross
Ġpresu med
Ġpsy chiat
ĠService r
Ġconsoli dation
st ra
ash ion
39 5
Ġ18 7
Ġdisp lay
ç ¾
as ure
Î ı
CTION S
IF E
Ġprevente d
Ġtech ni
Ġin ability
Pe nalty
Ã« Ã¯
ĠP AT
Ġthera py
Ġ2 31
Ġin fer
è Ĵ
29 4
Â¦ Ëľ
ĠRE AL
Ġconten tions
H Y
udge ting
P aid
á Ĩ
Ġar m
Jo hnson
ĠLand lord
AV E
ÃĪ Ãł
ĠCamp bell
Ġimprove ments
ĠBe rn
ĠE mail
Ġpart e
Ġview s
Ġsuccess fully
Ġ2 66
âĢ¡ )
Â° âĢŀ
lan ta
ĠTH ERE
ĠF ace
Administ rative
ï ¹
Ġtotal s
9 50
Ġ Ã¡
Ġ36 8
Ja n
concer ning
ĠB ranch
ĠPart ner
Ġ36 3
Ġcred ited
Ġ3 36
( &
tt i
V V
á Ĥ
Âµ m
Ġc hannel
ĠB ryan
ĠAgain st
mpte d
ste n
B c
S W
11 11
á ĩ
G ER
ĠH E
ro per
Ġwithdraw al
F N
38 5
à £
ĊČĠĠĠĠĠĠĠĠĠĠĠĠĠĠĠĠĠĠĠĠĠĠĠĠĠĠĠĠĠĠĠĠ Ġ
men tioned
Âª Âª
Ġclea ning
ignat ures
39 0
cS et
* .
F P
Pro cSet
proceeding s
J J
ue n
T otals
rance s
Ġdepos ited
require ments
Ã» Ãº
ĠG ib
imor e
L r
IT AL
oc ational
Ġ2 47
Z M
Check ing
M ich
ĠH y
ĠLIABIL ITIES
st rong
ĠLe vel
ĠMon ta
ĠH ay
ĠADDRESS ES
ise r
Ġaccor d
05 6
Ġst ress
ĠDepos it
Ġgrow ing
B Å½
4 20
Ġinc idents
Ãļ V
Ã¿Ã¿Ã¿Ã¿ Ã¿Ã¿Ã¿
Ġim posing
Ġt welve
Ġde rivative
Ġsubject ive
k Ã½
Åł Å¡
27 3
S igned
ĠB ea
lu des
ĠPre liminary
CL OSURE
48 6
f l
ĠWor kers
î Ģ
ric ia
Ġis o
ĠLe ad
OU GH
Ġphotograph s
45 6
T ime
S ingle
th y
CERTIFIC ATION
ã ł
ĠE D
ĠSc ience
h el
Ġ4 11
Ġsuccess o
ĠMet ro
oo ds
Ġsuccesso r
Ġpromi se
o Ã½
b ara
Ġcr eating
itt al
* )
ac cess
Ġ organized
ordin arily
Ġincarce rated
bo rn
æ Ĩ
Ġ19 2
ĠBack ground
Ġim poses
Ġma ster
Ġparticipa n
ad line
âĪ¢ âĪ¢
Ġnew ly
Ġparticipan t
Ġ ze
Ġsh op
N OW
ourt een
Ġutil ize
ÃŁ Ãµ
H ouse
ĠC RI
Th ird
Ġcomple ting
M ARK
26 2
ĠH AR
cup ation
ĠHan d
ÃĪ Å½
di ment
Ġconclus ory
Ġappro pri
Q J
ta neous
Ð ¢
ist ic
ĠKe vin
Ġsen ior
S tan
Ġsto len
Ġinform a
GDt GDt
Ġ2 21
à °
amb iguous
Ġ3 25
ĠColle ge
Ġf ut
ĠASS OCI
ER C
Ġsu itable
Ġs ile
Ġfire arms
01 1
Ġcomment e
ĠDist ribution
PL OY
Ġissu ing
Ġimplement e
X B
ĠR yan
ĠLi quidation
m un
Ãĩ Ã¿
L H
Ġvirt ue
ĠUn less
ÂŃ /
Ã¾ Ãµ
Ġmean t
L T
Ġra ising
ĠY a
Ġprepare rs
IGN MENT
mo tions
7 75
F B
Ġinde e
ĠTur ner
che z
Ġindee d
ĠE ric
ĠN V
æ ©
Ġqual ifying
Ġimplemente d
C rop
Ġ19 3
ot iable
Ġun due
ĠPar ker
Ġincen tive
ĠRespon dents
benef its
Ġb attery
ĠE mergency
Ġhe art
Ġmanufact ured
ĠM ED
ĠPat rick
Ġsa t
Ã¯ Ãº
ĠDISMISS ED
ĠCorp s
Ġpic ture
ĠMa ke
C ard
cont e
Ġ4 12
ge l
38 8
ĠConne cticut
Ġex posed
39 6
V IN
Ã´ Ã¿
Ġde duction
IS D
ĠWh y
b c
Ġfo rty
âĢļ "
Ġex clus
Ġassu mption
04 8
ĠMont gomery
Ġli berty
Ġm ic
âĢŀ ]
ÅĴ r
"""""""" """"""""
@ @
ĠSCHEDUL ES
N P
respons ible
ĠCom ments
Ġpurcha ser
ĠVe r
ĠB el
OL D
ĠG ary
iss ues
k ota
ÃĴ n
äĳĦ äĳĦ
Ġde ference
Ã» i
44 6
Å½ ÆĴ
respon se
ĠW y
Ġli qu
ĠE uro
36 9
U t
ĠBro ok
ĠReg istration
Ġrespect s
ĠPh ys
Ã· ÃĹ
Ġprivile ges
Ã¤ Åĵ
ĠDe a
Ġbr ings
ä ĩ
s iding
37 9
Ġca usation
us o
ath y
Ġfem ale
ĠImm igration
ĠSUB CHAPTER
fact s
Ġtest e
ĠM C
serv ations
ugh e
Ġso vereign
nne ll
for mer
æ Ŀ
38 9
IGH T
B UR
R otate
oca t
Ġdevelop ing
ĠOb jections
ns ity
P ÃĤ
ĠUS E
Ãĵ Ã¿
besto s
Ġarbit rator
Ġcircum stance
Ġ5 20
Ġamb iguous
ow ners
Ġte rro
27 1
Ġre pos
Ġout weigh
B lack
MIN ISTR
ĠO NE
ĠH ac
Ġenter prise
Ġrente r
lo om
Ġp ounds
Ġc ess
ĠV ic
49 7
ĠT OTAL
N M
Ġ7 01
Ġf ired
ĠPate nts
# Â¡
ĠCo st
26 1
ECUR ITY
ĠCar l
ĠJ URY
Ġch ose
I llinois
feren tial
Ġm ass
Ġdes ire
L W
ĠCOR P
ĠRet irement
ĠCo llins
ĠAmend ments
n im
Â¶ âĢĻ
Ġexec ute
m u
ĠCounsel ing
ĠG ross
Ġcomp arable
Ġm utual
ĠS em
Ġwe lfare
#Â¢ :
men to
ĠEnt ity
ä ħ
Ġbro ther
ĠL itig
Ġexclu ding
e ase
Ġ19 1
B ILL
xt ures
Ġ3 34
ĠLI EN
Ġnon priority
Ġsecond ary
Ġreco vered
Ġdemonst rating
ine ry
sp acing
ĠENT ITLED
ĠVe n
Ġreach ing
âĢ¹ Â£
Ġdis sent
Ġart icles
Ġ4 06
Ġchar ging
Ġsup posed
T erm
Ã« Ãµ
ĠPe nal
.' "
Ã½ z
a ign
47 0
Ġs light
Ġkeep ing
Â© âĢŀ
Ġprec luded
itte r
spec ified
bted ness
Ġto wards
S ince
Ġ26 0
Ġ4 24
ĠO riginal
ĠV illage
ric ts
Ġmeaning ful
Ġ19 69
r eal
37 7
TER S
Ġd istance
ĠF A
O Ã¿
ORDER ED
ĠTe nant
âĢł âĢŀ
State ment
ĠHer nandez
ĠCl othing
ÅĴ Å½
ËĨËĨËĨËĨ ËĨËĨ
Ġdescribe s
Ġunlaw fully
36 8
46 9
è ĵ
ĠEx pert
ĠPa nel
ĠJa co
Ġdis abilities
Ġ5 49
n it
ĠArk ansas
07 9
ĠMA ILING
un k
compet e
ĠP ut
Ġ6 10
Dan iel
04 6
Ġ36 0
ĠNOT ES
âĺ Ĳ
iva t
ĠIn stall
ï¿½ï¿½ï¿½ï¿½ï¿½ï¿½ï¿½ï¿½ ï¿½ï¿½ï¿½ï¿½ï¿½ï¿½ï¿½ï¿½
o a
Ġreal izing
Ġorigi n
Ġ9 24
nee d
5 20
Ġstru ck
de scribed
ĠFIN AL
Ãĺ M
Ãº M
19 75
Ġcess ation
Ġs cr
dic tions
Ġwith held
ĠIn f
Ġ4 48
e ference
RE G
Ġcomp ri
stau rant
Ñ į
Ġto w
GOVERN MENTAL
Ġvers us
ÃŁ ÃŃ
ze n
Ġcounterc laim
Ġrecogn ition
77 3
co operative
NIT Y
Ġconflic ts
P ort
Ġ19 72
Ġbenef iciaries
V C
D p
Ġg ift
Ġide a
ĠStat utes
] /
G eo
Ġchemical s
l c
Â¶ âĢĵ
ĉ č
Ġdef ine
Ġso rry
Ġhand ling
sec urity
Ġavoid ance
Ġf ifteen
Ġdirect ing
Ġref use
ĠT A
con ditions
Ãģ B
ivat e
Ġlitiga t
r ev
dis p
Wa t
Ġpo ol
Ġmeas ured
C AP
; (
velo ped
Ġcreate s
Ġ3 23
ex ec
Ġ4 35
38 7
cons iste
Ġconsec utive
Ġ Â¨
Ġnecess ity
29 3
alt imore
Ġ18 4
Ġre as
ĠC am
Ġ2 41
Credi tos
' )
r eference
ami n
Ġlitigat e
} /
Ġ3 15
TR Y
28 2
c ular
e ation
ĠNe vertheless
ĠB ran
Ġcount ries
Ġli quid
Ġtrig ger
rth ur
47 9
ĠH lding
ĊČĠĠĠĠĠĠĠĠĠĠĠĠĠĠĠĠĠĠĠĠĠĠĠĠĠĠĠĠĠĠĠĠĠ Ġ
Ġformer ly
ĠDE POS
Ġenforce able
Ġlarge r
hip s
Ġ$ ________
Ġattach ment
OW NER
accu rate
p d
ĠCo oper
Ġtra ck
å Ģ
r dan
ä Ĵ
Ġconce pt
Ġal pha
L ER
Ġg ambling
ra h
56 0
p ic
l ington
Re ce
law s
, !
pe rinte
de meanor
Ġaccompany ing
W Y
Ġjust ification
arre tt
Ġvessel s
N B
Comm issioner
ber ry
ĠS imp
DE A
ĠW ITNESS
erc laim
ĠOFF ICE
l arge
ĠAdv isory
ÆĴ Å½
Ġguide line
ĠAsse ssment
á ģ
Ġhigh way
Ġburg lary
Ã¿ Ã¨
Ġden tal
Ġill ust
Ġunr e
ĠSta ff
cri pts
TUR N
Ġvio lent
Ġav o
u Ã½
H ouston
Ġin line
H I
Ã« ÃŁ
P ublic
ĠEqu al
ĠRe organization
e lle
ocat e
W al
Ġmess ages
Ġcorro bo
nge d
ĠState ments
Image B
s ion
L ocal
ad dre
Ġval uation
ap acity
Ġteste d
36 7
ĠServ icing
F urther
Ġaccess ible
Ġauto matically
A E
ke tt
Ġprot est
â Ĭ
ĠCount ry
Ġcha nce
Ġimplement ing
Ġwal k
ĠS R
3 14
ĠCON D
Ġa men
Ã» ÃŃ
T ENTION
Ġguarant ee
P RE
Ġ4 14
Ġde linque
um i
r ese
ĠS pring
Ġper haps
it nesses
35 4
M Y
_ /
DE BTOR
ĠA C
port a
Ġt asks
V AL
Ġgra de
Ġim possible
ĠAt lantic
Ġbuilding s
Ġ4 88
ĠSt eel
Ġ4 18
39 7
ĠO wn
Image C
RIS T
ĠPro of
au gh
âĢ ķ
Ġpre sident
Â´ ÂŃ
l it
D Ãĩ
Image I
44 8
am ing
Ġprodu cing
phe ld
ĠR ICO
ga z
................................................................ ................................
ĠPR OT
Ġquant ity
Inte r
Ġtru cks
ĠO l
57 0
tte ntion
J P
AR R
Ġ38 5
ĠCert ification
ENTR AL
dam us
ĠEli zabeth
ing ly
Ġmo rtgages
sign ificant
me e
PAY ER
Ġassign ments
Ġ27 1
ĠExpen se
Ġ4 40
ĠMur phy
ÃĪ Ã©
Ġk ill
ĠProceeding s
low e
to gether
Ġguarant eed
Ġ4 74
F W
cons c
ĠCont inue
F K
Ã½ Ãº
ounte r
Ġinta ngible
fe d
Ġ8 01
ã Ķ
Ġ zo
urs ing
Ġrefer ring
ĠS k
Ġcon vert
D X
Ãĸ ÃĤ
L ouis
ĠAc tions
me l
45 8
ĠGonz alez
Ġ Â°
Ġmult i
Ġinte nds
Ġcontinu ous
Ġ27 0
ĠPL LC
pre judice
Ġdo mic
Ġ4 86
Cle rk
so ever
office r
Ġtrade mark
ĠPo rtion
f g
Ġ26 5
Ã¿Ã¿Ã¿Ã¿ Ã¿
individual s
ther efore
Ġcontrib uted
Ġtho rough
c ourse
ì ī
D x
t l
36 3
59 0
ĠMedic aid
ÃĴ ÃĴ
ri de
ĠCh urch
Ġc ult
st ill
Ġsubsid iary
ĠFun ding
Ex emption
F air
Ġ3 86
Ġt hank
Ġsa n
4 14
ãĢ ł
ĠC S
Ġ5 16
, âĤ¬
ri ke
it ts
Ġ5 41
hoe nix
P AR
opport unities
Ġre place
A Z
r isonment
Ġlaw suits
ĠRo sen
G ED
inc r
Ġ3 24
Ġdefic iencies
d all
58 0
] ?
46 5
loy d
A Åł
con struction
Ġfoc used
T ÃĤ
ĠH al
pen d
V IL
gniz able
Ġ3 37
Ġres ume
Ã¾ Ãº
William s
io ux
Ġen velope
TR UCTION
9 01
Ġmanufact ure
ĠReg ulation
; &
Ġincarce ration
ize r
urthe rance
$ -
ac co
Q u
po st
D N
B ro
Ġ Ãĥ
Ġ5 37
ĠM edia
9 20
Ġde ceptive
t reatment
acte d
è ī
Ġobvious ly
und ry
comm itted
ĠBay e
Ġ5 08
Ġquestion ing
sup ra
C Å½
Ġaccommod ation
i Åł
sp itals
Ġmot ive
ĠAlex ander
38 4
Ġ5 13
T V
Ġconsiste ntly
ĠSe toff
ĠNa tural
ĠĊ č
Ġ3 90
45 7
s idential
âĢĵ âĢĵ
Bo ard
ĠB i
ch allenge
Ġ28 0
Ġdepen ds
K ET
n tention
ĠEX EM
Ġinvest igations
Ã« ÃŃ
Ġ4 47
ĠB lock
Â® âĢĶ
reate d
char acte
Ġma gaz
Ġincorpo rate
ĠA riz
Ã´ Ã´
ringe ment
Crop Box
Ġjud icata
Ġne vertheless
Ġ Â
ĠDescribe s
Ġpro to
form ing
Ġ25 2
Ġcompensa tory
ud son
c les
Ġilleg ally
J ust
ĠP erm
á ł
29 1
Ġconstru ctive
Ã¾ Ã©
ĠEx am
Ġex amples
itize ns
ËĨËĨËĨËĨËĨËĨËĨËĨ ËĨËĨËĨËĨËĨËĨËĨËĨ
Ġreta iner
Ġadvert ise
ig o
3 15
ÃŁ Ã¶
} Â¯
ã ĺ
Ġ5 24
Ã¿ I
ĠCh ildren
t Å¸
Ġprocee ded
Ġgarn ishments
Ġf lex
Ġ5 70
o nto
âĤ¬âĤ¬ âĤ¬âĤ¬
Å½ ÅĴ
g ies
Ã¿Ã¿ Ã»
Âµ Ã»
e lease
Ġ3 14
ĠG ray
DDDDDDDD DDDDDDDD
Ġmiss ing
ĠF ul
Ġyou ng
ÃŁ Ã©
Ġe ast
Ġinhere n
, .
ĠVeg as
Ġinheren t
N ERS
Ġd rove
h s
T W
p Ãģ
ã Į
tro ller
isone d
Ġ ?
ĠS mall
qu i
Ġconce ded
05 8
Ġgene ric
ĠEx cept
Ġcoope rate
ĠREL ATED
0000 000
Ġad h
Ac cording
Ġevery thing
ĠCUR IAM
Ġ3 35
F G
Ġdiagno sis
â ĭ
Ġdiscip line
Ġsub d
Ġ3 20
ĠSt rickland
A la
â İ
Ġco al
O ct
Ã½ Ã»
Ġwith holding
ĠPar ts
if ty
fen ses
Ġconseque nce
Ðĺ Ðĺ
ine rs
ĠU nknown
ro i
s it
s ingle
44 9
ĠAG REE
Ġve sted
ĠHa zardous
IS A
! Â¡
ĠT E
66 0
ĠPA ID
al ity
h owever
44 5
ia nce
Ġnotice d
cont inu
RO LL
Rich ard
Ġ7 02
Ġadh e
Ġw est
( (
Ãł ÃĤ
ughe s
04 9
Å½ËĨÃ¨ Å½ËĨÃ¨
ĠY eah
Doe s
H el
ID E
Ġirrep arable
p lus
xxxxxxxx xxxx
Ġper fect
ĠBo ston
ĠHome owner
Ñ İ
Ã¸ ËĨ
46 8
b rea
Ġt ic
Ã¯ Ãµ
Ġ5 15
it ic
jo hn
Pro ced
fere ntly
c f
B J
Ġ5 11
In d
Ãĺ L
G reen
Ã« Ã¶
Ġrelat ively
3 13
ä ľ
Ġ3 11
Ġla bo
ÃĶ S
Ġ(* )
Ãĥ I
ĠHEAR ING
ĠDEF ENSE
Ġ2 79
Ġres idual
48 8
33 1
ĠGRANT ING
# Â¤
è ¡
] }
inee r
ru ption
ĠM ea
Ġthousa nds
âĢĥâĢĥ âĢĥâĢĥ
ÃĽ Ã½
04 0
Ġ19 64
Ġassess ing
Ġalpha be
ng ress
ĠB udget
Ġinven tories
ar p
ĠRECOMM END
ĠCON C
t el
66 7
Ġe fficiency
44 7
ific ance
Ġ3 77
Ġli ber
Ġ4 63
ĠS cheduling
nu p
age n
ĠP AR
Ġdepri vation
ĠConso lidated
M ust
ĠPRO DU
Ġre served
Ġp ublish
serv a
Ö °
î §
Ġframe work
Ġinter pre
F ILED
ï Ľ
V ÃĴ
Ġaw arding
Ã¿ i
Ġc able
Ġrelationship s
consider e
Ġacknowledge s
Ġ Ã©
Ġarrange ments
ol den
ĠP DF
G X
om itted
Ġstre ngth
ĠP leas
Ġprot ections
ESS ION
D V
Ġreg ional
ã ĥ
4 12
j Ãļ
Ġ4 17
3 19
considere d
Ġ ai
ĠL IN
Ġbi as
47 6
âĢ¦âĢ¦âĢ¦âĢ¦ âĢ¦âĢ¦âĢ¦âĢ¦
ĠAb ove
It em
ĠE very
ĠBaye r
x i
Ġr ation
n um
Ġde ferred
ĠRes idential
ĠE m
Ġqu oted
45 9
iv al
Ġ28 5
N ÃĤ
ĊČĠĠĠĠĠĠĠĠĠĠĠĠĠĠĠĠĠĠĠĠĠĠĠĠĠĠĠĠĠĠĠĠĠĠ Ġ
ĠD ia
âĢł âĢľ
h ill
Ġdri nk
ST EM
Ġh it
ICH ARD
Ġvo ice
C ite
stat ute
Ã¾ ÃĿ
ĠSur vey
Ġnon contingent
Ġcalcu late
ÃĪ Q
Ġup keep
ĠI X
ĠInc luding
p pen
fo rth
ć ć
Ġcall ing
th ird
ĠStr eam
ta ke
( $
pol itan
ĠAn tonio
ĠS OURCE
Ġ older
ĠR ussell
Ã« Ã©
f ee
lin d
ĠZ e
ĠAd just
s se
ĠMa tter
autho rity
ÆĴ i
Pr iority
ĠEXP ENSES
zo n
Ã¿ Âª
Ġ25 1
Â« Â¯
Ã¯ ÃŃ
48 5
ĠGr egory
Ġ âĦ¢
C ash
T M
ĠI P
3 22
nce ment
Ġte lling
î ·
ĠF AR
"/ ></
ins ured
sh ire
U NSECURED
sa n
Ġ Å¡
Ġ25 6
VEN UE
ned y
Ġpro spect
ew ith
Ġs ports
19 72
4 39
Ġ2 77
í ĭ
v ia
Ġlo ad
4 16
Ġdo main
ĠK ey
ĠBUS INESS
Y C
ĠRobert s
01 2
Ġcont ractors
Z i
Ġcour ses
ic ks
ĠT om
= >
ĠSM ITH
fra ud
ĠDo nald
Ġreas oned
Ġd ie
mar ket
Â» _
Ġv ary
Ġmethod ology
ÆĴ ÆĴ
ass ociate
Ġqu oting
U A
ĠSUP ERV
Ġ4 22
T N
ËĨ h
ĠKe nneth
Ġwea pons
li st
ĠJ ason
P lease
, #
Ġsubm issions
f unction
Ġread y
Ġun related
Â¥ Â¥
ĠH ills
dis missed
Ġrule making
Pe rsonal
ĠH ab
Ġ3 76
ĠB ush
Ġu pheld
ĠS ALE
ĠY ears
unic ation
ĠA Z
ron ics
Comp l
E very
oun se
ĠD ol
Ġsta yed
Ãº Ã©
Ã¿ Z
) ]
ĠT V
ĠD ow
G EL
ĠB ridge
ĠH ON
s mith
Ġpie ce
Ġpre ferred
W ESTERN
Ġ4 78
u tors
37 3
Ġconstitution ally
Ġauthorize s
Ġser ves
ÃĴ M
ĠP hiladelphia
Å½ Å¸
"" #
Ġlaw yers
ĠCon tact
ĀĀĀĀĀĀĀĀĀĀĀĀĀĀĀĀĀĀĀĀĀĀĀĀĀĀĀĀĀĀĀĀĀĀĀĀĀĀĀĀĀĀĀĀĀĀĀĀĀĀĀĀĀĀĀĀĀĀĀĀĀĀĀĀ ĀĀĀĀĀĀĀĀĀĀĀĀĀĀĀĀĀĀĀĀĀĀĀĀĀĀĀĀĀĀĀĀĀĀĀĀĀĀĀĀĀĀĀĀĀĀĀĀĀĀĀĀĀĀĀĀĀĀĀĀĀĀĀĀ
} Ã·
Ġg uess
Ġalternat ives
Ġ6 78
Ãº ÃŁ
ĠG reat
Ġindependent ly
sh eet
ĠAge ncies
% .
ĠC us
Ġground water
Ġin put
R W
ĠGe ne
Ġdef ra
Ãł Åł
ĠC UST
Ãł Ãģ
Ġevent ually
sp ouse
f our
imi n
Ġinc ur
å ½
Ġperm issible
ob tain
Âµ Ã¾
lore s
35 3
ï ®
Ġy ield
Ġme d
Ġf ight
ĠMIN UT
ĠC AP
æ §
u ity
du a
36 2
ĠS ite
B ur
Å½ ÃĤ
Ġpromp t
Ġ Â¢
76 0
ĠNav y
ĠRESPON SE
tom obiles
roi n
) "
ĠEd wards
uc ker
ĠEmploy ees
ĠA tta
ĠPro duction
ngr essional
W Ã½
Ġ36 9
tore d
T Ãĵ
6 06
36 4
ĠMa nufact
ÃŃ m
ĠCount e
ĠF M
ë «
ĠSub sid
à ²
EN N
Ġinstall ment
ä ĵ
> &#
H r
ï ª
55 9
ac ities
od o
de finition
ĠOrder s
rict e
Ġinte llectual
li ning
. Â§
perinte ndent
AN A
ĠMon day
Ġ Ã£
Ġmanufact urers
aw are
Ġfreque ncy
04 5
Ġ4 90
Ġrece ipts
ame rica
Ð Ĺ
Ġtrib al
TH IS
Å¾ Å¸
po r
â ¹
the rine
cu ss
Ġappellee s
3 23
can t
Ġ6 09
v ÆĴ
b asis
Ġcur iam
Ġs pread
off icial
Ġha zard
G V
Ġfor mat
Ġop io
d x
p ho
ĠN othing
Ġ3 26
Ġ5 14
19 73
Ã¶ Å¡
p A
Ġalphabe tical
ES ENT
ĠMAN AGEMENT
ĊĠĠ ĊĠĠĠ
Ġqu ote
"> </
Ġsamp les
ĠPartic ipa
âĢŀ Ëľ
om ing
AC TS
of ar
Cert ification
Ġ29 8
49 6
Ġlea ders
Ġdocument e
form ance
: '
seque n
ĠO PP
Ġ que
Ġdocumente d
ĠDEPOS IT
Ġ3 40
P K
ĠL O
ta bility
ĠB RI
Ġup per
Ġallo cation
Ġ3 56
AL D
Ãĵ Ã½
Ġfor est
N N
ĠRepre sentatives
ĠOffice s
t ru
Y LV
Ġmemo ry
O w
ricte d
39 3
I OR
Ġclose ly
mon t
Â¾ Â¾
DC PA
Ġ Â»
Ġ3 51
39 4
Quest ions
ĠFace book
ST IT
U W
Ġhome s
na ncy
commo n
è £
Ãļ I
L os
Ġtrans ition
Ãº Ãµ
are l
Ġen comp
Ġasse rtions
Ġh i
U V
ĠBenef its
ĠI r
Ġfi x
Ġknow s
ĠExpen ditures
Mar k
ĊĠĠĊĠĠĠ ĊĠĠĠĠĠĊĠĠĠĠĠĠ
Ġapplica nts
46 3
Ã» Ãµ
rge a
Ġwo man
ĠPost al
ĠBro ker
Employe r
ve land
Ġre taining
ĠGo v
AL YS
EC TR
Ġ4 20
4 02
Ġless o
Ġautho rizing
rgea n
ĠJa ne
Ġcha i
Ġf ourteen
ê ¾
Ġprosec ute
Ġhere of
Ġsix ty
Ġsurve illance
Ġconfe ssion
rgean t
othe s
Ġins pec
' "
Ġ3 13
pro prie
h u
Ġ2 43
ab a
rab ly
co ck
ĠAir craft
Ġinter vention
S F
ĠROB ERT
Ġ198 50
proper ly
ste p
ï ĵ
represent ation
ĠT IME
Ã· Â¿
Ġc umulative
Ġconfidential ity
Ġper ce
Ġ* **
ĠFri day
Ġvis ited
Ġconcent ration
Ġsub part
ll ll
mm ing
å ¾
H W
Ġchai n
Ġ4 58
ĠSe r
ÆĴ b
disc lose
ä Ŀ
Â§ (
mate d
ĠD ar
v acy
ye th
Ġ4 38
ĠC ur
ĠCorr ections
Â¶ Â·
ĠL as
p per
ĠHawai i
m other
Âª i
Ġde manded
BILL ING
Ġdis senting
Ġ Â¿
Ã´ Ã½
l itigation
Ġsec uring
ON Y
Ġto lling
Ġcomp rom
ÃĻ C
Ġrecons ider
Ġperma ne
Ġestablish ment
Ġsurv ive
Ġ28 8
ĠJ ul
Col umn
Ġposs ibly
ĠDa kota
Ġentit lement
ĠComp liance
un c
oi ning
ac counts
Ã¿ Ã£
Ġp ick
D v
Pro vide
su ing
lia n
ĠD ig
ĠAr bitration
ĠMar ie
Ġ4 29
Ġ5 64
ą Ć
Ġwe b
Ċ ĊĠĠĠĠĠĠĠĠ
rso nnel
Ġtim ing
Ġreco verable
Pe nding
qu acy
Z a
B ÃĤ
Ãĸ ÃĴ
od ge
ÃĪ Ã±
ĠRu ss
Z O
Ġop ined
ĠW ages
Å½ P
ĠFo x
Ġse wer
ve h
ç ·
ide l
ĠSe t
Ġexpen ded
- '
Ġ4 49
Ġre lie
Ġra pe
Ãŀ Å¸
Ġadverse ly
Ġ âĪĴ
u ss
ÃĦ q
M ITT
â ĳ
Ãļ a
wr iting
Ġlarge ly
ĠMad ison
7 25
J OHN
ĠEx p
Ġintro duce
G P
ï Ń
rain t
à ¹
! &
greg ation
VER Y
Ġref rain
l icen
W AY
Ġpart ially
A Q
ĠREQU EST
35 1
Ġk id
pro ducts
Ãĺ I
Ġname ly
a pe
Ġmin imal
ĠSe ries
Ġadjust ments
pri marily
ab o
con dition
ĠSETT LEMENT
ĠO c
ĠEle venth
Ma iling
Ġwind ow
inen tal
Re p
ĠF urn
Ġ4 55
è İ
E B
i u
37 4
# Â¦
n ner
ĠRe sp
ita tive
Ġ19 71
D allas
G N
Â¨ Â¦
ĠGa t
ĠConf irmation
Ã¶ Å¸
ĠHis tory
ĠRen t
n try
Ã¿ Ãĩ
Ġvis its
ĠPROC ED
ĠH aving
f are
Ġim age
Ġb ridge
IR D
Ġrestric tion
S UMMARY
ĠAss oc
rre s
Ã´ Ãĵ
Ġc ul
44 3
lle rs
represent e
Ã½ o
Ġ355 3
Ġ25 7
Ġeffective ness
ee ring
gr ity
Oc cupation
Ġadm issions
represente d
âĢł âĢł
Ġspec ification
# âĦ¢
Ġmisrepresent ations
Ġcare ful
ĠCan ada
quot ation
ĠA rr
un secured
Ġdefect s
ĠO rdi
Ġch ronic
Ġ6 08
3 11
Ġ28 6
ÂŃ âĢ¦
f inal
Ġf ashion
IG ATION
ffe rson
Ġsy n
Ġ Ã°
Ġ25 9
Ġ3 16
Ġsup pression
ĠST ANDARD
ĠA F
ÃĴ t
Ġ3 38
A rt
ĠT rib
ALYS IS
nn ie
Ġs cen
ĠCom pel
Ġwill fully
å Ī
Ġconven ience
r elease
Ġcopy rights
Ġpack age
l S
ĠÂł ĠÂł
Ġje op
R P
{ _
; &#
Ġinte grity
Ġs ister
Ġope rates
Ãĥ a
Ġcertify ing
Co rp
= ?
Ġcomm unities
ĠK i
Ġ29 0
ĠCorr ectional
fi nite
No r
comm ittee
o x
Cir cuit
Ġ8 05
Ġcir cu
Ġprisone rs
Åł A
ĠR eed
E Z
Ãµ ÃŃ
Ġdee ds
í Ŀ
Ġze ro
est imate
ĠMonta na
Ġ4 31
Ġen rich
Ġpers ua
conc lus
Ġ5 25
pon t
Âº Ã¾
M ICHAEL
D ay
â ĥ
ĠAr ch
ËĨ Ã«
Ġ26 1
vet ica
Ope rating
ĠMan ual
Ġinter fere
âĢł Â¿
Ġove rs
ĠPetition ers
06 0
Ġ27 4
S ite
SU B
Ġfound ation
Ġbenef icial
ÆĴ ÃĤ
Ġ26 3
Ġrep utation
Ġi r
Ġdis se
Ġ6 13
con taining
interest s
UR ISD
Ġsuper se
us ive
Ġ4 19
Ġexhaust ion
âĢ¡ !
IF T
pri ncipal
Ð µ
appro ximately
Ġl icensing
55 8
ĠS OUTHERN
æ ł
} ~
Ġappro priately
Ġca pt
H L
Jose ph
u z
Ġmer ger
37 1
ĠCont inuation
Ġ25 4
05 4
Ġ4 43
ĠJe fferson
comm unity
78 6
Ġ6 22
V EL
5 99
ĠV III
â Ļ
æ ¦
Ġpre scribe
OT HER
ĠFound ation
ol ution
Ġin clusion
K Ã½
just ify
Ġc m
ĠHam ilton
Âº M
Ð ł
n l
Ġbed room
f ar
á Į
8 01
c tors
Ġ ordinarily
46 7
X L
ĠF IRST
Tex as
u ities
Ġ4 34
AN IA
à µ
Ġde tect
ÃĦ E
Ġ5 35
Ġ6 07
Ġt empo
Ġ3 47
spec ial
ro b
Ġs tor
T B
ÃĴ Ã¾
supp lies
Ã¿ W
36 1
q ÃĤ
occ urred
Ġ6 17
Ñ ļ
Ġcus toms
URISD ICTION
ĠQu i
Ãµ Ã«
Ġtyp ical
Ġexpert ise
49 8
I ss
3 28
Ġen ume
ĠTr e
Ġd imin
doc ket
08 0
ĠD allas
Ġprom issory
38 2
Ġweek ly
19 71
Ġ ÃĹ
ĠComp troller
ot ex
ĠS usan
ident ification
Ġform ula
s ince
w art
ĠDeta ils
PEPE PEPE
05 7
æ¹ ¥
Respon se
Ġsever ity
Ġ6 27
ĠRED ACTED
ĠRe payment
P ages
LI ANCE
part nership
Ġ4 37
Ġinterve ne
di al
De l
ĠCOUNSEL ING
Ġsett le
ë ·
Appe llants
59 5
Ñ ĭ
cons pi
J ackson
Ġv i
are z
Ġenjo y
Ġplan ned
ĠFar mer
ĠRe y
Ġsk ill
ĠREQU IRE
ur ally
Ġw ishes
Ġe th
ĠWITH DRA
Ġfi xtures
Ġl ift
og h
88 8
ÃĴ z
Ġdata base
Ġ4 45
wr ite
." ).
g le
No v
Ġexc used
inde pendent
Ġch arter
A mended
ĠGu ide
Ġhypothe tical
ar ly
Ġca ncer
de ny
ra bility
Ġ25 3
Ġcommit ments
Ġwe aring
Ġ5 18
Ġinforma n
nold s
Ġ26 8
ĠQual ity
Ġ( Â§
ÃĹ ]
Ġinforman t
bro ok
Ġanaly zed
mo s
R L
Ġ26 7
ĠInter ior
Ġaccurate ly
- /
3 24
Ġ4 79
Ãķ Âµ
Ġb ases
Ġreve als
Ġf urtherance
Ġtal ked
Ġ4 33
Ġm g
ĠRo gers
48 9
03 4
Ã¶ ÃĤ
Ġtu ition
we lling
ĠPL AN
Ġha ppen
ĠC la
49 5
Ð ¡
48 4
discri mination
ĠFire arms
M is
go n
ĠM OR
Ġhost ile
78 0
orig inal
Ġsc reen
Ġ5 53
Â¢ >
ĠN eg
ĠW ard
ĠChe v
Ġar ri
sequen t
ĠVete rans
04 7
h m
ĠM ap
ĠMon roe
Ġper pet
Employ ment
TX T
Ġfam ilies
H Ã¨
le um
stru ctive
ĠI J
Ġconstr ue
ç »
ĠLe s
ï¿½ï¿½ _
Ġcomp arison
ĠMa x
s hip
Ġdefi nite
Ġclub s
í ı
Ġm itigation
$ "
Ġ4 67
Ġ26 2
H P
ier ce
r arily
Ġenc ounter
Ġ37 1
mo nthly
ĠS i
07 6
Comm ission
Â° @
# âĢĺ
55 4
X V
Ġ5 17
eye r
f d
ĠMo del
ĠGover nor
ĠAPP LIC
ĠA NS
è Ĭ
Ã¿Ã¿ Ãº
í ŀ
Ġbo rro
q bal
present e
B alance
s ha
ENT H
Ġ4 56
cooperative s
Ġa ver
\ .
q Ãİ
ĠR isk
Ġ4 57
Å¡ Åł
ï ©
e very
ĠO ld
d ri
75 9
Ġ5 26
ÃĽ J
Ã¾ Âµ
} Â¿
C N
æ ¡
cea n
Ġexc use
Ġ Â®
Ġ................................................................ ................................................
Ġre medi
l Å½
Ġsex ually
35 2
Ġpremium s
44 2
45 4
ĠRe presentation
T G
Ġshort ly
48 7
perform ance
( #
ã ¤
Ġwhat soever
Ġrecognize s
ĠP ear
le vard
Ġration ale
Ġsolic ited
Ġwhe never
ĠW R
ĠST AFF
Ġk illed
Ġtheo ries
Ġ16 92
Ġ onto
âĢļ `
ĠP OL
Ġsk ills
Pe n
Ġappare l
Ġconten ded
Ġ4 13
Ġexhaust e
7 02
END ING
ĠCertificate s
~ ÃĹ
ĠEstimate d
RA Y
Ġexhauste d
Ġinterro gatories
Ġpsycho logical
ĠAllow e
ĠAllowe d
pa ncy
ho r
au g
Ġclar ify
3 17
âĢĶâĢĶâĢĶâĢĶ âĢĶâĢĶâĢĶâĢĶ
ê Ħ
Ġrespon ding
Ġmitiga ting
it ime
C G
Ġbill ing
Å¸ Ã½
Ã¸ o
d um
Ġh ydro
presente d
Ġ3 18
ÆĴ h
Ġrat io
Ġimpr isoned
Ġb ra
ĠP ETITION
Ġpro motion
Ġre serves
Ġen j
ards hip
Ġpo ly
Ġ27 3
ì ĭ
pro posed
ru ct
Ġ36 4
ĠH ad
a ined
Ġdif ferently
ĠMar ia
è ¸
39 1
ĊČĠĠĠĠĠĠĠĠĠĠĠĠĠĠĠĠĠĠĠĠĠĠĠĠĠĠĠĠĠĠĠĠĠĠĠ Ġ
I U
ĠMi nn
ĠMi ami
ĠBa t
p le
un i
Ġco i
Ġutil ized
ĠL ittle
Ġlike wise
ĠCon st
Â´ âĢĻ
ivers al
report e
47 4
Ġ Ã¾
78 9
ior ari
dua t
Ġdivide d
AL J
ĠK ar
P Å¡
07 0
Ġbe lo
M ax
ĠF le
ã ĳ
de veloped
ĠD ic
Â· Â¯
:#Â¢ :#Â¢
Ã¿ ÃĲ
N Ãĵ
Col umbus
Ġdoc tors
Ġmet hamphetamine
comp uter
ĠGu aran
Ġ20 23
ĠA ustin
Â¾ Â½
ĠC lient
Ġcontrib ute
du ly
38 3
Ġsubsid iaries
Ġsc ale
E Å½
duat e
ĠW yeth
ivate d
Ġsu ms
Ã¿ U
è ĺ
ĠVeh icles
( '
Ġspee dy
Ãļ Z
Ġs leep
ĠCon duct
æ °
r Ãĩ
Ãļ A
Ġ4 98
5 12
B EN
âĢľ âĢĻ
Ġspons o
Ġ4 46
Ġb ranch
Ġsatisf action
L u
Ġen ds
e k
} Â¥
[ ,]
ĠT y
3 16
Ġcollect ively
4 30
Ġre liability
Â§ )
ris m
ĠS urrender
ĠAGREE MENT
n is
M oney
H arris
ĠSTAT US
ÃĴ i
Ġv ic
FER ENCE
Ġnorm ally
Ãĺ i
ĠG riff
ÃĴ A
Ġde em
06 8
Ġshe riff
Ã´ Ã©
Ġ26 4
ĠREV IEW
Ð »
iat ive
// /
AR S
Ġ Åł
F Ãĳ
Ã¿Ã¿ Ã¼
va ting
M ED
Ġw all
Ġ25 8
pro duction
. !
? _
Ġ28 4
Y ear
Ġ7 99
37 2
ĠT eam
^ âĢĶ
ĠC hapters
================ ================
Ã½ Âµ
co sts
ĠP OR
? âĢĿ
09 0
3 26
ĠAppellee s
Ġ4 73
cert ification
Ġanaly ze
Additional ly
de pos
Ch ief
der ick
ĠR ee
Æ ļ
@ âĢļ
Ġb ig
Ġ5 47
Â« _
ro bert
Ġfo ster
Ġstart ing
ĠKe ogh
Ġexclus ively
ENS ATION
Ã¯ Ã«
ĠDea n
ĠRo nald
mun ition
66 6
7 20
Ġsur charge
ç Ļ
ĠC ERTIFIC
fo lk
Ġcoi n
Ġfair ness
| |
w l
3 29
u y
Ġ6 50
ĠA ttn
EN C
Ġrac ial
tro it
Ġinh erit
Ġ4 69
Ġ48 0
spec ifically
ç ĵ
ĠB U
L essor
ENS ION
ĠAD MINISTR
R ec
r pret
g ranted
Ġsh oulder
Ġis n
fr e
Ġun clear
Ġscr uti
Ġ5 86
Ġexcee ded
Ġlicen see
D id
38 1
ĠProf it
Ġ6 68
inclu ded
Ġpers uasive
Ġcove nant
Ð ´
Åł B
K L
Ġcont ested
ĠO rt
Ġlesso r
ĠE rro
de ath
è į
ĠW ea
ĠV ar
Ġmay be
Ġun reasonably
ç ¼
Ġsear ches
armaceutical s
Ġconc urring
OR S
Ġva n
ĠW EST
Ġ28 7
Ġ5 51
C REDIT
AM S
æ ¤
# âĢļ
p otential
ĠSh ould
Ġemail s
Ġredu cing
ËĻËĻËĻËĻËĻËĻËĻËĻËĻËĻËĻËĻËĻËĻËĻËĻ ËĻËĻËĻËĻËĻËĻËĻËĻËĻËĻËĻËĻËĻËĻËĻËĻ
Ġte nant
ĠM DL
Ï ĭ
ĠM ICHAEL
n ary
Fe b
ĠPre sent
x iety
e rpret
Ġenfor ced
Ġfa x
å ·
æ ¿
atta ched
í İ
a z
t erpret
G J
h art
ĠSub tract
do j
Ġ28 1
N F
lie rs
Ġconce des
W ITH
Ġin direct
de cl
clear ly
Ġexerc ising
"""" "
d w
Ġc ro
f c
Ġ3 96
S ha
NS YLV
Ġm ist
ex pert
Âµ M
pos als
Ġfe as
ĠSupp ly
âĢŀ âĢº
Y ING
P Ã¤
m id
Ãĸ Ã¿
Ã¾ ÃĤ
Ġplan ts
DOC S
met e
Ġclea nup
4 22
3 18
Ġcar eer
V ÃĤ
Ġde tained
Ġcon ferred
ou the
ä į
ĠCon ditions
ĠAlter native
ANC ES
ĠFED ERAL
Ġhistor ical
F ERS
E s
ĠDEDU CTIONS
ĠCo h
$ ________________
æ Ĳ
Ġ9 99
lo cated
ous al
Car ol
Ġheav y
n stru
Ġpa th
ĠPer ez
ja cent
ĠB ul
? "
Ġhome owner
now ledge
Spec ial
m il
ili zation
Ġcred its
P Ã©
cr oft
Ġ3 49
I H
Ġexp lo
ĠB ow
it is
Ã½ Ã«
ËĨ ÅĴ
ĠSto ne
Ġret ention
Ġshare holder
Un it
sol ved
ĠL IM
06 9
Ġk nee
Ġ3 46
Ġsign ificance
ĠThe reafter
ĠAmeric ans
Ġnon moving
S i
M il
NSYLV ANIA
ht m
rie ved
âĢ ĸ
ĠCo verage
ĠPLAINTIFF S
e ned
96 9
Ġ29 4
âĢ ²
-------- ----
ry s
ã Ĥ
uil ty
Co lo
itate d
n jury
á ³
ĠIn dustrial
B F
ĠPART IES
alt ies
ĊĠĠĠĠĠĠĠĠĠĠĠĠĠĠĠĠĠĠĠĠĠĠĠĠĠĠĠĠĠĠĠĠĠĠĠĠĠĠĠĠĠĠĠĠĠĠĠĠĠĠĠĠĠĠĠĠĠĠĠĠĠĠĠĠĠĠĠĠĠĠĠĠĠĠĠĠĠĠĠĠĠĠĠĠĠĠĠĠĠĠĠĠĠĠĠĠĠĠĠĠĊĠĠĠĠĠĠĠĠĠĠĠĠĠĠĠĠĠĠĠĠĠĠĠĠĠĠĠĠĠĠĠĠĠĠĠĠĠĠĠĠĠĠĠĠĠĠĠĠĠĠĠĠĠĠĠĠĠĠĠĠĠĠĠĠĠĠĠĠĠĠĠĠĠĠĠĠĠĠĠĠĠĠĠĠĠĠĠĠĠĠĠĠĠĠĠĠĠĠĠĠ ĊĠĠĠĠĠĠĠĠĠĠĠĠĠĠĠĠĠĠĠĠĠĠĠĠĠĠĠĠĠĠĠĠĠĠĠĠĠĠĠĠĠĠĠĠĠĠĠĠĠĠĠĠĠĠĠĠĠĠĠĠĠĠĠĠĠĠĠĠĠĠĠĠĠĠĠĠĠĠĠĠĠĠĠĠĠĠĠĠĠĠĠĠĠĠĠĠĠĠĠĠĊĠĠĠĠĠĠĠĠĠĠĠĠĠĠĠĠĠĠĠĠĠĠĠĠĠĠĠĠĠĠĠĠĠĠĠĠĠĠĠĠĠĠĠĠĠĠĠĠĠĠĠĠĠĠĠĠĠĠĠĠĠĠĠĠĠĠĠĠĠĠĠĠĠĠĠĠĠĠĠĠĠĠĠĠĠĠĠĠĠĠĠĠĠĠĠĠĠĠĠĠ
ĠAg riculture
Ġ26 9
Ġres ource
} ?
ê ½
q i
Ġ4 76
Ġoperation al
Ġremo ving
ET T
06 6
ËĨ Ã±
ĠSY STEM
De s
B rown
aff irm
bon uses
58 6
Ġh otel
R ock
ĠI A
¿ ë
Ġhere under
ĠDE MAND
n v
de scription
Ã¿ M
ĠC ho
ro y
Fra nk
ist ry
RE EN
Ġmanage rs
Ġ4 27
Ġmedi ation
Ġe ye
ĠG AR
Ġ3 91
B i
ĠPAY ROLL
Ġtraffic king
ĠBu yer
nat i
] âĢĿ
P i
à ¦
ĠP ractices
á ĥ
Ġge n
exclu ding
ĠC urrency
ĠCOMP LIANCE
ĠQuest ion
Ins ider
ĠRECE IV
! âĢĺ
Ġexam ining
Ġan imals
K ER
gni zing
K i
w au
Ġbound ary
ĠEX EC
Ġman aged
Ġconvers ations
Ã¾ Ãķ
ĠL ib
Ġmedic ations
Ġcodebtor s
ĠW arren
invest igation
Âµ ÃŃ
Ġw il
ps y
# âĢŀ
T wo
Ġmin ute
Ġtrial s
b l
î ®
07 5
ĠN AS
Ġp ure
ĠD HS
ĠMain tenance
Ġpro poses
d uty
ĠWay ne
lor ds
ĠTim othy
Ãļ ÃŃ
Ġcon ditional
procee d
Ġto uch
ix o
a der
Ġinno cence
Ġde pression
à ³
ĠGo ods
Ġmo ment
âĢł Ëľ
ĠPr ess
, [
ĠAc quisition
Ġcon servation
ĠY et
ide o
Ġquick ly
w s
Ġplain ly
Â® âĢľ
ĠG ulf
Ð ½
4 13
Ġex ped
ĠDen ied
& ;
C AS
o be
Ġtempe rature
\_\_ \_
ĠJ ack
allow e
ĠJe nnifer
cep tance
ĠRE P
âĢı ï¿½ï¿½
e cords
Å¡ A
Ġd ive
Ã© Ã¿
Ġd irec
Ġ9 22
ĠO li
AFF IRM
Ġ36 7
ĠDe sig
ĠT N
jud ge
ĠTrustee s
59 8
58 5
atte rson
56 8
ĠPla ns
$ $
n terpret
ĠPAY MENTS
Ð ĵ
EC IAL
com pe
ize s
Ġzo ning
æ ¯
ĠJo rdan
i njury
Â° âĢľ
~ Â·
Ġ48 4
pat e
; âĢĿ
â ŀ
do rs
Ã© Âº
P Ã§
as ses
Ġrep airs
ç Į
G ive
Su per
Ġre lations
b urn
b road
Se pt
Ġconflic ting
Ġinsert ing
` Â¡
pur poses
Ġb ail
Ã¯ ÃŁ
TR OD
ĠCOMP ENSATION
Ġrepla ced
raw ford
ç Ĳ
, -
Ð ĸ
ows ki
Ä Ĥ
ĠRemo val
# âĢ¦
nate s
âĢł !
XX X
Ġsoc iety
ĠW ESTERN
test ified
45 1
î ¢
phys ical
ĠCo x
19 69
î ¦
Ġ4 60
ĠPer ry
44 1
M F
EQEQEQEQEQEQEQEQ EQEQEQEQEQEQEQEQ
Ġ38 0
ILL ER
Ãĸ Ãĸ
Ġphotograph ic
un ting
ne tt
Â¿ Â¥
Ġ29 3
Ġh iring
æ ·
ĠC losing
ē ē
ĠRe vised
Ġ48 9
í Ģ
. \*
Ġsu ccee
Ġrepos sessed
Ġun ambiguous
L eg
O ver
Ġ5 42
Ġvis itation
sec tions
Ġover come
Ġn urse
Ġut ilities
Ġprivile ged
Ġ6 55
6 10
Ġ29 2
Ġpar k
ĠTwo mbly
ĠP ra
Wat e
ä ´
Ġ3 95
ĠRequire ments
m oney
Ġ3 21
ext e
@ âĢĻ
Ġimpe ach
j ÆĴ
h al
Ġ4 39
pen se
p g
i nterpret
Ġ100 6
Ãĵ a
r ecords
47 3
lo rida
Ġ4 96
ixo n
Ġen dorse
require s
ch ester
ÃĿ ÃĿ
i nstru
Ã° Ãģ
Ġ3 48
ĠGra ham
MU NITY
Ġlarge st
Ġmerchan dise
IF IED
ĠLy nn
lle y
ï ¬
} ÃĹ
ÃĴ a
W M
ĠG le
nat ively
Ġprof fered
Ġinde x
ic ian
Ġsub stituted
è ĭ
Ġde layed
Cont ract
Q Q
Sen t
In vest
no o
Ã° A
) *
ĠBou levard
ĠMi randa
Ġ3 52
05 9
Ġ Â«
. âĢļ
b ury
ê Ī
Lo a
ĠL am
Ġapproa ched
Ġcontrib uting
IR ED
J N
ĠReporte d
Ġident ifies
OU TH
Ġwal king
D c
Ġissue r
â ł
Â¿ Â·
utr ition
ä ·
ä ¤
X I
ĠPRO CEED
ĠLin coln
com b
v Å¸
c ross
6 79
l n
ĠV i
A nn
ĠC f
39 2
ĠPART NERS
Ġassig ns
cor dance
ĠPro c
w Ã½
Ġpre dicate
ĠST IPULATION
3 27
ĠS pr
ĠLy nch
Ġforce s
ĠCoh e
ĠCourt house
ĠBenef it
Ġdiagno sed
ĠC lay
Ġ3 43
Ġg one
ard less
ê ·
ĠH UD
âĢł âĢļ
Ġconsent e
ÂŃ &
Z L
Ð ¿
Ġe v
ĠTe rry
âĢł âĢĶ
Ġne ck
78 8
ĠSent ence
r C
A DA
ne wed
Ġprint e
Q G
inc i
Ġ28 9
ÃĪ Ã¢
cre ts
! (
prep arer
Ġqual ifications
allowe d
itche n
ä ĺ
Ġconsente d
ĠJu a
ry stal
I ll
k Ã¾
Ã¶ Ã«
AN GE
Ġ5 19
ĠL uc
de ll
ĠS che
Å½ F
ÃĤ I
i ntention
ã ľ
T F
čĊ čĊ
Ġme tal
Ġfalse ly
ĠCle a
m any
Ġre ite
se ns
A v
ib ank
iss ibility
PÃ¥ PÃ¥
ĠAppro val
ä ī
ap id
Ġcitize nship
ĠH usband
Ġacce le
Ãµ ÃŁ
] [
c ker
h Z
ä ķ
bro ker
Ġdiscuss ing
) âĢĶ
Ġadjud icated
âĢŀ &
ĠP ARK
Ġcomm only
ĠMo st
Ġ3 45
D K
Ġ5 45
ag le
Ġconf ined
ul taneous
d Q
Te ch
Ġsuggest ing
t ÆĴ
Ġmal practice
owe n
Ġsta ke
ĠCo leman
j u
ĠThe ir
Ġspecific ations
RE ED
ì Ħ
H F
78 7
P Y
Ã´ ÃĿ
Ġ29 5
AM A
Â± Â±
CT ING
lo cu
\] ;
Ġ7 05
Ġorder ing
07 8
ĠRU LE
ea st
u fact
Wh ite
4 55
Ġex pression
Ã´ ÃŁ
Ã¶ Ãķ
ĠENT ER
addre ssed
Î §
ĠG ran
Ġpar ame
Cert ain
ĠN RC
BER G
Ġf ifth
` âĦ¢
B G
A pr
Ġatte nded
stit utes
nk ins
ce r
Se ttlement
m g
Ãļ Ã¾
ĠMc Co
ä µ
wau kee
Ġ3 98
6 04
Ċ ĊĠĠĠĠĠĠĠĠĠ
Ġcaution e
Ġcautione d
6 17
Ġspea king
Ġadjour ned
Ġ48 7
ËĨ Ã¡
e ffective
count e
Ġ13 41
ËĨ Ãº
ä ¸
í Ĭ
Ġle nder
D y
Ġinstruction al
ea fter
Ġre jection
W AR
ĠH amp
Ġr are
ĠW oods
Ġdeb a
Ãĸ Ãķ
ĠWar den
Ã¶ Âº
ÂŃ Â«
Ġ7 03
reporte d
Ãª Å¸
C ENT
a A
Ġde fer
rte r
nj amin
ĠNot withstanding
ĠSe rgeant
B K
lo ses
Ġb ars
Åł M
qu arters
Ġte nder
no x
Ġ6 62
Dep uty
ĠL ie
Ġ19 65
Ġproc ure
ĠGo rdon
A gent
ĠCUST OD
í į
ive ra
Ġde lete
ê Ģ
ÃĴ Ã»
Ġ Â¥
í Į
I dent
ÂŃ '
âĢł @
TRANS FER
" &
Ġ4 54
ire z
OH NS
Ġco gnizable
)- (
ĠTri be
ĠCom ment
Ãº z
ar ian
vers ion
I Âº
ĠLat e
Ġ606 03
ä °
í Ĺ
ĠO wed
Ġread s
dent ure
\ `
Ġbe gins
ĠDismiss al
ST E
gree n
ĠCo al
Ãĥ Ã¿
fer ing
Ġadmit ting
man ufact
n don
ĠB ase
Ġ27 2
4 11
PRO POSED
Ġbo rrower
77 7
ĠCounte r
TROD UCTION
Ãª Ã¿
ĠCohe n
t ended
Loa n
Ġass istant
n am
ĠPrep aration
y alties
Ġcoope ration
F urthermore
75 8
Ãº Ã¯
Â§ âĢŀ
ĠM u
ĠJ OSE
Decl aration
Ġ4 59
ĠZ o
it ibank
ĠEM PLOY
Ġinad missible
Ġmis demeanor
off man
Ġp i
Ġ5 40
Ġ+ $
ÃĴ l
D ist
Ġim ages
Ġvar iable
Ġcommit ting
í ī
ĠB ig
77 0
^ ÃĹ
ĠM ARK
Ġ19 68
ade quacy
ĠE vent
d v
4 24
WHERE AS
Ġhar vested
ÂŃ ÃĹ
ĠUn iform
Ġ3 39
ĠPro perties
66 8
ON G
Wate r
å ¯
ĠO CC
Ġ Ã¸
Ġc urrency
78 5
ĠS hip
Â¶ Â©
Ġgarn ished
art ial
Ġs tory
Ġsuggest ion
Ġinte ra
m uch
Ġ( .
09 6
Ġretur ning
am ble
fe ction
VIL LE
Ġextreme ly
Ġuna nim
ĠTest imony
Ġven ture
ĠN D
Å¾ Å¾
Ġant itrust
ĠAUTH OR
ĠBe low
e under
05 5
Ġsome what
Ġcap acities
ĠSE IZ
Ġbio logical
Ġdecl arations
ĠB us
ĠRichards o
d rug
Ġmo vement
Ġup dated
" %
Å¡ j
ĠRichardso n
Ġpol lu
ï ´
Ġ4 68
do o
. âĢ¹
% ;">
86 0
] ]
ë Ĺ
Ġpe ace
e lationship
Ãĸ Ãĵ
Pro posed
Ġ5 46
ĠH OME
U K
ĠM un
Ġnegot iated
Ãĩ Ãĩ
Ġ37 3
r l
Ġdistingu ish
Ġ3 31
ĠRe lations
s ite
Ġ 000000
96 0
stat utory
OP INION
ĠE ffect
V P
ĠJ AMES
r eunder
uso n
r elationship
us doj
Ġtotal ity
De bt
Ġnew s
Ï Ĭ
Ã½ W
Ġhan dle
ï ķ
Ġ4 65
ï ĸ
Ġu nex
Ãº O
Ġadm issibility
Ġac ade
W is
ë »
ST ON
Ġappro ving
Ġge nder
> ?
88 0
Ġrebut tal
S ources
I K
e reunder
99 0
å Ĳ
Ġfa ced
Ð ³
h ereunder
ĠP RI
S w
æ Ķ
ER N
] .âĢĿ
6 30
viden d
Ġeng ages
ĠPC RA
[ Â¶
cont ra
Op inion
ĠP lea
Ġ9 11
out e
è Ľ
ĠInd us
Ġve rt
;"> $</
app ing
st h
ï ³
Ġact ively
pro viding
11 17
Ca n
asse ts
Ã¾ Ã¯
ĠBra dy
Ġ4 41
Sec retary
: âĢ¡
ÃĤ m
Ġamb igu
ÃŁ Ã¿Ã¿
au ght
h E
é Ģ
Ġ7 06
tion ary
la ughter
Ġpreven ting
Ġ Ãľ
R T
ï ¸
ĠN ORTH
Ġ28 2
Â° âĢĻ
g age
Â® Â«
Ãµ Ã©
ĠInstall ment
âĢĶ _
Å½ a
Ġ6 02
ĠG ranting
} âĢŀ
ID A
Ġcontemp lation
ta b
q Ãģ
ë ĵ
ĠLo sses
Ġ Ã¨
Ġs li
Ġpu tative
Ġcon dominium
Ġcomp i
Ġ Â±
Ġdeta inee
month s
ĠA ud
Ġverif y
ĠIn dustries
ĠBro oks
pet itive
Ġmechan ism
ë Ł
Ġinstru ct
Ñ ı
Ġn av
Ġpr icing
bi n
Ġanaly ses
ou ch
ĠPh one
IC S
Ġdist ricts
Ġt ank
Ġv ocational
Ġanal og
Ġcomp r
Ã¿ ÃĪ
C AR
so r
e im
Ġpre petition
ab y
Ġexpect ation
Ġ ______
ĠRe duction
Ġcon crete
ns able
Co ngress
pla ced
AN N
S ioux
Ġ Ã´
C J
ĠTrans action
âĢļ &
Ã¿ A
Ãĵ ÃŃ
ĠCRI MINAL
ĠCOND ITIONS
ze l
ĠPro grams
Ġ vent
ĠIt ems
Ġcame ra
ĠF CC
ÃĤ M
DING S
` Â¤
order e
Ã¿ Ã¢
ÃĬ p
d A
Ġ19 62
disc losure
RES PON
ĠQuest ions
o h
ĠRes pons
3 44
$ #
è ¹
ac ra
Ġam munition
. +
PA GE
le i
ĠT reatment
68 0
> Â¿
Ġcharacte rized
pro b
CIV IL
ã ¹
Ġfoot note
Ġ5 48
âľ Ķ
bur gh
con tained
T rust
z Ã½
ĠIn ves
Ġdistur b
Ġnegot iable
Ġ6 14
ĊČĠĠĠĠĠĠĠĠĠĠĠĠĠĠĠĠĠĠĠĠĠĠĠĠĠĠĠĠĠĠĠĠĠĠĠĠ Ġ
yl um
ordere d
Ġmed ically
F irm
Ġ Ãİ
7 03
Ġ ÃĽ
ch ildren
Ġclea n
Ġconf idence
IS E
EN VIRONMENTAL
âĢł âĢĻ
Ġf ifty
Ð ¬
j r
Ãµ Ãķ
M ary
Ġc ards
Ġsear ched
ĠTA KE
Ġnon bankruptcy
U X
q q
Ð ¸
a S
ĠS pee
Ġcourt room
ĠT al
Ð Ł
ç «
Åĵ t
Ġa ster
ĠO W
56 5
7 04
le tter
Âº Ã«
Ġallo cated
Ġsponso r
66 1
Ġnewspa pers
um o
ĠCra ig
Ġ7 09
Î Ĵ
ĠFra ud
è »
de ncy
79 0
Ġ4 95
lead ings
ĠInte rro
D Z
Ġab o
ANS WER
ĠO MB
ĠCOM MISSION
D s
Ġ________ __
Ġre sts
Ġ4 71
ĠDO ES
rins ic
Ñ Ĭ
ĠJ UST
Ġsho e
î Ń
s ought
Ġwith drew
bur sed
Ġexam iner
inci n
pro visions
ĠDe v
âĢĻ âĢĿ
IZ ATION
âĢ¡ *
Ġ3 97
] ~
lan do
Ġ5 60
Ġ }
08 6
; *
lim itations
D EN
Char les
á ¿
i ni
ĠHe ad
Ġde alers
Ãĸ Ã½
' âĢŀ
ĠWITHDRA WAL
Ġwe ak
Ġbu yer
Ã© Ã½
s idence
46 4
Ġ5 28
49 2
Mag istrate
Ã¾ Ãŀ
Ġcre ation
Ã¿ Ãģ
W ILL
é ŀ
z m
Ã» Ã«
ON ES
ĠM AY
Ġpurcha sing
Ġtechni ques
Ëľ @
ĠU r
CON FIDENTIAL
Ġcomp uters
Ġcalcu lations
Ġconvey ance
å µ
Ġcon verted
Ġf lood
Ġcomplain a
ĠA lan
Â¿ ÂŃ
Ġcomplaina n
Ġit al
Ġcomplainan t
ç Ĺ
pi n
Ġinf ringing
ĠJ ournal
Ġstrong ly
Ãĵ T
H aving
w estern
cap tioned
Ġfranch ises
fte d
ÃĤ j
ĠDe nnis
ĠB et
Ġ48 2
Â¶ Â»
Ġca usal
AN G
Ġ5 27
Ġstrict ly
E PA
? ÃĹ
âĢ¡ âĢŀ
Ġag ricultural
ï¿½âĢľ âĢĻ
appe llee
_ Â¥
58 8
ĠSuperv ision
ä ¥
Ġinstal led
SU ANT
á ´
incin nati
commo nwealth
ĠAtta ched
n dy
Ġreve al
á °
L ay
s imilar
Ġdo g
ny m
75 7
AG O
Re al
Ġstra ight
Ġfreque n
Ġab e
ĠSu p
War ning
Ġnarcot ics
Ãĥ K
ĠI M
TY PE
Ġ37 0
Co nc
ä ¶
ĠPEN NSYLVANIA
OHNS ON
locu tory
Â· Ã·
ä ¦
ĠF arms
Ġm ission
H AM
Ġle v
Q L
7 22
Ġin ches
ĠM ountain
Ġ7 27
Ã¾ Å¾
ĠPAGE ID
( !
î ¥
Ã¤ G
commend ations
instruction al
Ġ3 59
47 2
75 6
hib ited
) '
á Ĳ
as su
Ġac cum
Ġau then
ber ly
ĠD IP
Ã´ Ã»
ince n
Ġne utral
âĢŀ #
47 1
charge d
P hiladelphia
ï¿½ï¿½ Â¯
lee n
49 1
ğ ğ
Ãļ W
Ġ4 70
ĠMo nth
a no
Ġoccup ied
). âĢĿ
br e
tion al
Ãº ÃŃ
ì ł
Ġforfeit ures
Ġ4 26
mp s
X M
Ġwould n
ĠO s
Re quired
æ Ń
ĠSe veral
Ġstock holders
A x
Ġwar nings
ĠB AL
Ġunder stands
u be
s ix
ĠWa tson
Ġ$ ________________
ĠM edi
ĠBar bara
ĠFAC TS
term s
ï ŀ
Ġinstal lation
Ñ ģ
T P
75 5
S ITE
ĠC MS
n forcement
ass ing
Ġ6 30
law ful
Ġm iddle
In dicate
Ġaster isk
ĠSh ow
Ġ ÃŃ
_ ]
Ġ5 32
Ġs il
Ġsec tor
of fense
\] .
PAY MENTS
Ãĵ O
Ã´ Âº
le ans
Ġre habilitation
ĠL ight
46 2
Ġpo sed
Ġ4 97
Ġag gregating
Ġman ual
Ch arge
Ġneigh bor
Ġsub ordi
e lephone
Ġse crets
ĠID ENT
A Ã¡
li ns
Ġthousa n
no graphy
ass istance
Ġthousan d
Ð ļ
e ject
Ġ4 91
49 4
Ġdep uty
; .
Ġ29 1
lic k
Ġcomp act
z M
AD O
be low
A rg
Å¸ Å¸
Ġmagaz ines
ĠWAS H
~~ ~~
Ã¾ ÃŃ
ĠH otel
Ġ ok
ĠBe nnett
Ġimpro ved
act ivity
19 68
âĢŀ Â¡
Ġlabo ratory
19 70
Ġforesee able
ĠL ove
Ġgra ms
Dec ided
" @
Ġtele vision
lowe r
Ġcomment ers
discharge able
acra mento
Ġcon junction
Ã· Â§
Ġla p
45 2
Ġatten dance
5 30
Ġb uild
Ġg lobal
Ġmo tors
calcu lation
ĠLicen ses
Ġwe t
Ġt act
Ãļ N
ĠStan ley
-------------------------------- --------------------------------
45 3
è Ŀ
Ġse mi
Î »
Ġ8 33
$ !
Ġgovern ments
Â¼ 0
Ġ9 13
Cert ificate
A Ãĥ
ĠJua n
mee ting
Ho me
08 8
Ġde aler
ĠIS SU
ĠC C
ĠW IL
Ġfunction ing
b us
Ġ4 61
N V
á ·
Ġreceive rs
Â¿ Â®
Ã¿ w
Ã½ w
ĠY ES
Ġsatisf ies
ĠS AN
Ġwa it
Ġdestro yed
Ġ38 4
ĠW AL
ĠDam ages
dic ts
D M
ĠR ub
E lect
Ġne uro
t elephone
D ATES
ap s
Ã¨ ÃĤ
ĠWe r
AG ES
Ġsp ousal
ĠSub mitted
I Âµ
Ãļ ÃŁ
general ly
IS ON
sho r
46 1
Ġ37 4
Ġfrequen t
S AN
Ġf inger
ĠD ATA
Ã» ÃŁ
ĠSp ouse
ir ds
ËĨ q
ÃĴ Âµ
OL OG
ÃĤ Ãĥ
pro tection
A rial
Ġcorrect e
n Å¸
( @
Ġcorrecte d
rr ill
Ġappropriate d
ä ¯
p m
Ne braska
ĠWork s
I ENT
Ġcover ing
Office r
Ġcar s
> ;
M iddle
R H
M ass
A nswer
uen t
ĠDIS CUSSION
app ly
Co mb
AR A
r eject
Ã´ Ãµ
Ġ5 88
pont e
Ġwithdraw n
ì ı
to ration
Ãļ O
48 2
ĠB AS
Ġpul led
Ġexerc isable
ĠO ng
âĢł âĢ¢
ï Ŀ
ĠCon vention
un ning
R ob
Ġ19 61
Ġ ï¿½ï¿½
Y L
o y
s imp
b ound
Â´ Â»
ĠCONT ACT
Ġmi x
Ãļ Ã©
ĠAf rican
G Q
ĠHe nderson
5 40
Ð °
j i
request e
f b
Ġt each
empo ra
Ġjuris dictions
Ġim perm
Ãļ Ã¶
attorney s
Ġmode ls
p un
shor e
ell ite
ĠF ACT
ĠPlan ning
Ã¨ Ãº
: !
Ãķ Ã¿
å Ń
î ¶
Ġfranch ise
ì ¡
Ġpromi sed
Ġe mer
Ð ¹
] '
ens ic
Âł č
io t
e nforcement
ĠS ure
48 3
66 5
it ments
Ġatta cks
Ġf als
ĠDe li
} {
M emo
Ġse nding
Ġac commo
Ð ±
Ġcompel led
S y
â ħ
Å¡ m
Ġ8 50
Ġad jacent
g j
å ¼
F I
Ġinno cent
Ġal ert
ros oft
ĠC P
" *
ĠS ara
de position
ĠCONTR ACT
Â® âĢº
Åł a
Ġ5 33
Â¥ ÃĹ
ĠOb ject
56 4
) ?
h C
Ġconta minant
ri ment
ĠS ex
lan o
Ġ38 7
Ġ8 02
ope ration
Â¦ Â©
âĢļ *
è Ļ
è ľ
ĠFo ster
âĢĶ (
56 9
Ġlitiga n
ĠH ughes
Ġpredecess ors
Ġ3 99
R ea
Ġlitigan t
AT ER
G ÃĪ
Ġ Å½
ĠA rthur
Ã£ Ã¿
doo r
ĠDEC ISION
Â® Â·
amon d
ip ulated
ĠBo ok
á ¢
rol led
? Â¯
Î ¯
Ġterm inating
Ġdefra ud
Ġtri p
58 7
è ļ
Name s
ĠWITH OUT
' .
ĠSt ation
Ġ36 1
f ees
Ġ Ãī
ĠS ys
æ ¼
Å ¶
ĠC all
Ġ6 20
Ġal ign
Ġregist rant
Ġs can
19 67
Ã¤ Q
E qu
Ġbo rn
ĠATTORNEY S
ĠRo s
Â¥ Â¯
Ġlear ning
Ġb udgeting
Ġmode rate
proced ure
Ġyour self
Ġdis qual
ã ¨
á ¡
Ġ3 94
ĠREQUIRE MENT
Ġinquir ies
IN D
î ¾
Ġd ro
requeste d
idel ity
W ARD
Ġ5 76
Ġstock holder
ex press
Â§ Â¯
F IRST
B U
M ain
ja n
nc tions
Ġ5 74
ĠHome land
æ Ļ
bs ites
Ġope rators
ĠStat utory
Ġtest ifying
Ġ âĤ¬
ĠJ un
Ġ3 44
ËĨËĨËĨËĨ ËĨËĨËĨ
âĢŀ Â¿
o ker
ĠO ption
Ġsh ifts
å Ł
Ġf il
ĠL isa
ĠS ear
ĠMo nitor
Ġ Ãĭ
ĠH i
Âº Ã»
$ ;
ans o
n structions
y t
Ġverif ication
IG ITS
Ġpre text
Ġantic ipate
59 6
ĠP urchaser
Ġho spitals
ĠI qbal
ultip le
58 9
h h
ĠSe nator
ir al
Ġpass age
ĠF ive
4 99
Ã® Ã®
q ÃĪ
rain age
Ġre pe
q a
ol ing
Ġsum mer
/ _
ĠPhil ip
per cent
Ã¿ Ã³
Ġ3 53
ĠRad io
Ġin dustrial
ĠG IFT
U p
ĠAPP ELL
o las
! âĢĿ
A DDRESS
Ġce ase
Ġtra ded
ë ¼
l R
th al
ĠW ire
In come
J ones
Ġ âĢº
Ġone s
Å½ Åĵ
Ġcra ck
e ntry
i nstructions
Ġ112 6
Ġsu preme
Ġ28 3
pro gram
O ak
Ġ9 01
Å¾ Å¡
ËĨ Ã¸
ĠEqu itable
4 23
Ð ²
ĠMea ns
Å Ŀ
de pen
á Ī
Ġ3 32
ĠG M
4 35
pro vision
ID ATED
ä º
cap acity
Ãļ Ã«
ÃĤ e
ä Ĭ
fe ld
anal ysis
å ģ
Z K
is tol
Ġnon r
Ġport folio
OS ITION
pro duced
empora neous
IL Y
3 78
O I
Ġinte ract
56 7
. Â¿
control led
ä §
Ã¡ Ãĥ
ĠâĢľ (
Ġcircum stantial
k n
Pay ment
Ġdes ired
ĠDEPOSIT ORY
ÃŁ Ã¼
mea ning
Ġstruct ures
ĠBa iley
desig nated
Ġun published
be half
Ġ4 62
v able
b arred
Ġun con
Ġmar ine
Ġscree ning
ul pa
Ġman damus
ÃĹ [
ÃŃ Ã½
Æ Į
Ġa head
k u
Ġease ment
Ġro yalties
a polis
Ġrente d
r isk
06 7
Ġfa tal
ash e
Â° âĢĶ
âĢİ ï¿½ï¿½
âĢŀ âĢľ
Ġprotect ing
] {
ĠY o
Â¶ ÂŃ
ap h
Ġ3 92
g ical
Ġrecommen ds
Ã» u
se a
ema n
Ġre hearing
w il
Ġdeterm i
k j
Åł ËĨ
Ġpur suing
ē Ĕ
S G
Ġpre senting
Ãĺ K
Åł ÆĴ
J G
Ġins ofar
Ġar ch
Ġtrans parent
yle r
67 0
Ð ¾
66 2
Stan d
TERN ATIONAL
Ëľ &
Ġobject ively
ir us
Ġpro pose
ÃĤ v
as i
Ġ7 04
Ġcha nging
ĠAv ailability
$ &
Å½ Ãĵ
Â® Â»
n ton
ĠEll is
à ¶
s ources
Ġ7 20
â Ĳ
Ġesc row
Ã© z
Ãļ ÃĿ
G ra
Ġ 0000
ĠQ U
o Ã¾
Ġoccup ation
Ġre ar
V M
w een
ĠAr g
erro r
Ġregu lated
Ã° Å¸
d n
Ġcommente r
ì Į
acc ine
eg a
ê ¯
A Ãĩ
B u
4 18
Ġpre g
â ı
á ¨
op posed
ĠDAV ID
ĠN ext
ma ker
Au tho
ad mitted
Ġ ÃĿ
C are
è ı
Ġin applicable
k l
: ;
ĠP lant
lap se
= ;
lai d
Se nator
ą ą
ica n
D T
Ġob serve
D iv
B H
ĠTRUST EE
î µ
Ġ( #
Ġbe a
C ËĨ
Fr e
e med
A a
ne z
+ +
ĠLi nda
Ãĥ M
ĠHe l
Ex t
æ ¸
Ġcandidate s
e from
ĠSan chez
Ġinterv iewed
mp tive
ĠNew s
Proced ure
z u
war ranted
âĢļ âĢ¡
r efrom
k m
ĠSt rike
e refrom
IN ED
Ġprecise ly
h erefrom
à ´
Ġalter e
su gge
ĠP aso
proprie tor
cont ractor
Ġresol ving
Â° `
æ Ģ
Ġt herefrom
Ġin consiste
ê Ĺ
Ġconve yed
ĠB L
lic tion
ex clusion
Ġaltere d
Ãº Ã¶
ear age
e asons
Ã» Ã¶
Ġeven ing
Ġcar riers
Service s
Â° Â¿
56 1
ĠInde x
49 3
ĠC IT
Ġfree dom
Ġb rand
ĠCo nce
Ġ________________________ _
Ġbon uses
59 7
ã ¿
Ġconce aled
Ġapplic ability
Ãµ Ã¶
acre s
Ġ4 21
term i
Ġproprie tary
) âĢĻ
EN E
Ġexp ans
ĠB all
exte n
Â¢ #
Ġdri vers
p tor
76 9
Ġcollect ibles
wh el
66 9
r easons
ĊČĠĠĠĠĠĠĠĠĠĠĠĠĠĠĠĠĠĠĠĠĠĠĠĠĠĠĠĠĠĠĠĠĠĠĠĠĠ Ġ
ĠWh it
ÃŁ ÃĿ
ĠJe n
ĠOng oing
C RA
à §
Ġop pose
Ġan xiety
[ Â¯
Ã® Å¸
âĪ ļ
ĠRe de
ĠG ro
. #
Ġ4 72
ĠMar keting
Ġtra ilers
ENDER ED
ĠT C
ïĢ ł
Ġ5 38
t m
ie rre
Ã´ ÃŃ
ĠE conomic
99 5
e sidence
Ho n
Ġaffirmative ly
ĠAN N
Ġ5 34
Ã¾ Ãĵ
gress ive
ä ¿
Ġinde btedness
à ±
Â° âĢ¢
Ġ ll
Ġ4 28
ĠMa e
Ġ ou
are tte
O Ã½
Ġ Â¡
B IA
\ &
î ½
ĠF DCPA
ĠW ildlife
Ġdirect s
Ġexte nds
> ï¿½Â£
Ġ66 01
ĠRece iver
Ġ6 29
Ã· ]
lo cal
48 1
Man agement
C OR
ĠChar itable
ve lers
IEL D
Â® Â¯
Ġaffect s
ĠC u
ê ¶
Ġrenew al
DIS CLOSURE
Ġcommission e
Â» Â¯
t Ã©
ĠRECOMMEND ATION
} '
ĠOf fense
de partment
Ġint im
ĠS EAL
ON ALD
ab ling
ĠMach inery
Ã¯ Ã©
Ġf illed
Ġnone theless
Ġimpr ession
r esidence
Ġ19 66
Ãķ Ã½
Ġnonr e
ĠElectric ity
ful l
, )
is ms
ĊĊ ĊĠĠĠĠĠĠ
Ġminor ity
Ġ Ã¤
ĠB uck
76 8
ä Ķ
98 0
ĠBut ler
ĠR I
06 5
N H
7 08
{ Â¯
09 8
ail s
ÃĤ d
AN IEL
ĠJo nathan
qua t
ĠR CW
Ġ stands
K O
55 2
arm acy
ĠB LM
Ġrem ote
ä Ģ
OR DS
Ġem ission
CON T
Ġuni ncorporated
76 5
N R
ÂŃ Â§
î Ħ
lig ation
imp risonment
âĢĿ =
Ġ7 08
ĠMa de
um m
Âª Ã¿
ĠP ic
al i
De ar
ï¿½ï¿½ï¿½ï¿½ ï¿½ï¿½
ĠInvest igation
Ġ19 67
ĠSe al
eg i
Ġdomic iled
V X
str ue
Ġbank ing
STIT UTION
ĠEN TRY
RO BERT
Â« ÃĹ
Ġfig ures
me z
ĠTow nship
Ġfurn iture
ex perience
Åł Å½
Ġmal ice
Ġ4 94
porta n
nne apolis
aca t
ĠFM LA
ne mployment
ass igned
ex ample
ç Ī
TRANS FERS
Ġcoll ision
â ¸
Â¶ ÃĹ
log ic
office rs
am ation
Ġdis cre
ĠLicen se
Â´ Â¯
Ġdepri ve
99 6
Â¢ âĢ¡
x M
Ġ6 25
Ã° Ãĥ
ĠF ILE
C rim
ĠWASH INGTON
Ġconside rable
JUD ICE
æ Į
g as
m issions
ĠH ea
Ã¾ Åĵ
portan t
~ âĢľ
Ma terial
ç ¯
5 13
} _
IC AGO
Ġh obby
à ·
Ãļ v
Ð ı
( *
pri vile
& :
r ient
oc ket
Pa ul
Ġ19 56
ä ŀ
House hold
79 8
ĠRail road
Ġsubject s
ĠCh arter
Ġsome body
ĠJ E
ĠGover nors
W U
g iven
Ġrele vance
Ġex ceeding
a ËĨ
ĠANS WER
á ¼
Ġ19 50
ê »
ĠW ol
ru le
Fo rt
EC K
55 1
ÃĽ i
Â´ âĢľ
= :
Ġbu ilt
pe ty
JUD GMENT
C ENTRAL
Ġsuperv isors
Ġlim ine
Ġ5 75
Â± _
Ãª Ã½
ĠS AC
ĠFo ods
Â¿ ]
ĠâĢ ķ
dis cuss
Ġcorr ections
4 17
ĠSEC TION
Ġ400 2
Ġ606 02
T i
Ġ4 42
E ÃĲ
[.] âĢĿ
79 5
. ?
6 75
benef it
Ġunlike ly
OR ABLE
Å¡ v
Ġ5 59
í Ĥ
................................................................ ................................................
Ġovers ight
Ġope rative
de st
explain ing
- *
ç Ģ
ĠIns ured
Ġc ouncil
ĠP owell
Ġexpa n
Ġassu mptions
a ne
ÃĴ Ã©
loa n
K M
6 20
Ġdifficult ies
ê Ļ
Ġ7 90
ĠBru ce
Ġ Ã®
Ġ \_\_\_
IAN A
Ġi ce
Ġins ure
Ġt hereunder
5 15
TR IAL
UBL ISH
Ġcertain ty
e nc
Ãĵ Âµ
ob taining
UR AL
U TORY
Ġ7 40
no s
ul ne
ÂŃ Â¤
Åł t
Â« Â«
Â¶ âĢļ
@ âĢ¦
o rient
ÃĤ z
â ĩ
Ġerroneous ly
k Ãº
xe s
s S
ÃĴ Ã«
Â· ÃĹ
force able
sum ably
ê Ł
Ġ6 75
ĠKen nedy
ÃĴ ÃŃ
ĠTech nologies
RE Y
Ġappra isal
ĠP AC
Ġex port
ĠDOC KET
Ġinc idental
Âª Âº
Ġg age
Â¿ Â§
âĢŀ -
lect e
i h
ĠPr ison
è Ħ
05 1
acat e
Â° Â¡
Ġre open
Ġpe nde
Ġ5 57
ĠM unicipal
lei n
ĠBo ats
e ssed
AFFIRM ED
Ġ48 5
ĠFOR M
I Å½
ĠH udson
] $
Ġ6 23
ico n
Ġfor fe
ã ¬
% &
ac ket
z ar
07 7
ĠS imilar
Ñ ĵ
ust e
ĠB OP
Ġde struction
Ġignore d
ulpa tory
Hel vetica
ia tory
Ġ6 16
rudent ial
ÆĴ N
ĠIs lands
Ãª Âº
î ĩ
ë ĳ
Ġg ame
Ġ38 2
e for
Ġflow s
Ġcamp aign
Â¦ âĢº
prec iation
ÂŃ +
De pos
lecte d
í Ľ
ĠEnter prises
Ġenfor cing
Ad min
R M
. _
ĠErro r
Ġ8 88
h ea
ĠStat ute
IT IGATION
ĠN ATIONAL
Ġ5 36
79 6
ï Ĵ
ï ļ
ĠWar rant
Ġreporte r
ÂŃ }
Ġwar n
Ġesc ape
n di
Ġp ara
Com ment
Ġh um
ĠTe nth
ĠA tt
Ġtech nologies
Ġconc urrent
Ġun duly
ĠS CHEDULE
ĠD ra
Ġartic ulated
: _
Ġcompe ting
ĠAn other
el s
Ġrestra ining
Ġside s
ĠCr e
feit ure
ex isting
Ġtrans cripts
v ider
are t
Ġhe roin
ĠR y
E G
é Ĥ
Ġpre ference
ï Ļ
Ï ħ
ĠCONS IDERATION
S UR
ĠIdent ification
n ty
I owa
ĠH IS
FOR D
ĠEs quire
Â° âĦ¢
[ (
A g
ĠDOCU MENT
å ĳ
Ġhelp ful
55 3
Ġexte rnal
E Ãĳt
ĠAd min
Conf idential
ĠHealth care
Ġ\[ [
ÂŃ -
ac cordance
ĠE vid
j Å¸
Ġtruth ful
ĠCUSTOD IAN
Ġdri ven
Ãĥ J
U F
L y
ÃĲ d
me y
S outhern
á ¤
RI GH
App lication
Ġas bestos
ÃĴ Ãº
Ã» M
ida ting
Ġstore s
Ã± Ã¿
Ġ6 56
5 25
ELL ER
Ċ ĊĠ
ë Ĵ
Ġ ÃĶ
Ġ hat
ë ©
RI X
Ġterm inal
superv ised
l h
Ġple as
Ãª Ã©
ight e
ĠPro cee
Ġmunicipal ity
e Å½
ĠDe ce
US B
Ġexp lains
Ã² Ã¹
ĠH AC
Ã° ÃŁ
M id
Ãµ Ãĵ
so ns
lt e
bur den
discri minatory
ĠBre n
Ġ38 3
ric ious
Ġ ÃĮ
ĠAnn uities
ĠRes pect
Ġreal ized
p ËĨ
Ãª Å¡
Ġclause s
ĠL ex
09 9
Ġ13 32
io rs
ç µ
I ER
âĢł `
Re pre
ĠFe r
rre ll
gh e
ĠPer formance
j ames
Ġclaima nts
Ġwa iting
Ġpermane ntly
Ġscruti ny
Ġ48 3
Ġpass ing
58 4
Ġsens itive
ush e
sub mitted
r efor
u med
â ¤
Âª a
ut ch
Ġ8 03
Ġtrustee s
Ġcolle ge
î ģ
] -
pro of
ima ting
Q R
: -
\ '
ber ger
ĠDist rib
success ful
ĠD OT
f irm
Ã¯ Ã¶
04 4
un al
Z Ã¿
ĠG L
Ġp ump
ĠPat ricia
ĠH ope
; [
6 12
pr em
act ively
ĠG rove
w arded
ĠM ul
ä »
Ġgover ns
ĠO ff
Ġpre r
vo ice
ĠComp anies
ĠC ab
ble s
Ġf ab
compete n
Ġinter ven
Ġoral ly
ë ª
Â» [
Ġpro posals
Ġpre served
competen t
Ã´ ÃĤ
ĠFL OR
ÃĪ Ã£
Ġ3 93
ĠDo n
Ġvis ual
ĠFE ES
Ġdeliberate ly
pro tected
ĠE th
Ġwal ked
e refor
ĠJa il
ÆĴ D
h erefor
ĠKe ith
ĠIn to
les ale
Ġ8 46
con ven
Ġan imal
anso n
po e
A llow
Ã½ Ã©
Ġvert ical
6 08
5 75
Ġt herefor
ĠS IP
c urrent
Ġprer e
ĠDIR ECT
Ġob servations
ĠTra ining
sec urd
Ġafore mentioned
Ġ4 64
d al
Ġ4 93
pe rsons
Ã¾ Ãĸ
Ġ48 1
U securd
ĠHlding Usecurd
comm ission
Ġsc ience
Ġpromi ses
cor ded
ĠS ie
Ġin clusive
Ċ ĊĠĠĠ
ĠApp licant
$ /
Ġcontract ing
finding s
î Ĩ
Ġ6 03
Ć Ć
â ¿
Ġ6 18
V K
Ġ5 39
cons umer
ä ł
? Ã·
Ġ4 53
opport unity
Ġspec ulative
Ġsafe gu
ado r
ĠTra ding
Ex empt
^ ^
VA DA
Ãĩ C
Â® Â©
s m
76 7
dismiss al
ig arette
Co ok
í ķ
Ġexte nding
å Ĺ
ç Ľ
Ġ37 2
x Å½
se rted
unt il
> :
ret urned
â į
? Â¿
$ :
d ou
ĠAmo ng
Re quest
ĠB rit
Ġfelo n
ĠJo e
ĠRespon ses
J Z
ĠS quare
Ð £
Ġfun ded
ĠD CA
With i
] _
Withi n
Ġ4 52
ĠWin d
sh ua
Ġd ivers
k Ã¶
é ł
ĠFO IA
ĠW earing
Ã» Ã©
G ENERAL
! .
Ġexpan d
Ġstrate gic
ì į
ĠV ictim
âĢ¢âĢ¢âĢ¢âĢ¢ âĢ¢âĢ¢âĢ¢âĢ¢
H s
vict im
Ġinit iate
Ġinfra structure
7 17
Ġcontra band
I tal
ËĨÃ¨ Å½
Ñ Ģ
Î ¿
ĠT am
Ġreject ing
Ġsm aller
n tended
ĠTH OMAS
ĠConc lusion
Ġprinte d
Ġs ponte
Ġcomp a
s ale
ĠDis charge
ST IPULATION
A ËĨ
Ġ5 66
ÃĴ ÃĽ
Ġyou th
ĠT w
Ġop posite
V L
ĠCo ordi
Ġ9 26
Ġprep aid
p uts
ĠIn dustry
Ġ5 43
Ġ5 61
ĠAss ignment
ĠIss ues
Ã° E
BB B
U Ã¿
ra ging
pt ive
P al
Ã½ Åł
H igh
ĠRe possession
Ã° D
ĠAm ounts
VER IFICATION
Ġprohibit ing
so le
ĠE sc
! Â¢
ĠF isher
G i
Âº Ãº
jo hnson
ÃĲ Ã¨
Ġ6 94
Â¯ Â·
ĠIn junction
ê Ĵ
è º
aye s
ta nces
Ġ________________________________ ______
ĠTo rt
ĊČĠĠĠĠĠĠĠĠĠĠĠĠĠĠĠĠĠĠĠĠĠĠĠĠĠĠĠĠĠĠĠĠĠĠĠĠĠĠ Ġ
ĠSh el
ale nts
Ġ oo
Ġbro ader
Ã¤ p
ĠPa pers
ĠReg ion
Ġlot s
t ri
ĠCERT AIN
ĠR ENDERED
ì İ
ad just
5 16
Ġimm une
Ã» a
æ ¢
Ġsummar ized
Ġ9 21
Ġ________________ _
ĠCru z
56 3
6 11
q ÃĦ
ĠStore s
ï ĳ
work s
YY YY
it ment
k g
ĠInte n
R et
go r
ĠB eck
âĢŀ âĢĻ
gu ardian
é ħ
ê ĵ
r eation
Ġevidence d
å »
` âĢļ
â µ
Ġapprec iate
Ġen roll
08 9
PM Å¡
Ġ0 35
ê Ľ
Ġrecre ation
Ġli quidation
Â® âĢ¢
xÅĵ Åł
C ri
ë Ľ
ĠAsse mbly
ĠNot ices
dis ability
ig ue
i Ã©
ÃĤ Ã¿
: (
oc cup
ä ½
ë ¯
z h
Ã¿Ã¿ Ã¿Ã¾
Â¯ Â¥
Ġvirt ually
Ġ4 51
Ġcount ies
ĠB EN
veh icle
lain ts
5 14
09 7
ĠK ra
f uture
ĠD ri
Ãĵ m
* "
ĉĉĉĉ ĉĉĉĉ
ÃĴ Ãµ
Ġins pect
ê ļ
substantial ly
p c
ĠPe nding
ĊĊĊĊ ĊĊĊ
ĠW all
Ã½ k
Ġp ilot
ĠInc apacity
Ġrep lied
ç Ł
ĠVio lation
ĠK ee
Ġinvo ke
app lied
Ġminim ize
11 00
ã ¢
ĠPER CENT
C Åĵ
U s
F ar
ECTR ON
Ġde ep
u u
Â¶ Â«
Ãļ Ãº
ê µ
Ġview ing
e cogn
Ãĵ t
â ¢
ho n
Ġh ardship
ĠTerm s
ĠInde mn
Ġcomma n
ï¿¾ï¿¾ï¿¾ï¿¾ ï¿¾ï¿¾ï¿¾ï¿¾
Âº m
ĠEnt ertainment
Â® âĢĻ
ĠBrad ley
Ġn uclear
ĠMaterial s
Ġappe n
________________________________ ____
Ġcr ew
í ħ
ĠInt el
S Y
Ġvaluable s
ign ation
u lating
Â¿ Â«
ĠRE MAND
å į
Ġdis cover
Ġacade mic
e ring
Ġprofession als
âĢ¦ Â¡
ay a
r ecogn
Ġtea cher
ĠMa jor
ĠMur ray
ì ¢
Ġun supported
r ely
ient ific
Ġcancel lation
ĠPet ro
Ġwo n
é Ħ
urt is
æ ¶
# Â¥
ê ģ
& !
î ħ
Ġout lines
X ËĨ
ĠPart ial
Ġmitiga t
_ Â·
Y ork
ign ments
57 4
pro portion
Ġ Ãĳ
Ġenume rated
ĠP LA
æ ®
- %
Ġbook kee
å «
el la
Â¿ ^
ĠBank s
ĠOr leans
ĠIn mate
J UN
Ġco d
é ģ
78 1
Ġaw a
Ġob servation
ä İ
é ª
ĠLar ry
ĠSec uring
Ã½ m
& âĢŀ
le tt
ĠO VER
Ġachie ved
ĠJ im
Â Ļ
Ġimp artial
Ġrevo ked
Ġsol ution
ar iff
57 1
ins ider
Ñ ĩ
Ġbar riers
Ġ Ĕ
W P
perform ing
Ġmitigat e
* \*
Å¡ M
ĠPolic ies
Ġ6 87
3 21
Ã» I
âĢļ .
ĠG lo
Lay out
ĠCus toms
B ÃĲ
ĠInte rim
Ro man
ac ked
æ ´
Pri ncipal
ê ª
n ney
Ġco ngressional
we ns
ĠSt rate
s ley
ext ension
Ġcompi lations
Ġc rop
Ho norable
Ġimp licit
Ġjoin der
/ Â¯
E H
Ġrecre ational
L ES
cause d
R OUGH
Ġenrich ment
Ġcomman d
N ow
Ġin duce
ĠAD JUD
Co rr
ã ª
è ¿
Ġexempt e
ĠCo le
Â° ÃĹ
ĠS IGN
Ġexempte d
Ġre se
ĠCe ll
WH A
pol ice
Â¿ }
t ch
& âĢº
be c
Ġau di
Ġ________ _____
ie ls
è ķ
Ã¾ Ã´
ĠASS ETS
í ģ
ĠEx clu
Ã· [
Ġenha nced
ĠLike wise
Z V
Codebtor s
Ġcomp lains
Ġjeop ardy
L as
Ġ3 54
ÂŃ ~
Ï ĩ
ot ive
k v
d h
Ġquot ations
Ġsim ultaneous
Ġcon dem
7 13
ber to
Ġmist rial
sh ares
request s
ÃŃ o
ĠAb b
ic iency
Ġdep loy
ÃĬ t
bo ro
un it
ĠApp licable
í Ī
is is
ngr e
Ġforec losed
ĠW IFE
Ġassig nee
Ġheav ily
' (
Ġ606 06
ÆĴ ËĨ
Ġconc urrently
da ting
P X
Ġdepen d
Î £
56 2
Ã¾ Å¡
ĠSto rage
í ĸ
Ãª ÃŁ
ĠD AM
Ġh onest
ĠIns pec
Ġleave s
PH QW
Ġpro bate
Ã¿ Ã¥
Ãµ Ã´
Ġdefeat e
Ġin di
Ġdefeate d
Ġ ğ
6 05
ĠW rit
Ãĸ Å¸
w ashington
ĠPro visions
ĠIDENT IFICATION
Ġin accurate
Ġ5 31
SB N
ë ¶
ĠJ U
RO SS
ĠBroad way
ËĨ ×ĺ
Åĵ Å½
ĠRet urn
M X
ã ĵ
ĠTHERE FORE
lo pe
88 9
Ãº o
Ã® Ãĵ
Â¿ ~
ĠCri mes
Ġtur ns
ĠAp point
Ġ601 97
Appellee s
Ã¯ Ã¼
l otte
le ne
ĠStud y
ĠH arrison
Ġ19 60
s N
ĠAD R
satisf ied
ĠAPP EAR
Mon t
id al
99 1
Ġunderta ken
Ġl ies
p man
ĠV ICE
ĠP hase
ĠK ath
Ċ ĊĠĠĠĠĠĠĠĠĠĠĠĠĠ
p ass
# Â¯
é ¨
Ġcert iorari
Ġf lat
ĠInten t
Ġune mployment
ï ¨
Ġst eel
ĠM ART
ĠT odd
Ġ6 24
bo x
Cent e
Ġto ol
Ġd ire
Ãº m
è Ķ
ĠTERMIN ATED
A ttention
ĠMa ximum
ea ture
: Â·
ĠO pport
ĠPete rson
vol ving
Ġ13 31
âĢł Â¡
Ġus age
Ġpla yed
ĠC F
. âĢ¹Â¢
ĠS ig
4 34
igo r
- ~
ÃĲ N
ĠSa nders
ÃĲ m
Ġco erc
97 0
net ic
USB AND
ËĨ Ã¬
ĠD AY
Ġ5 87
Ġtrans mit
ÃĽ m
M N
E V
ĠRE LEASE
\*\* \*
Ġtort ious
ama n
Ã¤ A
Ab out
iver se
Ã³ n
Ġ6 58
ç ļ
ĠReal ty
dist rib
CL ASS
am s
n set
ĠSep aration
Ġlaw fully
ä ĭ
ĠJ ay
C y
ĠPro tected
imp air
Ãļ j
# Â«
I mp
Â¿ [
ĠPe rsons
Ãĵ I
ec ker
ÃĹ ^
Âª Ã½
un ion
n ou
ĠWo rth
ÂŃ Ã·
Â° Â©
@ âĢļï¿½
79 7
ÂłÂłÂłÂłÂłÂłÂłÂłÂłÂłÂłÂłÂłÂłÂłÂł ÂłÂłÂłÂłÂłÂłÂłÂłÂłÂłÂłÂłÂłÂłÂłÂł
Ġdistingu ishable
if i
con tact
Z N
ĠSha w
ĠPay roll
å Ĥ
C i
ĠSU ITE
ĠTAX PAYER
Ġintangible s
Âº I
à ¥
/ âĢĺ
Ġconstru cted
ê «
Ġ5 77
conf idential
d Ãĩ
# Â¨
Ġwa nts
Ġdead ly
IT ED
ĠRe tained
57 2
Par agraph
Ġtable s
ĠP ipe
Âª Ã©
ĠC EO
Mo rgan
con ference
b uilding
ce pted
86 8
ĠDe s
Ġto le
Ġ5 58
ç Ĵ
ì ħ
ĠA ma
Ã¿ t
Ġtrans mitted
Ġ19 54
: ]
app lies
ĠK r
Ġun consc
i as
ĠCLAIM ED
Ġcomp lying
late r
6 19
- (
Ġtra ct
u Ã¾
are a
Ġ Ãķ
le tion
78 4
Ġ8 91
ĠP rom
Ã« Ã´
prof essional
57 3
Ãº ÃĿ
à »
Ġburde ns
ip ped
fact ual
Al t
ĠS AL
ĠPri vate
Ġpop ulations
Ã» Ãĵ
de a
Ġas ylum
Ġ6 15
Ġaggra vating
f ish
Ġv iable
Ð º
âĢº Â§
Ġcalcu lating
ĠG ifts
ĠCONT ENTS
ì Ĩ
Ġ ÃŁ
Ã¯ Ã´
g rant
ard ner
alle ge
Ñ Ĺ
Ġvote rs
Ġ15 19
ad vantage
wal k
4 33
.âĢĻ âĢĻ
Ġ Ã¬
ĠH u
Ġassu rance
Ġ19 63
ĠRes olution
ĠS cha
ÃĪ Ãª
ĠMa ine
ĠRe statement
Âº Ã©
ê ĳ
n dicate
å ®
ta ken
favo r
ÂŃ Â¦
o nset
Ñ ħ
Ġse aled
ec losure
ip linary
Ð ĳ
ÃĹ Â¥
ĠRe ference
é ĥ
fac tors
Ãŀ ÃŁ
question s
P V
credi tor
Â´ Â´
| ï¿½âĢĺ
t ric
ER NING
c m
Ġ9 81
claim a
P N
y ce
date s
IPUL ATED
wen t
ë µ
claima n
K T
Ġ6 19
Ġ ĊĠĠ
Ġsuccess ive
Ġcas ualty
ÆĴ C
ê ħ
Mi n
ĠES Q
Ġ7 25
Ġsu a
claiman t
ĠHart ford
d l
Ġbo ld
Ãļ m
86 5
gr ounds
& )
ĠMAR SH
é Ĩ
8 15
i sen
pay ers
f unds
sub stance
ĠApp arel
Ġdep th
ECTION S
Âµ a
ĠEle c
ä Ļ
ĠA PA
rys ler
âĢĺ !
ĠPERCENT AGE
Ġmin us
Ġintelli gence
Î ª
ĠT op
Ġco e
Ãļ Ã»
ÃĬ Ã£
Ġpurchase rs
ĠSoc iety
pre su
7 07
âĢļ âĢ¦
96 8
Ãĸ Ã»
Ġ ot
ĠDe finition
é ķ
Ġrest raint
reg ister
ac ific
d one
è ¼
Ġst ations
Ġse gment
ĠTech nical
Â® ÃĹ
Ãµ Ã¼
AT ORY
ĠB UR
Î ½
Ġadvance s
vi nce
Ãĭ Ã¥
Ġwat ch
Ã½ t
Ġ19 49
x ËĨ
ic ians
Ġinterpre ting
Ġh om
Louis iana
Ġd ial
66 4
ĠL ou
Â¯ Â§
rem a
Å¾ A
Ã¯ M
e sh
Ġ7 87
Ã« Ã¼
Ġvar iance
Ġambigu ity
Ġch art
Ġeng ineering
ĠJ OHNSON
Ãĺ J
ĠMAT RIX
Å¾ ÆĴ
^ ?
âĢŀ $
LEMENT ARY
w ick
lian t
Ã¶ Ã©
no ver
ĠDe termination
Ġ5 84
î ¤
] &
Ġman dated
DD LE
ĠOH IO
Ġadopt ing
Ġ laid
Do nnell
Ġb ran
C OL
ê Ĥ
Ġbe long
ro ck
å ¶
IT Z
ATTORNEY S
ĠM ult
Ġsuperv isory
fi nder
lf r
78 2
Ġrevers ible
Ġinves tor
ĠCha mbers
Ġaud ited
AN CY
09 5
75 2
Ã« ÃĽ
LE G
n berg
rv iew
Ġpsychiat ric
ANC IS
We lls
Aff irmed
h man
F h
ishe ries
Ġaffiliate d
ĠK y
Ġcons ist
P ERSON
ĠIn it
e co
ĠRequest s
sex ual
] âĢŀ
Ġbla nk
T ABLE
F ED
D J
ĠAct s
me mo
Ġco des
noo n
Ġ ĠĊĠĠ
ë Ĳ
la nguage
Ġre staurant
7 99
Ġ ).
ĠPa n
& &
ĠK aren
f all
Ġn ursing
ĠJoh ns
Ġ8 25
ĠCon servation
Ġindemn ity
ë ļ
alle l
t ures
ĠCO VER
ĠS ing
ĠMo vant
na fter
rator ies
Ġes sence
Ġle n
OC IAL
ARD ING
ĠR ivera
á İ
ÃĪ Ã¦
ĠAN ALYSIS
Ġtra ined
Ġcor ner
q h
{ ÃĹ
ĠM one
V O
ot ts
Ġd il
Î ±
Ãļ k
ĠB id
ĠS UR
Ãļ h
b la
ac cep
Ġaccomplish e
Ã« Ã¿Ã¿
) âĢĵ
Ġens uring
X Q
ĠAPP RO
ĠRey nolds
78 3
com mercial
ÃŁ Ã´
p B
ry l
Ġr iver
ê ŀ
ĠMe n
Â½ Â½
ÃĨ Ãħ
ÃĲ Å½
RE ES
Ã« ÃĿ
Ð İ
V v
Ã¯ ÃĽ
ĠC el
8 10
Ġ âĢł
ÂŃ Â®
Ġ5 68
Ġatte nding
Ġ âĢ¡
ĠM any
Ġdis solution
ĠGr ound
Ġk illing
Ã« k
Â° Â¶
ĠH R
Ġ38 1
! Â±
` âĢ¦
ÃŃ ÃŃ
O LE
Ġmillion s
colle ction
Ã« K
ĠB NC
Âº i
bo rah
ã £
Ġsa ve
Å¸ Ã¾
N i
Ġexpect ations
Ġbo y
Ġbound aries
] =
g ue
à ¯
WAR NING
ĠAFFIRM ED
Â¿ Â»
ÃĪ G
ĠM CL
C c
Ġbas ically
cy cle
y m
ë ķ
pre h
ĠCont ractor
invest iga
ĠAll state
Dav is
Ġok ay
Ġser ver
Â¢ "
Ð ĩ
Ġac id
con forming
Ãº I
e val
ay s
Ġsee ing
M J
ç ¶
ĠREP LY
Ġcell s
Bo ld
~ âĢº
Ġ7 91
æ ¨
e lating
t ity
ĠGib son
Â° âĢº
ĠAccount ing
å ķ
Ġprosec uting
Ġ organ
AT ERAL
Ãº Ã´
Ġmeasure ment
W Ã¾
Ãĵ Ã»
! âĢ¦
poe nas
ĠCro ps
Ãģ ËĨ
H T
âĢĹ ï¿½ï¿½
ÃĪ Ã¬
Ġcent ers
w itness
$ %
! '
obj ection
Ġ6 26
ë ĸ
ĠTerm ination
Ã½ Ã¶
ĠTh rift
Ġ7 47
ARL ES
M od
Ãķ u
ĠA viation
âĢŀ @
ì Ł
invol ved
Ãĸ ÃŃ
Î ¹
ĠPro viding
ĠWe i
ë ĥ
ĠB ee
f alse
[ ^
M u
í Ħ
Ġre marks
î Ĳ
IC LE
Ġwell s
Ġsile n
î «
Ġwhere by
Â§ Â¦
~ Â»
Cont e
HE AR
Ġsilen t
ç ¥
Âµ Ãµ
Ġun s
Ġverif ied
Ġbro ken
è Ł
ete r
Âº Âº
Ġdis posed
LE X
ÃĴ K
ËĨ Ãĩ
Ġn u
Ã· Â·
Ġr ural
Ã¿ Å½
ĠE ND
Ġ________ ____
Ġretro active
ier ra
Ã· ^
Ġfe wer
odo r
NE W
âĤ¬ âĢĻ
è ħ
ÃĹ Â·
calcu lated
F ollowing
ce ll
Ġb ath
ĠDe adline
Ġmot iv
ha ving
T J
& âĢĻ
ĠD ES
aga n
ĠRa nge
Ġserious ly
ĠEng ine
Ġwe bsites
Ġhe ating
Ãª ÃĿ
cess ary
Pr of
rig a
reg ular
le w
ÃŁ ÃĽ
Ġcr itic
Ke n
Ð ģ
t il
ĠD al
` âĢĻ
ï» ¿
ĠCong r
59 1
Ġdisp ar
E Ã£
Ġ amp
Ġ5 89
H z
R em
conte n
79 2
utt e
" );
! âĢĻ
Ġherei nafter
just ice
Ã» J
Z e
ĠM ills
Ġ6 28
âĢ¹ âĢł
p Å¡
r ities
nee ded
O l
ĠC ENTER
ÃĴ v
w ea
pro bation
E astern
Ġco ast
ç ª
Ġro yalty
ec tor
4 27
ĠE stablish
ĠTo rres
- _
t le
ĠW r
Ġdirec tions
6 40
- âĢŀ
Â© Â¦
ÃĨ G
whel ming
9 25
Po st
pre viously
fort una
Ġ ĉ
rr ison
å ĵ
Ġremedi al
Åĵ q
un reasonable
99 7
Ã¿ Ãĭ
Ãģ Ãģ
tra de
A nderson
ĠCount erclaim
Ġemphasize d
4 26
z t
ĠBur ns
SC RI
V ERS
Ġre min
ĠInvest ments
ĠR IVER
jo rity
Ã° Å¡
ÃĤ V
ĠOrdi nance
itts burgh
Ġtr ouble
P urchaser
ĠCe nsus
Ġinf lict
AT ING
Ġinter locutory
Ġsp a
ĠCh emical
ĊĠĠ ĊĊ
í ĥ
: "
{ {
Ġin dicted
Ġ5 78
ĠC arr
Ã± Ã±
b rown
76 3
Ġpre do
Int ernal
Ãº Z
Ġform ation
ĊČĠĠĠĠĠĠĠĠĠĠĠĠĠĠĠĠĠĠĠĠĠĠĠĠĠĠĠĠĠĠĠĠĠĠĠĠĠĠĠ Ġ
Ġa nne
ĠOfficial s
6 03
Ġtrans ported
udule n
Ãª Ãļ
w I
~ Â¯
âĿ ĳ
Ġ Ãı
c all
Ġ7 13
58 1
secu tor
ref und
ĠC losed
î £
è ¾
udulen t
Ġcl othes
ÃĦ DDDD
ĠRE TURN
ĠCo ver
Ġgeo graphic
Ġmi ning
ĠL ow
y ota
11 15
í ľ
Ãĺ O
ĠDiv orce
ĠMc Donald
ĠDis cussion
aso nal
Ã½ ÃŁ
ÃĲ O
ranch ise
c ard
Ġuncertain ty
ã ¼
C f
J AMES
Ġ7 15
Ġappeal ability
è ª
determ ining
75 4
Ext ension
Ã¤ Ãľ
Ġwithdraw als
Âµ Ãķ
) </
ba um
Ã¿ n
97 3
79 4
ci n
ĠHo sp
! $
IL ITY
W T
ĠT EC
ĠADJUD GED
Â¦ )
Ġ8 89
ĠAppe ar
ad ian
will ing
ĠS ingle
Ap pendix
Ġprec ludes
Ope ned
ĠW alter
Ġar ms
H i
g aret
é Ī
~ âĢ¢
Ã¸ D
Ġad op
V R
98 5
ĠSta nding
Ġintro duction
Ċ ĊĠĠĠĠĠĠĠĠĠĠĠĠĠĠ
scri ptor
FF F
" +
ê Ĩ
ĠMar ital
Ġ19 47
ê ®
cal ifornia
n ap
_ ï¿½ï¿½
à ¿
ĠBar nes
Ġ19 55
R ICK
Ġinvestiga ting
Ġco vers
Ġa no
Ġwhere as
F Y
________________________________ _
ĠG la
B RO
GAN IZATION
ë Ģ
F ifth
Ġga t
Ġcom position
Â¤ âĢļ
ĠCo ll
8 20
4 36
Ã½ Âº
ĠDEN YING
Ġres c
08 7
& ?
M Åł
v as
ĠJo a
Ġdeliver ing
ĠCOL L
â Ľ
ĠE valuation
á ¶
Ã½ Ãµ
Åĵ s
O E
Ġkn ife
ç Ħ
ĠNa tive
n ry
âĢĿ >
Ã£ Å½
Ġconsu mption
Wis consin
è Ĺ
X U
ĠRes ults
æ £
ĊĊĊĊĊĊĊ ĊĠ
Ð ħ
ĠDe troit
ult y
ï Ĳ
čĊ ĠčĊĠč
ĠRECEIV ED
Ġaccoun tants
i nity
Ġcell ular
X Ã¥
ĠA ero
ĠB row
Ġshoe s
Ġrelig ion
Ġins ol
Â¥ Ã·
Ġstrate gies
ĠPri vacy
âĢĿ ?
} &
t ex
C AL
ć Ĉ
Ha zardous
act ing
C ITY
4 29
Ġ5 99
ĠCL OS
Ġreg arded
Ġpurported ly
Cente r
de ta
Ã¿ V
76 1
Ġun available
Ġ6 66
repre sentatives
Ð ķ
Ã¾ ÃĽ
$ ?
$ âĢŀ
Ġencourage d
ĠM ason
î »
ĠPrep are
l ÃĶS
ÂŃ {
ÃŁ i
mo rtgage
_ ^
is co
Â¯ Â®
ĠWal lace
ĠSub part
F ree
ÃĴ Âº
Â¬ &
ĠMe thod
ĠNO W
Comm odity
ĠH op
Ġre newed
Ġad a
r ior
ĠCONC ERNING
U G
urcha sed
Ãģ A
W ork
Ġcap ricious
as ked
custo dy
ĠAlter natively
R u
ë Ĥ
z ards
59 4
Ãķ Ãķ
Ġpresent ence
$ âĢľ
Ã» Ã®
Ġs pend
7 05
Ġr ol
Ġvacc ine
WILL IAM
Ġexception al
ĠSupp lement
Ġre aff
quat e
ĠT i
Ġspec ulation
ĠMay o
ÃŁ k
Wo r
Ġnot ifies
O riginal
âĢ° âĢŀ
ac ker
Ã¿Ã¿ Ã¯
lÃĶS f
ad v
ç Ķ
Ġdisreg arded
59 3
Ġart ific
t n
ar ts
ĠG len
Ġin duced
Ð ¤
ĠCONTR ACTS
Ñ Ħ
che l
Ãĵ Ã¯
å ´
R D
á ĳ
ĠF low
4 28
pect ive
ĠY OUR
h ours
Ġr ock
Ġ6 54
C la
Sc ott
tal og
wo rd
ĠJ apa
59 2
ĠR TC
di um
Ð ·
â Ł
ĠA cade
Ġs l
necess arily
ĠD eed
ê Ĭ
Ġc u
N eg
Ã½ ÃŃ
Â´ Â¶
Ġr apid
C laimed
Ġ5 95
ho o
m ag
ĠBe rry
è °
é ĩ
ê ĺ
= /
ĠDE P
pp y
Ñ ŀ
ç ©
v v
11 10
æ »
Ġde lays
ĠB altimore
Ġlitiga nts
Ãĵ B
Ġco p
ĠPOR TION
r elating
å Į
Ã« I
de pt
Conte n
DA VID
~ ?
Sec urities
IN U
stat utes
99 4
Ġaccommod ations
Ã» Ã´
Ġ5 65
Schedule s
Ġwa ives
incen t
Ġball ot
Ġent ertainment
Ġtotal ly
ime r
Cent ral
ame rican
DEFENDANT S
d G
ĠC hat
Ġaccomplishe d
With out
ĠMich elle
Ġ Â½
ÃŃ a
ĠDen ver
76 4
Ñ ĸ
Ġpur port
ã ¡
] %
Ã« i
ĠP arent
Ãĺ Ãĺ
cri mination
ĠM yers
ĠHe ights
58 3
] +
âĢĵ âĢĻ
Ġcould n
Memo randum
ç ĸ
Ġta ngible
ĠG AO
ĠL OSS
ÃĽ ÃĽ
Ġdrink ing
Ġmi xed
n m
ĠASSOCI ATES
Ġdic tate
æ Ĵ
Ã» Ãķ
Ġholding s
C HE
_ [
ĠDIS POSITION
C UR
Â´ Ëľ
H is
ê Ĳ
Ġ6 79
ĠCorp us
are house
Åł v
Ã¶ Ã¾
ĊĠĠĠ ĊĠĠĠĠ
ĠAct ing
ĊĊĊĊĊĊĊĊĠ ĊĠĠ
âĢŀ ,
vo id
Â« Â¥
tors hip
Ï Ĩ
Ġ6 74
Ġret ired
6 15
ê Ŀ
" [
98 1
{ [
ä ²
Ġb lue
Ãŀ Å¡
ĠP sy
ê ĥ
ĊĠĠĠĠ ĊĠĠĊĊ
Ġe co
h arm
I W
U Z
Ġf l
Ġlo cate
Ġte sta
yn am
OU IS
D EC
Ġpende ncy
ĠAPPLIC ATION
ĠPRE JUDICE
Q V
Ñ ī
Ġ5 85
å Ľ
M et
ma ture
PR ESENT
Ġtra uma
Ãº i
Ġpersua ded
n ar
lam ation
Ġ7 17
î ´
ĠF uel
sh op
ĠGeneral ly
Ã® ÃĤ
A lex
. âĢŀ
rai nts
! Â°
ĠMe rchan
ĠP ea
ĠS OUTH
Ġb lind
Ġre dress
Ã¿ Åł
Ġ5 94
á ±
Ġrender s
Ġ .....
ĠP ass
ĠBat e
Ġdra f
Ã· ÂŃ
á ľ
È ±
03 1
Ġde l
á ª
ri mental
s sent
mo vant
79 3
Ġtre sp
Ġconstru ct
ÃĲ j
Ġ5 73
ĠA dam
Ą Ą
ÃĴ Ã´
Ġplat form
fa ith
Ġ ĕ
Commo n
Ġsuspect e
Ã¿Ã¿ Ãµ
ke ns
Ġ6 37
ĠS ECURITY
Ġsuspecte d
Ãĺ N
75 1
Åĵ u
Ġnon dischargeable
p urchase
to ok
Ġ5 67
âĢļ Â¦
ä ¹
ĠD aw
Ġinv ited
u mes
5 23
ĠLe nders
Âµ i
~ .
Ġcomplain ing
ã Ń
âĢ¡ #
ĠExec uted
Ġguaran tors
nh art
g ive
M iller
exam ine
show ing
Ġin stituted
ĠA P
ĠBRI EF
ĠC able
ã ©
Lo ss
V ED
Ġcomprom ise
t een
ote r
ig gins
ĠLa kes
ã ½
Ġalter nate
O J
ĠF urs
å ©
ĠEX HIBIT
Ġdis pose
Â¤ âĢº
Ãŀ Âº
obj ections
7 10
Ãĵ Ã¾
g over
ĠU sing
/ âĢĶ
Ġslight ly
Ã² Ãĩ
~ Â«
ĠEX T
Ãĵ Ãķ
* (
Ġital ic
ÃĽ M
d ie
ĠR ivers
p ÃĪ
TER MIN
ĠPo rter
X D
Ġbe coming
B IT
Ġdete r
Â§ _
Ġk itchen
ê ©
ÃĴ Ãķ
âĢ ¾
Ġ lying
Ġeval uations
w v
ĠP F
] Â¯
Ġstip ulate
ration al
egi nning
S r
Ġ5 62
ĠInstru ment
lan der
ê ĸ
ËĨ Ã£
ĠF ull
ACH ED
77 1
Ġ7 10
appro val
ĠU NE
ĠHab eas
u j
/ .
- +
88 6
W Z
ny der
Ġdecre ased
De n
Ġ Ãį
nat ural
Ã° a
W J
Ġtra iler
07 4
R ail
Ġ ample
ä ¾
ĠEnt ities
Â´ âĢ¢
âĢŀ [
? ?
Å¾ a
Ġinvestiga tor
BR W
ê ķ
E r
à ª
ffort s
V l
ĠDe ny
; !
Ġproced urally
ĠCON FERENCE
ä ¢
ĠSh erman
S ign
âĢŀ _
Â» ÃĹ
AT OR
ita ting
ĠSem rad
lement ation
ĠDE A
âĢ¦ Â°
Â¡ Â¡
Ġhand cu
ë º
ur st
ĠN L
ç ´
Ġ7 75
Ãµ m
đđđđ đđđđ
8 66
ĠGriff i
æ ³
Â¶ )
Ġ onset
ĠW itness
Ġcommittee s
Ġ5 96
é Ł
Ġsu ffice
Ã» Ã¼
le ts
ĠGriffi n
âĦ¢ âĦ¢
ara tely
Ġ5 79
Ġ" (
ĠM UST
å Ŀ
Y Z
ĠP op
Ġ7 16
88 1
Ġcove nants
Ġt it
Ã² ÃĪ
Ġhand led
ĠEXEM PT
O OD
e Ãĳ
Ġsp lit
ĠGat e
Ġ5 63
Ġin val
ifica ntly
k ÃŃ
ĠRepossession s
Ð ¨
Ġun f
ĠInde pendent
Ã¸ i
Ã¯ ÃĿ
Ãļ z
ËĨ D
5 11
w m
âĢł Â°
ÃĮ Å½
q Q
ad y
wan t
Ġcon clusive
ĠRece ived
Ġenjo ined
Ã¯ Âµ
ĠSpr ings
b alance
ĠIss ue
Å¡ I
& âĢļ
ç ĺ
Ġro of
19 66
r ced
ĠB P
} Â§
Ġl ump
ĠT ask
conc lusion
corpo rations
Ġecono m
ĠChrist ian
Ġ7 38
Ãļ K
ĠAs st
é Ĭ
Ġg ains
á ²
Ġinvestiga tive
ee rs
d ouble
Ġmot ivated
" :#
arre ll
è ĸ
Ãħ E
deny ing
Ġcons isted
ĠW ould
O Z
ĠWar ner
è ¨
â Ĵ
# Â§
GA GE
é ©
ch i
ë ŀ
ĠC i
ĠMo tors
4 37
ĠWel fare
ĠCas ualty
i tories
ÃĦ F
Ġ19 33
ric ken
Ġeli minated
ub a
pla ns
ĠTH ROUGH
Ã© u
ÃĽ Ã¾
dist ribution
6 02
rk ins
04 1
ar dia
w rong
ç ¹
ĠN ico
:: ::
ĠG olden
\ #
P ES
ou lt
ĠM ill
N L
system s
ĠT ob
T ur
Ġ6 46
ë Ŀ
h A
ĠP atterson
ĠS OL
âĢ¢ âĢ¦
ë Ļ
ru dence
4 38
w Ã¾
ĠInt eg
Â¶ ]
ĠAc ceptance
75 3
ro me
Ġn ull
Fi nancial
Comm ittee
rm o
Ġregu late
Ġ6 33
ĠLeo nard
W rite
individual ly
ë ģ
order s
Ã« Ãķ
Ġ224 1
d ding
Conten t
å Ĵ
ĠV aug
M em
Ġavo ided
u gene
l B
\ /
o F
Ġpree mption
Ġ19 58
ĠC DC
ĠW n
ĠRest itution
Ġcommunicate d
V IS
' Â§
Ġin complete
Ġ5 90
alle n
Ġnine ty
ĠNa ncy
+ (
Ġ adequacy
ê ¼
âĢ¦ âĢļ
Ġexclusion s
Ġcoordi nation
68 5
b ard
Ġac know
ë ¹
ĠHo r
Å¡ k
a ÃĬ
Ã½ v
ÃĤ L
Ġ7 18
der n
ĠIss uer
Ãļ Âª
dro me
Ġaction able
Ġdistingu ished
V Ãķ
comm unication
ã ī
Ã® Âº
ĠE mp
Ġ5 98
ĠJe nkins
ì £
william s
Ġ5 97
Â² 1
P AT
08 5
I Y
Ġb ott
o king
ì ľ
Ġinvo ked
imp roper
ÃŃ u
Ġrede mption
Ġacc ru
Ġinterview s
ĠRec reation
) âĢĿ
Ġconstit uting
Ã¶ Ã»
fa ther
- &
Ġch urch
Ã¿ Å¸
Ġpar cel
se veral
ĠAl bert
J U
Â« Ã·
Ġinvo ices
De scriptor
58 2
Ġ8 15
Ñ Ĩ
Ġ6 31
E Ãĥ
Sub mitted
Â¯ ÂŃ
Ġpursue d
Ġf ide
ste l
Ġtow nship
rn ity
e li
co h
Ġd rop
88 5
ĠEng land
Ġal iens
Ġga ther
Â´ "
T U
r f
ĠCert ified
ĠJ P
ĠT ab
Âµ o
Ġrevo ke
ĠCON FIDENTIAL
ĠCAR OL
Â¯ ^
Ġ19 40
Ã© i
Ġ( )
were d
nso me
Ġb rain
z Ã¾
ĠIn form
Ġwe ar
Âµ A
> âĢľ
ED PA
z I
L ife
Ġpro posing
Font Descriptor
ÃĪ q
ĠRe ason
#Â¢ :#
d ging
ÃŁ Ã¸
ser ious
mar ked
Ġin d
n ough
Ġ5 93
ç Ŀ
Ġappropri ations
$ âĢ¢
Ġde portation
A me
68 7
ĠDecl arations
Ġcollect ing
Ġthreate ning
Ġha ir
B ACKGROUND
AM IN
WO OD
ï §
\ (
ĠC ite
a o
Credit Card
ĠIn denture
. </
Â· Â¿
Stat us
ĠLE GAL
é ĳ
ĠM ine
K Ã¾
15 20
Ãµ ÃĿ
Ġelect rical
Ġ Ãŀ
Ã¯ O
Ãĺ B
ä ¼
! ,
è ®
Ġur ged
Ã© ÃĴ
ä Ł
Ġinterro gation
ĠRe mand
Ġsw itch
dent ial
exten t
ĠI ra
ngre d
ì Ĳ
_ ~
âĪ ½
Ġcontract e
Ġinde finite
ute nant
Ġmo to
I LA
ç ľ
de velopment
Ġcontracte d
se tting
e ssent
w k
ĠMic rosoft
w right
Ġlead s
EC TOR
Whe ther
Ã© Åł
ĠNM FS
V s
Ġres iding
ĠRam irez
ç ħ
è ¬
Â¢ (
con sent
> )
Ġgene rate
ä ¡
ÃĦ C
Ġ19 59
77 2
Ã¿ Ãī
ÃŃ S
C OLL
/ ÃĹ
Ġm m
$ âĢĺ
Ã£ Ã£
ĠAT T
ĠC rawford
direct e
A ir
âĢ¡ "
n ine
associate d
ia no
H OL
Ġadhe r
ê ĩ
A Åĵ
Ġs now
Ġmo nies
á į
l m
$ =
nat ure
Ð Ĩ
Ð Ħ
Ġinform al
ĠM ut
Ãµ o
ĠBryan t
ĠPort folio
î ł
Â¡ âĢļ
Ġ6 73
OU LD
ap lan
orga nic
4 19
U Ã½
Ġcont emporaneous
S ea
Ãĸ Ã¾
ĠC REDIT
Ġ9 58
ĠUn iv
s ource
ÂŃ [
Ġfeas ible
æ© ¢
ee ler
Ã¨ D
Ãª Ã«
â ¡
Ġcorr ectional
w itnesses
Ġ Ã¥
S CH
directe d
7 40
^ âĢľ
ĠAn imals
Å½ Å¾
ĠSt u
Ġcul p
Ġconsc ious
ÆĴ Ãģ
ÃĲ e
xxxx xx
ĠF itz
98 9
Ġaccommo date
ĠBate s
03 3
Ã¯ Ã®
ĠT arget
Ġen danger
ç º
Ã¸ Ã¸
Ġrespon ds
ÂŃ Â¿
B oo
âĢł Â©
ĠBe njamin
G Z
S alle
Ġliqu o
Ã´ Å¾
Ġliquo r
Ġse ason
Ã¿ Åĵ
Ġant e
á ¾
u ra
Ġr if
k Ã»
ĠCongr essional
ê Ń
ĠK Y
âĢľ âĢĺ
DIS CUSSION
ĠI R
" âĢŀ
F ull
$ (
ĠDe tention
77 4
Cri minal
98 7
Ġreflect ing
lo ny
Ãĥ L
ĠBRO WN
co st
Ã¿ v
Â¶ âĢº
Ġ5 80
ĠLE ASES
Ġ6 38
P s
Ġt itled
Ġcol labo
m v
AS ON
N W
w d
ry ing
$ âĢº
G ES
Ã² c
Ġendorse ment
t Å¾
Âµ I
Ġhar med
Ġin stitutional
Ġr ough
ĠC ame
ĠParagraph s
Ġdec lines
96 7
ï Ķ
ral ly
Ġfa t
O ut
ro a
Ãĳ c
ex ception
Ġca st
è ½
Â® âĢĵ
Ġent itle
xim ity
Â· [
ÃŁ Ã¡
h ard
Ġsolic itation
Â¦ âĦ¢
Å½ G
ã ¯
Ġbroad ly
â ĵ
EM BER
' -
Ġany where
LE V
Ġ8 04
use r
Q D
Ġ ÂŃ
Ġ. "
week ly
Ġcommissione r
m one
Ġest imating
B ra
ĠG od
ã «
Ġar r
ã Ļ
ĠAn ne
ĠP ack
ç Ĥ
Ġpre mature
D irector
Ġtree s
e fer
Ãĵ u
Ġrede em
C X
occup ied
ĠCOMP LE
Gr oup
Ġ6 89
Ġ6 40
Q A
Ġ57 117
Ġpor nography
ĠH AS
ass ignment
ĠHolder s
Ġanswer ing
ĠS S
á Ŀ
Ġeng agement
á ©
ĠF TC
ê º
S ERV
96 5
M ail
Ġf eature
S k
Ãŀ Ãļ
Ġ6 21
rea ting
ĠPUR SUANT
E K
66 3
ã Ĵ
M m
Ã° ËĨ
nen forceable
f arms
Å¸ Åĵ
Ã¬ W
ST EIN
Ġs low
Ã© Ãº
o xy
Ãµ Âµ
Ġleaders hip
Ġv ulne
l r
tr ue
Ġaid s
GU MENT
IN TER
ĠAFFIRM ATIVE
pro secution
ĠP hoto
im posed
Ġimm a
Ã¢ Ã¢
mo tor
ĠGe r
ï ľ
\_\_\_\_\_\_\_\_ \_\_\_\_\_\_\_\_
ĠACC ESS
Ã¡ B
v ity
$ >
Â² 9
Ġ3 142
æ ¾
Ġrev ise
á ĺ
In dent
ĠO thers
Ġmine ral
á £
ad dition
l U
ĠP hoenix
ä ı
Q I
Ġho li
ĠT EN
Ġ6 43
ĠEnter prise
ĠLim ine
ÆĴ Åł
IGH TS
Ã· Â¥
Ñ Ĥ
Ï Ħ
ÃĪ h
Ġroad s
ĠPage s
ĠC I
Ġbo rrow
DIS POSITION
ÃĪ d
Â® ÂŃ
ĠSt ra
ĠMc L
11 01
Â´ âĢĶ
Ġgrievance s
ĠFarm ing
ĠS ports
â ´
Ãµ ÃĽ
Ġbi n
âĢľ âĢł
9 16
ĠC AS
W r
al d
IV ERS
é ¢
î ¬
P oint
ĠCh i
ä £
Ãģ a
7 30
ĠFLOR IDA
wart z
Å¡ d
ĠHunt e
ĠM T
Ġ ÃĢ
Ãŀ Ã¿
] âĢĺ
au bert
Ã® ÃŃ
ĠRo y
Ġdi vidend
ĠL EE
e venue
ĠK n
ĠMe ntal
mete r
Ãº Ã¼
ç ¡
ç ł
Ġforfe ited
Ġs lip
Ãĺ Åł
C b
âĢļ âĢĺ
ÃĤ k
be rate
ÆĴ T
ê ľ
ĠMe ad
favo rable
ĠW ag
"" "#
Ġ Å¸
` Â©
ÃĲ B
ÃĹ Â§
demonst rate
Un iversity
Ġ6 59
IC A
ĠV IR
Art icle
aso line
Ġsuccee d
ra ther
Cha nge
ĠF ried
na v
ç Ń
ĠRe habilitation
- ?
Z H
Not withstanding
eas urer
âĤ¬ âĢŀ
Ġ606 04
N ext
B ANK
" Â¡
R od
z v
qu iv
SUB JECT
97 1
Ġcolle ctor
utor ily
ĠLa ng
Ġadop ts
ĠLo g
sta i
é ī
dol ph
r evenue
ÃŁ Ãķ
ĠE QU
ĠC W
i stan
Ġ7 31
Ġmo ni
Ġ Â¬
ac tor
å ī
Ã» ÃĽ
5 29
Â¯ }
Ġ5 69
Ġf lee
any o
âĢł Â¶
ĠMil itary
la ke
Spec ific
á ¬
J I
met ric
ri se
í ļ
am ounts
Ġput ting
i nit
M IT
ë ®
ĠCOR R
RE QU
Âº A
ab use
ĠJ ean
& (
Ġclar ity
J ÃĴ
Ġgain ful
. --
Ãĸ Ã©
ÃĲ Ã©
$ Â©
ĠC ot
ĠL AB
Ñ Ī
Ġproduce rs
ÃŁ Ãļ
r emed
Ġcap abilities
ĠPART IC
ig nee
âĸ ł
Ġtru ly
Ġp ledge
Ġadher e
accep table
Land lord
ic z
8 08
Ġpro p
è ŀ
K Y
ĠN ee
OR GE
note s
rat ic
! Ëľ
At lanta
pro ble
Ġdra fted
Ã¿ Ãł
ï ĺ
67 1
Ġaffirm ing
n tic
pher e
Ġappen dix
Ġdem urre
Ġ Ã»
âĢĺ \
Ġar ra
Ġseque nce
Ġ5 81
H ON
Ġ5 71
ĠAl b
se ts
Ġwork place
Allow e
Âµ ÃĽ
Ġliber ally
Allowe d
ĠOFF ICES
pri mary
å ¬
plea ded
ĠFree man
Ġparen ting
Ã« Âª
bor ne
Ġr ank
So me
á ŀ
for ward
ĠRay mond
Å½ A
Ġacknow led
d den
ĠSte i
Â¥ Â¤
Ġ7 77
ÃĹ Â«
Ġweigh ing
ä Ń
Ġf ract
pro duce
ĠSUPP LEMENTARY
í Ļ
86 7
sth e
EM A
Ġ7 14
ĠV accine
Ã¿ j
ĠD y
Ġadv ocate
Ãĳ C
un n
Ġfut ile
AM P
Ã· }
. âĢ¢
ä ®
i ncorporated
T Z
IG AN
ç Ĩ
/ (
î Ī
is ance
Ġdisc loses
ĠWer e
ĠV ers
ÆĴ P
Ġ7 60
Ġconstitutional ity
ĠSe lf
Ġc lo
u fficient
ĠR ice
ĠPark way
ĠA le
ĠLate r
Ġacqu ittal
ĠJUST ICE
F ËĨ
ÃŃ Ã¾
ĠF igure
ĠGle nn
la tors
et na
ĠV AL
Â¯ ï¿½ï¿½
Ġc ab
ĠJaco b
Mo del
ĠJ ONES
Ġsat ellite
f h
fra me
i ntended
Ãº Ãķ
ĠIn struction
ĠRespect fully
Ġ19 51
âĢł )
Ã¯ Ãķ
Ã¿ ÃĻ
Ġpre vention
Ġeng ineer
ĠAG REES
om ain
Âº Âª
e quiring
Spec ifically
Ġfor ensic
cant ile
Ġ6 51
Ġb ought
ĠPh armaceuticals
ĠREC ORD
Ġent ers
Â´ Â·
u mers
L v
ĠJ ACK
D Ã¢
ĠOPP OSITION
Ãº Ãª
Ãĵ ÃĤ
$ )
Ġindemn ify
: âĢŀ
Ã¯ Ã¿Ã¿
âĢ Ĥ
Ġexp los
Ġ6 90
Ġ12 00
ish op
Âº O
Ġ8 53
ac king
ĠClea n
Ġb illed
c ivil
! Â¦
n stein
Ġlitigate d
ĠCt r
Ġassu mes
to ria
å ı
________________________ _______
Ġsh ut
Â® Â¶
79 1
e conomic
XP IRED
Ġperce ived
07 1
f ÅĴ
m ight
âĢľ Â¤
cri me
Da ta
S ignatures
house hold
î ¼
ĠSil ver
Ġ7 26
] Â¥
Ã´ Ãļ
/ Ã·
Ã½ Ãķ
De pendent
Åĵ v
P et
g ranting
Â¯ Â«
Ġt ip
& âĦ¢
isone r
ĠPre ferred
ÃĴ u
deli vered
ĠT ucker
equ ipment
ÃĮ ÃĮ
76 2
ì Ŀ
ĠCle veland
Z J
X T
ĠI ran
ĠA de
ST ANDARD
n ick
ĠHunte r
Ã¿ J
con ds
ĠK au
ĠP ierce
Ġ Ãł
âĢŀ \
pent e
ĠS ource
~ âĢĻ
_ âĢł
âĢ ³
Â´ âĢļ
F lorida
Ġlength y
ĠU nemployment
a tt
Ġun aware
B ack
á Ł
Ġ6 34
19 63
ÃĲ I
ĠIn forms
ç ĥ
: >
K R
Ġsuspen d
07 2
v ie
á ½
ç ŀ
Â½ 7
under standing
ĠS UMM
Å½ Ãķ
pro ject
Ġmile age
å ĥ
ĠTrade mark
U O
exp lained
æ Ī
follow s
Ġbrief ings
é ¶
mar ried
Ġ6 39
ĠK S
ĊČĠĠĠĠĠĠĠĠĠĠĠĠĠĠĠĠĠĠĠĠĠĠĠĠĠĠĠĠĠĠĠĠĠĠĠĠĠĠĠĠ Ġ
ric tion
ÂŃ ?
ĠMar ks
é ¡
PUT Y
Ġ6 48
ĠUNE XPIRED
Ġde alt
conc luded
Pay ments
BBBB BBBB
Re commendation
lica nts
á Ĭ
Ġint r
Ġhe ading
Ġemp hasis
Ġd welling
Ġ8 20
ÂŃ âĢł
ĠDef s
ĠTER MS
- ;
Ġ6 49
Ġ5 72
Ġh idden
Ġrefer ral
ns laughter
L G
lo ok
Alt e
Ġmo no
HH H
Ġroutine ly
arm ac
Ġ Åĵ
pr ice
IC IAL
Ġ6 57
ic us
________________________________________________________________ ________
ĠH AVE
Ġten d
ï¿½_ ï¿½
S al
æ «
] Â¿
Ġh all
Q E
Ins urance
Ġrecip ients
Ġcon serva
ĠF ILING
Ġto ll
A Å¡
ì ĩ
âĢº âĢŀ
ĠR ICHARD
Ġte nants
Ġ6 88
Åł i
na ire
ĠBet ween
Â¢ ?
fe l
é į
âĢĵ âĢĶ
Ġ6 76
Ã» z
Ġinteg rated
Ã´ Ã¾
Ãµ Ã¿Ã¿
V G
Ġhel ped
DQ G
ara tive
lig hts
Ãº W
å ł
Ġt arge
r equiring
ĠDe m
Ġlo oks
Â» Â«
cep tances
Ġsta ble
R IC
Ġ6 77
99 3
Ġfac ing
Ã© Ã«
presentation Link
definition Link
calculation Link
le b
Ġs pring
P ÃŃ
Ġinf liction
Ġab stract
é ı
d ow
Ġg ro
[ ÃĹ
liance s
Z W
| /
Rule s
å º
_ }
Â· Â¥
Ãĳ v
ad s
á Ĵ
Ch rist
âĢ¡ âĢ¡
ĠS us
P olic
Ġfin ish
ĠR oth
é µ
Ġap portion
ert y
ÃĿ m
Ġ7 42
Ġtri be
B asis
q H
W ORK
Ã© m
Ġconce als
Ġa ng
div orce
w t
8 39
Ġ ax
j ones
ĠCent ury
B Ãģ
î ª
ÆĴ I
ĠF lores
b age
ĠK ings
no rth
Arg ued
loo king
loa ded
F IELD
Ġsome how
q Ãĩ
Ã· Â«
Ġcomp uted
Ãº K
æ ĵ
ĠREG ARDING
Ġafter noon
Ġimp licate
h all
Ġdo se
ural ity
Ġm outh
Com ments
ĠIn corporated
Ġinter section
Ġproce ssed
Ġpree mpted
ĠCOM MUNITY
u v
Ġres ort
ÃĴ Ã¶
Ġafore said
charge s
C lar
& =
ÂŃ *
change d
Ġ7 12
Z U
Ġaba ndo
ĠK irk
ĠEmploye d
UE Z
Åł c
ĠD ECLARATION
ĠASS IGNMENT
ĠT ower
ĠSteve ns
ĠMINUT ES
Ġs pect
ĠPe nn
Ġna tive
L ong
ĠE ACH
government al
Ġcons ulting
o I
ĠEXEC UTORY
Ġver bal
Ġinv asion
ĠAct ivities
Ãº N
v ations
Ã¾ Ã¶
ĠEx pe
âĢĿ âĢĶ
M al
ÃĦ t
Ġ9 45
O a
ã ¦
ä ±
å ª
5 18
19 62
Ãĵ b
def ault
ĠPUBLIC ATION
7 06
ĠM obile
ë Ń
Ġindemn ification
Ġgun s
Ġsell s
p E
arr ington
Ã§ Ã£
A Ãħ
tor ious
á ¦
ĠFR ANCIS
ier e
Ġcr uel
pente r
0000 0000
Ġhe irs
ĠT el
86 1
ĠSim mons
Æ Ĳ
á Ķ
ĠIN TERNATIONAL
Individual s
uts che
é İ
ĠSam uel
B AR
Î Ħ
\ )
outhe ast
ã »
CO DE
P Ã¢
Ãĸ Ã«
A gain
ĠD EL
ECUR ITIES
ee ks
Ġf ence
í Ķ
Ġfo l
conduct e
Ġhealth care
Ġ5 91
ĠSP ACE
, (
å Ķ
, \[
Âµ T
Ch e
Ġappeal able
ĠR D
Ġs ch
AN O
ĠH U
Ġc fs
ĠMcK i
9 59
Ġlack ing
st rate
] >
like ly
ĠAsh croft
Br e
EC L
ï ĩ
T hank
Ġtravel ing
d W
u f
Åĵ Åĵ
ĠInc urred
conducte d
Ġ7 37
line ss
Ġres toration
D w
Ġcon vention
Ġdestro y
Ġfe llow
Ġ8 18
V N
Ð Ĥ
agree d
ä Ĥ
Ġ7 36
Î ĵ
Ġretal iatory
* !
68 9
ala ncing
Ãĩ Ã½
p al
ÃĿ Ã¿
Ġ ï¿¾
ĠMonth s
ĠTh urs
å ĸ
_ #
Cert ified
Ã¾ Ã¼
ĠHol mes
ai ving
st ation
Rail road
Ġ9 30
Ġproto col
; )
Ãĵ Å½
kins o
ĠOp tions
i Âª
Ġ Å¾
Ġforec lose
Ġcompete ncy
i w
~ Ã·
Ġsu icide
ĠE VID
ĠT Y
A Ãģ
Ġwh eel
Just ice
Ġqual ifies
Ġmat ch
] âĢł
à º
î ³
Â¡ âĢ¦
/ Â¿
Ġreco nc
Inte rnational
8 04
Ġ7 96
ÃĽ a
proced ures
i to
alth ough
Ġcorr ection
B OR
ine se
geo n
Ġ6 45
"""" """
Ġtime share
cle a
z w
Ġprotect s
DE FIN
ĠWa iver
ame t
ĠO C
Â» Â¿
Ġre servation
DD E
Ġinvestigate d
v ich
ĠPe rsonnel
kinso n
g ie
WITH OUT
{ Ã·
à ¬
ĠH ayes
elt e
app lying
Ġ7 94
Ġdemonst ration
Ġadjud ica
ĠOpe rator
ĠProced ural
Ã¶ G
ÆĴ t
oc ks
Ġnegot iate
V T
å Ħ
Stock broker
Ġin vested
Ġc ounse
ĠPe nalty
Ġ8 77
ander son
f ax
Ġran dom
Ġ7 88
Ġven dor
Ġlabe ling
ÃĹ }
b rary
Ġair pla
Ã© Ã¾
Ġ9 44
ic y
Court s
x L
Ġdegree s
4 78
Ġ8 34
n ha
ËĨ L
Ġf its
qual ity
z man
ÃĲ v
Ġpo stage
ca ting
B h
Ã´ Âµ
Ã« Ã¸
S aint
P Ã¨
\] .)
Ġprosec uted
Ġattrib uted
argument s
> !
Ġdischarge s
ĠSear ch
7 78
ĠSU IT
Z m
ĠC itizens
â »
^ #
V o
f ront
U EL
J ÃĤ
Ġre sentencing
? ï¿½ï¿½
ĠMar c
Ãŀ ÃĿ
ĠNone theless
Ġwo od
Ġ7 57
Ġ ÃĻ
ĠV iew
Âº a
rie fed
Ð ĥ
Ġ19 57
Ġdef amation
ĠA VE
Ġdisp arate
Z Ã½
Ġinfringe d
rNI Ãī
d H
act ually
86 9
ĠInter state
ro let
Ġ7 45
Ãª Ãķ
O s
Ãĥ Ã½
Ġs pending
D EDU
com mended
ĠW olf
âĪ Ĥ
ç ¬
Ġau ction
* +
D OL
ĠUt ility
Ġ ÅĴ
ĠVI OL
b ridge
pea t
âĢĻ ]
V II
ĠO wens
Ãº ÃĽ
ĠAnt itrust
anyo n
8 25
96 1
Ãª Ã¾
E ng
ins ki
Ãº A
Ãĸ Ãµ
lo rs
ĠS av
Â· ÂŃ
dia na
Ġmeasure ments
S j
ĠM IL
conspi rators
F X
Åĵ Åł
ĠK E
Ġanaly zing
Ġaccoun tant
SEC OND
Ġcorrect ive
ĠInspec tor
q I
ĊĠĠ ĊĠĠ
PH ONE
; âĢł
Ġse asonal
Ġp rudent
ä ³
Ġc f
belie ve
t c
M Ãĵ
æ ľ
Ġe vident
arr ies
Ãĭ r
Ġmandate s
ĠDig ital
Ãĩ Ã¾
Â° âĢĵ
Ġ7 11
write rs
Li n
ĠLin d
Ġ Ę
Ġexpans ion
Ġdelinque n
Ġge ts
i tol
Ġinvo ice
GIN IA
Âº ÃŃ
; _
l g
ite ct
ç ĩ
r ue
Ġdelinquen t
la bor
L im
ar ial
Ġcli mate
Ne v
Ġmus ic
ma ch
Ġi ngred
ĠH HS
ĠDISMISS AL
8 03
âĸ ¡
o Ã»
ÃĪ Ã¸
o ke
âĢ¡ Â¯
Ġ0 31
pt y
! Â¯
y ork
Ġpre tty
ĠInter ve
6 09
V B
z k
å ¹
Ġsure ty
âĢļ $
IST ICAL
98 3
ĠRes ides
ĠCERTIFIC ATE
print e
ĠWILLIAM S
86 4
Ġ100 1
Ġ6 52
âĢ¡ &
6 36
ce rn
Ġ ĠĊĊ
ĠS BA
8 40
L p
ĠD ise
al ready
î Ĭ
68 2
Le vel
ã ķ
Ġimport e
Â« Â§
ÃĤ H
ÃĴ ÃĿ
Ġsetoff s
V Å¡
ÂłÂłÂłÂłÂłÂłÂłÂł ÂłÂłÂłÂł
U m
ĠMer ck
ï ¢
Ġ âĢ¹
Ãº Ã¿Ã¿
ho rt
ĠP ine
ĠNE VADA
Z h
! :
P Ãģ
} âĢ¦
Ġdepart ments
ä ĸ
ĠDia z
Ġvo ir
Ġ6 44
ë ¨
ĠCons ul
Ã¦ Ãĥ
ĠV EN
Ġfish erman
ro vement
ra il
Ġexpa nded
ÂŃ _
Ãĺ ËĨ
Ġin dic
Alte r
ĠBo yd
ITION AL
Ġp late
L J
9 03
t arget
+ _
see king
le ast
ĠR A
ĠRece ipt
Ġ ïģ¯
Ġgra duate
C s
] âĢĻ
emp tions
ER R
lid ation
( âĢĻ
dee d
Ġinto x
g rieved
04 3
$ '
Go od
5 17
ĠMi nor
æ ª
cle rk
m us
ishe ry
Ġbo na
ĠAssociate d
ÃĹ Â»
âĢ¡ _
otte r
Ġpreven ts
- "
Â¶ Ëľ
rg uson
Ð ¼
ã Ł
Ã½ Ã¯
A q
ÃĲ E
ĠL ess
ÃĽ ÃŃ
ã Ľ
ĠCha ir
%; "
row th
Ġfederal ly
= &
Ġ6 35
r un
Ġrevision s
ur it
Ġb arr
l is
pen dence
Ãĺ T
ĠP SR
Ġcopy ing
ĠB asis
æ ĺ
ĠAir lines
Bo ston
Ch ristopher
Ġprejud gment
pri vate
Depos its
ĠEng ineering
b by
; âĢŀ
n apping
ÃĴ Ã¯
ĠImp act
Ġst ricken
ĠP as
M Å¡
RE W
ĠB owen
F t
é Į
Åł G
X k
Ãº a
ues day
Ġhundre ds
Ġe va
Âº N
ĠF IRM
ree ts
cept ible
Ġoccasion ally
serv o
P ol
Â´ Â©
ĠBar ry
x O
be a
68 4
ÃĤ Ãļ
ÅĴ Ãĳ
Ġre alleges
f iduciary
Ġreal ity
Âµ Ã¯
X E
Ġparame ters
E ffective
> ,
Ġ ÃĦ
sh eets
ĠN ash
ÃĲ ËĨËĨ
Ġem bo
su ng
Ġdefault e
Ġoffen ders
SH A
á ¸
ÅĴ t
ĊĠĠ ĊĊĠĠ
ĠAnt i
Ã° Å¾
Ġins urers
Ġqu ash
Pe nsion
Ġtotal ing
[ Â¥
Ġcar go
PUT ED
ANT S
ÃĲ L
ĠX XXXX
] ÃĹ
" Â¢
97 2
Ġharm ful
g mail
ç ³
é Ŀ
Ġann uity
ĠF al
N ES
Ġ7 59
ĠN H
ĠPre vention
Ġprof ile
ĠInto xicated
Ã© t
âĹ ı
Ã´ Ãķ
Ġdisp layed
ĠCent ers
Ġg raph
Ġ7 30
po ll
scri ber
Ãĵ Ãµ
ORT GAGE
b f
Ġhand gun
Ġ7 44
ÃĿ u
ss o
ÃĤ t
ĠS ar
19 65
itize n
8 47
ÃŃ Ã»
- :
Ñ Į
ĠPr ec
ĠCo pies
ete s
Ġ9 20
Ġpar ked
P U
C Ã£
ĠSu its
= âĢļ
ĠTe r
Ġmic ro
ĠRho de
! âĢł
Ġ7 46
ĠOpport unity
Ġexec utions
RESPON SE
ÃŁ Ã®
Ġ6 69
y r
Ġ5 83
Â° âĢ¦
A ction
oult ry
Ġtea chers
ma ha
z n
Ġwea ther
Ġdefaulte d
Â¶ Â¯
Ãŀ Å¾
ÃĴ w
Ġstock s
ï½ ¿
d ifficult
Ġr ipe
let i
ĠAUTHOR ITIES
B oth
ÃĪÃ¨ Å½
ÆĴ j
DEDU CTING
Ġ7 24
ri ge
6 14
Ġmo rt
mi nor
nth ia
Ã´ ÃĽ
ĠMi ke
ĠEar ly
ĠGO VERN
ĠLa Salle
07 3
U NDER
Ġanalog ous
Ġqu o
P LA
ĠIss ued
ump ing
Re view
ÂŃ %
9 10
] .)
n ut
^ âĢº
Âª Ãļ
ĠDe term
ÃĻ Ãĩ
Ġtrans feree
âĢľ Â¡
Ġpat rol
Ġ$________ ___
ract e
! %
ã ®
f arm
é ±
ĠBla ke
ËĨ Âµ
D irect
' >
N Ãķ
Ġbrea ches
ĠUS DA
ON A
Ġin ferred
Z T
proportion a
Rep ly
ê ¹
ĠBo r
rif ied
88 7
Å½ËĨ Ã¹
ÃĤ Ã½
IM IN
In de
âĢĵ @
p Ã¡
Ñ Ļ
no logical
ĠCH AR
Åĵ z
D z
Ġgu ard
lfr iend
Ġprom oted
ĠTru ck
Ã¿ Ãĳ
neg otiable
ce ptions
Wo od
ĠSEC OND
Ġscen ario
material s
Ġno m
ĠLi qu
ĠA LAB
a ÆĴ
S TR
î Į
ĠSan d
sig ners
Ġsub stant
Ã« Ã®
poin ting
âĢł âĢº
æ ²
ĠAss ignments
Ġdele gated
G ÃĪÃ¹
Ġdeclare s
STAT US
/) ">\*
D Ã¡
V io
Ġam ort
Â§ Ã·
ÃĤ w
g uilty
05 2
Ġexperience s
ĠPaper work
æī ¯
í Ĩ
å Ļ
ç ¨
Ġha zards
Ġsimultaneous ly
aff iliate
ÃĴ H
to o
ï¿½ï¿½ âĢĹ
represent ations
âĢł âĢĵ
L t
Ġ ol
g han
i y
âĢŀ ÃĹ
Ġw ildlife
d X
ĠJ ess
pro tect
ç Ĭ
l ings
$ ,
g mt
safe ty
F ourth
ĠFo rk
Ð Ľ
ĠPART Y
Â¦ Â¡
Â« [
hib ition
Ġrepea ts
Ġchoo sing
ĠC urtis
AN SCRI
Ð ª
vo n
Ãĵ j
Âº ÃŁ
k w
ÃĦ A
7 19
ĠL ITIGATION
u Ã»
ĠCon dition
ret al
ĠO h
Ġwarrant ies
Ġincorrect ly
Ãĵ U
Â« }
N U
ĠV is
å ŀ
ÃĴ ÃŁ
ĠInvest iga
Ġbe stcase
ĠMc N
racte d
ê ł
Ã¯ Ã¸
Not ices
ĠShare holders
Âª M
T im
ro d
ĠWe d
UBLISH ED
Ġ8 37
pate n
ue ls
Ġk ilo
ĠTH IRD
Ġf rust
æ Ĥ
Ġmo le
Ġfoc uses
ĠCont inental
Ã´ ÆĴ
R est
ĠAr nold
ĠB reach
ĠApp x
E ÃĽ
H M
con seque
fr iend
\ !
8 30
âĢŀ }
& '
67 4
ĠDe po
ĠComp uter
lica tive
âĢ¹ Â¡
leti n
ÃĿ Ã½
u h
Mi nn
A f
Ġwrong fully
Ġsurve ys
S Å½
O Ã¾
ê ´
ushe d
à ®
An drew
Ġnegli gently
CO VERY
Comm itments
ĠKo rea
Ġ7 23
Å¸ ÃŁ
ĠO range
DEFIN ITIONS
Ġcy cle
ĠM ASS
Ġstruct ural
work ing
é ´
Ġpers pective
le ave
wor ker
Ġpure ly
88 4
ĠALAB AMA
STAT ISTICAL
Ãº Ãļ
Ġ8 55
6 90
@ âĢ¡
Ã· Â®
if ier
Ġh ot
Ġ6 93
{ Â¥
ĠHON ORABLE
Ġ7 82
ĠR OS
Ġ6 60
ĠRe le
Â´ ÃĹ
ĠCODEBTOR S
á µ
r ling
Ã¶ Ã¶
ĠAma zon
disp ute
ÅĴ ÅĴ
B rian
â ·
S imilarly
Ġtarget e
Ġimma terial
ÃĪ Ã¤
Ġpremi sed
Ġtargete d
NOT E
& /
Ãŀ Ã½
IF Y
Ã¿Ã¿Ã¿Ã¿Ã¿Ã¿Ã¿Ã¿Ã¿Ã¿Ã¿Ã¿Ã¿Ã¿Ã¿Ã¿Ã¿Ã¿Ã¿Ã¿Ã¿Ã¿Ã¿Ã¿Ã¿Ã¿Ã¿Ã¿Ã¿Ã¿Ã¿Ã¿Ã¿Ã¿Ã¿Ã¿Ã¿Ã¿Ã¿Ã¿Ã¿Ã¿Ã¿Ã¿Ã¿Ã¿Ã¿Ã¿Ã¿Ã¿Ã¿Ã¿Ã¿Ã¿Ã¿Ã¿Ã¿Ã¿Ã¿Ã¿Ã¿Ã¿Ã¿Ã¿ Ã¿Ã¿Ã¿Ã¿Ã¿Ã¿Ã¿Ã¿Ã¿Ã¿Ã¿Ã¿Ã¿Ã¿Ã¿Ã¿Ã¿Ã¿Ã¿Ã¿Ã¿Ã¿Ã¿Ã¿Ã¿Ã¿Ã¿Ã¿Ã¿Ã¿Ã¿Ã¿Ã¿Ã¿Ã¿Ã¿Ã¿Ã¿Ã¿Ã¿Ã¿Ã¿Ã¿Ã¿Ã¿Ã¿Ã¿Ã¿Ã¿Ã¿Ã¿Ã¿Ã¿Ã¿Ã¿Ã¿Ã¿Ã¿Ã¿Ã¿Ã¿Ã¿Ã¿Ã¿
Ġpay s
ĠTrib al
under stand
Ġpar allel
F v
W ELL
COUNT Y
Ġconceal ment
~ Â©
Ġab usive
D b
> (
h Âº
Ã« z
ï¿½âĢı ï¿½
ĠFish erman
Ã© k
; :
ĠTh ough
Ġconvi nced
ĠL ack
vert ising
The y
86 3
03 2
Ġcompensate d
ĠSe tt
Ġgat e
st rom
H Z
age rs
Ġconcent rations
5 35
Ġinstru mental
ut ton
á ¥
G ÃĤ
l C
W B
Ã¿ N
. âĢľ
Ãº Âº
Ġfor warded
Ġredu ctions
Î İ
ny l
ĠLau ra
ĠA strue
K J
am ong
asse ssment
ĠJe ff
stitution ally
ĠCh ris
Ġ6 82
Ġinterven ing
ì ŀ
Ġ\* \*\*\*
Ġc igarette
11 12
Ġeight een
ass n
b reach
e states
ĠL ESS
ame la
Ġ9 50
iv o
ç ®
d g
G ar
ĠC ty
ad illa
âĢ¹ âĢ¹
ĠO pen
> "
ÃĴ N
Respon dents
vio lations
cont ractors
Ġre dacted
ĠA VENUE
a ÃĤ
Ã« Ãª
elect ric
L F
mer e
ã ¾
ĠMin ute
è ¯
rv a
ÃĹ Â®
ĠF alse
Y D
c n
ĠElect ronics
Geo rge
nso r
Å½ C
^ âĢ¢
Ġacce ssed
Ġ7 51
ĠM CC
Ġdiscri minated
Ġaccep ts
Ġinform ing
* âĢĶ
Ã¿ T
ï ĭ
Ġph ones
get ation
ET TS
Z E
Ã± Ãĩ
86 2
Ġunderta ke
Ġsp ine
ê ¨
IF TH
ge rald
conf irmation
5 24
Ġ6 47
97 4
ĠOR GANIZATION
Ġsuperv ise
ident ify
Ġmarket e
â ¨
ab etes
pri ation
ĠH HHH
{ }
Ã© Ãļ
discuss ing
Ġover whelming
Ġconstru ing
U nion
[ #
ĠD ur
Â¦ âĢļ
S alt
ĠG REEN
ï ł
pea n
ro ne
ĠAb use
Ġ6 32
Ġdis aster
- âĢ¦
n formed
B l
vi i
ĠAl liance
i us
ä ¬
ĠUr ban
Ġpollu tant
Ġ8 44
ĠI CE
ac cept
ĠNon main
which ever
% "
ĠRe tain
è Ĩ
Ġevery one
otte n
Ð §
^ âĢĻ
Ġcar bon
q A
Ġ Ã¯
Ġcompet itors
Î ¼
Ġt ro
ĠAutho rization
ĠSuperv ised
O PT
rre n
Ġproprie ty
Ġunder mine
! )
ffe d
Ġ6 41
à Ń
Ġshot gun
@ Ëľ
ra py
ĠLa ure
68 3
Ċ ĊĠĠĠĠĠĠĠĠĠĠĠ
Âµ Ã¶
4 21
gra mming
5 46
Ãµ M
printe d
Ã® Ãķ
Ġven dors
î ¡
nym ous
Ġen rolled
disc ussed
Cont ributions
Â¯ ]
aw ard
register e
Åł Åĵ
. ~
âĢĵ :
!! !!
ÃĲ Ã¨t
j Å¾
ËĨ Ã¦
Ġmat urity
Âª Ã¾
O X
é ·
Ã´ Åĵ
è ©
Ã½ i
Ġ6 53
# Â¬
l v
G Ã¿
be st
Con tact
Åł N
registere d
99 2
15 15
i ndicate
la h
ÆĴ H
67 2
Ġincorpo ration
M ad
Ġbelo nging
B ay
8 05
ĠDis abilities
Ã» Ã¹
Leg al
å ħ
Ġ7 29
Ġconsul tant
ol t
12 00
De ta
ĠPo n
ng o
Ġ7 48
Co r
Z o
Âº z
ÃĹ ÂŃ
Ã¢ ÃĤ
Ġdeba t
l ice
ON T
Ġdisp a
Ãĵ Ã©
Ġ Ĝ
Ġprom oting
u ing
Ġ66 02
Cons ideration
Ġhom icide
ÃĪ Ãľ
COM E
Ġforec losures
LE AD
Ġdis h
Â¶ +
k Ãļ
ĠPRO B
Ġno ise
Ġ7 54
Ġg reen
ĠHo ld
Ġst ro
ÃĪ Ã«
Ġch est
Ġdebat e
h c
IT URES
Î Ĭ
Ġli n
ir it
ĠM ICH
ĠWe bsite
DER S
Ġpro ximity
ĠF iscal
á «
co s
se ven
ru b
Cle aring
Ġcommen cing
exclusion s
stat us
ĠCo vered
ê ¢
rie l
ĠFree dom
Ã£ Ã¾
Ġdisagree ment
á »
b ow
ĠWy oming
ì ¨
# Â°
ĠMe rrill
Â» Ã·
Ġenj oin
Â¢ ;
Ã» m
st art
Ġclar ification
ĠEXP END
oph ist
ï ²
é ®
Ġ6 64
0 Â½
ge nts
7 18
I a
! `
Ġref i
N J
Ġreim burse
âĢļ Â°
R K
A ctive
Ġv ital
as ser
de pri
elte r
Ġwrong doing
ĠCap tain
inf ringement
ĠM ess
, $
Â· Â§
c ut
ĠEn ded
Å½ ÃŃ
j Ãĥ
ĠS han
Ã² Ãľ
Ġsuf fers
Ġrun s
Ġi ng
aw a
Ent ity
i ber
ra ce
5 44
ËĨ ÃŃ
î ı
Ã« Ãļ
Ġpost conviction
dr ea
Ġur ges
Re cords
# âĤ¬
id ation
ËĨ i
^ Â¯
âĢ¢ âĢŀ
Government al
Ġlev ied
ĠBAL ANCE
Å¡ l
âĢ¦ .
ĠVaug hn
I i
Â¤ Â¿
Ġre tains
Ġpipe line
Î ¨
ack nowledge
â º
dit ure
19 64
67 3
M t
é «
ÑŁ ÑŁ
p ack
ĠE agle
ne ider
Ã» O
âĢ¡ âĢł
4 32
A nge
Ãĸ Ãļ
ËĨ Ãł
li na
Ġ6 85
Ġ19 53
âĢļ '
to ns
â ļ
OM B
Ãº n
s ults
lig n
id o
} +
, /
arr est
Ãĸ ÃŁ
Ã³ P
K B
/), *
sec urities
ncel lor
ã ±
G d
Ãĸ Âº
perm itted
Ġwith hold
I Q
ĠRece ivable
! âĦ¢
Ġep iso
Åł Å¸
p ÃĲ
Dis c
ĠMan datory
Ġ9 25
ĠE IS
Y H
8 18
ĠGonz ales
Ġ5 92
: ~
Ġflex ibility
æ Ĭ
ä ģ
ĠLeo n
Ġ19 37
vio lated
è ¦
Ġ________ ___
Cons umer
Ã® Ã¿
Ġguarant ees
ou sed
é Ĵ
ĠLo ndon
ï¾ ¿
Ġsub sections
Ã» Ã¿Ã¿
Ġ8 47
à ¼
ä «
R Z
Ġma nslaughter
ĠW age
e ve
' _
ĠInc r
ĠCar o
otte ry
Ġg ames
ĠDepos its
Ġ7 70
ro gation
& >
ĠRich mond
î ©
Ġ19 52
Ï Ģ
ri nk
Ãģ H
ermo n
ï ¡
ĠSea ttle
Â© âĢ¦
decision s
Ġ8 10
Ġ19 48
lap sed
ĠF ERC
IR S
Ġinad verte
á ı
sta ble
ĠE ste
Ġgra b
Ã¶ ÆĴ
TA X
Ġab un
C ross
i ra
âĢ¢ Â¥
N ET
Ġ7 85
Ġ15 298
Ġde scriptions
Ġspecific ity
Ã¿ ÃĦ
` âĢľ
ĠEXPEND ITURES
Ġ7 73
ĊČĠĠĠĠĠĠĠĠĠĠĠĠĠĠĠĠĠĠĠĠĠĠĠĠĠĠĠĠĠĠĠĠĠĠĠĠĠĠĠĠĠ Ġ
Ĕ ĕ
Ã¶ Åĵ
Ġunconsc ion
ĠC AM
Ġtempo rarily
Ġ6 97
Ï Į
Ġ mentally
Ġwor se
e C
Ġ Ğ
Ġma gn
% (
ë ĺ
î ĭ
æ º
å ľ
- âĢł
Ãķ m
ĠP u
Ġ ĠĠĊĊ
- !
ĠContinue d
Â¯ [
ÃĿ z
ĠG reg
Ãĺ k
Ġmedic ine
ĠENTER ED
î ĵ
e sources
ĠU s
Â¤ âĢĶ
Ġsu dden
Ġ7 56
ĠMED ICAL
é Ń
w u
Ġinit iative
ĠB LA
Ġwar ned
ĠJo shua
a ults
Ġac tor
ÃŁ Ãŀ
Ġdemurre r
ia e
ĠCom b
# $
q Ãħ
000000 8
io tt
ĠS ENT
& Â¡
Ġh urt
Ex penses
Ã¸ M
Ġpresu mptive
I Åł
âĢ¡ ,
Ġcomp are
l W
Ġ9 02
Count ry
: ,
Ġm ild
Ð Ŀ
Ġ ą
ĠL OUIS
â £
Ġtrade marks
ê ĭ
Ãĵ k
Ġcomb ine
é ¿
Ã¸ Å½
invest ment
Ġ Ė
7 26
Ġdraw ing
n oted
ACH US
ä Ĺ
á ī
Ġpossess ing
E AS
uste r
ĠP f
ni k
ç £
lig ibility
L OR
tter ns
P Ã¦
Ï Ī
repre sentative
v ine
ËĨ Q
Â¦ âĢŀ
Ġsamp ling
ÃŁ o
á º
Ã¯ Ã¡
conc luding
Ġmachine ry
Ġvete rans
Ġdown ward
Ġcompr ising
ve ncy
Ġout set
å ¨
Pen nsylvania
Â¿ âĢł
nde mic
K m
ĠManufact uring
Ġdef ining
é ľ
utte r
Ã¯ Âº
hel p
Ġe ma
Ã¥ Ãĳ
e cognition
î º
e rnational
den dum
à ¾
Ġlog ical
Ġpla stic
Ġ9 17
sho rt
ÃĤ ÃĤ
D h
r esources
5 36
Ġe yes
ã Ĺ
ĠRe dacted
ĠDe r
b Å¡
ope rations
Ã¯ m
Ġrein statement
ĠHo mes
Ï ģ
Ġopio ids
è «
Ġfinance s
M ac
Ġe dge
æ ¬
Ñ Ĵ
è ¤
Âª j
Ġdisc losing
Ġverif ies
ru les
Ġ7 80
è ¶
! Â§
EL F
M el
Ġb alancing
Ġ7 55
âľ ŀ
ĠA na
è ´
Ġ8 30
U Âµ
ho spital
ÃĽ A
Âª v
Pr ep
Ġnumber e
6 07
Ġexc ulpatory
5 26
98 4
' ;
Ġeffect uate
Ġnumbere d
t ernational
ĠInstru ments
ĠD uty
æ ı
Ã« a
ÃĪ g
Ã© Z
ĠDis p
ĠZ one
s r
Ġ13 20
Â¿ {
Ġcon stant
Ġp eer
AM ERIC
Ġmis sed
Ãª Ã»
Ãĸ ÃĿ
Ġoutcome s
Ġ358 2
r ecognition
Ġburde nsome
ĠArm strong
é ĭ
Ġ9 51
Ġho r
G Ãģ
| '
ÂŃ âĢĺ
she r
Ġ6 80
ting u
ĠS ame
Ġprosecu torial
! Â£
âĢł \
Ġconform ity
rr ence
Ġ7 89
RIGH T
18 00
ĠDe ar
Ġ8 06
Ġexam inations
K im
. &
b ins
Ġmach ines
al lo
ĠPUR POS
Ġ7 49
-------------------------------- ----------------
ËĨ H
lt imately
ĠMetro politan
Åĵ w
ah u
ĠGil bert
Ã« m
Ġu nenforceable
68 1
ĠAbb ott
âĢľ âĢļ
lo cked
amet e
Ġvalue d
Ġallow able
ĠAt lanta
ÆĴ m
* #
Â± âĢŀ
su perior
å ¡
ÃŃ t
â ©
Ġe y
Â¥ _
Ñ ĳ
Â» #
Ã¯ o
Ġfree ly
ĠPAY EE
ĠPer centage
S cheduled
sh ot
Ġclar ified
Ass ociate
f u
f y
ĠUS ED
Ġbu ying
ĠFre d
ĠPal mer
Ã« Ã¡
Ã¤ q
Ġres id
J OSE
ĠNich olas
ĠB lan
ĠN uclear
: Â£
Ġ7 86
ÃĲ k
ĠV ER
A llen
ĠUn like
Ãµ Ã®
W X
: )
Ġher eafter
( {
% -
ÃĽ V
z A
Ġtransfer ring
ï ±
ĠBo e
| &
po p
Ġcoup led
Ġ ÃĴ
ĠPar ish
8 79
āā āā
Ã¸ Ã¿
nes day
ĠVe rizon
i Ãļ
ĠB ob
Ġweigh e
âĢ¹ Â¶
h d
Ã² Ã¨
ĠDic tionary
rep airs
ã ħ
Ġout put
xÅĵ ÅĴ
Ġ um
Ġpie ces
Ġ8 09
I ÃĴ
^ Â»
G iven
ÃĪ k
know ingly
âĢľ âĢŀ
Ġquant ities
x D
POS S
Ġsever ally
} [
ĠMARSH AL
K INS
_ .
ÃŃ n
Ġmarkete d
} =
Â½ 4
6 22
ish ings
aye tte
Ġcustom ary
âĢĻ #
c alendar
ĠW KH
p Ãĵ
Note s
ĠV AC
! [
R N
ĠH offman
pe rma
å ļ
Mart i
5 45
Sen ior
ĠC AN
l q
88 3
ì Ĵ
Ġ6 96
â ¦
ç ±
n ternational
Ġdet ection
vict e
CON TR
ĠA DD
ĠJ am
âĢł âĢ¡
ĠE lection
Âª Å¡
ÂŃ $
Ġ9 07
CAP TION
Ġpre siding
Ġamen ding
ÃĪ a
AR M
Ġpresu me
La t
Ġin quire
ad jud
j j
å £
amete r
Ġpre sumably
Ã£ Ã½
Ġcha ir
Ġterri tories
âĢł âĢ¦
ĠER R
se vere
victe d
Ġac ute
mid t
#Â¢ >
EL IMIN
Â½ 6
ĠB ER
MARK S
Ã¬ S
08 3
X J
6 39
z ier
; @
ÃĿ w
âĢŀ /
ĠM RI
Ġ8 95
I l
Ð Ī
ĠS olic
4 31
ÃŃ v
X Ã¡
U J
Ġcharacte rize
d ig
CL ERK
ĠBo nds
ad ded
Â¯ ~
K ansas
ĠH ours
ĠO WN
- =
ion e
Ġw aiving
ĠPal m
Ġ ......
ĠCo s
æ ĥ
e ne
reference d
ÆĴ O
Å½ q
Ġtic kets
affect e
Ãª Å¾
ul u
Ġcusto dial
ar bitration
c laimed
ld g
Ġun successful
affecte d
nue l
Â¤ âĢľ
ï· ¿
ĠAdjust ment
Ġre lator
> #
Ãµ u
TY PES
ĠAb sent
ĠčĊĠčĊĠčĊĠčĊ ĠčĊĠčĊĠčĊĠčĊ
Ġun warranted
88 2
ACHUS ETTS
ĠCIR C
î Ĵ
X O
report s
Ġweighe d
Â· ]
ĠH eck
Ġargu ably
it u
Î ł
Mat thew
Ġprocure ment
U nknown
ĠCont ributions
La ke
Ġ Ã½
Ġra ta
t erro
equ ity
Ġr ound
Ġtra ve
ca des
neg ot
ì ª
ì ĳ
Âª h
Ãº ÃĴ
Âµ K
ĠV ale
! âĢ¡
ĠCont inu
t ha
Ġcap ability
I r
V Å¸
SB C
ã §
ã ´
é ¾
& +
Âµ k
Ġ5 82
] )
M Z
i rable
7 14
ĠP ENSION
Ġconce rt
E Ã³
96 2
î ²
x N
ĠAm y
ÃŃ W
08 2
ĠSe lect
Ãķ Âº
Ġfac simile
su f
Ã¡ Ã¿
Ġ6 65
Ġ6 63
8 06
~ âĢļ
ĠS SA
exerc isable
Ã© ÃĿ
H y
Ġele ven
. )(
Ġ13 25
á ļ
ĠL AND
Ãĵ Ã´
i nternational
î °
Ġtax payers
X N
Ċ č
é Ľ
Ġbe n
. âĢĵ
con stitute
Ġinvestiga tors
Ġinspec tions
ĠInte ntion
ë Ķ
Ġsec ures
Â¡ âĢĺ
ĠEn d
cent ral
ĠRan dolph
ĠSurrender e
Ġparticular ity
ĠSurrendere d
O nce
ĠP S
; Â»
Ġsurv iving
ĠRede em
Ġexec uting
Ġte ndered
ĠK ay
ilo r
Ġper secution
Ġfac ial
ĠLo r
Ġ Âº
é °
Ġpre dicated
Ġ9 06
Ġj un
â ¾
ĠM eyer
9 19
_ Â§
ĠSp ace
ke rson
Mo o
tor ing
ĠB ear
Tra de
ĠS imon
' !
ÃĲ Ã¸
ch t
Ã® Ã»
Ġp ull
ËĨ Âº
pro ve
Î ¥
Ġrecording s
ĠNa than
E I
s pee
Ã¡ Ã¡
Ġnon debtor
ã ·
î ±
âĢł âĢ°
L ess
Ãº Ãŀ
8 77
v Åĵ
Â¤ âĢ¢
D ue
cont rary
Ġ ć
Ã¼ W
Ab stract
war rant
Ġe e
Ġ6 91
P W
Âµ O
Ġequiv alents
s tock
ta king
ĠBas i
Ġ7 21
th ink
Âª I
Ġunderta king
Ġinhere ntly
Ãª Ãª
ĠPri nce
Ã¿ Ã§
Ġdistrib uting
schedule s
Un less
Ġretro actively
r ut
Marti n
á ĸ
cons piracy
Ãģ S
PA ID
Ġ6 86
Ãļ Ãĥ
ermon t
Ġ6 61
/ ,
ex cess
ĠCont ents
Ã¯ K
ÃĤ l
R m
Ġnation wide
ĠY EAR
ĠRe affirm
IN O
ÃĴ O
Ġe f
w arding
ĠVIR GINIA
han ie
? ^
_ Â«
Ġcross ing
Ġseven ty
Ġ ĊĠĠĠĠĠĠĠĠĠĠĠ
con ta
Ġexped ited
Pre sident
depen dents
Ġlo ck
Ġup stream
å ĺ
Ident ification
Ġcon st
sen d
mar keting
Ã¿ Ãħ
Ã© w
do mestic
ĠI ng
- #
A Å¾
â °
ĠD VD
ĠT ha
09 1
rig ation
05 3
ĠExt e
Ġimporta ntly
Ġ8 42
+ #
Ġdis bursements
ç ĭ
LIN E
ĠS F
Ġappropri ation
ĠL AST
ierre z
Â£ ;
ĠMemo rial
partic ipate
char ging
Ġf lo
ce y
n ÆĴ
ÃĽ Ã»
L ow
m ass
ĠF il
po ly
RIST OP
Ãĺ D
âĢŀ :
Ã® Ã½
p Å¸
d ited
Ġarbit rate
exerc ise
ĠINC L
d z
Ã© o
Ãļ w
5 27
Âµ U
î ī
Â» âĢļ@
Ġst rug
Ġt i
Ġdro pped
e llectual
xo n
m h
Ġ ay
t ellectual
ê ¦
Â¬ %
em b
Ãµ Ãĸ
Ġserv icing
t Å¡
Ãģ ÃĲ
ĠSUPERV ISION
Ġcharacte rization
Ã¸ O
âĢŀ (
unning ham
ĠO BJ
ÃĿ o
i nformed
âĢļ ;
Â¥ Â¿
ar bit
Â¢ âĤ¬
ĠConso lidation
ĠSte phe
Ġeas y
âĢł Â·
Ġ13 91
ĠNorth west
AR I
Ste phen
Â¶ Â°
Ġ________________________________ ________________
ĠUn iversal
ĠProf essor
Ġ Ã¾Ã¾
n dicated
Â® Â®
V ISION
Ġ orient
ĠZ a
] *
Ġauthen tic
conven ience
EF IT
ld man
.* ,
un o
ĠSc ientific
v Å¾
ass isted
lo qu
Ġmechan ical
ĠCar roll
ĠE p
âĢł âĦ¢
Â¬ Â¡
ÃĴ J
ĠSum marize
î ¹
ĠN urse
Ã« Ãŀ
Ġoffe st
6 28
Ġy ard
Ġpasse ngers
Ã¯ Ãĵ
ĠR IGHTS
Ã¿ Ã¦
âĢľ {
S am
ĠTRA DE
Ġimp lications
ĠParticipa n
Ġ7 33
Ã¡ Åł
ë ´
ra el
Â´ Â«
Rese rve
ĠParticipan t
n tellectual
cons oli
ĠM iles
t ible
ĠGree ne
EL LE
Ac ceptances
Be nef
Ġasse mbly
ASS IGNMENT
Item ize
Ġ6 98
Ġ8 40
ĠHar vey
Ġfield s
isting u
C Ãĥ
Ã¤ x
leg is
n Å¡
Br ien
âĢº _
é ¤
Ãķ Åł
Ġcle ared
Î Ń
} ÂŃ
t g
Ġ6 99
5 28
Ġs n
who se
Ð Ĭ
ĠN umbers
Ġ6 42
ri torious
it ro
agree ments
one r
ĠBasi n
n mate
p u
ĠChev rolet
Ġtra ce
Ãĳ x
' &
ï¿½Â¯ ï¿½
le ngth
i ntellectual
ĠL R
ĠAcade my
ĠL ET
Rock ford
Ġs kin
Ġvete ran
Ãº Âª
DU C
ĠSh ield
S pring
sub mit
Å¸ Ã»
procee ds
Ġme al
ĠTra velers
ä ª
Ġcro ps
Ġ6 84
ĠSUPERV IS
âĪĳ âĪĳ
âĢŀ ?
ut ierrez
Ġair port
Ã¸ k
ĠCat egory
Ġ8 08
ËĨ ÃĤ
~ âĢĵ
Î ĺ
ĠF idelity
Ġhigh light
Ġla b
ĠDAM AGES
p L
Ã¶ Ãĸ
s l
Ġv ast
recogn ized
âĢĶ ÃĹ
Ġ9 10
ĠO pt
[ Â«
Ãĥ Ã¾
ĠPRO GR
s tore
ELIMIN ARY
R i
u M
H AR
5 41
H USBAND
ĠD ale
Ġ ĝ
Con stitution
Ġ7 52
ann ually
Âµ N
ĠTX SB
Â» ]
é ĵ
ri sts
09 4
s ser
control s
ÆĴ Ãĵ
Ġad ults
Ġcompri sed
Ã¿Ã¿ Ã«
Extension s
Ġadv ising
ÃŁ K
â ¯
ÃŁ I
é Ķ
ĠAr med
\ -
Ġnu isance
min imum
Ġp ocket
q L
ĠR un
B ERS
ama tory
Ãº V
x us
Ġenroll ment
Ġob struct
S BA
ĠV incent
Ġdisagree s
à «
ĠPos session
, Â¡
f lu
Ġb riefed
96 3
ĠTo yota
object s
Ġbon us
F IG
> @
Ġ8 75
Ãĳ Ã´
M ur
U a
Ġ ā
qui n
ĠM ob
ĠArg ument
ĠPROT ECTIVE
Ġful f
} -
H earing
Ġsub poenas
^ Â·
ĠAre s
Ġv ision
Ġune quiv
Ġsupp lier
Ġ19 46
Ã¶ ÃŃ
Âµ Å½
ĠVEN UE
Ġrede mptions
ĠTC PA
Ġconfront e
Ġca nce
hat tan
ub ic
} ;
ins ufficient
Ġconfronte d
ÃŁ m
Ġconven ient
C ES
rig gs
ĠMAT TER
_ ÂŃ
pa nic
Ġaid ing
e ferred
ĠSpe ncer
Ġj ournal
ans wer
A lign
Or lando
â ª
Ġspecial ized
Î «
Âº Z
ĠC Y
P lace
Q M
ê ¬
Ã± Ã¾
G AR
8 16
Ġintera ction
yl la
Ã² n
Part ies
ËĨ Ã¼
ala n
agen t
Ġitem ize
Ġ7 68
Y E
A Ã©
Ġpro nou
if et
t Ãĵ
Ġre action
ĠTe rri
w z
Ġ11 00
asse rt
96 4
5 19
7 12
Ob j
K D
} :
Ġlow est
Âµ Ã«
Ãº Ã¡
ê İ
) $
' #
Ġ Ãĸ
ra ised
é ¬
be yond
Ġanti ques
ID AV
Ġreco lle
* -
Al so
Ġpra ys
r eferred
lus ive
a mend
Ġ7 53
âĪ ŀ
Â¦ âĢľ
ÃĴ T
ĠRe tail
Ġ Ã¶
Ste ven
EL D
Ġany body
RISTOP HER
l T
ÃŁ z
é ¯
partic ipa
pan ish
POSS ESSION
ĠTe n
06 3
ĠMer ger
p ine
âĦ ĸ
ÃĲ g
5 33
06 1
Â¤ Â©
ĠS IM
Ġauto mated
Â± [
b acco
K W
Ãµ Ã¸
å ¸
Ġ Ãª
ĠOrder e
Polic y
ĠBar nhart
ĠRo yal
Ġcomp lies
Â¦ Â¶
é £
Ã± a
V ICE
âĢļ Â¡
lig a
ĠAD OPT
í ĺ
C Ã¡
Ġdocument ary
t B
li gent
A ÃĦ
Ġear ning
ĠOrdere d
ë ¸
âĢĺ âĢŀ
Ġ9 46
ĠGe rald
Ġ8 43
04 2
ĠAnswer ing
é Ļ
Ġt ies
Ã¹ n
à ½
F AC
Ëľ !
ĠLIN ES
ĠP k
9 30
5 66
G Å½
Ġmy self
ĠT S
Dis ability
k z
W IS
Ġ6 83
Rich mond
Ã¯ Ãŀ
ÃĪ Ãº
Credi to
ĠS B
Ġ7 19
Ġtri bes
Ġli gh
Ġenjoy ment
03 00
s al
Ġg lass
Ġ7 39
} Â«
ËĨ Ã½
Ġla undry
ry e
Â§ *
Ġ19 39
LI QU
Ġpar aph
Ã¹ Ãĩ
ĠCan adian
Ġ Ãħ
: ?
ĠMedic ine
ĠHamp shire
âĢ¦ #
Â° Â°
ĠE r
Ġint ra
Ġ organic
R n
Ã¶ Å¾
Ã© Ãķ
âĢŀ ï¿½ï¿½
Ġweigh s
5 38
Ġno vel
U Ãķ
Ġpredecess o
âĢ¡ +
7 15
Ġpredecesso r
ĠP sN
ĠDe mand
ĠRece iving
ĠBro thers
Ġ Ã¼
Ġse conds
K y
08 4
Ãİ Ã§
Ġ13 26
Ġaware ness
fortuna tely
Ġsy mb
t ÃĤ
ĠCle ar
, ~
Ex plain
Â¥ Â·
R G
ĠCOM B
9 40
ĠWa ste
O OL
bec ca
í ĩ
Âª m
Ġf n
Ą ą
sta ff
" âĢļ
ĠST OCK
complete d
98 2
Sh aring
ĊĊĊĊ ĊĊĊĊ
GA O
ĠWe bb
Âº ÃĿ
Appe als
S ystem
Åł p
his tory
Ã¯ I
ession s
h F
Ġdelibe rations
U Q
E a
U Y
Ad v
Âª Ã«
ĠM OT
5 21
p arents
ĠT RE
incr e
é ļ
e sults
H am
æ ĭ
E m
Ġreg ards
Ġ8 45
pos able
ĠWH ERE
Ġalte ration
ĊČĠĠĠĠĠĠĠĠĠĠĠĠĠĠĠĠĠĠĠĠĠĠĠĠĠĠĠĠĠĠĠĠĠĠĠĠĠĠĠĠĠĠ Ġ
Ġm ig
Ġr ings
Ġ19 25
Ã¾ C
discharge d
b ad
A gency
avo id
Ġ9 56
ÃĹ âĢł
Ã¿Ã¿Ã¿Ã¿Ã¿Ã¿Ã¿Ã¿Ã¿Ã¿Ã¿Ã¿Ã¿Ã¿Ã¿Ã¿ Ã¿Ã¿Ã¿Ã¿
m ia
Ãµ O
" ]
âĢ° âĢ¡
Ġ Đ
Ġt am
Ġd iet
L ee
Ġf ro
LQ J
S ECTION
Ã» ÃĿ
Ġlat est
| ?
poi nts
GA IN
rv ille
ne se
a ka
v arez
Ã¾ Ãģ
âĢ¹ (
á ķ
ĠGo mez
dor sed
e q
Ãµ z
C OU
ï¿½ï¿½ï¿½ï¿½ ï¿½ï¿½ï¿½
î ¸
da vis
. @
Ġconne ct
ER ISA
prep ared
p Ãī
Ġwire less
Ġpract ition
X R
Ġ Ě
ĠS I
Ġp m
ï Ĩ
Ġ7 67
Ã® Å¡
ÃŃ Ãķ
gra de
Ġ ought
Ġ6 81
ì ĵ
ĠDun n
Ġde structive
arg ues
r esults
ÃĲ ÆĴ
^ Â«
Ġgene ration
K u
ĠCh inese
na tory
g f
ĠV as
Ġbo a
Ġconclus ively
******** ********
ANSCRI PT
Â¦ Â¿
Ġwan ton
Ġdown stream
ë £
ĠQu arter
Âµ Ãº
ne a
Ġfact ually
Ġu h
Ġbe gun
ĠJ URISDICTION
é ½
Ã½ ÃĿ
CH ICAGO
Ã© n
Ġsta ges
Åł Ã¢
Ã¹ c
Ġsupp liers
5 34
ds o
& Â©
ë ħ
> âĢļ
Ġ9 27
Ãĳ ÃĦ
lue nce
Ġret rie
interpret ation
Ãª ÃĴ
Ã¼ G
U u
lin qu
ĠL loyd
ÃĤ Ã¡
x B
ket eering
ĠC BA
ÂŃ .
Ġ Ã²
ĠGRANT S
Ã¤ u
i nmate
CLAIM S
5 37
ËĨ Ã»
ĠM ISS
to w
A i
æ ģ
st y
r ewith
Ġ8 17
otte d
Ġle nders
ar th
7 27
# Â®
Î ²
âľŀ âľŀ
Ha n
î ĳ
Åĵ C
ã į
ex pen
E li
ĠJ A
e rewith
Åĵ Z
IDAV IT
Â¨ (
Ġc arries
ĠEL ECTRON
s ides
under lying
[ Â§
Ġ9 03
h erewith
âĢł ?
é ĸ
ĠLu is
ĠD odge
! @
Âµ u
Â» Â¥
cont rib
as ures
Ġprec lusion
ĠM gmt
Ġthink ing
Ġ6 95
Je ffrey
there d
ĠS nyder
Ãģ Ãĵ
n tity
ĠTa ke
la homa
ĠJ ob
Ġst ringe
worth y
Ġapproa ches
Ã´ Ãŀ
ĠGuaran ty
ĠSa nctions
ĠClin ic
V Y
á ®
con str
Ġ7 65
ĠL IB
Â¶ Â¡
ĠDi amond
Ġcap tion
ĠSu ccess
ì Ķ
ê £
Ġfac to
H AL
v ÃĴ
ĠD ixon
Ra t
Ġlea der
REQU EST
ad lines
ye n
Ġaccor ded
e commendation
Ð Ń
ä ¨
ĠDis crimination
paten t
ĠT emporary
P ×ķ
e vent
ê ī
de p
f und
ĠJ ac
COMP ANY
E le
ĠISSU ED
ad verse
Ġ7 76
Ġ7 66
gge d
v c
Â° Â·
rem aining
W Ã»
W ill
Ã« o
ud y
ÃŁ u
Ġlabe ls
î İ
j ob
S ur
Ġ________________ ____
Q ual
ĠWH OSE
G Ãĭ
car riage
å ²
> âĢĶ
per formed
` âĤ¬
ĠDO J
ĠAu tomobiles
/ ^
Â² 7
r ecommendation
rev iewed
ÃĲ z
7 09
ĠCon stitutional
ou b
under ing
ar ks
a na
Ġsan d
m w
ĠIN STITUTION
ĠJe welry
Ġ6 71
Ġimp acted
ÃĨ Ãĩ
UN IC
@ âĢº
ĠS L
Ãµ Ãª
$ Ëľ
ĠD A
Ġaba t
Âº o
Z Q
r h
ĠA RI
No s
Ġnarrow ly
Ãĸ Å¡
ly nn
Â´ ]
Ġ8 13
Ġex it
P AC
ĠMc Car
Ġenc losed
Â¶ *
Mo nthly
Ġconce ssion
Ġ224 4
Ã£ Åł
ã º
San ta
ĠRo me
umb ar
Ġ Âµ
Exec uted
ĠCAROL INA
rren t
ĠTrans fers
ĠSubsid iaries
p cy
Ġp istol
ĠSu perintendent
ag ues
Ġadjud ged
ĠS yn
ĠB arr
_ Â®
a H
el f
Ãµ i
ĠTEC HN
ĠADMINISTR ATION
ew ay
Ġ7 32
stand ards
z ational
B RI
Ġalternat ively
á ĵ
ld o
s che
c ra
CH AR
S ECURITY
ac comp
Ġabat e
Ġiso lated
# Â©
Ã´ Ã¯
ÃĪ H
Ġfail ures
ĠKim berly
Ãº w
ave rage
ĠSho r
ĠT uesday
Ġappro ximate
PER IOR
Â½ Â¾
A ustin
Ãķ S
ê ¡
s ocial
ĠArr earage
Ã± Ã½
S un
: @
ĠA gu
Ġshort e
Ġma mm
th yl
ĠL owe
qu arter
ĠP LC
ĠB loom
RE T
Claim a
Ġserious ness
Ãı Ãı
to rt
Ġlives tock
Ġatta i
ë ĩ
Claima n
ĠN u
Â¬ ?
Ġass ured
PRO CEED
ĠF IG
ĠSt art
Ġ ė
ven tory
ĠWill is
Claiman t
m r
P Å¸
ion a
âĤ¬âĤ¬âĤ¬âĤ¬ âĤ¬âĤ¬âĤ¬âĤ¬
ä ĥ
Ġr ig
Ġrelie ve
Ġmi nors
ma tters
Me dic
ËĨ l
U i
op les
asse ss
MH T
B s
lus ions
pa nts
fun ded
ã Ŀ
X K
Ãŀ Ãĥ
ĠR iley
licen se
ã ĭ
nce n
C usto
ĠR OD
N ATIONAL
Âª ÃĿ
ĠHis tor
ËĨ Ã¾
Ġele ctions
h ÅĴ
! /
ĠMICH IGAN
ÂŃ :
\ "
Ãĺ V
Ġ7 34
m iller
Ã´ a
Ġdivers ion
- >
Ãĳ n
ï °
ĠCons ider
ĠIn j
od ities
â¼ Ĭ
Ġ035 01
ÂŃ ;
POR TION
Å½ Ãģ
M other
q ÃĮ
ä ļ
Â° âĢ°
âĢĺ ÃĹ
ĠAN GEL
Ġ8 66
w all
undre d
ĠW ORK
aff irming
Ġ oxy
s ales
5 49
ic it
M CR
COLL ATERAL
ĠRespons ibility
R F
Ġpay ee
= âĢŀ
ĠLa undry
I bid
ĠG ri
Ġcomm odity
Ġe vide
Ġ Ã¿
Ď ď
Ã¾ Ã¿Ã¿
Î ĳ
Ġ _______
Âµ Ã©
ĠSec ret
ĠDel ta
% $
ĠKe lley
S s
ĠSh op
6 18
ĠOW NER
ca mp
tho mas
Ëľ "
Ãĵ Ã®
Ġvide os
08 1
Ġchannel s
asse rted
Ġmemo randa
Ãº Ã®
å Ĭ
âĢ¡ Â§
ĠMo rrison
Ġvote s
Ã» j
ĠFi nancing
OT H
illi p
m iddle
Ãº t
+ [
IN COME
ĠNo rman
V F
g c
Ġgar age
âĢł Â»
6 26
Ġfa st
âĢļ /
ĠH ard
RE PORT
Ġ od
} $
rp ts
Í ²
Ã² C
âĢ¡ Ã·
ĠEx amples
bk forms
Ã³ Å½
_ Â»
Ċ ĊĠĠĠĠĠĠĠĠĠĠĠĠ
ĠRo ger
NE E
ri um
Ġarrange d
Q T
6 55
ĠHar bor
Ġ8 12
} ï¿½ï¿½
it ious
ncip les
Ãµ Ã¡
/) ">
d well
Âµ j
Ġ ě
âĢļ :
ĠF lex
graph ical
G ÃĪÃ¨
Ġhe nce
are ntly
Âº Ãļ
8 70
Ġg asoline
th reate
fin d
â ¥
Ġlite rature
Ġatt est
simp ly
ĠT u
} %
Ġcontinu ously
Ġf ounded
Ġ8 24
ĠMayo r
Â° ï¿½ï¿½
ĠR S
n ley
ç ¸
pla cement
â Ń
W estern
Â¿ âĢŀ
In structions
li ved
X H
o N
ĠSetoff s
R AM
ty p
ĠF AX
ĠTra vel
Ġne xus
ĠDol lars
æ ĸ
ĠA aron
unt e
ERS HIP
Ġspea ks
Con nor
Åĵ B
å ¢
Ãĺ h
Ġ8 07
á Ń
ë ¬
čĊ č
DE Z
ighte d
R ay
H ol
Âº Ã¶
ĠTe ll
Pro gram
St art
ĠU sed
ĠCar los
trans action
A Âª
9 07
ĠL U
n ically
ì ķ
Ġli brary
Ġpe net
ÂŃ =
ĠIN TENTION
Ãĥ i
Ġap preh
âĢĵ âĢľ
Ñ ľ
Â´ ï¿½ï¿½
p Dt
@ âĦ¢
Ãµ ÃĴ
ĠB art
Ġmor al
5 48
e nough
Ġtax ation
pri ations
Ġsur plus
âĢł "
ĠC ance
Åł ÃĤ
Ġcooperative s
A w
Mi nneapolis
ĠST IPULATED
âĢł âĢ¹
A Å¸
contro lling
ĠPk wy
ä ©
ÃĲ D
li x
6 16
Ġpain t
I Ã©
issa n
Ġoffe nsive
ĠDun can
Ã» U
Ġvote r
ĠDis bursements
Ġdisturb ance
Ġ đ
ĠO cean
ĠLe ased
Ãļ b
06 2
un lawful
B order
ĠCO ST
ĠP rudential
ĠTra ffic
ro politan
Ġd ark
é ¦
Ġstat utorily
Â« Â¿
ÆĴ d
å ³
Ġimperm issible
06 4
ĠO ahu
ĠL IST
b as
EL Y
Â£ Â£
Ġ9 04
ĠRE POSSESSION
ala t
Ġopio id
Ġcha mbers
al one
Ġform ally
PLAINTIFF S
Ġvide ota
ë ľ
Ġine ligible
Ãµ k
); ;
ĠTH OSE
ĠF ran
ĠCh em
ex haust
ë ł
q e
ĠDavid son
Â® Ã·
Â· ^
Â« {
y y
Ġi o
Â¬ /
ĠAff irmed
ope rating
Ġsto od
6 46
Ġad mon
Ġbul k
Ġdefen ding
ï ħ
Ġ19 30
ĠD OL
Ã« Ãĸ
Ġuni lateral
Ġ6 72
Ġc ou
V irginia
z O
Ġ8 16
Ġb are
time ly
ĠX X
Ġla yer
# =
æ İ
ĠFor feiture
man ner
Administ ration
Stand ard
é ¼
ËĨ Ã²
Âł Ċ
ĠCar ol
} âĢĺ
ÃĦ B
é ²
; ]
ic i
Ġ8 51
ì Ĺ
Ġconta iner
DD G
Ġpur ports
Ġwas h
m ped
WH G
ĠX I
Î ¦
Ġyou nger
ĠSara h
Ch ild
R c
Mat ix
å °
F ee
ĠT T
ĠAres Matix
B RA
' ~
R ENDER
ĠMASS ACHUSETTS
ĠDan iels
Ġe a
EM C
Ġadministe ring
of fer
ousa n
é ¹
ĠAir port
ĠSP ECIAL
ĠD raft
ÃĲ l
ĠC AT
Ġamount e
Ãģ ÆĴ
Ġpic ked
Ital ic
ÃŃ Ã©
ÃŁ Ãª
new s
Ġconne ctions
Ġin competent
Ġun safe
Ġtim ber
Ġamounte d
Ġ9 88
3 Â²
Ġhar bor
UT E
A h
va tor
15 11
ĠC ASES
O nly
Ġ8 14
s d
Ġf u
Ã½ Ã¼
ĠD ick
Ã¯ N
ÅĴ Ã¬
Ġ6 70
ì ĸ
ĠPet ers
Ġno tion
á ¯
Ġe ffic
ho sp
Ã» Ã¡
Â« (
; /
r ell
âĢł (
Ġ6 92
St ep
> &
Ãļ ÃĽ
Ġ oe
o ste
Ã¿Ã¿Ã¿Ã¿Ã¿Ã¿Ã¿Ã¿ Ã¿Ã¿Ã¿Ã¿
US DC
Ġres tore
âĢ¦ !
ÃĤ g
ha beas
Ġsus ceptible
br ought
Ġag grieved
ĠSubsid iary
s imilarly
34 00
5 47
se cret
ê ¥
; %
Ëľ âĢŀ
gr e
ĠR ol
ust ice
Ġborro wers
M ean
Ġ13 67
ale gal
Ġborro wed
As set
ĠPROCED URAL
Ġcircu its
} Â®
, %
ĠChe n
Ãħ Z
ĠMont e
form a
Ġligh ts
Ġinterro gatory
ĠTro oper
ĠH ob
Q C
Ġ11 01
ĠH ear
St ar
VEL OP
n ous
Ã¿ ËĨ
Ġobject ing
ĠT ul
we i
PR M
urcha ses
ĠFurn iture
Ġinter mediate
ĠS acramento
ĠCAP ITAL
Ġsh ipment
Y K
T Ãķ
za n
V ol
ĠCh rysler
~ ï¿½ï¿½
AS TER
worth iness
comp licated
X C
ï Ĭ
ER Y
ÂŃ âĢļ
$ âĢĶ
ob tained
hor e
rick son
In deed
ĠCOMPLE TE
F amily
Ġsignal s
ret e
Ġl ifting
ÃĤ q
ç °
Ġa nc
ĠE A
r us
Ġ ox
Ġdete rio
n itial
î ¨
Ġsumm arily
Ġ9 54
th us
á ĭ
Å ¯
Ġteach ing
U l
ĠOFFIC IAL
ĠAb ra
Ġwide ly
` âĢº
li ve
ĠPr ese
der ness
ut ually
Â¯ Â¶
ow itz
un da
d ged
å ĭ
Ġmechan ic
Ġt ied
Ġconte nding
ine ffective
J URISDICTION
ê Ķ
ĠAndrew s
ÃĦ H
Dec ision
k Ã©
Ġtele communications
Su ch
de t
Ġstab ility
P Ãª
Ġpre servation
# "
ret urn
Ëľ Â¦
ã Ĭ
âĢ¡ ÃĹ
ÃĿ i
Ġma xim
Ac cess
ë ¡
ï ¦
Ãº Ã¸
Åł Å¾
i ton
Ġexpen diture
ĠQual ified
Ġle nding
ĠS ab
n Å¾
ÃŁ a
ill ary
Åł Ã©
Ã° Ãĵ
log ists
Ġ7 58
Ãī Ãģ
âĢ¦ ÃĹ
= +
ĠProvide d
part ments
Ġ7 84
Å¡ ËĨ
Ãº v
ĠSimp son
ĠShor e
Ã½ ÃĴ
ĠD il
Å¡ z
Ġextension s
H u
ĠCir cle
ma ximum
ï¿½âĢŀ ï¿½
ĠComm a
ĠR ap
Ġcom fort
Ġur ban
ë ĭ
Åł ÅĴ
ÃĿ Ã©
ĠOw nership
An them
ĠL illy
lan ket
Ãµ K
ÃĶ Å½
E p
Ġgo ld
âĦ¢ âĢĺ
ifet ime
âĢĻ âĢŀ
pat rick
5 43
ÃĦ Z
Ã« Âº
Ï ¬
ĠDe utsche
Ã¨ Ãļ
! -
oc acy
{ ~
f la
Ġ7 83
change s
ĠM ack
Ã¶ C
Ã¾ Ã¸
Ã£ ËĨ
! \
Ġsecret ary
Com mercial
TS A
e du
ĠLib rary
ĠMis cellaneous
Ġdis cern
t Åĵ
Ġreceivers hips
{ Â¿
Â§ ÃĹ
Ġhave n
ĊČĠĠĠĠĠĠĠĠĠĠĠĠĠĠĠĠĠĠĠĠĠĠĠĠĠĠĠĠĠĠĠĠĠĠĠĠĠĠĠĠĠĠĠ Ġ
HE L
ĠC nty
ĠMc D
Ġ9 28
Ġ8 22
NESS EE
Ġpro ximately
8 90
} *
Ã¤ n
ĠG ab
i ndicated
OR ADO
Â¢ .
` âĢł
ĠOli ver
6 13
o O
Â¨ *
ĠHo nda
h ick
Ġnewspa per
Ġ8 11
$ +
ĠM Y
] Ã·
ousan d
pre vent
ĠRe vision
ë Ħ
Ġvote d
å ĩ
á Ĺ
Me d
TR O
ÃŁ Ãĵ
Ġte r
âĢ¹ #
Ġaccount e
ĠL obby
A nal
M IS
Ġaccounte d
ĠMar garet
administ ration
Ãķ W
ting s
x ref
wor ds
10 39
s mall
ĠM CA
Ãµ Âº
ĠF RA
^ Â©
â «
Ġsho ot
Ġinflict e
mo ved
dso n
3 000
e ducation
, \*
ĠK al
ĠRe organized
Â´ âĢĵ
Ġaccr ue
vert y
Ġstri p
Ġdis rupt
ÃĴ b
B d
Å¡ Å½
Ġ âĢ°
Ġcod ified
Â£ [
ĠR ic
Ã« u
ĠINV EST
ÃŃ z
ê ¤
Ġinflicte d
ĠH SBC
ĠFac tors
ST ANCES
wor ld
Ġ7 43
P ark
ĠC RA
/ #
ĠIn no
ĠS ears
iner als
un ions
Ġdelinque ncy
âĢĶ Ã·
var ious
L s
Â¿ Â¶
ï¿½âĢİ ï¿½
Ã¾ Ãª
Ã¿Ã¿ Ã¹
Ġfals ity
ÃŁ w
Åł m
- Â¥
Ġs ignatures
reg ard
ĉ Ċ
as a
n r
deli berate
ĠChange s
ï¿½ï¿½ âĢŀ
ĠPetro leum
( .
Ã¿ ÃĶ
Ġcivil ian
Ġfra ction
ĠJe rry
å ±
with draw
Â° Â«
Ã´ Ã¡
ich e
ĠAL LEG
ĠW et
Ġimpeach ment
ç ¢
eng aged
o A
E Ã²
Q F
AA AA
il ia
Cont inue
di nal
ÆĴ l
Me r
Ġ7 69
$________________ ______
ĕ Ė
Ã« ÃĴ
respons ibilities
ĠPrem ises
ope ning
Ġpack aging
Â¯ Â»
Wil son
0 Â¾
5 42
E vidence
n othing
r eco
ro se
Ġbank rut
ÃĬ rÅĵ
ĠDe borah
ï Ħ
Ġrecolle ction
f ight
P la
Ġconf using
Ġdelete d
é Ĳ
é Ĺ
Ã» A
ĠJOSE PH
Ãĺ H
ĠCap itol
ernal ia
Ġher ewith
un iary
Å¾ Å½
} .
ĠPA UL
[...]
