{"<|start|>":0,"<|end|>":1,"<|pad|>":2,"<|unk|>":3,"<|sep|>":4,"<|cls|>":5,"<|mask|>":6,"!":7,"\"":8,"#":9,"$":10,"%":11,"&":12,"'":13,"(":14,")":15,"*":16,"+":17,",":18,"-":19,".":20,"/":21,"0":22,"1":23,"2":24,"3":25,"4":26,"5":27,"6":28,"7":29,"8":30,"9":31,":":32,";":33,"<":34,"=":35,">":36,"?":37,"@":38,"A":39,"B":40,"C":41,"D":42,"E":43,"F":44,"G":45,"H":46,"I":47,"J":48,"K":49,"L":50,"M":51,"N":52,"O":53,"P":54,"Q":55,"R":56,"S":57,"T":58,"U":59,"V":60,"W":61,"X":62,"Y":63,"Z":64,"[":65,"\\":66,"]":67,"^":68,"_":69,"`":70,"a":71,"b":72,"c":73,"d":74,"e":75,"f":76,"g":77,"h":78,"i":79,"j":80,"k":81,"l":82,"m":83,"n":84,"o":85,"p":86,"q":87,"r":88,"s":89,"t":90,"u":91,"v":92,"w":93,"x":94,"y":95,"z":96,"{":97,"|":98,"}":99,"~":100,"¡":101,"¢":102,"£":103,"¤":104,"¥":105,"¦":106,"§":107,"¨":108,"©":109,"ª":110,"«":111,"¬":112,"®":113,"¯":114,"°":115,"±":116,"²":117,"³":118,"´":119,"µ":120,"¶":121,"·":122,"¸":123,"¹":124,"º":125,"»":126,"¼":127,"½":128,"¾":129,"¿":130,"À":131,"Á":132,"Â":133,"Ã":134,"Ä":135,"Å":136,"Æ":137,"Ç":138,"È":139,"É":140,"Ê":141,"Ë":142,"Ì":143,"Í":144,"Î":145,"Ï":146,"Ð":147,"Ñ":148,"Ò":149,"Ó":150,"Ô":151,"Õ":152,"Ö":153,"×":154,"Ø":155,"Ù":156,"Ú":157,"Û":158,"Ü":159,"Ý":160,"Þ":161,"ß":162,"à":163,"á":164,"â":165,"ã":166,"ä":167,"å":168,"æ":169,"ç":170,"è":171,"é":172,"ê":173,"ë":174,"ì":175,"í":176,"î":177,"ï":178,"ð":179,"ñ":180,"ò":181,"ó":182,"ô":183,"õ":184,"ö":185,"÷":186,"ø":187,"ù":188,"ú":189,"û":190,"ü":191,"ý":192,"þ":193,"ÿ":194,"Ā":195,"ā":196,"Ă":197,"ă":198,"Ą":199,"ą":200,"Ć":201,"ć":202,"Ĉ":203,"ĉ":204,"Ċ":205,"ċ":206,"Č":207,"č":208,"Ď":209,"ď":210,"Đ":211,"đ":212,"Ē":213,"ē":214,"Ĕ":215,"ĕ":216,"Ė":217,"ė":218,"Ę":219,"ę":220,"Ě":221,"ě":222,"Ĝ":223,"ĝ":224,"Ğ":225,"ğ":226,"Ġ":227,"ġ":228,"Ģ":229,"ģ":230,"Ĥ":231,"ĥ":232,"Ħ":233,"ħ":234,"Ĩ":235,"ĩ":236,"Ī":237,"ī":238,"Ĭ":239,"ĭ":240,"Į":241,"į":242,"İ":243,"ı":244,"Ĳ":245,"ĳ":246,"Ĵ":247,"ĵ":248,"Ķ":249,"ķ":250,"ĸ":251,"Ĺ":252,"ĺ":253,"Ļ":254,"ļ":255,"Ľ":256,"ľ":257,"Ŀ":258,"ŀ":259,"Ł":260,"ł":261,"Ń":262,"Ġi":263,"âĢ":264,"to":265,"Ġc":266,"io":267,"al":268,"of":269,"se":270,"de":271,"Ġof":272,"ion":273,"ar":274,"it":275,"Ġp":276,"st":277,"le":278,"__":279,"ng":280,"me":281,"Ġf":282,"ou":283,"ing":284,"Ġw":285,"..":286,"Ġin":287,"ha":288,"Ġč":289,"Ġb":290,"Ġto":291,"ic":292,"tion":293,"Ġt":294,"Ġr":295,"is":296,"ve":297,"ï¿":298,"Ġs":299,"ĠC":300,"Ġ1":301,"la":302,"ï¿½":303,"ne":304,"ro":305,"00":306,"Ġre":307,"ĠS":308,"ce":309,"as":310,"Ġe":311,"Ġco":312,"men":313,"rt":314,"ot":315,"ĠA":316,"ĠD":317,"____":318,"Ġd":319,"Ġm":320,"ra":321,"ment":322,"hat":323,"Ġ2":324,"ĠP":325,"Ġn":326,"pe":327,"il":328,"Ġ(":329,"ur":330,"....":331,"Ġde":332,"ge":333,"ie":334,"Ġthat":335,"ĠI":336,"ct":337,"Ġfo":338,"ĠT":339,"ly":340,"Ġh":341,"Ġbe":342,"ĠF":343,"th":344,"Ã¿":345,"Ġfor":346,"ation":347,"ri":348,"ir":349,"Ġis":350,"tor":351,"if":352,"ĠM":353,"co":354,"po":355,"un":356,"ch":357,"ns":358,"lo":359,"ee":360,"ss":361,"fe":362,"lai":363,"ĠN":364,"der":365,"ase":366,"ĠR":367,"Ġpro":368,"nce":369,"mp":370,"ĠB":371,"ta":372,"ith":373,"li":374,"ts":375,"Ġas":376,"âĢĻ":377,"sta":378,"Ġse":379,"Ġnot":380,"ĠO":381,"Ġsu":382,"Ġha":383,"01":384,"________":385,"Ġcon":386,"ay":387,"ue":388,"Ġ0":389,"ab":390,"ad":391,"rs":392,"Ġwh":393,"ig":394,"ĠE":395,"age":396,"ĠL":397,"Ġ3":398,"fo":399,"ile":400,"his":401,"Ġwith":402,"are":403,"pt":404,"ac":405,"be":406,"rm":407,"........":408,"oun":409,"Ġal":410,"id":411,"ive":412,"Ġby":413,"ourt":414,"ny":415,"ĠCo":416,"ĠDe":417,"Ġv":418,"Ġpe":419,"oc":420,"Ġy":421,"ity":422,"ap":423,"âĢľ":424,"ding":425,"ĠU":426,"us":427,"Ġun":428,"ice":429,"Ġhe":430,"Ġthis":431,"ide":432,"ĊĠ":433,"da":434,"âĢĿ":435,"Ġ4":436,"art":437,"ĊĠĠ":438,"ver":439,"ow":440,"the":441,"ut":442,"Ġex":443,"ĠTh":444,"ĊĠĠĠ":445,"ĠW":446,"ld":447,"ĊĠĠĠĠ":448,"ru":449,"ist":450,"Ġwas":451,"any":452,"ĠJ":453,"fen":454,"Ġ5":455,"ure":456,"Ġg":457,"ine":458,"lain":459,"Â§":460,"ĠH":461,"nc":462,"ec":463,"Âł":464,"ĠThe":465,"ies":466,"ition":467,"di":468,"qu":469,"Ġpr":470,"Ġma":471,"Ġsh":472,"ke":473,"am":474,"ĊĠĠĠĠĠ":475,"ËĨ":476,"btor":477,"iled":478,"ul":479,"laint":480,"oth":481,"stat":482,"Ġyou":483,"Ġap":484,"Ġmo":485,"ol":486,"dan":487,"um":488,"ai":489,"fendan":490,"use":491,"ER":492,"ial":493,"Ġ|":494,"Ġ6":495,"Ã¿Ã¿":496,"du":497,"Ġany":498,"rom":499,").":500,"one":501,"ite":502,"est":503,"Ġj":504,"ĊĠĠĠĠĠĠ":505,"laim":506,"iff":507,"na":508,"10":509,"tat":510,"ary":511,"'s":512,"ire":513,"Ġare":514,"im":515,"ĠG":516,"ag":517,"âĢŀ":518,"laintiff":519,"Ġ$":520,"Ġwe":521,"Ġac":522,"Ġli":523,"Ġad":524,"ON":525,"Ġ7":526,"Ġfrom":527,"nk":528,"othe":529,"ob":530,"ĠIn":531,"ud":532,"state":533,"12":534,"Ġdis":535,"Ġcourt":536,"Ġ19":537,"ï¿½ï¿½":538,"19":539,"ber":540,"Ġla":541,"Ġit":542,"other":543,"Ã½":544,"ree":545,"ich":546,"ould":547,"tions":548,"port":549,"ument":550,"Â¿":551,"Ġme":552,"ĠâĢľ":553,"Ã¾":554,"ĠRe":555,"ain":556,"act":557,"ht":558,"ff":559,"ill":560,"vide":561,"Ġpre":562,"able":563,"OR":564,"op":565,"ĠDoc":566,"cl":567,"mm":568,"tate":569,"Ġ-":570,"ount":571,"11":572,"________________":573,"Ġcase":574,"Ġunder":575,"âĢļ":576,"ust":577,"nal":578,"ĠNo":579,"ds":580,"................":581,"Ġpart":582,"ame":583,"Ġres":584,"Ġle":585,"tt":586,"Ġhave":587,"20":588,"Å½":589,"pr":590,"Ġclaim":591,"ank":592,"000":593,"Â¯":594,"for":595,"fendant":596,"out":597,"Ġ201":598,"AT":599,"ED":600,"ÃĤ":601,"Â¶":602,"ÃĹ":603,"ĠState":604,"âĢĶ":605,"ĠPage":606,"Ġapp":607,"ÆĴ":608,"em":609,"Ġno":610,"ric":611,"ip":612,"ied":613,"Ġ8":614,"ther":615,"che":616,"Ã»":617,"Ġcont":618,"ses":619,"Ġen":620,"ma":621,"Ġwhich":622,"--":623,"Ġ.":624,"Ġ10":625,"Åł":626,"ll":627,"âĢĺ":628,"15":629,"IN":630,"Ġwhe":631,"âĢĵ":632,"Ġ9":633,"Ġother":634,"ited":635,"Â·":636,"ments":637,"Ġhis":638,"13":639,"Ãº":640,"ual":641,"ction":642,"),":643,"ĠCourt":644,"so":645,"Ã·":646,"ĠÂ§":647,"all":648,"Ġstate":649,"ime":650,"ded":651,"Ġst":652,"Ġne":653,"âĢł":654,"pert":655,"ES":656,"Ġ[":657,"16":658,"Ġhas":659,"fer":660,"low":661,"sed":662,"ia":663,"Ġdo":664,".,":665,"Ġcomp":666,"Ã«":667,"Ġsub":668,"ÃŁ":669,"ting":670,"lan":671,"14":672,"Ġall":673,"Ġ\"":674,"erm":675,"cor":676,"Ġint":677,"su":678,"lic":679,"ect":680,"Ġ*":681,"cy":682,"que":683,"Ã©":684,"rder":685,"tition":686,"ib":687,"ard":688,"form":689,"De":690,"Ġdebtor":691,"EN":692,"ĠFiled":693,"Ġ12":694,"Case":695,"den":696,"ft":697,"Ãĵ":698,"Ãµ":699,"Ġch":700,"ÂŃ":701,"Ãļ":702,"Â¢":703,"IT":704,"âĢ¡":705,"čĊ":706,"no":707,"ÃĴ":708,"17":709,"rv":710,"rial":711,"Ġinte":712,"âĢ¦":713,"ea":714,"Ã¯":715,"Ġag":716,"Ġab":717,"Å¡":718,"22":719,"Ġca":720,"AN":721,"Ġ200":722,"ĠOF":723,"ÃŃ":724,"Â°":725,"18":726,"Âµ":727,"rupt":728,"ĊĊ":729,"ical":730,"lat":731,"clu":732,"perty":733,"Ġob":734,"mi":735,"ĠUn":736,"ankrupt":737,"our":738,"sen":739,"ankruptcy":740,"IS":741,"Â«":742,"ĠDocument":743,"ute":744,"Ġ11":745,"Â¡":746,"iss":747,"Ġher":748,"Ġif":749,"ear":750,"ations":751,"Âº":752,"rat":753,"ess":754,"Å¸":755,"Ġso":756,"Åĵ":757,"led":758,"Ã¡":759,"Ã¶":760,"ze":761,"ÃĲ":762,"sc":763,"Ãĥ":764,"Â»":765,"Â¥":766,"ven":767,"IC":768,"ION":769,"ĠPlaintiff":770,"Ã´":771,"Ġmay":772,"ning":773,"Â®":774,"quire":775,"iv":776,"25":777,"Ãģ":778,"ho":779,"Ġ13":780,"over":781,"ĠY":782,"ÃĪ":783,"ĠV":784,"Ãķ":785,"âĢ¢":786,"Â´":787,"Th":788,"ex":789,"Ëľ":790,"Ġar":791,"ry":792,"pon":793,"ca":794,"Ã¨":795,"ner":796,"Ġlo":797,"ub":798,"rso":799,"Ġsuch":800,"AL":801,"Ġpo":802,"Ġper":803,"order":804,"ÃĿ":805,"nion":806,"oug":807,"ÃĽ":808,"iling":809,"ĀĀ":810,"Â¤":811,"inion":812,"sel":813,"av":814,"The":815,")(":816,"201":817,"Ãĺ":818,"late":819,"Ġcr":820,"ĠSe":821,"24":822,"Â¦":823,"han":824,"23":825,"Â½":826,"Âª":827,"quest":828,"tte":829,"opinion":830,"rict":831,"ific":832,"ration":833,"rth":834,"âĤ":835,"Ã¸":836,"ĠFo":837,"ney":838,"pre":839,"ÅĴ":840,"ran":841,"con":842,"âĢ¹":843,"ight":844,"Å¾":845,"ned":846,"âĢº":847,"Ġits":848,"Ġcom":849,"Ġent":850,"Ġfi":851,"Ġinclu":852,"cess":853,"div":854,"DD":855,"we":856,"itt":857,"Ãĸ":858,"ĠPro":859,"Ġone":860,"Â¾":861,"OU":862,"Ãª":863,"21":864,"Â±":865,"nge":866,"Ãĩ":867,"ĊĠĠĠĠĠĠĠ":868,"Ã°":869,"âĤ¬":870,"Â©":871,"lie":872,"ision":873,"Ġwer":874,"Ġwere":875,"stan":876,"mo":877,"Ġfiled":878,"fore":879,"Ġwould":880,"Ġtra":881,"Ġrequire":882,"Ġpetition":883,"aso":884,"Ġpur":885,"Ãĳ":886,"Ġhad":887,"07":888,"dent":889,"Ã®":890,"ach":891,"Ã¼":892,"pte":893,"pp":894,"rk":895,"Ġcons":896,"Ġk":897,"Ġwill":898,"Ġpay":899,"istrict":900,"loy":901,"ined":902,"dic":903,"formation":904,"pec":905,".âĢĿ":906,"dr":907,"ĠStates":908,"ign":909,"Ã¢":910,"Ġtime":911,"ĠK":912,"Ġdefendant":913,"AR":914,"Ġfa":915,"Ã¤":916,"âĦ":917,"Ġappe":918,"âĢ°":919,"sent":920,"mploy":921,"Ã¬":922,"Ġmust":923,"Â²":924,"ish":925,"ility":926,"=\"":927,"Ġinter":928,"50":929,"ities":930,"ert":931,"Ġu":932,"âĦ¢":933,"ĊĠĠĠĠĠĠĠĠ":934,"ÃĦ":935,"ject":936,"od":937,"Ġ#":938,"pen":939,"fte":940,"va":941,"](":942,"Ġlaw":943,"ĠEx":944,"Ġprovide":945,"Ãŀ":946,"Ã£":947,"ence":948,"per":949,"dule":950,"Â£":951,"rvice":952,"fter":953,"rate":954,"vidence":955,"cv":956,"cu":957,"nly":958,"##":959,"Ġyour":960,"30":961,"ste":962,"28":963,"fendants":964,"ult":965,"umber":966,"Co":967,"Â¬":968,"Ġalso":969,"Ġyear":970,"26":971,"Ġproperty":972,"now":973,"ph":974,"edi":975,"Â¨":976,"Ġbee":977,"Ġam":978,"dition":979,"ize":980,"Ġperso":981,"Ġ15":982,"ved":983,"Ġbeen":984,"Ġda":985,"tors":986,"its":987,"Ġjud":988,"27":989,"ule":990,"wo":991,"ior":992,"Ã±":993,"ĠMo":994,"hapte":995,"ough":996,"In":997,"200":998,"Ġuse":999,"ily":1000,"fon":1001,"Ġwho":1002,"ck":1003,"ty":1004,"font":1005,"ttor":1006,"hapter":1007,"ble":1008,"ttorney":1009,"chedule":1010,"ract":1011,"Ãħ":1012,"\"\"":1013,"Ã¿Ã¿Ã¿Ã¿":1014,"rea":1015,"Ġthan":1016,"ĠDebtor":1017,"](/":1018,"Ġshall":1019,"ĊĠĠĠĠĠĠĠĠĠ":1020,"Ãł":1021,"ËĨËĨ":1022,"au":1023,"only":1024,"ey":1025,"ffic":1026,"0000":1027,"ĠSt":1028,"Â¸":1029,"oi":1030,"man":1031,"ÃĬ":1032,"Ġ20":1033,"ounsel":1034,"et":1035,"idual":1036,"Ã²":1037,"Ã¹":1038,".)":1039,"Ġdid":1040,"Ġact":1041,"Ġevidence":1042,"tory":1043,"ĠCase":1044,"duct":1045,"ND":1046,"mer":1047,"Ġta":1048,"dividual":1049,"Ġ18":1050,"Ġinformation":1051,"Ġoff":1052,"Ġreg":1053,"ĠEn":1054,"term":1055,"04":1056,"owe":1057,"ĠCir":1058,"ew":1059,"oin":1060,"lle":1061,"urr":1062,"Ġonly":1063,"ÃĻ":1064,"itte":1065,"ĠUnited":1066,"Ġ199":1067,"rig":1068,"06":1069,"gment":1070,"eir":1071,"Ġtrial":1072,"ĠSec":1073,"heir":1074,"Ġtheir":1075,"ÃĶ":1076,"Ġorder":1077,"Ġ14":1078,"ale":1079,"Ġclaims":1080,"08":1081,"Ã¥":1082,"29":1083,"min":1084,"ÃĮ":1085,"ason":1086,"ified":1087,"03":1088,"pos":1089,"05":1090,"com":1091,"nment":1092,"09":1093,"aid":1094,"med":1095,"Ġplaintiff":1096,"Â¹":1097,"ound":1098,"................................":1099,"Ġl":1100,"sue":1101,"Ġcomm":1102,"ured":1103,"cr":1104,"oint":1105,"cause":1106,"Ġ/":1107,"aw":1108,"Ġbut":1109,"Ãİ":1110,"Â³":1111,"ĊĠĠĠĠĠĠĠĠĠĠ":1112,"nat":1113,"Ãī":1114,"llow":1115,"usine":1116,"Ġfact":1117,"Ġalle":1118,"Ġrece":1119,"ify":1120,"rn":1121,"Ġwhether":1122,"ĠPe":1123,"Ġdeb":1124,"ury":1125,"Ãľ":1126,"ĠCon":1127,"Ġissue":1128,"ton":1129,"yle":1130,"rr":1131,"ely":1132,"scri":1133,"ĠIf":1134,"igh":1135,"Ġwo":1136,"ÃĨ":1137,"ara":1138,"arge":1139,"cee":1140,"Ġfiling":1141,"Ġ16":1142,"ution":1143,"come":1144,"fect":1145,"Ġtest":1146,"eg":1147,"ĠSu":1148,"----":1149,"ast":1150,"ĠInc":1151,"TR":1152,"Ãĭ":1153,"stit":1154,"Ġemploy":1155,"Ġsup":1156,"nn":1157,"hey":1158,"pro":1159,"Ġwithi":1160,"Ġwithin":1161,"ĠCh":1162,"irst":1163,"urre":1164,"Ġthey":1165,"Ġappro":1166,"Ġim":1167,"very":1168,"Ġeach":1169,"\">":1170,"ien":1171,"eck":1172,"Ã¦":1173,"Ġmor":1174,"ENT":1175,"________________________________":1176,"ĠFe":1177,"ced":1178,"AS":1179,"ï¿¾":1180,"dia":1181,"ÂĨ":1182,"</":1183,"after":1184,"EC":1185,"ncy":1186,"ission":1187,"Ġagree":1188,"Ġcert":1189,"Ġbecause":1190,"usiness":1191,"Ġknow":1192,"75":1193,"Ãį":1194,"tal":1195,"count":1196,"Ġ&":1197,"Â¼":1198,"ĠčĊ":1199,"pect":1200,"ans":1201,"Ã³":1202,"deral":1203,"iew":1204,"33":1205,"44":1206,"ĠEnt":1207,"Ġfollow":1208,"Ġmotion":1209,"td":1210,"Ã§":1211,"ĠBankruptcy":1212,"00000":1213,"Ġpri":1214,"ppe":1215,"Ġmore":1216,"Ġbo":1217,"tta":1218,"tho":1219,"sp":1220,"Ġdeterm":1221,"Ġday":1222,"Ġafter":1223,"ise":1224,"tely":1225,"nu":1226,"Ġagain":1227,"Ġmade":1228,"HE":1229,"Ãı":1230,"ĠSee":1231,"Ġimp":1232,"stru":1233,"AM":1234,"ffect":1235,"tom":1236,");":1237,"ance":1238,"Ġobj":1239,"Ġcounsel":1240,"Ġ17":1241,"Ġdec":1242,"Ġass":1243,"Ġpla":1244,"Ġstyle":1245,"ased":1246,"Ġout":1247,"dress":1248,"Ġge":1249,"Ġbankruptcy":1250,"ĠST":1251,"Ġname":1252,"ĠBo":1253,"lated":1254,"Ġfile":1255,"ĠDefendant":1256,"stance":1257,"Ġsp":1258,"35":1259,"Ġstat":1260,"ĠAND":1261,"itted":1262,"Ġdat":1263,".\"":1264,"Ġbefore":1265,"Ġdate":1266,"Ġrecor":1267,"ĠIN":1268,"nth":1269,"let":1270,"Ġfee":1271,"Ġspec":1272,"nts":1273,"ĠHe":1274,"UR":1275,"OT":1276,"king":1277,"nding":1278,"Ġaction":1279,"Ġval":1280,"ope":1281,"ove":1282,"ese":1283,"ible":1284,"lig":1285,"ĠEnte":1286,"py":1287,"ING":1288,"tter":1289,"ĠAn":1290,"tw":1291,"ous":1292,"om":1293,"Ġtrans":1294,"Ġapplic":1295,"ĠEnter":1296,"ouse":1297,"Ġnumber":1298,"Ġarg":1299,"Ġwhen":1300,"lation":1301,"ĀĀĀĀ":1302,"tai":1303,"Ġinterest":1304,"Ġhere":1305,"ĠForm":1306,"ĠComp":1307,"ĠSchedule":1308,"Ġreason":1309,"mar":1310,"Ġjudgment":1311,"less":1312,"Ġindividual":1313,"ĠJud":1314,"rust":1315,"neral":1316,"LE":1317,"99":1318,"34":1319,"Ġservice":1320,"ĠAd":1321,"ĊĠĠĠĠĠĠĠĠĠĠĠ":1322,"Ġrequest":1323,"Ġrev":1324,"rthe":1325,"Ġage":1326,"Ġdoe":1327,"Ġdoes":1328,"Ġreport":1329,"Ġagainst":1330,"rie":1331,"part":1332,"36":1333,"Ġsupport":1334,"ga":1335,"Re":1336,"Ġte":1337,"Ġsee":1338,"ious":1339,"ĠCode":1340,"Ġterm":1341,"Ġmar":1342,"tial":1343,"uring":1344,"hib":1345,"rough":1346,"el":1347,"Ġasse":1348,"ys":1349,"ĠEntere":1350,"ĠEntered":1351,"55":1352,"ĠDistrict":1353,"pri":1354,"Ġoffice":1355,"mber":1356,"Ġshould":1357,"Ġcredi":1358,"ider":1359,"dit":1360,"ÂłÂł":1361,"LA":1362,"lete":1363,"Ġreceive":1364,"\\[":1365,"Ġwa":1366,"Ġow":1367,"Ġsen":1368,"ĠComm":1369,"\\]":1370,"hese":1371,"aring":1372,"ĠMa":1373,"Ġthese":1374,"ĠAct":1375,"ĠRo":1376,"hip":1377,"02":1378,"Ġdoc":1379,"ful":1380,"Ġjoint":1381,"38":1382,"ĠWe":1383,"ĊĠĠĠĠĠĠĠĠĠĠĠĠ":1384,"Ġra":1385,"Debtor":1386,"attorney":1387,"Ġdef":1388,"Ġyears":1389,"ages":1390,"Ġho":1391,"Ġbusiness":1392,"ient":1393,"Ġprovided":1394,"ÃĢ":1395,"**":1396,"gra":1397,"ĠNew":1398,"ĠMar":1399,"atta":1400,"rant":1401,"lu":1402,"Ġabout":1403,"Ġshe":1404,"LC":1405,"Ġchil":1406,"Ġau":1407,"Ġlim":1408,"ublic":1409,"Ġcan":1410,"ĠMain":1411,"ack":1412,"minist":1413,"Ġsec":1414,"78":1415,"obj":1416,"emp":1417,"ĠDefendants":1418,"Ġ00000":1419,"Ġtwo":1420,"ID":1421,"Ġperson":1422,"ĠDIS":1423,"lement":1424,"sh":1425,"ĊĠĠĠĠĠĠĠĠĠĠĠĠĠ":1426,"ched":1427,"lish":1428,"overnment":1429,"39":1430,"Ġ28":1431,"Ġboth":1432,"sua":1433,"line":1434,"ext":1435,"ottom":1436,"Ġincluding":1437,"No":1438,"Ġprocee":1439,"nder":1440,"46":1441,"suan":1442,"suant":1443,"dobj":1444,"ndobj":1445,"endobj":1446,"ATION":1447,"45":1448,"gi":1449,"Ġchapter":1450,"cha":1451,"xx":1452,"edit":1453,"ĠPr":1454,"Ġgo":1455,"Ġrequired":1456,"ote":1457,"nation":1458,"Ġattorney":1459,"ĠRule":1460,"air":1461,"ĠDesc":1462,"lor":1463,"Ġamount":1464,"irect":1465,"Ġvio":1466,"lief":1467,"OUR":1468,"37":1469,"reat":1470,"ks":1471,"RO":1472,"Ġover":1473,"48":1474,"\\*":1475,"ĠAs":1476,"unity":1477,"Ġdisc":1478,"do":1479,"Ġatta":1480,"IL":1481,"ving":1482,"ference":1483,"ima":1484,"right":1485,"ĊĠĠĠĠĠĠĠĠĠĠĠĠĠĠ":1486,"Ġpol":1487,"amily":1488,"iden":1489,"31":1490,"rib":1491,"question":1492,"mend":1493,"ms":1494,"TH":1495,"AC":1496,"nanc":1497,"Ġcould":1498,"ability":1499,"Ġprior":1500,"lant":1501,"cre":1502,"Ġleg":1503,"Ch":1504,"een":1505,"Ġabove":1506,"ĠÂł":1507,"Ġ25":1508,"Ġallege":1509,"Ġsep":1510,"EL":1511,"sec":1512,"scribe":1513,"hrough":1514,"aff":1515,"Ġsection":1516,"Ġthrough":1517,"FF":1518,"Ġext":1519,"adding":1520,"les":1521,"ĠName":1522,"fficial":1523,"lass":1524,"iso":1525,"ĠSTAT":1526,";\">":1527,"Ġsome":1528,"Ġsent":1529,"Ġhim":1530,"Ġright":1531,"Ġfe":1532,"ĠMr":1533,"49":1534,"nds":1535,"ĠTHE":1536,"ket":1537,"posed":1538,"Ġcomplete":1539,"Ġinclude":1540,"ICT":1541,"RI":1542,"Ġdocument":1543,"Ġcause":1544,"Ġparties":1545,"47":1546,"itle":1547,"dis":1548,"Ġsa":1549,"ular":1550,"Ġgu":1551,"son":1552,"nef":1553,"Ġman":1554,"ĊĠĠĠĠĠĠĠĠĠĠĠĠĠĠĠ":1555,"Ġdays":1556,"ĠOR":1557,"66":1558,"vi":1559,"ditional":1560,"rance":1561,"gin":1562,"lations":1563,"Ġnotice":1564,"Ġquestion":1565,"Ġupon":1566,"Ġmi":1567,"Ġtho":1568,"Ġequ":1569,"ĠJu":1570,"Ġwhat":1571,"tly":1572,"als":1573,"Ġqu":1574,"ĠDa":1575,"Ġdism":1576,"OM":1577,"Ġconce":1578,"ife":1579,"nancial":1580,"by":1581,"/)":1582,"bottom":1583,"cement":1584,"ithe":1585,"Ġaddress":1586,"rro":1587,"Ġfollowing":1588,"stitution":1589,"Ġinto":1590,"ÂĦ":1591,"Ġope":1592,"Ġsubject":1593,"Ġ198":1594,"Ġprov":1595,"Ġve":1596,"Ġincome":1597,"MENT":1598,"56":1599,"ection":1600,"ĠClaim":1601,"ither":1602,"Ġdebts":1603,"ĠFor":1604,"ĠSh":1605,"Ġav":1606,"Ġcontract":1607,"TRICT":1608,"ination":1609,"Da":1610,"ash":1611,"hibit":1612,"ĠDo":1613,"ures":1614,"ĊĠĠĠĠĠĠĠĠĠĠĠĠĠĠĠĠ":1615,"ĠJudge":1616,"ked":1617,"Ġpurpo":1618,"ĠThis":1619,"Ġthose":1620,"CH":1621,"urthe":1622,"padding":1623,"lect":1624,"ĠCal":1625,"Ġchild":1626,"Ġ)":1627,"str":1628,"Ġwork":1629,"OURT":1630,"Ġshow":1631,"Ġdistrict":1632,"Ġparty":1633,"inc":1634,"Ġwithout":1635,"Ġdecision":1636,",*":1637,"Ġset":1638,"val":1639,"rpo":1640,"erial":1641,"Ġeven":1642,"Fo":1643,"ni":1644,"ings":1645,"ĠInt":1646,"ness":1647,"Official":1648,"79":1649,"Ġmonth":1650,"Ġident":1651,"ĊĠĠĠĠĠĠĠĠĠĠĠĠĠĠĠĠĠ":1652,"alth":1653,"ers":1654,"Ġsi":1655,"fere":1656,"iat":1657,"ĠAppe":1658,"arr":1659,"Ġfirst":1660,"stand":1661,"US":1662,"owever":1663,"Ġwher":1664,"urther":1665,"Ġwhere":1666,"Ġautho":1667,"sses":1668,"van":1669,"Ġsepara":1670,"terial":1671,"bo":1672,"Ġreview":1673,"hem":1674,"ĠDISTRICT":1675,"ĠPart":1676,"Ġ26":1677,"Ġ29":1678,"Ġnon":1679,"/),":1680,"Ġpa":1681,"media":1682,"IV":1683,"ĠCount":1684,"ification":1685,"ĠCOURT":1686,"ĊĠĠĠĠĠĠĠĠĠĠĠĠĠĠĠĠĠĠ":1687,"iste":1688,"Ġthem":1689,"Ġup":1690,"Ġcle":1691,"Ġrespon":1692,"Ġden":1693,"DER":1694,"ave":1695,"58":1696,"Ġfac":1697,"Ġpar":1698,"Ġaff":1699,"ype":1700,"uted":1701,"sted":1702,"ĠIt":1703,"that":1704,"Ġinj":1705,"ounts":1706,"Ġrele":1707,"ĠWh":1708,"stab":1709,"76":1710,"Un":1711,"ĠBest":1712,"wh":1713,"ĠJo":1714,"II":1715,"Ġform":1716,"If":1717,"aila":1718,"ational":1719,"Ġrule":1720,"ĠIL":1721,"otal":1722,"ntly":1723,"Ġpartic":1724,"fense":1725,"llant":1726,"Ġnee":1727,"ĊĠĠĠĠĠĠĠĠĠĠĠĠĠĠĠĠĠĠĠ":1728,"igned":1729,"Ġmake":1730,"ĠDE":1731,"ĠApp":1732,"Ġplan":1733,"Ġtax":1734,"Ġdirect":1735,"wer":1736,"ba":1737,"ĠTO":1738,"Ġrecord":1739,"Ġpos":1740,"rief":1741,"40":1742,"Ġ30":1743,"IM":1744,"ifica":1745,"ass":1746,"Ġconduct":1747,"imo":1748,"ww":1749,"ral":1750,"Ġop":1751,"Ġcol":1752,"efore":1753,"eam":1754,"Ġpublic":1755,"ug":1756,"Ġbenef":1757,"iod":1758,"ners":1759,"Ġpresent":1760,"Dat":1761,"Date":1762,"Ġfun":1763,"77":1764,"Ġexte":1765,"reet":1766,"ĊĠĠĠĠĠĠĠĠĠĠĠĠĠĠĠĠĠĠĠĠ":1767,"Ġduring":1768,"ĠLLC":1769,"88":1770,"stablish":1771,"NT":1772,"Ġaccount":1773,"NIT":1774,"Ġpursuant":1775,"sts":1776,"ights":1777,"Plaintiff":1778,"Ġsame":1779,"59":1780,"gr":1781,">>":1782,"Ġeffect":1783,"bers":1784,"ĠInte":1785,"alle":1786,"42":1787,"ĠZ":1788,"âĢİ":1789,"ĠPlaintiffs":1790,"Ġ09":1791,"rest":1792,"iate":1793,"ĊĠĠĠĠĠĠĠĠĠĠĠĠĠĠĠĠĠĠĠĠĠ":1794,"nor":1795,"icial":1796,"Ġcompe":1797,"rage":1798,"gree":1799,"Ġappeal":1800,"ffice":1801,"ĠId":1802,"Ġline":1803,"inal":1804,"Ã¿Ã¿Ã¿Ã¿Ã¿Ã¿Ã¿Ã¿":1805,"nate":1806,"ĠProperty":1807,"ok":1808,"ailable":1809,"<<":1810,"ĠAc":1811,"âĢı":1812,"100":1813,"imes":1814,"tain":1815,"Ġser":1816,"Ġconsider":1817,"TOR":1818,"ĠLe":1819,"ically":1820,"cen":1821,"ĠMe":1822,"ĠGe":1823,"cond":1824,"ĊĠĠĠĠĠĠĠĠĠĠĠĠĠĠĠĠĠĠĠĠĠĠ":1825,"Ġemployee":1826,"Ġvalue":1827,"vol":1828,"Ġrespect":1829,"rans":1830,"ption":1831,"Ġgive":1832,"Ġtake":1833,"ĠCr":1834,"ilities":1835,"tained":1836,"RE":1837,"rol":1838,"vest":1839,"ESS":1840,"32":1841,"Ġagreement":1842,"Ġrelief":1843,"Ġservices":1844,"Ġcha":1845,"Ġproceeding":1846,"TER":1847,"Ġexp":1848,"Ġtotal":1849,"ĊĠĠĠĠĠĊĠĠĠĠĠĠ":1850,"ĠHo":1851,"Ġbased":1852,"size":1853,"Ġgeneral":1854,"ring":1855,"mary":1856,"mediately":1857,"ĊĠĠĠĠĠĠĠĠĠĠĠĠĠĠĠĠĠĠĠĠĠĠĠ":1858,"Ġseparat":1859,"Ġresult":1860,"mended":1861,"Ġseparate":1862,"ital":1863,"Ġhearing":1864,"tween":1865,"raph":1866,"rustee":1867,"Ġused":1868,"Ġstatement":1869,"ron":1870,"En":1871,"Ġexpen":1872,"Ġcorr":1873,"Ġ36":1874,"rative":1875,"Ġdue":1876,"Ġfail":1877,"ser":1878,"ĠĊĊ":1879,"ĠOn":1880,"uris":1881,"imony":1882,"Ġwr":1883,"Ġcri":1884,"ĠYe":1885,"OL":1886,"57":1887,"ĠOrder":1888,"DE":1889,"ATE":1890,"--------":1891,"secured":1892,"yst":1893,"NITED":1894,"jud":1895,"Ġlegal":1896,"Ġsubm":1897,"Ġconti":1898,"Ex":1899,"Ġreasonable":1900,"ĊĠĠĠĠĊĠĠĠĠĠĊĠĠĠĠĠĠ":1901,"ves":1902,"Ġjury":1903,"pria":1904,"ember":1905,"ĊĠĠĠĠĠĠĠĠĠĠĠĠĠĠĠĠĠĠĠĠĠĠĠĠ":1906,"Ġ08":1907,"ax":1908,"diction":1909,"Ġconf":1910,"ĠSTATES":1911,"Ġbox":1912,"pons":1913,"ĠQ":1914,"Ġprece":1915,"Ġple":1916,"agraph":1917,"Ġlist":1918,"Ġrepre":1919,"Ġinstru":1920,"Ġcredit":1921,"Ġinc":1922,"eet":1923,"go":1924,"Ġfound":1925,"dre":1926,"Ġestablish":1927,"urity":1928,"Ġheld":1929,"41":1930,"Ġperm":1931,"Ġdam":1932,"fficient":1933,"arm":1934,"ctions":1935,"ĠYes":1936,"Ġdebt":1937,"86":1938,"Ġpage":1939,"arding":1940,"position":1941,"ĠService":1942,"ĊĠĠĠĠĠĠĠĠĠĠĠĠĠĠĠĠĠĠĠĠĠĠĠĠĠ":1943,"Ġinten":1944,"Ġ(âĢľ":1945,"with":1946,"los":1947,"rc":1948,"clus":1949,"Ġret":1950,"Ġpaid":1951,"Ġfederal":1952,"ystem":1953,"ĠOffice":1954,"Ġ22":1955,"96":1956,"ource":1957,"atte":1958,"Ġoc":1959,"Ġfurther":1960,"Ġperiod":1961,"Ġnote":1962,"Ġcommen":1963,"Ġmaterial":1964,"See":1965,"Ġadminist":1966,"Ġgovernment":1967,"Ġdes":1968,"Ġbetween":1969,"Ġeither":1970,"ĊĠĠĠĠĠĠĠĠĠĠĠĠĠĠĠĠĠĠĠĠĠĠĠĠĠĠ":1971,"urisdiction":1972,"Ġus":1973,"vic":1974,"ouses":1975,"rporation":1976,"dica":1977,"Ġente":1978,"==":1979,"Ġcir":1980,"ĠCity":1981,"comp":1982,"Ġjust":1983,"Ġunless":1984,"irm":1985,"Ġreceived":1986,"tive":1987,"stances":1988,"Ġaw":1989,"Ġplace":1990,"priat":1991,"priate":1992,"Ġpayments":1993,"urred":1994,"ĠOther":1995,"Ġalleg":1996,"ĠDis":1997,"Ġalleged":1998,"ĠAnd":1999,"Ġpersonal":2000,"IP":2001,"Ġph":2002,"Ġdist":2003,"IR":2004,"cept":2005,"Ġ21":2006,"Ġprovision":2007,"Ġour":2008,"stream":2009,"ĊĠĠĠĠĠĠĠĠĠĠĠĠĠĠĠĠĠĠĠĠĠĠĠĠĠĠĠ":2010,"Ġstatute":2011,"Ġrights":2012,"px":2013,"ĠAl":2014,"OUNT":2015,"Id":2016,"Ġimmediately":2017,"ĠRE":2018,"Ġref":2019,"Ġful":2020,"cal":2021,"Ġbas":2022,"43":2023,"ĠSo":2024,"Ġbrief":2025,"Ġsaid":2026,"98":2027,"TION":2028,"ST":2029,"Ġreco":2030,"ĠPa":2031,"cum":2032,"top":2033,"Ġnew":2034,"partment":2035,"rity":2036,"Ġgrant":2037,"Ġagency":2038,"ĀĀĀĀĀĀĀĀ":2039,"></":2040,"Ġcomplaint":2041,"ĠStreet":2042,"ssion":2043,"illion":2044,"ins":2045,"land":2046,"Ġavailable":2047,"Ġtr":2048,"itled":2049,"ilar":2050,"imat":2051,"Ġcopy":2052,"Ġgr":2053,"imate":2054,"Ġ100":2055,"Ġfinancial":2056,"ker":2057,"ally":2058,"ĠBe":2059,"Ġcases":2060,"ace":2061,"ture":2062,"ĠPetition":2063,"ĠMotion":2064,"ĊĠĠĠĠĠĠĠĠĠĠĠĠĠĠĠĠĠĠĠĠĠĠĠĠĠĠĠĠ":2065,"ĠFederal":2066,"Ġ1996":2067,"urn":2068,"not":2069,"amp":2070,"Ġ23":2071,"Ġmatter":2072,"Ġbeing":2073,"ards":2074,"Ġargue":2075,"ĠCounty":2076,"ident":2077,"Ġ<":2078,"Ġnecess":2079,"Ġcondition":2080,"ep":2081,"hree":2082,"Ac":2083,"Ġenter":2084,"Ġthree":2085,"refore":2086,"imilar":2087,"minal":2088,"×ª":2089,"000000":2090,"ork":2091,"iting":2092,"Ġcertain":2093,"Ġpolic":2094,"Ġcharge":2095,"×Ļ":2096,"Ġmai":2097,"Ġmy":2098,"hi":2099,"Ġfacts":2100,"Ġknown":2101,"cording":2102,"ivil":2103,"nother":2104,"UM":2105,"Ġadditional":2106,"Ġallow":2107,"ĠCont":2108,"ĠDr":2109,"ĊĠĠĠĠĠĠĠĠĠĠĠĠĠĠĠĠĠĠĠĠĠĠĠĠĠĠĠĠĠ":2110,"Ġstand":2111,"ĠSection":2112,"Ġsumm":2113,"Ġmain":2114,"ĠÂ¶":2115,"92":2116,"Ġ06":2117,"pay":2118,"ifo":2119,"Ġ03":2120,"Ġ07":2121,"Ġattached":2122,"igation":2123,"ĠJa":2124,"ĠBank":2125,"Ġ27":2126,"another":2127,",âĢĿ":2128,"velo":2129,"Ġofficer":2130,"cuit":2131,"Ġpreceding":2132,"ĠTo":2133,"ego":2134,"ĠNot":2135,"ye":2136,"Ġdefendants":2137,"Ġconte":2138,"ĠX":2139,"ĠExhibit":2140,"Ġins":2141,"ET":2142,"Ġsentence":2143,"Ġcreditors":2144,"ĠLa":2145,"PA":2146,"AND":2147,"ï¿½ï¿½ï¿½":2148,"Ġnone":2149,"Pe":2150,"Ġargument":2151,"Ġ#:":2152,"Ġ24":2153,"ĊĠĠĠĠĠĠĠĠĠĠĠĠĠĠĠĠĠĠĠĠĠĠĠĠĠĠĠĠĠĠ":2154,"Ġapplicable":2155,"nue":2156,"Ġcount":2157,"______":2158,"ii":2159,"dical":2160,"68":2161,"Ġwell":2162,"Ġdif":2163,"Ġpayment":2164,"Ġprot":2165,"utions":2166,"51":2167,"olding":2168,"GE":2169,"vere":2170,"CC":2171,"Ġapply":2172,"OS":2173,"ncip":2174,"ized":2175,"Ġdismiss":2176,"ross":2177,"\"\"\"\"":2178,"log":2179,"Ġprocess":2180,"'t":2181,"Ġtestimony":2182,"Ġfinding":2183,"border":2184,"vant":2185,"Ġdebtors":2186,"charge":2187,"Ġclear":2188,"500":2189,"icle":2190,"None":2191,"Ġinsu":2192,"usto":2193,"Ġet":2194,"54":2195,"×Ľ":2196,"United":2197,"ĊĠĠĠĠĠĠĠĠĠĠĠĠĠĠĠĠĠĠĠĠĠĠĠĠĠĠĠĠĠĠĠ":2198,"cont":2199,"nsion":2200,"law":2201,"ferr":2202,"rp":2203,"family":2204,"Ġproper":2205,"AME":2206,"Ġcorrect":2207,"utory":2208,"ĠFOR":2209,"dicat":2210,"Ġcar":2211,"\\_":2212,"Ġstated":2213,"dicate":2214,"ËĨËĨËĨËĨ":2215,"(Â¢":2216,"nnot":2217,"ĠAttorney":2218,"Ġjurisdiction":2219,"ĠSum":2220,"ĠLaw":2221,"Ġentitled":2222,"Ġactiv":2223,"Ġocc":2224,"Ġchange":2225,"vel":2226,"97":2227,"ĠLo":2228,"Ġ05":2229,"ĠTe":2230,"ferre":2231,"Ġappropriate":2232,"ferred":2233,"ERT":2234,"case":2235,"ĠRes":2236,"umer":2237,"row":2238,"ought":2239,"Ġinvol":2240,"rated":2241,"001":2242,"Ġsta":2243,"ĠINC":2244,"Ġtitle":2245,"Ġlabe":2246,"Ġprep":2247,"Ġlike":2248,"×¥":2249,"Ġ;":2250,"Ġlisted":2251,"color":2252,"ĊĠĠĠĠĠĠĠĠĠĠĠĠĠĠĠĠĠĠĠĠĠĠĠĠĠĠĠĠĠĠĠĠ":2253,"rica":2254,"urren":2255,"Ġexten":2256,"oftw":2257,"Con":2258,"oftware":2259,"cent":2260,"ath":2261,"lied":2262,"Ġanother":2263,"urrent":2264,"day":2265,"...":2266,"67":2267,"Ġcolle":2268,"Ġ01":2269,"left":2270,"Ġ38":2271,"DDDD":2272,"Ġforth":2273,"Ent":2274,"Ġregu":2275,"stantial":2276,"×Ł":2277,"ĠLi":2278,"ining":2279,"Check":2280,"Ġ04":2281,"align":2282,"NE":2283,"Ġatte":2284,"mon":2285,"53":2286,"):":2287,".*":2288,"ĠReport":2289,"Ġerro":2290,"ledge":2291,"ĊĠĠĠĠĠĠĠĠĠĠĠĠĠĠĠĠĠĠĠĠĠĠĠĠĠĠĠĠĠĠĠĠĠ":2292,"Ġbasis":2293,"anal":2294,"ĠYou":2295,"×§":2296,"Ġopinion":2297,"uty":2298,"oup":2299,"ĠStat":2300,"ĠORDER":2301,"Ġwor":2302,"Ġbelow":2303,"ĠDat":2304,":#":2305,"ĠCopy":2306,"PP":2307,"Ġown":2308,"LAIM":2309,"Ġprof":2310,"FOR":2311,"ian":2312,"RESS":2313,"ĠAL":2314,"ĠDate":2315,"wise":2316,"erc":2317,"ĠCheck":2318,"alf":2319,"52":2320,"ople":2321,"rga":2322,"ession":2323,"ĠUS":2324,"ret":2325,"cho":2326,"rize":2327,"Ġmer":2328,"Ġacc":2329,"ĊĠĠĠĠĠĠĠĠĠĠĠĠĠĠĠĠĠĠĠĠĠĠĠĠĠĠĠĠĠĠĠĠĠĠ":2330,"aration":2331,"Ġadm":2332,"Ġconcer":2333,"aren":2334,"ĠCompany":2335,"ĠAss":2336,"gram":2337,"ĠMay":2338,"ĠCommission":2339,"×Ŀ":2340,"cons":2341,"arch":2342,"Ġcontrol":2343,"OC":2344,"Ġdisp":2345,"Ġinvest":2346,"nership":2347,"iforn":2348,"ÂłÂłÂłÂł":2349,"mbers":2350,"State":2351,"Ġregarding":2352,"ua":2353,"ifornia":2354,"Ente":2355,"Ġexpenses":2356,"Enter":2357,"UD":2358,"ĠJoh":2359,"ired":2360,"Ġdenied":2361,"RA":2362,"Ġ02":2363,"bert":2364,"90":2365,"Ġ2010":2366,"cumstances":2367,"Ġrespons":2368,"ĠBox":2369,"Ġcap":2370,"ignat":2371,"agement":2372,"CE":2373,"Ġsett":2374,"ĊĠĠĠĠĠĠĠĠĠĠĠĠĠĠĠĠĠĠĠĠĠĠĠĠĠĠĠĠĠĠĠĠĠĠĠ":2375,"Ġspouses":2376,"ably":2377,"itation":2378,"................................................................":2379,"ird":2380,"×Ķ":2381,"Ġ37":2382,"Ġevery":2383,"IA":2384,"Ġcommencement":2385,"scribed":2386,"Ġdamages":2387,"Pro":2388,"ligations":2389,"DDRESS":2390,"Entere":2391,"Entered":2392,"Ġsale":2393,"Ġlimited":2394,"ĠClaims":2395,"Ġhome":2396,"zation":2397,"vert":2398,"ĠSa":2399,"greement":2400,"UNITED":2401,"Ġpurpose":2402,"ĠGo":2403,"text":2404,"Ġna":2405,"Ġfailed":2406,"vers":2407,"Ġnecessary":2408,"umn":2409,"dy":2410,"Ġlat":2411,"Ġspouse":2412,"irec":2413,"ptember":2414,"Ġexist":2415,"Times":2416,"unt":2417,"ĠAt":2418,"Ġapplication":2419,"Ġsimilar":2420,"ĠâĢĺ":2421,"ĠList":2422,"lin":2423,"Ġprob":2424,"ĊĠĠĠĠĠĠĠĠĠĠĠĠĠĠĠĠĠĠĠĠĠĠĠĠĠĠĠĠĠĠĠĠĠĠĠĠ":2425,"Ġlabeled":2426,"ler":2427,"Ġdetermine":2428,"inclu":2429,"THER":2430,"covery":2431,"âĢĹ":2432,"Ġ2008":2433,"RED":2434,"Total":2435,"###":2436,"Ġcreditor":2437,"Ġschedule":2438,"ĠCO":2439,"60":2440,"ĠMc":2441,"Ġanal":2442,"Ġperform":2443,"Ġfees":2444,"Ġsummary":2445,"ËĻ":2446,"Ġparticular":2447,"198":2448,"×ĳ":2449,"rdi":2450,"ared":2451,"ars":2452,"ĠCLAIM":2453,"Ġclass":2454,"ĠPRO":2455,"ĠADDRESS":2456,"Ġconvic":2457,"×¦":2458,"oting":2459,"Name":2460,"×¤":2461,"ĠDepartment":2462,"venue":2463,"ĠNe":2464,"ANT":2465,"jo":2466,"Ġpoi":2467,"ually":2468,"ively":2469,"Ġallegations":2470,"ignature":2471,"ban":2472,"Ġcosts":2473,"95":2474,"ificat":2475,"rmal":2476,"cember":2477,"ificate":2478,"ĠYork":2479,"ËĻËĻ":2480,"ĊĠĠĠĠĠĠĠĠĠĠĠĠĠĠĠĠĠĠĠĠĠĠĠĠĠĠĠĠĠĠĠĠĠĠĠĠĠ":2481,"Ġunt":2482,"74":2483,"idth":2484,"ĠPar":2485,"ITY":2486,"91":2487,"clusion":2488,"tock":2489,"ipa":2490,"ida":2491,"ington":2492,"Ġneed":2493,"Ġwit":2494,"Le":2495,"ising":2496,"Ġconclu":2497,"rtion":2498,"Ġexemp":2499,"nuary":2500,"Ġinit":2501,"ĠCt":2502,"lli":2503,"Ġ31":2504,"ICE":2505,"70":2506,"Ġreaso":2507,"iga":2508,"vious":2509,"Ġleast":2510,"gen":2511,"feren":2512,"Ġ\\[":2513,"Ġsufficient":2514,"nsation":2515,"Ġ2009":2516,"ï¿½ï¿½ï¿½ï¿½":2517,"Ġ101":2518,"illi":2519,"94":2520,"margin":2521,"Ġlate":2522,"Ġcannot":2523,"$âĢĻ":2524,"Ġfra":2525,"Ġrem":2526,"Ġpolicy":2527,"cto":2528,"mendment":2529,"preme":2530,"Mo":2531,"Ġexec":2532,"Ġfailure":2533,"ĠSummary":2534,"Ġviolation":2535,"Ġsupp":2536,"Ġ48":2537,"Ġmis":2538,"Ġsecond":2539,"rug":2540,"Ġ\\*":2541,"cation":2542,"Ġparagraph":2543,"Ġce":2544,"ley":2545,",\"":2546,"nger":2547,"des":2548,"Ġrat":2549,"Se":2550,"Ġwhile":2551,"ĠAug":2552,"Ġdocuments":2553,"ĊĠĠĠĠĠĠĠĠĠĠĠĠĠĠĠĠĠĠĠĠĠĠĠĠĠĠĠĠĠĠĠĠĠĠĠĠĠĠ":2554,"stic":2555,"Ġwar":2556,"ices":2557,"rtg":2558,"Ġbelie":2559,"ĠChapter":2560,"ĠComplaint":2561,"Ġrelated":2562,"mat":2563,"Ġtreat":2564,"ĠCopyright":2565,"Ġdefined":2566,"ĠCON":2567,"ctober":2568,"ĠJune":2569,"ngth":2570,"scription":2571,"ĠCe":2572,"orig":2573,"iver":2574,"Ġro":2575,"ĠCircuit":2576,"ong":2577,"Ġspecific":2578,"Ġ2012":2579,"ĠSub":2580,"ĠAgreement":2581,"Ġcusto":2582,"ĠAM":2583,"Ġdecl":2584,"Ġlast":2585,"pril":2586,"ĠCalifornia":2587,"half":2588,"ysis":2589,"Ġ2011":2590,"dance":2591,"unic":2592,"Ġreside":2593,"Ġmea":2594,"Ġassert":2595,"Ġthi":2596,"Ġback":2597,"Ġcircumstances":2598,"Ġmin":2599,"just":2600,"ĠÂ·":2601,"nne":2602,"ĠReg":2603,"Ġprincip":2604,"Ġsystem":2605,"standing":2606,"vered":2607,"merica":2608,"dian":2609,"Ġ2014":2610,"Ġpat":2611,"pla":2612,"ead":2613,"Type":2614,"seque":2615,"Ġinsurance":2616,"Ġproduct":2617,"nance":2618,"ĊĠĠĠĠĠĠĠĠĠĠĠĠĠĠĠĠĠĠĠĠĠĠĠĠĠĠĠĠĠĠĠĠĠĠĠĠĠĠĠ":2619,"amended":2620,"Ġear":2621,"ordi":2622,"IG":2623,"ural":2624,"Ġterms":2625,"64":2626,"bit":2627,"Ġpenal":2628,"Ye":2629,"Ġgiven":2630,"ĠThat":2631,"ĠNOT":2632,"Ġmembers":2633,"Ġcal":2634,"lies":2635,"Ad":2636,"Ġless":2637,"ĠSeptember":2638,"Software":2639,"Ġ2007":2640,"ĠCredi":2641,"Ġ2013":2642,"Ġprodu":2643,"END":2644,"Ġinjury":2645,"93":2646,"Ġjudge":2647,"older":2648,"Doc":2649,"ĠJuly":2650,"Ġ2015":2651,"rized":2652,"ĠFi":2653,"UL":2654,"ncing":2655,"ferent":2656,"Ġsubstantial":2657,"perv":2658,"self":2659,"ĠWhe":2660,"phone":2661,"Ġrequirements":2662,"comm":2663,"way":2664,"Ġ2016":2665,"see":2666,"ĠSpec":2667,"Ġaccor":2668,"ĠFirst":2669,"Ã¿Ã¾":2670,"×ĺ":2671,"Ġtestified":2672,"Ġissues":2673,"ries":2674,"DA":2675,"Ġfinal":2676,"ĠYour":2677,"Ġmedical":2678,"Ġpurcha":2679,"Ġproposed":2680,"For":2681,"ntion":2682,"73":2683,"fully":2684,"ases":2685,"Defendant":2686,"nso":2687,"Ġbur":2688,"urities":2689,"utes":2690,"rator":2691,"Ġstatements":2692,"ĠNumber":2693,"dict":2694,"Ġcompleted":2695,"Ġplaintiffs":2696,"Ġshare":2697,"avo":2698,"rif":2699,"Ġtrue":2700,"dat":2701,"Ġpurposes":2702,"band":2703,"ĠIns":2704,"Ġcorporation":2705,"nated":2706,"ĠDecember":2707,"Yes":2708,"mail":2709,"Ġreasons":2710,"Ġextent":2711,"Ġveh":2712,"This":2713,"Ġdevelo":2714,"ĊĠĠĠĠĠĠĠĠĠĠĠĠĠĠĠĠĠĠĠĠĠĠĠĠĠĠĠĠĠĠĠĠĠĠĠĠĠĠĠĠ":2715,"ĠMarch":2716,"Ġcriminal":2717,"Ġorig":2718,"Ġsay":2719,"pa":2720,"ĠCert":2721,"Ġcommunity":2722,"Do":2723,"Ġcounseling":2724,"Ġreal":2725,"date":2726,"65":2727,"Ġproced":2728,"Ġ42":2729,"Ġmonthly":2730,"Ġeng":2731,"Ġcontinue":2732,"ĠWith":2733,"Ġpract":2734,"idat":2735,"×ŀ":2736,"Ġrecords":2737,"idate":2738,"though":2739,"NS":2740,"ade":2741,"spa":2742,"ilt":2743,"Ġuntil":2744,";</":2745,"raw":2746,"Ġrepresent":2747,"Ġgrante":2748,"Ġgranted":2749,"Ġhigh":2750,"arent":2751,"ĠAll":2752,"AP":2753,"Ġemployment":2754,"ĠJanuary":2755,"69":2756,"Ġhowever":2757,"Ġconne":2758,"Ġsur":2759,"whe":2760,"Ġread":2761,"Ġcare":2762,"ĠLast":2763,"Ġotherwise":2764,"Ġwww":2765,"Ġsign":2766,"iation":2767,"ling":2768,"Ġphys":2769,"lose":2770,"ĠRoman":2771,"ĠOctober":2772,"iary":2773,"Ġrate":2774,"Wh":2775,"Ġtrustee":2776,"issed":2777,"ERS":2778,"tis":2779,"Ġneg":2780,"Ġmillion":2781,"Ġmost":2782,"rand":2783,"Ġom":2784,"Ġnow":2785,"×¨":2786,"NAME":2787,"St":2788,"Ġfin":2789,"Ġqual":2790,"ives":2791,"rations":2792,"Page":2793,"Part":2794,"Ġdata":2795,"rre":2796,"ĠPo":2797,"marily":2798,"lephone":2799,"Ġpetitione":2800,"rary":2801,"from":2802,"session":2803,"ison":2804,"ĠGeneral":2805,"itten":2806,"ĠApril":2807,"Ġerror":2808,"ps":2809,"ibility":2810,"stimate":2811,"Ġrelevant":2812,"cretion":2813,"rtgage":2814,"erefore":2815,"abilities":2816,"Ġappellant":2817,"ĠIndividual":2818,"imum":2819,"ĠCar":2820,"used":2821,"ĠSU":2822,"under":2823,"EQ":2824,"63":2825,"72":2826,"Ġincluded":2827,"ĊĠĠĠĠĠĠĠĠĠĠĠĠĠĠĠĠĠĠĠĠĠĠĠĠĠĠĠĠĠĠĠĠĠĠĠĠĠĠĠĠĠ":2828,"Sub":2829,"herefore":2830,"Chapter":2831,"Ġtherefore":2832,"istance":2833,"×ļ":2834,"Ġdeli":2835,"ster":2836,"×Ĵ":2837,"ĠSupreme":2838,"IF":2839,"Ġprovisions":2840,"Ġinf":2841,"bt":2842,"Ã¿Ã½":2843,"ĠPA":2844,"We":2845,"Ġpetitioner":2846,"own":2847,"Ġindicate":2848,"×ł":2849,"bru":2850,"ick":2851,"Ġ50":2852,"Ġemployees":2853,"ines":2854,"Ġproceedings":2855,"Ġmeans":2856,"ail":2857,"net":2858,"Ġdifferent":2859,"Ġans":2860,"Ġadministrative":2861,"80":2862,"ĠBoard":2863,"ault":2864,"Ġentere":2865,"Ġentered":2866,"62":2867,"viro":2868,"Ġinde":2869,"________________________________________________________________":2870,"ka":2871,"Ġprovides":2872,"rable":2873,"ĠHowever":2874,"dle":2875,"Ġcolumn":2876,"ĠIS":2877,"×ľ":2878,"âĢĿ)":2879,"vironment":2880,"Ġincre":2881,"poi":2882,"ociate":2883,"ĠSta":2884,"ART":2885,"Ġfull":2886,"Ġ--":2887,"Ġ2006":2888,"Ġdetermined":2889,"ĠFed":2890,"ĠCom":2891,"ause":2892,"Ġbehalf":2893,"POR":2894,"ĠPre":2895,"CL":2896,"losure":2897,"Ġdischarge":2898,"Ġdeta":2899,"press":2900,"ĠCorp":2901,"rating":2902,"Ġposition":2903,"Ġauthority":2904,"bruary":2905,"gn":2906,"itations":2907,"ĠAugust":2908,"71":2909,"ĠSupp":2910,"ĠCOM":2911,"orga":2912,"Ġaccordance":2913,"xxxx":2914,"change":2915,"PT":2916,"Ġactions":2917,"tisf":2918,"Ġ106":2919,"ĠMan":2920,"Ġlater":2921,"usband":2922,"stitutional":2923,"EDU":2924,"corpo":2925,"As":2926,"ssed":2927,"On":2928,"Ġpoin":2929,"ĠBut":2930,"ress":2931,"ield":2932,"fi":2933,"cte":2934,"ĠPlan":2935,"hold":2936,"ict":2937,"lar":2938,"Ġbrea":2939,"EM":2940,"ĠEd":2941,"Ġobject":2942,"itigation":2943,"Ġaccess":2944,"isk":2945,"ward":2946,"ocial":2947,"Ġ2005":2948,"retary":2949,"stcase":2950,"Ġ**":2951,"Ġsheet":2952,"Ġapproved":2953,"Ġdistrib":2954,"Ġtype":2955,"Ġprimarily":2956,"pi":2957,"poin":2958,"Ġinitial":2959,"Ġconstit":2960,"Ġdescribed":2961,"ĠNO":2962,"Ġamended":2963,"iority":2964,"cted":2965,"ĠAT":2966,"ideration":2967,"><":2968,"ĊĠĠĠĠĠĠĠĠĠĠĠĠĠĠĠĠĠĠĠĠĠĠĠĠĠĠĠĠĠĠĠĠĠĠĠĠĠĠĠĠĠĠ":2969,"Account":2970,"Ġhow":2971,"Ġconcerning":2972,"Su":2973,"nois":2974,"Ġemploye":2975,"uil":2976,"Ġ2019":2977,"×ĵ":2978,"ica":2979,"chool":2980,"mental":2981,"Cr":2982,"ĠJoint":2983,"Ġfind":2984,"struction":2985,"INT":2986,"Dt":2987,"Ġdismissed":2988,"ĠJe":2989,"wed":2990,"ĠAmerica":2991,"illiam":2992,"Ġbenefit":2993,"Ġpoint":2994,"code":2995,"Ġresponse":2996,"61":2997,"lying":2998,"ĠTex":2999,"ĠAr":3000,"Ġfamily":3001,"BTOR":3002,"ped":3003,"ourse":3004,"span":3005,"ishe":3006,"ĠTotal":3007,"gent":3008,"Ġargues":3009,"cordingly":3010,"Ġduty":3011,"ower":3012,"fered":3013,"EX":3014,"qua":3015,"Ġdrug":3016,"eat":3017,"Ġposs":3018,"Ġindividuals":3019,"Ġnature":3020,"Ġdefense":3021,"bestcase":3022,"vo":3023,"ĠShe":3024,"Ġoriginal":3025,"Ġstandard":3026,"ĠClass":3027,"zo":3028,"AD":3029,"Ġpriority":3030,"liance":3031,"imately":3032,"Ġ2017":3033,"point":3034,"action":3035,"Ġfour":3036,"Ġestate":3037,"lien":3038,"ier":3039,"ources":3040,"has":3041,"iding":3042,"Ġ~":3043,"Ġdiscretion":3044,"Ġenfor":3045,"ago":3046,"Ġsix":3047,"vance":3048,"bur":3049,"ann":3050,"ience":3051,"Decode":3052,"Ġcourts":3053,"llinois":3054,"Ġexam":3055,"Ġdepos":3056,"ifically":3057,"Ġprotect":3058,")).":3059,"Ġminor":3060,"Ġrequeste":3061,"He":3062,"secu":3063,"ki":3064,"ntial":3065,"ĠPageID":3066,"vice":3067,"alse":3068,"REDIT":3069,"ĠNove":3070,"Ġimpro":3071,"Ġconsidere":3072,"Ġconsidered":3073,"Ġdetermination":3074,"ĠSecretary":3075,"Ġ40":3076,"fact":3077,"Fe":3078,"Ġremo":3079,"formed":3080,"×¡":3081,"Ġwat":3082,"%;":3083,"set":3084,"Ġrequested":3085,"Ġconsumer":3086,"Ġway":3087,"ĠâĢĶ":3088,"UE":3089,"ĠNovember":3090,"Ġamounts":3091,"Ġrai":3092,"Ġmonths":3093,".âĢĻ":3094,"cri":3095,"lines":3096,"stant":3097,"ĠTrans":3098,"ĠAu":3099,"Ġconta":3100,"Ġalt":3101,"Ġprejud":3102,"ĊĠĠĠĠĠĠĠĠĠĠĠĠĠĠĠĠĠĠĠĠĠĠĠĠĠĠĠĠĠĠĠĠĠĠĠĠĠĠĠĠĠĠĠ":3103,"Ġhealth":3104,"nan":3105,"Ġrequires":3106,"2008":3107,"ections":3108,"new":3109,"Ġ2018":3110,"ground":3111,"lating":3112,"itable":3113,"//":3114,"rson":3115,"NEY":3116,"pendent":3117,"thing":3118,"mes":3119,"Ġmarket":3120,"Ġfavo":3121,"ĠPay":3122,"Ġsecured":3123,"court":3124,"Ġthink":3125,"Ġconditions":3126,"Ġanalysis":3127,"cat":3128,"Ġinterests":3129,"×©":3130,"Ġcompensation":3131,"Ġ:":3132,"losed":3133,"eets":3134,"Ġ500":3135,"oo":3136,"ĠNotice":3137,"Ġknowledge":3138,"affect":3139,"Ġliability":3140,"85":3141,"Ġincurred":3142,"uation":3143,"allenge":3144,"rong":3145,"Ġissued":3146,"Ġprogram":3147,"ĠâĢĵ":3148,"Ġofficers":3149,"monst":3150,"Ġ---":3151,"Ġconnection":3152,"Ġassets":3153,"EQEQ":3154,"Ġcompany":3155,"icen":3156,"laims":3157,"ĠFebruary":3158,"verage":3159,"ĠCen":3160,"89":3161,"width":3162,"app":3163,"ĠVe":3164,"sub":3165,"ĠMs":3166,"ATED":3167,"Ġestablishe":3168,"Ġprevious":3169,"Ġfunds":3170,"idated":3171,"Ġrest":3172,"arte":3173,"sentat":3174,"reg":3175,"read":3176,"und":3177,"Ġaddition":3178,"Ġfollows":3179,"Ġstatutory":3180,"bk":3181,"was":3182,"ĠTher":3183,"Ġdiscovery":3184,"Ġentity":3185,"istrate":3186,"ASE":3187,"ivers":3188,"ĠRa":3189,"×¢":3190,"84":3191,"Ġtrade":3192,"fort":3193,"nuation":3194,"laimed":3195,"eign":3196,"App":3197,"itive":3198,"debtor":3199,"Ġwritten":3200,"ĠTH":3201,"Ġpercent":3202,"mers":3203,"states":3204,"jury":3205,"sa":3206,"TS":3207,"ĠCent":3208,"Ġattemp":3209,"RU":3210,"ĠThere":3211,"ĠJohn":3212,"uture":3213,"82":3214,"Ġsatisf":3215,"Ġremain":3216,"ria":3217,"ĠAm":3218,"Ġagreed":3219,"Ġsafe":3220,"Ġsubmitted":3221,"Ġhold":3222,"Ġbro":3223,"Ġconclusion":3224,"Ġmoney":3225,"Ġalte":3226,"isten":3227,"Ġbenefits":3228,"ittee":3229,"87":3230,"ANK":3231,"Ġ,":3232,"Ġfair":3233,"LP":3234,"OTION":3235,"Ġresul":3236,"Ġunsecured":3237,"ĊĠĠĠĠĠĠĠĠĠĠĠĠĠĠĠĠĠĠĠĠĠĠĠĠĠĠĠĠĠĠĠĠĠĠĠĠĠĠĠĠĠĠĠĠ":3238,"ĠUnsecured":3239,"istent":3240,"Defendants":3241,"ĠCha":3242,"CA":3243,"ĀĀĀĀĀĀĀĀĀĀĀĀĀĀĀĀ":3244,"ĠKe":3245,"ĠCle":3246,"TORNEY":3247,"Ġhouse":3248,"Ġburden":3249,"ashington":3250,"ngu":3251,"Ġanswer":3252,"Ġlong":3253,"ĠCivil":3254,"Ġhan":3255,"nel":3256,"Ġelect":3257,"Ġproperly":3258,"ĠBar":3259,"Ġmee":3260,"iz":3261,"vat":3262,"Ġgood":3263,"lling":3264,"EDULE":3265,"alue":3266,"CHEDULE":3267,"Ġsever":3268,"idential":3269,"ĠIllinois":3270,"iddle":3271,"Ġdeny":3272,"====":3273,"Ġherei":3274,"Ġcheck":3275,"ĠAdminist":3276,"SE":3277,"LY":3278,"Ġvar":3279,"quidated":3280,"udge":3281,"THERN":3282,"Ġlevel":3283,"pport":3284,"ulation":3285,"ecause":3286,"ounds":3287,"CF":3288,"ĠServices":3289,"ours":3290,"Ġstates":3291,"BER":3292,"Ġplea":3293,"Ġattach":3294,"uc":3295,"ott":3296,"Ġexerc":3297,"vent":3298,"arried":3299,"know":3300,"Ġactivities":3301,"Length":3302,"lf":3303,"issions":3304,"Ġcontrib":3305,"Ġseparated":3306,"quir":3307,"ample":3308,"Ġsit":3309,"ĠGovernment":3310,"Appe":3311,"wa":3312,"Ġexpert":3313,"ĠALJ":3314,"Ġcall":3315,"Ġ35":3316,"ading":3317,"otential":3318,"ĠWL":3319,"PERT":3320,"vate":3321,"Ġusing":3322,"lationship":3323,"81":3324,"Ġpossession":3325,"ĠOb":3326,"Ġmaking":3327,"Ġaffect":3328,"ĠSecurity":3329,"ĠUnder":3330,"iving":3331,"llee":3332,"Ġbriefing":3333,"Ġes":3334,"ĠLoc":3335,"mic":3336,"nen":3337,"2007":3338,"ilty":3339,"ïģ":3340,"this":3341,"\\_\\_":3342,"×ķ":3343,"Ġofficial":3344,"ursuant":3345,"gge":3346,"Ġï¿½":3347,"las":3348,"nson":3349,"cing":3350,"ĠCA":3351,"Ġfalse":3352,"eason":3353,"Ġpost":3354,"CY":3355,"ised":3356,"800":3357,"âĪ":3358,"dren":3359,"Ġrelease":3360,"ORITY":3361,"OF":3362,"Ġ45":3363,"reason":3364,"mb":3365,"outh":3366,"Ġcourse":3367,"Ġtransfer":3368,"Ġlan":3369,"Ġserved":3370,"including":3371,"83":3372,"Ġoffense":3373,"kt":3374,"160":3375,"×Ĳ":3376,"REDITOR":3377,"Ġguilty":3378,"Ã¿Ã¿Ã¿Ã¿Ã¿Ã¿Ã¿Ã¿Ã¿Ã¿Ã¿Ã¿Ã¿Ã¿Ã¿Ã¿":3379,"ipment":3380,"pea":3381,"spon":3382,"llate":3383,";;":3384,"ncies":3385,"ght":3386,"Ġsuperv":3387,"encing":3388,"OW":3389,"&#":3390,"urance":3391,"Ġ33":3392,"time":3393,"ĠPetitione":3394,"ĠPetitioner":3395,"Ġreference":3396,"ort":3397,"Ġredu":3398,"Ġcommo":3399,"Ġhaving":3400,"ita":3401,"hird":3402,"ĠâĢľ[":3403,"irector":3404,"Ġthird":3405,"reate":3406,"rac":3407,"fers":3408,"Ġvehicle":3409,"----------------":3410,"Ġdri":3411,"Ġland":3412,"Ġpersons":3413,"####":3414,"Ġpresente":3415,"Ġfive":3416,"Ġpartnership":3417,"ĠInterest":3418,"Ġele":3419,"ilte":3420,"Ġletter":3421,"Ġprobation":3422,"ipat":3423,"Ma":3424,"off":3425,"Ġpresented":3426,"Ġherein":3427,"Ã¿Ã¿Ã¿":3428,"Ġpenalty":3429,"cate":3430,"ipate":3431,"Ġdeath":3432,"olunt":3433,"SCHEDULE":3434,"ĠDEBTOR":3435,"EE":3436,"PERTY":3437,"work":3438,"ĠGr":3439,"present":3440,"icago":3441,"Ġidentify":3442,"cord":3443,"Ġalter":3444,"ico":3445,"ĠCa":3446,"commend":3447,"Ġrec":3448,"ĊĠĠĠĠĠĠĠĠĠĠĠĠĠĠĠĠĠĠĠĠĠĠĠĠĠĠĠĠĠĠĠĠĠĠĠĠĠĠĠĠĠĠĠĠĠ":3449,"Ġcommon":3450,"RIORITY":3451,"Ġsecurity":3452,"pted":3453,"Te":3454,"Ġowe":3455,"lude":3456,"Ġchallenge":3457,"adequa":3458,"ilter":3459,"ĠMi":3460,"taining":3461,"2014":3462,"SA":3463,"ĠII":3464,"mestic":3465,"Ġart":3466,"ingle":3467,"Ġomitted":3468,"Ġtaken":3469,"Ġpeople":3470,"Ġrequirement":3471,"Ġcertificate":3472,"vironmental":3473,"puted":3474,"verse":3475,"ĠInter":3476,"spect":3477,"To":3478,"2013":3479,"FR":3480,"Ġfuture":3481,"ĠIncome":3482,"bts":3483,"Ġdemonst":3484,"Ġdi":3485,"PO":3486,"Ġlocal":3487,"ls":3488,"rit":3489,"Ġrender":3490,"Ġholding":3491,"Ġ2004":3492,"trans":3493,"eo":3494,"Ġ34":3495,"Ġexcept":3496,"tters":3497,"Signature":3498,"nguage":3499,"ĠSte":3500,"OD":3501,"mith":3502,"Ġprincipal":3503,"hio":3504,"ĠMOTION":3505,"ISION":3506,"ĠID":3507,"ĠTexas":3508,"ford":3509,"Ġchar":3510,"ille":3511,"Ġsince":3512,"gether":3513,"aged":3514,"Ġ'":3515,"ried":3516,"section":3517,"olic":3518,"Ġbank":3519,"IAL":3520,"Ġnoted":3521,"united":3522,"ions":3523,"Ġsignifica":3524,"Ġestablished":3525,"TERN":3526,"ems":3527,"ging":3528,"Ġloans":3529,"nex":3530,"arily":3531,"Ġtreatment":3532,"Ġhereby":3533,"Ġresol":3534,"ĠDav":3535,"Ġmod":3536,"gy":3537,"ĠProced":3538,"Ġ60":3539,"miss":3540,"ictim":3541,"Ġcontained":3542,"uch":3543,"ĠAppellant":3544,"Ġassistance":3545,"Comp":3546,"ï¿½âĢŀ":3547,"Ġlack":3548,"An":3549,"ËĨÃ¨":3550,"ĠNational":3551,"2009":3552,"Ġstill":3553,"AB":3554,"mand":3555,"ĠAmendment":3556,"Ġoperation":3557,"organi":3558,"ccess":3559,"ILL":3560,"petition":3561,"Ġcost":3562,"Ġrep":3563,"_____":3564,"ready":3565,"Ġprosecu":3566,"Ġloss":3567,"ERV":3568,"ĠTra":3569,"dstream":3570,"Ġsole":3571,"Ġrules":3572,"ndstream":3573,"Ġ__":3574,"Filter":3575,"Ġvalign":3576,"este":3577,"nb":3578,"Ġprejudice":3579,"endstream":3580,"rthern":3581,"Ġtru":3582,"ics":3583,"ĠWa":3584,"Ġstock":3585,"stead":3586,"Ġspecial":3587,"Ġarea":3588,"hing":3589,"Ġobligations":3590,"ĠThus":3591,"DC":3592,"Ġdig":3593,"dents":3594,"Ġrisk":3595,"employ":3596,"Ġsettlement":3597,"lained":3598,"airs":3599,"Ġlease":3600,"Ġmeeting":3601,"view":3602,"ĠJudgment":3603,"ĠBANK":3604,"112":3605,"Ġdirecte":3606,"mination":3607,"Ġdirected":3608,"Court":3609,"×ĸ":3610,"Ġhand":3611,"Ġ44":3612,"ĠAS":3613,"Ġliable":3614,"ĠSan":3615,"nent":3616,"Whe":3617,"Ġlight":3618,"Ġ32":3619,"Ġcaused":3620,"ĠRules":3621,"Ġpotential":3622,"ĠAny":3623,"ĠDecl":3624,"ina":3625,"Ġassess":3626,"Ġbelieve":3627,"lus":3628,"2010":3629,"ils":3630,"Ġentire":3631,"Ġimpr":3632,"ĊĊĠĠĠĠĠĠ":3633,"AG":3634,"Ġ39":3635,"Ġsubmit":3636,"Ġexce":3637,"Ġsheets":3638,"Ġpolice":3639,"Ġresponsible":3640,"ĠMor":3641,"Bo":3642,"Ġforego":3643,"eate":3644,"Ġopport":3645,"Ġ47":3646,"Ġ2020":3647,"Ġgenerally":3648,"Ġwan":3649,"sence":3650,"ĠMem":3651,"ĠCreditors":3652,"Ġfindings":3653,"ĠRespon":3654,"ĠCH":3655,"Ġobtain":3656,"2011":3657,"2016":3658,"serv":3659,"ĠWhen":3660,"Cont":3661,"Ġleave":3662,"Ġloa":3663,"lay":3664,"Ġtold":3665,"×£":3666,"ĠHealth":3667,"CR":3668,"Ġforegoing":3669,"Ġvery":3670,"Comm":3671,"Number":3672,"udent":3673,"ĊĠĠĠĠĠĠĠĠĠĠĠĠĠĠĠĠĠĠĠĠĠĠĠĠĠĠĠĠĠĠĠĠĠĠĠĠĠĠĠĠĠĠĠĠĠĠ":3674,"ĠFlo":3675,"ĠGu":3676,"ĠÂ§Â§":3677,"ffort":3678,"ĠOpe":3679,"br":3680,"uilding":3681,"2012":3682,"earing":3683,"Ġplans":3684,"others":3685,"ĠDescribe":3686,"Ġ110":3687,"year":3688,"Ġlife":3689,"ued":3690,"tr":3691,"cert":3692,"CV":3693,"Ġnever":3694,"Ġimm":3695,"Tj":3696,"Im":3697,"Ġdecide":3698,"Ġimport":3699,"alen":3700,"Ġauthorized":3701,"Col":3702,"pose":3703,"ĠTitle":3704,"priority":3705,"iewed":3706,"gency":3707,"Ġdee":3708,"idav":3709,"utive":3710,"ĠTrustee":3711,"lative":3712,"gence":3713,"Ġasked":3714,"Married":3715,"Sh":3716,"Ġaddre":3717,"ardian":3718,"Ġbr":3719,"Ġwate":3720,"which":3721,"Ġcurrent":3722,"tic":3723,"Ġcreate":3724,"Ġdevelop":3725,"arms":3726,"ĠWilliam":3727,"oli":3728,"logy":3729,"Ġwater":3730,"Ġ41":3731,"Ġdon":3732,"Ġlanguage":3733,"Ġ43":3734,"MS":3735,"yo":3736,"mall":3737,"Ġhours":3738,"Ġ2000":3739,"acte":3740,"ĠAff":3741,"Ġ66":3742,"ĠNa":3743,"ĠPat":3744,"Ġeval":3745,"ames":3746,"Ġfactors":3747,"ĠSchedules":3748,"Ġjudicial":3749,"Ġconviction":3750,"Ġacce":3751,"Ġvictim":3752,"liquidated":3753,"ĠMag":3754,"ĠBa":3755,"ĠAppeals":3756,"Ġgoing":3757,"ĠAb":3758,"ĠDebtors":3759,"Ġwitness":3760,"tore":3761,"ximately":3762,"VER":3763,"Ã¿Ã»":3764,"ĠSTATE":3765,"Ġnor":3766,"Ġpossible":3767,"Ġmember":3768,"ees":3769,"xt":3770,"Ġmight":3771,"acity":3772,"uling":3773,"ĠCOMP":3774,"Ġadjust":3775,"Ġseveral":3776,"×Ĺ":3777,"Ġquestions":3778,"ister":3779,"THE":3780,"Ġwhose":3781,"Ġann":3782,"ĠCounsel":3783,"Ġ2003":3784,"Ġactivity":3785,"ttach":3786,"ĠPROPERTY":3787,"Ġpartner":3788,"Attorney":3789,"ĠORDERED":3790,"quired":3791,"ĠIs":3792,"ĊĊĊĊ":3793,"Ġreasonably":3794,"ger":3795,"BB":3796,"Ġsecurities":3797,"ĠLine":3798,"______________________________________________________________________":3799,"âĢĿ).":3800,"Ġestimate":3801,"ĠMiddle":3802,"pret":3803,"graph":3804,"LAINT":3805,"Ġarrest":3806,"Ġ49":3807,"Ġsugge":3808,"tains":3809,"Ġ2002":3810,"Ġneeded":3811,"mate":3812,"ARD":3813,"Ġlow":3814,"Ġdiv":3815,"Ġtogether":3816,"Ġgran":3817,"ĠTr":3818,"ĠTax":3819,"ĠPer":3820,"bility":3821,"Ġ+":3822,"kers":3823,"Ġalready":3824,"Ġinstructions":3825,"ĠBE":3826,"Ġregulations":3827,"Ġleft":3828,"Ġexpect":3829,"SC":3830,"lex":3831,"Ġsimp":3832,"irmed":3833,"NA":3834,"Ġintent":3835,"First":3836,"nition":3837,"ĠDec":3838,"Ġarbit":3839,"Ġexample":3840,"ordin":3841,"ï¿½_":3842,"Ġconsideration":3843,"Ġactual":3844,"pers":3845,"Ġrecogn":3846,"spec":3847,"Ġ56":3848,"cial":3849,"UT":3850,"ĠCri":3851,"alt":3852,"Ġ46":3853,"ĠAddress":3854,"cono":3855,"rsonal":3856,"isonment":3857,"Ġsc":3858,"Ġfire":3859,"tinge":3860,"Ġregard":3861,"ĠBy":3862,"Ġeffective":3863,"appro":3864,"oid":3865,"Ġacts":3866,"cated":3867,"rin":3868,"Ġattorneys":3869,"Ġmanagement":3870,"Ġwant":3871,"Ġnames":3872,"Pr":3873,"Ġinvolved":3874,"alance":3875,"Ġloan":3876,"ĠWo":3877,"Ġharm":3878,"ĠNon":3879,"ffective":3880,"up":3881,"nesses":3882,"Ġabuse":3883,"ECUR":3884,"ĠCong":3885,"Ġunit":3886,"ods":3887,"back":3888,"eep":3889,"Ġpate":3890,"Ġchildren":3891,"ix":3892,"Sp":3893,"2015":3894,"Ġable":3895,"ĠPh":3896,"arre":3897,"ĠWashington":3898,"ĊĠĠĠĠĠĠĠĠĠĠĠĠĠĠĠĠĠĠĠĠĠĠĠĠĠĠĠĠĠĠĠĠĠĠĠĠĠĠĠĠĠĠĠĠĠĠĠ":3899,"Ġren":3900,"Po":3901,"lause":3902,"ĠLLP":3903,"Ġconstitutional":3904,"hael":3905,"bs":3906,"Ġcivil":3907,"Ġsuf":3908,"Ġbegin":3909,"Ġsex":3910,"Ro":3911,"Ġpending":3912,"Ġproject":3913,"ived":3914,"Ġadded":3915,"ĠNA":3916,"arter":3917,"ĠFL":3918,"Ġcertify":3919,"Ġwarrant":3920,"Ġeffort":3921,"Ġothers":3922,"lack":3923,"pired":3924,";\"><":3925,"Ġrelationship":3926,"yer":3927,"ËĻËĻËĻËĻ":3928,"Ġfraud":3929,"EST":3930,"It":3931,"Ġarising":3932,"ray":3933,"Ġoccurred":3934,"Ġpower":3935,"Am":3936,"Ġvis":3937,"Ġidentified":3938,"Ġevent":3939,"Dis":3940,"ĠFra":3941,"Ġaward":3942,"IES":3943,"imp":3944,"tect":3945,"Ġmotions":3946,"tingen":3947,"tingent":3948,"________________________":3949,"ITH":3950,"OP":3951,"CTION":3952,"IE":3953,"Ġview":3954,"cle":3955,"Ġpermit":3956,"phe":3957,"uma":3958,"Ġoblig":3959,"ï¿½Â¯":3960,".,*":3961,"ever":3962,"Ġattempt":3963,"Ġsupra":3964,"holder":3965,".]":3966,"ĠOfficer":3967,"LIN":3968,"Ġlicen":3969,"ĠBecause":3970,"ĠGive":3971,"Ġassociate":3972,"Ġprofession":3973,"ĠAPP":3974,"ĠHa":3975,"Ġair":3976,"ĠNorth":3977,"ĠDoe":3978,"Ġdigits":3979,"Ġtech":3980,"uat":3981,"ctive":3982,"ĠFinancial":3983,"Ġshowing":3984,"Ġdefi":3985,"motion":3986,"ĠEmploy":3987,"Ġtimes":3988,"ĠCredit":3989,"nh":3990,"CON":3991,"Ġequipment":3992,"Ġtrust":3993,"Ġlitigation":3994,"Ġdiscu":3995,"Ġrather":3996,"ĠSol":3997,"ĠAN":3998,"appe":3999,"Ġfactual":4000,"Ġ_":4001,"ronic":4002,"\":":4003,"Ġsigned":4004,"ĠEX":4005,"Ġstatus":4006,"Ġclearly":4007,"Ã¿Ãº":4008,"Ġmeaning":4009,"Ġassu":4010,"ONE":4011,"rg":4012,"SH":4013,"Ġdirectly":4014,"ody":4015,"quoting":4016,"Ġ>":4017,"ham":4018,"Ġnegli":4019,"Ġelig":4020,"URE":4021,"IB":4022,"del":4023,"ĠProcedure":4024,"Ġsearch":4025,"ĠJust":4026,"Ġ90":4027,"@ï¿½":4028,"Ġver":4029,"Ġproof":4030,"Ġguardian":4031,"tage":4032,"Ġsignifican":4033,"Ġmany":4034,"Ġsignificant":4035,"Ġreturn":4036,"Ġability":4037,"mption":4038,"Ġreporte":4039,"nbsp":4040,"............":4041,"uro":4042,"Other":4043,"Ġcat":4044,"Ġdesig":4045,"MA":4046,"ĠFiling":4047,"Ġmet":4048,"ichael":4049,"uate":4050,"vertical":4051,"Ġsuit":4052,"ORTHERN":4053,"Ġvac":4054,"Ġaccounts":4055,"ĠMore":4056,"Ġsite":4057,"Ġfully":4058,"Ġpriv":4059,"ĠThese":4060,"rce":4061,"gov":4062,"ĠIII":4063,"ef":4064,"table":4065,"ĠOne":4066,"native":4067,"yl":4068,"Ġordere":4069,"Ġordered":4070,"UMBER":4071,"CO":4072,"Ġallowe":4073,"Ġallowed":4074,"Ġschool":4075,"://":4076,"Ġtaxe":4077,"Ġmarried":4078,"ĠTc":4079,"Ġ180":4080,"Ġfavor":4081,"ĠAD":4082,"Ġcrime":4083,"istical":4084,"Ġadequa":4085,"ĠAccordingly":4086,"Ġcomply":4087,"unction":4088,"ĠCertain":4089,"Ġperformance":4090,"iles":4091,"ĠBro":4092,"Ġmortgage":4093,"ones":4094,"WH":4095,"2019":4096,"Ġbest":4097,"IVISION":4098,"payment":4099,"Ġcontends":4100,"ĠčĊĠč":4101,"ches":4102,"ĊĠĠĠĠĠĠĠĠĠĠĠĠĠĠĠĠĠĠĠĠĠĠĠĠĠĠĠĠĠĠĠĠĠĠĠĠĠĠĠĠĠĠĠĠĠĠĠĠ":4103,"Form":4104,"DATE":4105,"ĠAfter":4106,"Ġ2001":4107,"Ġdead":4108,"ĠUNITED":4109,"rown":4110,"Ġpurchase":4111,"ARY":4112,"Ġconten":4113,"Sec":4114,"Ġend":4115,"ĠSuite":4116,"Ġget":4117,"Ġa":4118,"Ġan":4119,"Ġand":4120,"Ġat":4121,"ĠOf":4122,"draw":4123,"enance":4124,"agree":4125,"Ġcontracts":4126,"ĠNE":4127,"Ġparent":4128,"Ġmajo":4129,"have":4130,"ief":4131,"Ġwee":4132,"Ob":4133,"Ġproducts":4134,"za":4135,"reasonable":4136,"ĠÃĤ":4137,"isted":4138,"oks":4139,"nufact":4140,"Ġfon":4141,"ÂłÂłÂłÂłÂłÂłÂłÂł":4142,"Ġbar":4143,"Ġdou":4144,"empt":4145,"Ġlaws":4146,"mercial":4147,"Ġappoint":4148,"vans":4149,"aled":4150,"Ġdiscri":4151,"Ġwhy":4152,"ĠDep":4153,"ĠContract":4154,"ged":4155,"Ġcommunic":4156,"Ġmanner":4157,"sentative":4158,"Ġprec":4159,"Ġspecifically":4160,"Ġ606":4161,"ĠBusiness":4162,"Ġdeclare":4163,"ï¿½âĢļ":4164,"ially":4165,"ĠDIVISION":4166,"Ġdown":4167,"Ġsuccess":4168,"UST":4169,"nexpired":4170,"ĠExec":4171,"ĠCorporation":4172,"ECT":4173,"nformation":4174,"Ġremed":4175,"ĠNUMBER":4176,"Ġperjury":4177,"hus":4178,"AA":4179,"Ġnet":4180,"Ġexpress":4181,"Ġmeas":4182,"ANS":4183,"tenance":4184,"ĠZIP":4185,"Al":4186,"Ġapplied":4187,"normal":4188,"ducation":4189,"ĠInsurance":4190,"information":4191,"Ġimprisonment":4192,"Ġportion":4193,"ORPOR":4194,"Ġphysical":4195,"Ġcustody":4196,"Ġfont":4197,"inge":4198,"rine":4199,"ĠStatement":4200,"Ġmeet":4201,"Ġcash":4202,"Ġdispute":4203,"âĢĶâĢĶ":4204,"ublish":4205,"Ġformer":4206,"PH":4207,"ĠMon":4208,"Ġtaxes":4209,"Ġfinds":4210,"Ġmental":4211,"ĠClerk":4212,"ï¿½âĢĺ":4213,"Ġcollection":4214,"racy":4215,"Credi":4216,"ordinary":4217,"2017":4218,"ĠThey":4219,"2006":4220,"Ġgroup":4221,"PRIORITY":4222,"oluntary":4223,"Ġintended":4224,"greg":4225,"Ġobtained":4226,"served":4227,"ĠNote":4228,"Ġ55":4229,"outs":4230,"aran":4231,"110":4232,"ĠCODE":4233,"Ġjob":4234,"ĠATTORNEY":4235,"Ġemployer":4236,"Ġthus":4237,"Ġapplies":4238,"Ġresidence":4239,"Ġmean":4240,"Ġpreviously":4241,"Ġconsent":4242,"perience":4243,"ĠTm":4244,"Ġfr":4245,"ĠSmith":4246,"Ġrequests":4247,"ĠNON":4248,"Ġbreach":4249,"ĠSocial":4250,"Ġel":4251,"Ġbi":4252,"Be":4253,"ĠSc":4254,"RS":4255,"ttlement":4256,"ĠCons":4257,"Ġretur":4258,"citing":4259,"sto":4260,"ĠMagistrate":4261,"inuation":4262,"ĠJUD":4263,"ose":4264,"Ġoffer":4265,"Ġsought":4266,"Ġten":4267,"zard":4268,"Ġlimitations":4269,"Ġcalcu":4270,"101":4271,"Ġcharged":4272,"ximum":4273,"Pa":4274,"Ġ................................................................":4275,"ĠCiv":4276,"ĠWest":4277,"spital":4278,"lp":4279,"gan":4280,"ceeding":4281,"CRI":4282,"ĠOhio":4283,"ild":4284,"Ġlarge":4285,"Description":4286,"aries":4287,"Ġentry":4288,"ĠCREDITOR":4289,"os":4290,"Ġreported":4291,"Ġsmall":4292,"Ġprepare":4293,"2018":4294,"ken":4295,"raft":4296,"lease":4297,"\"><":4298,"ĠECF":4299,"Ġinterpret":4300,"Ġcontact":4301,"ĠTherefore":4302,"Ġfar":4303,"nies":4304,"Ġowned":4305,"Mr":4306,"ĠDist":4307,"AY":4308,"Ġbrought":4309,"icles":4310,"rai":4311,"Ġmult":4312,"ĠInformation":4313,"Ġvalid":4314,"Ġbelief":4315,"ĠDiv":4316,"Ġproble":4317,"XX":4318,"Ġ________________________________":4319,"Ġforce":4320,"Ġnormal":4321,"Ġtelephone":4322,"ĠCongress":4323,"Ġ00":4324,"empo":4325,"Ġalleges":4326,"Ġspecified":4327,"Exhibit":4328,"ORDER":4329,"Ġground":4330,"Ġgover":4331,"ete":4332,"defendant":4333,"nant":4334,"ĠSolutions":4335,"Plaintiffs":4336,"RUPT":4337,"Ġsafety":4338,"ĠDocket":4339,"ĠEvans":4340,"Ġcatego":4341,"Ġoffen":4342,"Ġdetermining":4343,"Ġsubseque":4344,"Ġproceed":4345,"Flate":4346,"FlateDecode":4347,"RUPTCY":4348,"idavit":4349,"doc":4350,"Ġsales":4351,"iable":4352,"dated":4353,"Ġforeign":4354,"Ġclaima":4355,"AW":4356,"Ġ600":4357,"Dated":4358,"Ġado":4359,"ift":4360,"Ġsingle":4361,"Ġdismissal":4362,"ĊĠĠĠĠĠĠĠĠĠĠĠĠĠĠĠĠĠĠĠĠĠĠĠĠĠĠĠĠĠĠĠĠĠĠĠĠĠĠĠĠĠĠĠĠĠĠĠĠĠ":4363,"Ġcommitted":4364,"Ġclaimed":4365,"ĠNY":4366,"600":4367,"Ġincrease":4368,"ignment":4369,"Ġsto":4370,"ĠTX":4371,"ĠOp":4372,"Ġsold":4373,"Ġamend":4374,"acy":4375,"ERE":4376,"ĠHer":4377,"ĊĊĊ":4378,"lue":4379,"âĢŀï¿½":4380,"Ġsubstance":4381,"Ġimposed":4382,"Ġtransferred":4383,"ĠSERV":4384,"iency":4385,"âĢĿ),":4386,"ĠBANKRUPTCY":4387,"ringe":4388,"Ġ112":4389,"lication":4390,"Ġcolspan":4391,"Ġincorpo":4392,"Ġpremi":4393,"PS":4394,"neous":4395,"ussed":4396,"Ġindependent":4397,"KH":4398,"uties":4399,"Ġwitnesses":4400,"Ġwaiver":4401,"ĠTimes":4402,"ller":4403,"ISS":4404,"organization":4405,"ĠStan":4406,"ĠWho":4407,"lica":4408,"ELL":4409,"Ġpension":4410,"itize":4411,"Int":4412,"Ġpun":4413,"Husband":4414,"PR":4415,"ĠTrust":4416,"Ġtext":4417,"ĠPri":4418,"Ġunable":4419,"ÃŁÃ¿":4420,"dge":4421,"Ġopportunity":4422,"ĠCente":4423,"rnal":4424,"AMOUNT":4425,"elated":4426,"Ġens":4427,"search":4428,"ĠSch":4429,"www":4430,"yed":4431,"iversity":4432,"Ġself":4433,"Ġapproximately":4434,"ota":4435,"ĠOk":4436,"Ġreject":4437,"300":4438,"ĠSecond":4439,"Ġgovernmental":4440,"Count":4441,"ouis":4442,"FEND":4443,"Ġexplained":4444,"eof":4445,"len":4446,"ĠTR":4447,"par":4448,"orce":4449,"Ġtop":4450,"ĠÂĨ":4451,"Ġmen":4452,"GH":4453,"Ġequity":4454,"dust":4455,"âĢ¦âĢ¦":4456,"Ġexclu":4457,"Ġgrounds":4458,"ĠIF":4459,"Ġorders":4460,"ociation":4461,"Ġbecome":4462,"asse":4463,"Ġexercise":4464,"ties":4465,"Ġconcluded":4466,"Ġmuch":4467,"ĠRobert":4468,"FENDANT":4469,"PTION":4470,"Ġstep":4471,"related":4472,"Ġsche":4473,"Ġactually":4474,"](#":4475,"'r":4476,"'re":4477,"SD":4478,"ada":4479,"grams":4480,"Ġpages":4481,"'m":4482,"ĠAsse":4483,"Ġsentencing":4484,"ECURED":4485,"non":4486,"Ġshown":4487,"Report":4488,"randum":4489,"rse":4490,"La":4491,"Ġaccu":4492,"ĠBr":4493,"Ġave":4494,"You":4495,"Ġdefinition":4496,"range":4497,"Ġpain":4498,"fa":4499,"Ġcharges":4500,"ĠAmended":4501,"OH":4502,"thod":4503,"Ġlegis":4504,"sol":4505,"suit":4506,"rick":4507,"Ġtimely":4508,"OIS":4509,"At":4510,"ï¿½ÃĹ":4511,"PD":4512,"wealth":4513,"Ġ</":4514,"disc":4515,"Ġcalled":4516,"ĠCenter":4517,"GA":4518,"yon":4519,"Ġprom":4520,"Ġseek":4521,"Me":4522,"sident":4523,"Ġsource":4524,"ĠManagement":4525,"Ã¿Ãµ":4526,"ĠLE":4527,"open":4528,"Ġreports":4529,"trial":4530,"Ġshort":4531,"Ã¿Ã«":4532,"Ġki":4533,"umb":4534,"Ġ507":4535,"Ġsubsection":4536,"fn":4537,"ĠData":4538,"ville":4539,"bor":4540,"ECF":4541,"hasis":4542,"gal":4543,"ĠJr":4544,"reen":4545,"PE":4546,"Ġ75":4547,"ĠAmerican":4548,"QU":4549,"ITION":4550,"Ġ52":4551,"Ġinst":4552,"Ġprove":4553,"portation":4554,"ĠWell":4555,"Ġdisability":4556,"Ġprice":4557,"Ġ(\"":4558,"Ġviolated":4559,"Ġ54":4560,"ĠMich":4561,"lier":4562,"weight":4563,"Ã¿Ã¯":4564,"dar":4565,"but":4566,"Ġ53":4567,"Chicago":4568,"ĠAction":4569,"Ġdeposition":4570,"ĠAlthough":4571,"Ġimpact":4572,"Ġfree":4573,"ĠGroup":4574,"Ġraised":4575,"Ġincludes":4576,"espon":4577,"Ġprivate":4578,"Ġdefault":4579,"Ġenforcement":4580,"outside":4581,"Ġexempt":4582,"Ġseeking":4583,"Com":4584,"property":4585,":**":4586,"Ġimproper":4587,"ĠLiabilities":4588,"penses":4589,":*":4590,"Ġpractice":4591,"Ġconclude":4592,"ï¿½Ã·":4593,"Ġowner":4594,"Ġmailing":4595,"ĠSystem":4596,"lates":4597,"Ġprocedures":4598,"SU":4599,"Ġmatters":4600,"ALUE":4601,"ASTERN":4602,"mt":4603,"reof":4604,"#Â¢":4605,"Ġcomb":4606,"Ġhar":4607,"Ġadmitted":4608,"Ġcontinu":4609,"Ġdepen":4610,"Not":4611,"Ġaccept":4612,"gu":4613,"ĠCommunity":4614,"Ġplead":4615,"Ġagen":4616,"ak":4617,"urrently":4618,"Ġreflect":4619,"Image":4620,"ereof":4621,"hereof":4622,"Ġdated":4623,"PM":4624,"Ġexcee":4625,"Ġentities":4626,"ĊĠĠĠĠĠĠĠĠĠĠĠĠĠĠĠĠĠĠĠĠĠĠĠĠĠĠĠĠĠĠĠĠĠĠĠĠĠĠĠĠĠĠĠĠĠĠĠĠĠĠ":4627,"can":4628,"Ġinvestigation":4629,"nes":4630,"itary":4631,"Ġwhom":4632,"Last":4633,"Ġlikely":4634,"Ġitself":4635,"Ġlines":4636,"ĠACC":4637,"GR":4638,"conduct":4639,"IFIC":4640,"ales":4641,"Ġexisting":4642,"itical":4643,"cope":4644,"Ġ57":4645,"ourth":4646,"ĠEs":4647,"Ġexperience":4648,"pee":4649,"reafter":4650,"City":4651,"iliate":4652,"ESCRI":4653,"counsel":4654,"Ġpaten":4655,"Ġecono":4656,"ĠWhile":4657,"Ġwife":4658,"Ġamong":4659,"Ġthereof":4660,"Inc":4661,"lock":4662,"lid":4663,"Amount":4664,"ĠCol":4665,"ĠPub":4666,"total":4667,"0001":4668,"Ġ59":4669,"each":4670,"Ġconstruction":4671,"quis":4672,"you":4673,"Ġprepared":4674,"When":4675,"Ġdisclose":4676,"ĠFinal":4677,"ĠCommittee":4678,"Ġserious":4679,"Ġ~~":4680,"rd":4681,"rred":4682,"Ġdesigned":4683,"Ġ225":4684,"Ġmakes":4685,"EAL":4686,"Ġavoid":4687,"CT":4688,"arded":4689,"Ġnothing":4690,"Fon":4691,"Ġtermi":4692,"Ġclaiman":4693,"ĠGR":4694,"Ġclaimant":4695,"udget":4696,"Ġlocated":4697,"yond":4698,"sy":4699,"Ġresults":4700,"Ġcapacity":4701,"ANCE":4702,"Ġobligation":4703,"using":4704,"usinesses":4705,"DING":4706,"Ġcomment":4707,"Ġcross":4708,"Ġserve":4709,"Ġmanufact":4710,"Ġvarious":4711,"such":4712,"rida":4713,"Ġid":4714,"ume":4715,"!ï¿½":4716,"`ï¿½":4717,"Ġdomestic":4718,"Ġfails":4719,"ĠJohnson":4720,"duction":4721,"ĠNONPRIORITY":4722,"ĠWithi":4723,"ĠWithin":4724,"hough":4725,"Ġcharacte":4726,"Ġcen":4727,"Ġdiscussed":4728,"ei":4729,"Ġbeginning":4730,"rain":4731,"Ġunderstand":4732,"ention":4733,"illa":4734,"lient":4735,"Ġengaged":4736,"ĠSUB":4737,"ĠHave":4738,"tan":4739,"ĠAdd":4740,"Ġstandards":4741,"erit":4742,"Ġintention":4743,"ĠAvenue":4744,"Ġwrong":4745,"Ġnext":4746,"direct":4747,"Ġconsistent":4748,"Ġ1983":4749,"erest":4750,"Ġappear":4751,"Ġtook":4752,"Ġthough":4753,"ills":4754,"ĠValue":4755,"Ġpermitted":4756,"Font":4757,"Mar":4758,"Ġdol":4759,"vention":4760,"Ġdecisions":4761,"serve":4762,"Ġhistory":4763,"paye":4764,"ĠSouth":4765,"payer":4766,"rates":4767,"Ġaware":4768,"Ġut":4769,"New":4770,"ished":4771,"Ġsupplement":4772,"Ġspace":4773,"uman":4774,"ama":4775,"ront":4776,"umbers":4777,"Sa":4778,"Ġgra":4779,"Ġmaintenance":4780,"ĠMil":4781,"isone":4782,"ĠAnn":4783,"Ġ2021":4784,"vey":4785,"ĠIll":4786,"Ġregular":4787,"ãĢ":4788,"Ġpresu":4789,"ĠPla":4790,"Ġpatent":4791,"Ġsimply":4792,"Ġrelating":4793,"Ġobjection":4794,"Ġdenial":4795,"ĠCap":4796,"#ï¿½":4797,"Ġchanges":4798,"Ġcontinued":4799,"hn":4800,"umns":4801,"Ġowed":4802,"Ġmaximum":4803,"Ġremaining":4804,"Ġ51":4805,"))":4806,"ĠInde":4807,"ĠHome":4808,"2005":4809,"room":4810,"Ġcommit":4811,"Ġcent":4812,"Ġagent":4813,"urs":4814,"inen":4815,"Ġexcess":4816,"ĠHolding":4817,"ĊĠĠĠĠĠĠĠĠĠĠĠĠĠĠĠĠĠĠĠĠĠĠĠĠĠĠĠĠĠĠĠĠĠĠĠĠĠĠĠĠĠĠĠĠĠĠĠĠĠĠĠ":4818,"nergy":4819,"400":4820,"nee":4821,"ĠHar":4822,"Ġbuilding":4823,"ili":4824,"Ġrecommend":4825,"nings":4826,"All":4827,"may":4828,"âĢ¢âĢ¢":4829,"ĠJustice":4830,"Â°ï¿½":4831,"Ġoutside":4832,"Ġrestitution":4833,"nsive":4834,"ĠPART":4835,"urcha":4836,"Ġprofit":4837,"og":4838,"Ġ109":4839,"Ġdet":4840,"RIS":4841,"Ġhelp":4842,"Ġ120":4843,"ĠFee":4844,"idelines":4845,"Ġcompet":4846,"Ġdeposit":4847,"Ġprotection":4848,"Ġhousehold":4849,"ĠLoa":4850,"icat":4851,"Ġput":4852,"Ġaverage":4853,"}ï¿½":4854,"ĠON":4855,"ĠEvanston":4856,"ĠILLIN":4857,"iscal":4858,"\"ï¿½":4859,"Ġfacility":4860,"Ġine":4861,"rap":4862,"ĠILLINOIS":4863,"rist":4864,"ĠCreditor":4865,"_ï¿½":4866,"Spec":4867,"oral":4868,"actions":4869,"rporate":4870,"Ġ58":4871,"well":4872,"ors":4873,"Ġmaintain":4874,"type":4875,"ĠArt":4876,"Ġ65":4877,"Ġindicated":4878,"grega":4879,"limin":4880,";\"":4881,"icate":4882,"istant":4883,"Ġreferred":4884,"ĠReal":4885,"Ju":4886,"ĠAutho":4887,"ĠSpecify":4888,"UAL":4889,"Ġconducte":4890,"{Â¶":4891,"Ġconducted":4892,"ĠLoan":4893,"icult":4894,"nde":4895,"Ġduties":4896,"ĠDATE":4897,"hibits":4898,"List":4899,"serif":4900,"ĠNAME":4901,"YY":4902,"ris":4903,"ĠWife":4904,"Ġelse":4905,"Ġerred":4906,"LCS":4907,"xe":4908,"uter":4909,"Ġlien":4910,"Ġ1999":4911,"rry":4912,"Jo":4913,"ĠRich":4914,"Ġschedules":4915,"irectors":4916,"zardous":4917,"Ġoperating":4918,"Ġexemption":4919,"inh":4920,"avings":4921,"ĊČ":4922,"vised":4923,"Ã¿ÃŁ":4924,"Ġrange":4925,"ifying":4926,"Ġverdict":4927,"Ġadv":4928,"ESCRIPTION":4929,"lants":4930,"PRO":4931,"Ġside":4932,"Ġz":4933,"Ġpolicies":4934,"Ġarguments":4935,"rizo":4936,"ince":4937,"ĠPublic":4938,"bankruptcy":4939,"nch":4940,"Ġgranting":4941,"ĠAir":4942,"Ġlimit":4943,"Ġrow":4944,"ureau":4945,"Ġeligible":4946,"ifficult":4947,"ref":4948,"Ġfaith":4949,"ĠSupport":4950,"Â¯ï¿½":4951,"COM":4952,"ACT":4953,"ĠExchange":4954,"Is":4955,"Ġfunction":4956,"Ġbusinesses":4957,"MR":4958,"pies":4959,"ĠILCS":4960,"Ġbeyond":4961,"BL":4962,"Ġinstruction":4963,"ders":4964,"will":4965,"âĢļ#":4966,"claim":4967,"ublishe":4968,"evidence":4969,"ĠIND":4970,"Ġdone":4971,"ĠSO":4972,"ĠSen":4973,"vision":4974,"Ġcompliance":4975,"ĊĠĠĠĠĠĠĠĠĠĠĠĠĠĠĠĠĠĠĠĠĠĠĠĠĠĠĠĠĠĠĠĠĠĠĠĠĠĠĠĠĠĠĠĠĠĠĠĠĠĠĠĠ":4976,"Ġequitable":4977,"Member":4978,"âĢĲ":4979,"my":4980,"Ġagencies":4981,".'":4982,"Ġmil":4983,"ĠMichael":4984,"ittle":4985,"ĠAdditional":4986,"ĠEqu":4987,"plaintiff":4988,"ernal":4989,"Ġstud":4990,"PL":4991,"epresent":4992,"represent":4993,"background":4994,"ponent":4995,"AV":4996,"uel":4997,"beas":4998,"quot":4999,"filed":5000,"eport":5001,"Ġappears":5002,"Ġfurn":5003,"Ġstay":5004,"Ġcomments":5005,"POS":5006,"Section":5007,"Ġseeks":5008,"ĠCl":5009,"Ġknew":5010,"Ġimplement":5011,"Ġunlaw":5012,"Ġappeals":5013,"Ġdesign":5014,"report":5015,"Ġforec":5016,"ĠFR":5017,"rty":5018,"NORTHERN":5019,"Ġinformed":5020,"kes":5021,"merce":5022,"Schedule":5023,"Ġconc":5024,"ĠDavid":5025,"Ġapproval":5026,"ĠCommo":5027,"Tr":5028,"iner":5029,"Ġobjections":5030,"ĠJames":5031,"ĠWil":5032,"Ġbalance":5033,"âĢłï¿½":5034,"Ġimporta":5035,"Ġadjustment":5036,"Ġcertification":5037,"Ġalternative":5038,"Ġprevent":5039,"ĠCLAIMS":5040,"provide":5041,"iel":5042,"itiga":5043,"âĢļï¿½":5044,"Ġaccomp":5045,"hoto":5046,"ges":5047,"ifies":5048,"ĠZip":5049,"Ġdistribution":5050,"Ġshares":5051,"$ï¿½":5052,"viden":5053,"arance":5054,"var":5055,"whether":5056,"Ġcoverage":5057,"ĠAR":5058,"amples":5059,"ĠSecured":5060,"don":5061,"Ġnamed":5062,"Ġnear":5063,"Ġ300":5064,"Ġcontributions":5065,"Ġreviewed":5066,"gat":5067,"\",":5068,"perior":5069,"uries":5070,"old":5071,"ĠWal":5072,"ĠThom":5073,"ula":5074,"ises":5075,"liminary":5076,"Ġparticipate":5077,"Ġweight":5078,"Ġexception":5079,"ctrine":5080,"Ġ...":5081,"anies":5082,"Ġnotes":5083,"Address":5084,"rint":5085,"based":5086,"Ġcell":5087,"000001":5088,"ĠColle":5089,"ĠRelated":5090,"ĠCommon":5091,"Ġmaterials":5092,"determ":5093,"By":5094,"ï¿½Â£":5095,"uer":5096,"knowledge":5097,"ĠCommissione":5098,"Ġrendere":5099,"dictment":5100,"rri":5101,"Ġrendered":5102,"Ġpast":5103,"ĠMemo":5104,"ĠCommissioner":5105,"ĠDivision":5106,"ĊĠĠĠĠĠĠĠĠĠĠĠĠĠĠĠĠĠĠĠĠĠĠĠĠĠĠĠĠĠĠĠĠĠĠĠĠĠĠĠĠĠĠĠĠĠĠĠĠĠĠĠĠĠ":5107,"llants":5108,"HA":5109,"ĠDebts":5110,"irmation":5111,"ndent":5112,"ĠEnvironmental":5113,"rem":5114,"MISS":5115,"]ï¿½":5116,"Ġsusta":5117,"Northern":5118,"Ġ342":5119,"UN":5120,"lateral":5121,"Ġleases":5122,"Ġclause":5123,"gain":5124,"Ġmethod":5125,"ĠGeo":5126,"ock":5127,"would":5128,"ĠSp":5129,"Ġassociated":5130,"field":5131,"col":5132,"Fax":5133,"BA":5134,"Ġtaking":5135,"Ġlocation":5136,"Ġdetails":5137,"uting":5138,"Property":5139,"Ġrowspan":5140,"Ġprivile":5141,"reater":5142,"logical":5143,"mor":5144,"IVE":5145,"Ġ________":5146,"tra":5147,"Ġstru":5148,"Ġsupporte":5149,"Ġdivorce":5150,"eas":5151,"Ġadverse":5152,"wen":5153,"Ġruling":5154,"Ġidentification":5155,"III":5156,"ĠWITH":5157,"Ġemployed":5158,"alendar":5159,"Ġsum":5160,"Ġsupported":5161,"Ġcomplain":5162,"Ġsig":5163,"ublished":5164,"Ġanything":5165,"Ġdisclosure":5166,"Ġclose":5167,"ĠAG":5168,"sents":5169,"ĠRep":5170,"tione":5171,"play":5172,"Ġmultip":5173,"ĀĀĀĀĀĀĀĀĀĀĀĀĀĀĀĀĀĀĀĀĀĀĀĀĀĀĀĀĀĀĀĀ":5174,"EQEQEQEQ":5175,"Ġ1998":5176,"Ġfelo":5177,"ĠOr":5178,"Ġstaff":5179,"ĠWhat":5180,"Ġaccurate":5181,"IFF":5182,"Current":5183,"Ġplaced":5184,"wher":5185,"wn":5186,"BY":5187,"Ġconstitute":5188,"Ġscope":5189,"rge":5190,"\"\"\"\"\"\"\"\"":5191,"wood":5192,"Ġfill":5193,"ïĤ":5194,"ĠPersonal":5195,".;":5196,"heo":5197,"Ġqualified":5198,"ĠWAS":5199,"prie":5200,"Ġequal":5201,"Ġdegree":5202,"ĠHOL":5203,"Ġ72":5204,"tioned":5205,"Ġenc":5206,"MAN":5207,"========":5208,"ĠLocal":5209,"ues":5210,"Li":5211,"senting":5212,"Ġviolations":5213,"Ġordinary":5214,"Ġwithdraw":5215,"ĠLab":5216,"NSECURED":5217,"Ġtheo":5218,"ÂŃï¿½":5219,"Ġkin":5220,"Ġ63":5221,"ĠOnly":5222,"quiring":5223,"Ġgross":5224,"Ġappellate":5225,"ĠFIN":5226,"ĊĠĠĠĠĠĠĠĠĠĠĠĠĠĠĠĠĠĠĠĠĠĠĠĠĠĠĠĠĠĠĠĠĠĠĠĠĠĠĠĠĠĠĠĠĠĠĠĠĠĠĠĠĠĠ":5227,"Petition":5228,"Ġfailing":5229,"Ġlie":5230,"ĠPAY":5231,"ĠLouis":5232,"ĠPR":5233,"none":5234,"GD":5235,"ERIC":5236,"Ġhusband":5237,"Ġopen":5238,"Ã«Ã¿":5239,"ĠStand":5240,"ĠDirector":5241,"nline":5242,"Ġcomple":5243,"ĠFlorida":5244,"gate":5245,".....":5246,"Ġoffered":5247,"Ġtermination":5248,"Ġensure":5249,"Ġwriting":5250,"hings":5251,"bal":5252,"Ġ=":5253,"Ġfirm":5254,"ĠBY":5255,"ĠWat":5256,"TY":5257,"Ġmoved":5258,"DIS":5259,"Ġ1993":5260,"lined":5261,"Ġitems":5262,"ferences":5263,"Ġthings":5264,"Ġbring":5265,"Ġadvance":5266,"037":5267,"ĠLeg":5268,"fair":5269,"Ġconvict":5270,"Ġgoods":5271,"Ve":5272,"Ġassigned":5273,"ĠChar":5274,"ĠSE":5275,"MC":5276,"106":5277,"ĠCL":5278,"inherit":5279,"ĠFill":5280,"ANC":5281,"Ġprosecution":5282,"Ġ1997":5283,"Ġasserts":5284,"Ġdates":5285,"piracy":5286,"style":5287,"Ġhabeas":5288,"Ġaffirm":5289,"ĠNone":5290,"ĠREC":5291,"ËĨËĨËĨ":5292,"ranch":5293,"hol":5294,"Ġasserte":5295,"Ġdoing":5296,"Ġasserted":5297,"FC":5298,".:":5299,"Ġke":5300,"urder":5301,"Ġdefic":5302,"Ġ111":5303,"Ġrun":5304,"ĠMA":5305,"Ġboard":5306,"Ġdifficult":5307,"icated":5308,"Ġrespondent":5309,"yp":5310,"PÃ¥":5311,"light":5312,"ĠMart":5313,"Ġlonger":5314,"ĠSheet":5315,"Ġkind":5316,"Ġdeveloped":5317,"Ġproviding":5318,"Ġcontro":5319,"ereafter":5320,"Ġknowing":5321,"hereafter":5322,"MIN":5323,"hank":5324,"Ġconflic":5325,"Ġproduce":5326,"Ġbillion":5327,"Â´ï¿½":5328,"ĠColo":5329,"Ge":5330,"wi":5331,"unds":5332,"Ġdenying":5333,"tories":5334,"ËĨËĨËĨËĨËĨËĨËĨËĨ":5335,"ager":5336,"ĠHouse":5337,"TÃł":5338,"ĠFund":5339,"ĠUnion":5340,"Ġnumbers":5341,"iana":5342,"Ġtruth":5343,"ĠPark":5344,"Attach":5345,"Ġimportan":5346,"ya":5347,"vement":5348,"Ġimportant":5349,"Ġcollect":5350,"Claims":5351,"125":5352,"corr":5353,"ĊĠĠĠĠĠĠĠĠĠĠĠĠĠĠĠĠĠĠĠĠĠĠĠĠĠĠĠĠĠĠĠĠĠĠĠĠĠĠĠĠĠĠĠĠĠĠĠĠĠĠĠĠĠĠĠ":5354,"Ġ77":5355,"ists":5356,"Ġexplain":5357,"Ġoral":5358,"Ġstri":5359,"irement":5360,"pet":5361,"Ġfiscal":5362,"OTAL":5363,"TC":5364,"ĠRecord":5365,"ĠDismiss":5366,"where":5367,"Ġ80":5368,"Ġcapital":5369,"Ġ64":5370,"ĠSettlement":5371,"losing":5372,"ein":5373,"udule":5374,"Ġimpair":5375,"Ġcontrary":5376,"eight":5377,"face":5378,"Ġcarry":5379,"urer":5380,"Ġ78":5381,"htt":5382,"DDDDDDDD":5383,"Ġphone":5384,"ĠThomas":5385,"Ġinquir":5386,"irgin":5387,"ousing":5388,"unities":5389,"Ġnegligence":5390,"emporary":5391,"Ġdece":5392,"signed":5393,"ĠAccount":5394,"ĠPol":5395,"nthly":5396,"mn":5397,"Ġareas":5398,"Tex":5399,"Ġexamination":5400,"ĠBureau":5401,"ĠBur":5402,"Ġelements":5403,"ĠVa":5404,"TA":5405,"Ġdesignated":5406,"Ġsell":5407,"Ġ99":5408,"ENS":5409,"ĠLan":5410,"Ġgave":5411,"ĠTime":5412,"ĠCAL":5413,"Ġsal":5414,"Ġoperations":5415,"ĠWilliams":5416,"BS":5417,"Value":5418,"Ġvoting":5419,"ulated":5420,"spite":5421,"ĠPen":5422,"Ġcho":5423,"posing":5424,"Ġadequat":5425,"ĊĠĠĠĠĠĠĠĠĠĊĠĠĠĠĠĠĠĠĠĠ":5426,"Ġadequate":5427,"104":5428,"Ġcame":5429,"Ġassessment":5430,"âĢ¡(":5431,"Ġrent":5432,"Ġbudget":5433,"Ġemail":5434,"Ġill":5435,"Cal":5436,"Ġdevelopment":5437,"Ġdamage":5438,"ites":5439,"Ġstanding":5440,"Ġ67":5441,"ackson":5442,"ĠProgram":5443,"ĠParagraph":5444,"Ġmajority":5445,"Ġcontra":5446,"Ġvaca":5447,"were":5448,"Ġdoctrine":5449,"Ġeight":5450,"burse":5451,"Ġtal":5452,"Ġcommercial":5453,"Ġminimum":5454,"ÃºÃ¿":5455,"Ġmemo":5456,"nces":5457,"?ï¿½":5458,"ĠObligations":5459,"Ġchoo":5460,"Ġplain":5461,"ounc":5462,"Ġseparately":5463,"bing":5464,"Ġearlier":5465,"ASS":5466,"certain":5467,"ÃµÃ¿":5468,"arn":5469,"Ġperformed":5470,"AGE":5471,"lt":5472,"Ġem":5473,"Ġ113":5474,"once":5475,"there":5476,"Ġresulting":5477,"ĊĠĠĠĠĠĠĠĠĠĠĠĠĠĠĠĠĠĠĠĠĠĠĠĠĠĠĠĠĠĠĠĠĠĠĠĠĠĠĠĠĠĠĠĠĠĠĠĠĠĠĠĠĠĠĠĠ":5478,"wat":5479,"Ġaffecte":5480,"Ġaffected":5481,"Ġtraining":5482,"claims":5483,"ptions":5484,"dt":5485,"Ã¾Ã¿":5486,"cript":5487,"ĠChief":5488,"Ġinvestiga":5489,"ï¿½âĢł":5490,"ĠSecurities":5491,"250":5492,"Ġwhole":5493,"inent":5494,"ï¿½Â§":5495,"Cop":5496,"Ne":5497,"Ġwords":5498,"Ġsy":5499,"ĠPate":5500,"partic":5501,"ĠBrown":5502,"Ġ107":5503,"rinte":5504,"Ġbu":5505,"Ġdefen":5506,"Ġcovered":5507,"aling":5508,"................................................":5509,"Ġthereafter":5510,"ĊĊĠĠĠĠĠ":5511,"___":5512,"Ġproduction":5513,"Ġ70":5514,"212":5515,"shall":5516,"Ġtransaction":5517,"Ġreceiving":5518,"dec":5519,"hr":5520,"ĠMedical":5521,"Ġdiscrimination":5522,"Ġsomeone":5523,"\")":5524,"duled":5525,"Ġdeemed":5526,"ĠCriminal":5527,"Ã»Ã¿":5528,"holders":5529,"portion":5530,"ibilities":5531,"Ġworking":5532,"Ġface":5533,"Ġagreements":5534,"Ġmerits":5535,"Ġclient":5536,"ï¿½âĢİ":5537,"Ġinsured":5538,"clusive":5539,"Ġlook":5540,"Ġ115":5541,"ull":5542,"Ġsexual":5543,"HS":5544,"lection":5545,"ï¿½âĢı":5546,"ifth":5547,"Ġoffset":5548,"Under":5549,"ipt":5550,"Ġcurrently":5551,"Ġprison":5552,"WL":5553,"Ja":5554,"licable":5555,"ĠInclude":5556,"prof":5557,"nology":5558,"Ö²":5559,"cup":5560,"Ġalthough":5561,"Ġprograms":5562,"Ġphysic":5563,"ĠMoreover":5564,"Ġessent":5565,"Appellant":5566,"ĠConstitution":5567,"ouncil":5568,"Ġwen":5569,"Ġamendment":5570,"Ġinjuries":5571,"Ġ68":5572,"rnational":5573,"display":5574,"Ġboxe":5575,"Ġba":5576,"ocation":5577,"because":5578,"nded":5579,"Ġcontrolled":5580,"ĠÂ¶Â¶":5581,"].":5582,"ece":5583,"ush":5584,"\"#":5585,"zing":5586,"Ġwrite":5587,"ifts":5588,"Ã½Ã¿":5589,"Ġprimary":5590,"Ġlot":5591,"Ġsuffered":5592,"ĠIndividuals":5593,"Non":5594,"ssel":5595,"Ġcl":5596,"Ġwent":5597,"Ġacting":5598,"ĠCFR":5599,"Ġinmate":5600,"Ġdanger":5601,"Ġaffidavit":5602,"ĠCertificate":5603,"necess":5604,"Ġstop":5605,"2004":5606,"road":5607,"Who":5608,"ĠSpecial":5609,"Ġcited":5610,"Ġlawsuit":5611,"Ġconvicte":5612,"Ġ98":5613,"Ġconvicted":5614,"Ġ94":5615,"Ġboxes":5616,"Ġgreater":5617,"Ġsituation":5618,"Ġsuggest":5619,"othing":5620,"1001":5621,"108":5622,"vident":5623,"Ġcontext":5624,"berg":5625,"Ġaddressed":5626,"more":5627,"Ġcitize":5628,"Per":5629,"nitor":5630,"nnes":5631,"Ġcopies":5632,"Ġmilitary":5633,"Ġabsence":5634,"alls":5635,"IZ":5636,"iii":5637,"ĊĠĠĠĠĠĠĠĠĠĠĠĠĠĠĠĠĠĠĠĠĠĠĠĠĠĠĠĠĠĠĠĠĠĠĠĠĠĠĠĠĠĠĠĠĠĠĠĠĠĠĠĠĠĠĠĠĠ":5638,"Ġmerely":5639,"ĠPolic":5640,"rte":5641,"wers":5642,"party":5643,"isting":5644,"Ġevents":5645,"ients":5646,"Ġ62":5647,"Ġdoubt":5648,"Ġnotify":5649,"ĠStatistical":5650,"mitted":5651,"ĠSET":5652,"Ġstore":5653,"ĠJones":5654,"irma":5655,"Ct":5656,"she":5657,"pensation":5658,"ĠDeclaration":5659,"Ġproceeds":5660,"Ġdu":5661,"DF":5662,"ĠčĊĠčĊ":5663,"Ã¯Ã¿":5664,"Ġinform":5665,"emphasis":5666,"ulations":5667,"sid":5668,"Ġforms":5669,"NOT":5670,"Ġlowe":5671,"ĠACCOUNT":5672,"ĠParty":5673,"gs":5674,"Ġ1995":5675,"ATES":5676,"Ġrespond":5677,"Ġille":5678,"eed":5679,"cture":5680,"ĠEach":5681,"duced":5682,"ĠRiver":5683,"ains":5684,"Ġcome":5685,"gregat":5686,"Ġregulation":5687,"Ġ492":5688,"gregate":5689,"Ġseparation":5690,"cher":5691,"Ġsus":5692,"Ġinfringe":5693,"ĠActive":5694,"Ġefforts":5695,"ĠPursuant":5696,"ĠCASE":5697,"rma":5698,"Ġassignment":5699,"Ġpert":5700,"ĠGa":5701,"Â¶ï¿½":5702,"roll":5703,"rive":5704,"Ġaud":5705,"Ġ(*":5706,"ĠAMOUNT":5707,"Ġpenalties":5708,"ifications":5709,"Ġrepea":5710,"Ġnegot":5711,"iders":5712,"porte":5713,"ridge":5714,"tural":5715,"Ġpass":5716,"DG":5717,"Ġargued":5718,"filing":5719,"109":5720,"Â¦ï¿½":5721,"Ġdelay":5722,"Ġmail":5723,"Ġvide":5724,"LAINTIFF":5725,"paid":5726,"Ġrecognized":5727,"ĠAmount":5728,"judgment":5729,"COUNT":5730,"ITT":5731,"Ġ($":5732,"iant":5733,"Car":5734,"uck":5735,"Spouse":5736,"Ġ333":5737,"KE":5738,"uated":5739,"ĠRoad":5740,"Ġonce":5741,"Ġ61":5742,"ERAL":5743,"arris":5744,"&ï¿½":5745,"Ġmurder":5746,"Ġtypes":5747,"house":5748,"Ġarbitration":5749,"Ġdelivered":5750,"APTER":5751,"Dec":5752,"Na":5753,"ĠHOLDING":5754,"Ġdraw":5755,"oney":5756,"ĠKa":5757,"Ġconference":5758,"had":5759,"ductions":5760,"Ġ722":5761,"Ġalong":5762,"posal":5763,"Ġsubsequen":5764,"Ġgene":5765,"Ġsubsequent":5766,"202":5767,"irginia":5768,"Ġseq":5769,"Ġaf":5770,"Ġneeds":5771,".ï¿½":5772,"Ġmother":5773,"ĊĠĠĠĠĠĠĠĠĠĠĠĠĠĠĠĠĠĠĠĠĠĠĠĠĠĠĠĠĠĠĠĠĠĠĠĠĠĠĠĠĠĠĠĠĠĠĠĠĠĠĠĠĠĠĠĠĠĠ":5774,"Ġunderlying":5775,"CS":5776,"Ġinterv":5777,"Ġrepresente":5778,"test":5779,"Ġunlawful":5780,"Ġrepresented":5781,"MENTS":5782,"dam":5783,"Ġlower":5784,"Ġdemonstrate":5785,"Ġexchange":5786,"Ġfactor":5787,"Subtype":5788,"Ġant":5789,"Ġnational":5790,"Ġparticipa":5791,"conc":5792,"your":5793,"nz":5794,"Ġcommission":5795,"inue":5796,"Ġ114":5797,"haust":5798,"âĢĺï¿½":5799,"âĢī":5800,"ERSON":5801,"STATE":5802,"Ġclerk":5803,"Ġcounty":5804,"rop":5805,"Ġconstitutes":5806,"ipulation":5807,"Ġneither":5808,"Ġremand":5809,"lim":5810,"Ġask":5811,"service":5812,"Ġadministrator":5813,"Ġrefer":5814,"GL":5815,"Ġ96":5816,"bat":5817,"nswer":5818,"Ġweek":5819,"met":5820,"Ġx":5821,"Ġcode":5822,"Ġprotecte":5823,"Ġove":5824,"Ġprotected":5825,"ncipal":5826,"Ġdeduct":5827,"105":5828,"ĠWar":5829,"ylvan":5830,"dustry":5831,"Ġspee":5832,"Ġult":5833,"Ġ1007":5834,"employe":5835,"Ġremoval":5836,"Ġ119":5837,"ternal":5838,"ium":5839,"ĠElect":5840,"ĠFurther":5841,"Ġsatisfied":5842,"2020":5843,"Ġfeet":5844,"Ġ1994":5845,"~~":5846,"ailure":5847,"Ġmultiple":5848,"Ġunexpired":5849,"ĠJose":5850,"Ö¸":5851,"ĠSH":5852,"Copy":5853,"plain":5854,"cc":5855,"Â¿ï¿½":5856,"Ġeducation":5857,"gh":5858,"FER":5859,"Ġinstall":5860,"mergency":5861,"Ġapplica":5862,"vin":5863,"Ġtaxpayer":5864,"ĠNOTIC":5865,"ĠHis":5866,"ĠEng":5867,"ORPORATED":5868,"nto":5869,"wr":5870,"ĠMiss":5871,"Ġatt":5872,"FFFF":5873,"ĊĠĠĠĠĠĠĠĠĠĠĠĠĠĠĠĠĠĠĠĠĠĠĠĠĠĠĠĠĠĠĠĠĠĠĠĠĠĠĠĠĠĠĠĠĠĠĠĠĠĠĠĠĠĠĠĠĠĠĠ":5874,"SON":5875,"ĠBO":5876,"Ġ69":5877,"ylvania":5878,"ros":5879,"OFF":5880,"Ġaffirmed":5881,"Ġextension":5882,"Ġacknowledge":5883,"ï¿½Â¥":5884,"ĠJUDGE":5885,"inee":5886,"ino":5887,"include":5888,"Ġ2544":5889,"wel":5890,"ĠEPA":5891,"Ġ________________________":5892,"Ġliabilities":5893,"Ġdevice":5894,"Ġcorporate":5895,"ĉĉ":5896,"Ġcircuit":5897,"ĠDO":5898,"ĠFar":5899,"ï¿½[":5900,"Ġlicense":5901,"ĠPO":5902,"mina":5903,"ĠFa":5904,"ĠRequest":5905,"TE":5906,"Ġdiscussion":5907,"ĠPrep":5908,"Ġconvers":5909,"Ġ76":5910,"Ġcreated":5911,"ĠNOTICED":5912,"equire":5913,"Ġ117":5914,"Ġdenies":5915,"Ġkeep":5916,"most":5917,"ĠINCORPORATED":5918,"require":5919,"Tax":5920,"Ġpractices":5921,"District":5922,"SR":5923,"mark":5924,"Ġmerit":5925,"ĠCan":5926,"rier":5927,"istration":5928,"ÃĪÃ¨":5929,"ermo":5930,"Ho":5931,"Mc":5932,"holding":5933,"duc":5934,"Ġremedy":5935,"Ġ97":5936,"Ġphoto":5937,"Ġdidn":5938,"Ġconstr":5939,"Filing":5940,"ĠÃģ":5941,"Ġbon":5942,"like":5943,"nging":5944,"ization":5945,"nced":5946,"ÂĹ":5947,"qual":5948,"ï¿½~":5949,"Ġ74":5950,"poses":5951,"Ġpromp":5952,"erma":5953,"Ġelectronic":5954,"Ġaddresses":5955,"čĊĠč":5956,"ĠThird":5957,"came":5958,"Federal":5959,"nsylvania":5960,"ĠBra":5961,"Ġdescription":5962,"ĠAve":5963,"iated":5964,"MB":5965,"Ġdirector":5966,"Ġdecided":5967,"autho":5968,"Ġguaran":5969,"|ï¿½":5970,"Ġshows":5971,"Ġfarm":5972,"ĠBankr":5973,"ĠOkay":5974,"iety":5975,"rado":5976,"ĊČĠ":5977,"Ġbase":5978,"/).":5979,"Ġelement":5980,"ĠâĢļ":5981,"Ġexpense":5982,"Ġ95":5983,"llect":5984,"Sum":5985,"ĊĠĠĠĠĠĠĠĠĠĠĠĠĠĠĠĠĠĠĠĠĠĠĠĠĠĠĠĠĠĠĠĠĠĠĠĠĠĠĠĠĠĠĠĠĠĠĠĠĠĠĠĠĠĠĠĠĠĠĠĠ":5986,"ĠSignature":5987,"âĢĥ":5988,"ĠMex":5989,".âĢĿ).":5990,"ï¿½}":5991,"ĠTa":5992,"ĠReview":5993,"irmative":5994,"ĠUNSECURED":5995,"ĠDuring":5996,"Ġfraudule":5997,"ĠSP":5998,"tection":5999,"Ġcalendar":6000,"ĠLtd":6001,"rece":6002,"107":6003,"\".":6004,"emption":6005,"ĠFr":6006,"Ġdisputed":6007,"Ġadopted":6008,"Ġworked":6009,"Ġvote":6010,"Ġbill":6011,"ĠIV":6012,"eer":6013,"ĠCREDITORS":6014,"Ġaffiliate":6015,"feit":6016,"ĠParties":6017,"riff":6018,"ĠACTION":6019,"ĠAMERIC":6020,"ĠDEN":6021,"ncer":6022,"illed":6023,"indent":6024,"ĠASS":6025,"LAR":6026,"ĊČĠĠ":6027,"Ġwaste":6028,"def":6029,"102":6030,"ĠCCH":6031,"Ġwages":6032,"Ġcontains":6033,"ĠPresident":6034,"IVID":6035,"Ġheard":6036,"Ġmotor":6037,"Ġ150":6038,"igu":6039,"Ġprocedure":6040,"Ġinquiry":6041,"Ġregister":6042,"ĠAdministration":6043,"Telephone":6044,"hav":6045,"toms":6046,"arc":6047,".âĢĶ":6048,"Ġproduced":6049,"States":6050,"Ġeconomic":6051,"ndividual":6052,"Ġdetailed":6053,"ACK":6054,"ï¿½Â®":6055,"Code":6056,"ala":6057,"ĠNOTICE":6058,"idence":6059,"Ġwi":6060,"eque":6061,"ĠTech":6062,"ĠâĢĻ":6063,"Ġenforce":6064,"yd":6065,"103":6066,"nald":6067,"ĠCorr":6068,"Ġentries":6069,"150":6070,"Ġvehicles":6071,"2000":6072,"through":6073,"ĠEsq":6074,"ĠPayments":6075,"tective":6076,"iations":6077,"kins":6078,"Ġcontinuation":6079,"IED":6080,"ole":6081,"Ġconseque":6082,"ported":6083,"cohol":6084,"must":6085,"IO":6086,"DS":6087,"ĊČĠĠĠ":6088,"Ġconspiracy":6089,"Ã·ï¿½":6090,"Ġcertified":6091,"Ġadjud":6092,"Ġsure":6093,"ĠAssets":6094,"Ġwea":6095,"CM":6096,"Ġcompanies":6097,"Ġaccording":6098,"ÃĹï¿½":6099,"Cir":6100,"Ġreach":6101,"IVIDUAL":6102,"Ã¿Ã¼":6103,"stitute":6104,"Ġinsufficient":6105,"aving":6106,"Ġ@":6107,"stern":6108,"ĠMortgage":6109,"Ġrecover":6110,"Ġfelony":6111,"IFOR":6112,"ĊĠĠĠĠĠĠĠĠĠĠĠĠĠĠĠĠĠĠĠĠĠĠĠĠĠĠĠĠĠĠĠĠĠĠĠĠĠĠĠĠĠĠĠĠĠĠĠĠĠĠĠĠĠĠĠĠĠĠĠĠĠ":6113,"Ġprisone":6114,"Mi":6115,"Ġcategory":6116,"Ġrea":6117,"ĠMary":6118,"Ġtort":6119,"Â¤ï¿½":6120,"Ġaccident":6121,"individual":6122,"ĠRepre":6123,"ALL":6124,"Ġdrugs":6125,"Ġinvestment":6126,"scribing":6127,"centage":6128,"correct":6129,"xed":6130,"mediat":6131,"Ġ400":6132,"Ġstatutes":6133,"Ġinvolving":6134,"ishing":6135,"tting":6136,"Ġfine":6137,"Ġreturned":6138,"mediate":6139,"Ġinterpretation":6140,"viction":6141,"Ġaround":6142,"Ġconfidential":6143,"arred":6144,"Ġfoc":6145,"ËĻËĻËĻËĻËĻËĻËĻËĻ":6146,"\\_\\_\\_\\_":6147,"ME":6148,"ĠSuch":6149,"120":6150,"Ġstudent":6151,"ĠOpened":6152,"Ġanaly":6153,"Ġ89":6154,"GDt":6155,"Ġjointly":6156,"ĠHow":6157,"nuine":6158,"ORY":6159,"ĠLabo":6160,"outher":6161,"Ġhimself":6162,"Ġinstruments":6163,"without":6164,"ĠTrial":6165,"Ġvessel":6166,"Ġrepresentative":6167,"Ġvers":6168,";\">&":6169,"Ġexists":6170,"amb":6171,"servation":6172,"Ġ%":6173,"Ġperio":6174,"Ġreporting":6175,"Ġintro":6176,"Ġimmunity":6177,"Ġdirectors":6178,"Ġseven":6179,"ĠOfficial":6180,"ï¿½Â·":6181,"rein":6182,"uest":6183,"Ġgun":6184,"Ġexistence":6185,"Ġhead":6186,"Ġfacilities":6187,"lood":6188,"sess":6189,"ï¿½]":6190,"ï¿½\"":6191,"Ġdep":6192,"Ġinven":6193,"Ġpers":6194,"hase":6195,"SB":6196,"ĠMR":6197,"ĠINDIVIDUAL":6198,"Ġincident":6199,"DU":6200,"ANY":6201,"ĊĠĠĠĠĠĠĠĠĠĠĠĠĠĠĠĠĠĠĠĠĠĠĠĠĠĠĠĠĠĠĠĠĠĠĠĠĠĠĠĠĠĠĠĠĠĠĠĠĠĠĠĠĠĠĠĠĠĠĠĠĠĠ":6202,".\\[":6203,"Ġroom":6204,"ĠLim":6205,"Ġrepresentation":6206,"statement":6207,"ĠAppeal":6208,"ĊČĠĠĠĠ":6209,"Ġconsoli":6210,"Ġ85":6211,"Å½ËĨ":6212,"Ġexpressly":6213,"owers":6214,"Ġauto":6215,"Ġtheory":6216,"ele":6217,"ĠExpenses":6218,"Ġbroad":6219,"Ġinstitution":6220,"San":6221,"Ġbegan":6222,"Ġrates":6223,"ĠDef":6224,"Ġdischarged":6225,"ĠUse":6226,"Ġ244":6227,"ĠVALUE":6228,"118":6229,"With":6230,"licit":6231,"terest":6232,"ĠLocation":6233,"ttn":6234,"Ġraise":6235,"pol":6236,"Ġagents":6237,"manded":6238,"sharing":6239,"NIA":6240,"Ġ\\":6241,"Ġorganization":6242,"Ġtry":6243,"Ġsue":6244,"Ġ735":6245,"Ġlead":6246,"igan":6247,"ĠContingent":6248,"Ph":6249,"support":6250,"Ġaffairs":6251,"Ġvacat":6252,"loo":6253,"ways":6254,"Ġaccepted":6255,"issible":6256,"BR":6257,"aska":6258,"ĠHearing":6259,"Ġdeadline":6260,"ĠForeign":6261,"Ġcommissions":6262,"car":6263,"Ġfund":6264,"Ġsocial":6265,"iduc":6266,"wide":6267,"Bankruptcy":6268,"ĠÂĦ":6269,"lature":6270,"rim":6271,"ÃĤa":6272,"again":6273,"rizona":6274,"TO":6275,"Ġ73":6276,"velop":6277,"sentatives":6278,"Ġconsult":6279,"8037":6280,"ĠConf":6281,"document":6282,"Ass":6283,"ï¿¾ï¿¾":6284,"essional":6285,"Ġcity":6286,"ï¿½ÂŃ":6287,"ĠIT":6288,"ĠFac":6289,"ĠGRANT":6290,"Ġineffective":6291,"nterest":6292,"áĦ":6293,"Ġsubstantially":6294,"Ġever":6295,"ĠRece":6296,"dication":6297,"ĠAFF":6298,"pat":6299,"Ġcoope":6300,"Ġcollateral":6301,"rsey":6302,"nternal":6303,"Ġholds":6304,"Ġ103":6305,"Ġinstant":6306,"Ġadvice":6307,"CASE":6308,"ĠNev":6309,"Ã¿Ã¶":6310,"internal":6311,"ĠAre":6312,"ĠMass":6313,"Ġmal":6314,"outhern":6315,"norable":6316,"Ġrelied":6317,"ĠInvest":6318,"Ġinstead":6319,"Ġsanc":6320,"consistent":6321,"Ġsays":6322,"ĠAla":6323,"exam":6324,"Ġjuro":6325,"Ġtreate":6326,"Ã¿Ã¿Ã¿Ã¿Ã¿Ã¿Ã¿Ã¿Ã¿Ã¿Ã¿Ã¿Ã¿Ã¿Ã¿Ã¿Ã¿Ã¿Ã¿Ã¿Ã¿Ã¿Ã¿Ã¿Ã¿Ã¿Ã¿Ã¿Ã¿Ã¿Ã¿Ã¿":6327,"PART":6328,"ĊĠĠĠĠĠĠĠĠĠĠĠĠĠĠĠĠĠĠĠĠĠĠĠĠĠĠĠĠĠĠĠĠĠĠĠĠĠĠĠĠĠĠĠĠĠĠĠĠĠĠĠĠĠĠĠĠĠĠĠĠĠĠĠ":6329,"ractor":6330,"bsite":6331,"wate":6332,"ï¿½(":6333,"Ġena":6334,"Ġrecom":6335,"Ġtreated":6336,"!!":6337,"ĠCONS":6338,"Ġ118":6339,"ĠOH":6340,"Ġlimitation":6341,"ĠDEFENDANT":6342,"Ġlittle":6343,"ĠProf":6344,"OME":6345,"Ġantic":6346,"duce":6347,"ĊČĠĠĠĠĠ":6348,"Box":6349,"ARK":6350,"Ġpoints":6351,"asion":6352,"ĠDan":6353,"Ġwrit":6354,"obile":6355,"\"\"\"":6356,"nic":6357,"Ġ84":6358,"Ġhour":6359,"TOTAL":6360,"Ġdefect":6361,"rtions":6362,"licat":6363,"Ġtesting":6364,"ja":6365,"ĠPolicy":6366,"ï¿½Â¢":6367,"ĠLAW":6368,"ĠServ":6369,"ĠEASTERN":6370,"Ġselect":6371,"So":6372,"necessary":6373,"ided":6374,"Ġperma":6375,"interest":6376,"Petitione":6377,"pped":6378,"LL":6379,"NDER":6380,"Petitioner":6381,"IFORNIA":6382,"water":6383,"Ġresponsibilities":6384,"ĠHonor":6385,"licate":6386,"Ġvacate":6387,"BE":6388,"kin":6389,"nical":6390,"ï¿½âĢľ":6391,"Ġconclusions":6392,"Ġ79":6393,"_______":6394,"data":6395,"ĠProposed":6396,"Ġrepeat":6397,"before":6398,"ï¿½Â°":6399,"Ġ_____":6400,"ĠTf":6401,"NONE":6402,"ATTORNEY":6403,"Ġexecuted":6404,"×³":6405,"Ġgas":6406,"Ġadvised":6407,"ILING":6408,"Ġarrange":6409,"estern":6410,"Ġpp":6411,"Ġtemporary":6412,"Ġobserved":6413,"ï¿½&":6414,"eh":6415,"ĊĠĠĠĠĠĠĠĠĠĠĠĠĠĠĠĠĠĠĠĠĠĠĠĠĠĠĠĠĠĠĠĠĠĠĠĠĠĠĠĠĠĠĠĠĠĠĠĠĠĠĠĠĠĠĠĠĠĠĠĠĠĠĠĠ":6416,"Ġpleadings":6417,"Ġmove":6418,"ĠEstate":6419,"ĠRespondent":6420,"Ġ`":6421,"Docket":6422,"ĠMON":6423,"ORK":6424,"yers":6425,"Ġborder":6426,"Ġissu":6427,"uses":6428,"SP":6429,"Ġreceipt":6430,"braska":6431,"sum":6432,"lord":6433,"ï¿½Â¿":6434,"Ġrequesting":6435,"NER":6436,"ĠâĢ¢":6437,"Ġcard":6438,"111":6439,"Ġwaived":6440,"ĠAgency":6441,"space":6442,"Ġcontain":6443,"Ġexpecte":6444,"Ġexpected":6445,"Ġrequiring":6446,"Ġlosses":6447,"kets":6448,"ĠAp":6449,"Ġappellee":6450,"ĠMiller":6451,"mit":6452,"ky":6453,"GO":6454,"vio":6455,"agno":6456,"Ġrevenue":6457,"ĠRES":6458,"SI":6459,"Ġassault":6460,"Ġsavings":6461,"ï¿½^":6462,"datory":6463,"Ġ2022":6464,"UMM":6465,"Ġjustice":6466,"ĠImp":6467,"Ġnotified":6468,"Ġdiscuss":6469,"Ġtestify":6470,"ï¿½âĢ¦":6471,"business":6472,"Ġexemptions":6473,"videntiary":6474,"Ġtoo":6475,"astern":6476,"\"âĢ¡":6477,"ï¿½!":6478,"Ġexc":6479,"Ġoccur":6480,"also":6481,"Ġprobable":6482,"ï¿½Â«":6483,"Ġbackground":6484,"mission":6485,"unicip":6486,"FA":6487,"Ġhazardous":6488,"Claim":6489,"VE":6490,"Ġinjunction":6491,"ï¿½ï¿½ï¿½ï¿½ï¿½ï¿½ï¿½ï¿½":6492,"Ġrob":6493,"ICES":6494,"Ġyet":6495,"Ġrejecte":6496,"Ġrejected":6497,"ĠDavis":6498,"Ġresearch":6499,"ĠAssociate":6500,"ump":6501,"Ġ____":6502,"ĠLand":6503,"Ġperforming":6504,"dence":6505,"Ġplacing":6506,"ĊĠĠĠĠĠĠĠĠĠĠĠĠĠĠĠĠĠĠĠĠĠĠĠĠĠĠĠĠĠĠĠĠĠĠĠĠĠĠĠĠĠĠĠĠĠĠĠĠĠĠĠĠĠĠĠĠĠĠĠĠĠĠĠĠĠ":6507,"Ġcontinge":6508,"keting":6509,"ĠUpon":6510,"credi":6511,"ĠAlle":6512,"ERTIFIC":6513,"Ġdepri":6514,"ACH":6515,"Ġ116":6516,"ĠAttach":6517,"Ġprohib":6518,"Ġsolid":6519,"Ġbound":6520,"Ġhappe":6521,"2003":6522,"Ġeffects":6523,"After":6524,"withi":6525,"ko":6526,"ĠQu":6527,"ena":6528,"within":6529,"Ca":6530,"isory":6531,"Ġquality":6532,"OB":6533,"ĠHere":6534,"Ġinitials":6535,"ĠStock":6536,"TD":6537,"arents":6538,"Ther":6539,"havior":6540,"olina":6541,"nsa":6542,"ĠHigh":6543,"ï¿½#":6544,"xÅĵ":6545,"DESCRIPTION":6546,"ĠKo":6547,"fra":6548,"Ġsomething":6549,"Ġattempte":6550,"Ġattempted":6551,"jection":6552,"urrender":6553,"ĠMedic":6554,"::":6555,"ĠVirginia":6556,"There":6557,"arg":6558,"Ġcommenced":6559,"iciary":6560,"ĠAMERICA":6561,"Ġstr":6562,"ĠMexico":6563,"****":6564,"Examples":6565,"Ġresources":6566,"Ã¿ÃŃ":6567,"Ġownership":6568,"fficiency":6569,"ĠDept":6570,"Bank":6571,"ĠNorthern":6572,"Ġbooks":6573,"ĠCurrent":6574,"ado":6575,"Ġdisagree":6576,"applicable":6577,"Dkt":6578,"Ġdollar":6579,"unicipal":6580,"ĠNEW":6581,"ĠChe":6582,"URY":6583,"ĠWis":6584,"ĠBay":6585,"ĠAgent":6586,"ĠPayment":6587,"craft":6588,"ĊĠĠĠĠĠĠĠĠĠĠĠĠĠĠĠĠĠĠĠĠĠĠĠĠĠĠĠĠĠĠĠĠĠĠĠĠĠĠĠĠĠĠĠĠĠĠĠĠĠĠĠĠĠĠĠĠĠĠĠĠĠĠĠĠĠĠ":6589,"Lo":6590,"iduciary":6591,"Ġallegation":6592,"erein":6593,"ĠHol":6594,"Ġpreliminary":6595,"Ġ601":6596,"herein":6597,"ĠFarm":6598,"quid":6599,"ĠIndia":6600,"Ġpleading":6601,"Ġ404":6602,"Ġproprie":6603,"Ġ1990":6604,"naging":6605,"Ġcre":6606,"eel":6607,"Ġaggregate":6608,"ÃĲA":6609,"ĠUSA":6610,"×ĥ":6611,"place":6612,"ducts":6613,"ĠAnge":6614,"Ġoffenses":6615,"Å½ËĨÃ¨":6616,"Ġsatisfy":6617,"xxxxxxxx":6618,"ports":6619,".(":6620,"--------------------------------":6621,"Ġannual":6622,"ension":6623,"lea":6624,"ĠCALIFORNIA":6625,"Ġrecovery":6626,"wards":6627,"Ġcomputer":6628,"Ġga":6629,"Ġsize":6630,"Ġremoved":6631,"Ġoption":6632,"Ġdev":6633,"check":6634,"Ġmarital":6635,";\">&#":6636,"ï¿½Â¶":6637,"ansas":6638,"urth":6639,"Ġbody":6640,"rinted":6641,"NO":6642,"Du":6643,"Ġexceed":6644,"Ġcustomers":6645,"Supp":6646,"ĠInternational":6647,"ĠDisc":6648,"Ġprofessional":6649,"ĠWH":6650,"their":6651,"izing":6652,"Ġstating":6653,"Ġbecame":6654,"Ġholder":6655,"Ġ71":6656,"ĠCapital":6657,"ons":6658,"Ġdecre":6659,"ĠRet":6660,"Ġgot":6661,"stantive":6662,"ĠLife":6663,"ĠArticle":6664,"Ġlive":6665,"Ġsho":6666,"Ġhospital":6667,"ĠEl":6668,"ĠAnswer":6669,"Ġrelat":6670,"ĠFourth":6671,"PORT":6672,"ĊČĠĠĠĠĠĠ":6673,"rived":6674,"cks":6675,"rization":6676,"DO":6677,"stitutions":6678,"dif":6679,"Top":6680,"\\*\\*":6681,"selves":6682,"Ġterri":6683,"aging":6684,"],":6685,"Ġmag":6686,"nda":6687,"transform":6688,"Ġcover":6689,"ĊĠĠĠĠĠĠĠĠĠĠĠĠĠĠĠĠĠĠĠĠĠĠĠĠĠĠĠĠĠĠĠĠĠĠĠĠĠĠĠĠĠĠĠĠĠĠĠĠĠĠĠĠĠĠĠĠĠĠĠĠĠĠĠĠĠĠĠ":6690,"ĠInternet":6691,"Ġrefused":6692,"Ġtransfers":6693,"Email":6694,"rian":6695,"wenty":6696,"usal":6697,"nship":6698,"Ġdemand":6699,"MM":6700,"ĠArizona":6701,"Ba":6702,"ĠSha":6703,"Right":6704,"ĠRevenue":6705,"Ġunits":6706,"Ġreve":6707,"ĠPennsylvania":6708,"ication":6709,"Ġrepayment":6710,"pressed":6711,"variant":6712,"ï¿½'":6713,"Ġsw":6714,"care":6715,"Ġundersigned":6716,"Ġuni":6717,"follow":6718,"LV":6719,"ï¿½Â´":6720,"006":6721,"Ġoft":6722,"Ġsolely":6723,"Describe":6724,"Ġ1992":6725,"ï¿½Â»":6726,"ĠSEC":6727,"Ġpremises":6728,"Ġsaw":6729,"division":6730,"cked":6731,"117":6732,"Ġalone":6733,"Ġcounts":6734,"sing":6735,"Ġopinions":6736,"emical":6737,"ĠContracts":6738,"Ġpapers":6739,"Ġrestric":6740,"itat":6741,"Ġapproach":6742,"Ġallegedly":6743,"ĠKen":6744,"Ġtransactions":6745,"Ġterminated":6746,"ipation":6747,"Ġitem":6748,"Ġincreased":6749,"ĠBu":6750,"TON":6751,"erman":6752,"Ġgenuine":6753,"rey":6754,"ï¿½Â¦":6755,"ĠNet":6756,"ĠDisputed":6757,"ĠDkt":6758,"ï¿½{":6759,"irt":6760,"Credit":6761,"Ġexhaust":6762,"inline":6763,"Ġcountry":6764,"Ġur":6765,"Filed":6766,"Ġ83":6767,"ermor":6768,"Ġreviewing":6769,"ermore":6770,"chan":6771,"*,":6772,"urthermore":6773,"Ġresolution":6774,"JECT":6775,"ĠMonthly":6776,"Ġconcerns":6777,"ĠWhite":6778,"arer":6779,"ĠPER":6780,"Ġacte":6781,"SS":6782,"Ġquot":6783,"pression":6784,"hood":6785,"lon":6786,"Ġacted":6787,"ERATION":6788,"ĠDen":6789,"eto":6790,"ĠAccording":6791,"ĠRob":6792,"Sched":6793,"IRM":6794,"ĊĠĠĠĠĠĠĠĠĠĠĠĠĠĠĠĠĠĠĠĠĠĠĠĠĠĠĠĠĠĠĠĠĠĠĠĠĠĠĠĠĠĠĠĠĠĠĠĠĠĠĠĠĠĠĠĠĠĠĠĠĠĠĠĠĠĠĠĠ":6795,"wor":6796,"ĠJackson":6797,"Ġpurchased":6798,"Ġ152":6799,"DL":6800,"Ġpop":6801,"Ġfollowe":6802,"ĠWate":6803,"drew":6804,"who":6805,"Ġgreat":6806,"Ġevaluation":6807,"Ġ102":6808,"Ġtable":6809,"EAR":6810,"ĠLee":6811,"ĠChicago":6812,"Res":6813,"Ġindictment":6814,"Ġalcohol":6815,"igure":6816,"ĠPaten":6817,"IGN":6818,"ating":6819,"covered":6820,"Ġvideo":6821,"Ġfollowed":6822,"Ġ104":6823,"Ġunreasonable":6824,"Ġanyone":6825,"main":6826,"ĠANY":6827,"Ġearly":6828,"ILED":6829,"oted":6830,"isor":6831,"ĠCare":6832,"×Ĥ":6833,"BC":6834,"ĠPatent":6835,"Ġretal":6836,"pone":6837,"ĠâĢŀ":6838,"Ġenough":6839,"Ġacr":6840,"Ġpresumption":6841,"IAM":6842,"Creditor":6843,"height":6844,"äĳ":6845,"Ġspea":6846,"ĠWor":6847,"ism":6848,"Ġserv":6849,"Ġflow":6850,"nations":6851,"lence":6852,"Sheet":6853,"conf":6854,"Ġmarks":6855,"Ġequally":6856,"700":6857,"Cert":6858,"icing":6859,"è¢":6860,"ĠPM":6861,"against":6862,"Ġ93":6863,"ĠAffairs":6864,"Specify":6865,"Ġexcluded":6866,"Ö³":6867,"ncis":6868,"Ġrecen":6869,"ĠSERVICE":6870,"Attachments":6871,"Ġrecent":6872,"disputed":6873,"Ġpreparer":6874,"âľ":6875,"Ġresponsibility":6876,"ĠCouncil":6877,"Ġdocket":6878,"quisition":6879,"Ġproblem":6880,"sim":6881,"ĠNotes":6882,"Ġdisposition":6883,"Ġofte":6884,"Ġstreet":6885,"EMOR":6886,"Ġ1991":6887,"ĠWater":6888,"cir":6889,"Ġacre":6890,"ĠApplication":6891,"Ġproblems":6892,"Ġ556":6893,"ICH":6894,"Ġenha":6895,"Before":6896,"Ġprocedural":6897,"Ġreduce":6898,"ĠPL":6899,"Columns":6900,"Ġoften":6901,"ĠGreen":6902,"reto":6903,"ĠMemorandum":6904,"abled":6905,"301":6906,"Ġexecutive":6907,"Width":6908,"ï¾":6909,"Ġofficials":6910,"Ġfines":6911,"arce":6912,"Respon":6913,"ĊĠĠĠĠĠĠĠĠĠĠĠĠĠĠĠĠĠĠĠĠĠĠĠĠĠĠĠĠĠĠĠĠĠĠĠĠĠĠĠĠĠĠĠĠĠĠĠĠĠĠĠĠĠĠĠĠĠĠĠĠĠĠĠĠĠĠĠĠĠ":6914,"ĠLake":6915,"CREDITOR":6916,"Ġretirement":6917,"than":6918,"ducting":6919,"Ġsystems":6920,"Ġ105":6921,"ï½":6922,"Ġliving":6923,"dom":6924,"ij":6925,"ĠExecutive":6926,"NC":6927,"Ġ250":6928,"Attorneys":6929,"VID":6930,"ĠSchool":6931,"Ġ]":6932,"Ġregula":6933,"Ke":6934,"Ġturn":6935,"115":6936,"public":6937,"×Ģ":6938,"http":6939,"counts":6940,"when":6941,"Ġmonet":6942,"ï¿½âĢ¡":6943,"AO":6944,"pent":6945,"Ġtur":6946,"ĠEven":6947,"ĠConsumer":6948,"ITLE":6949,"ĠDC":6950,"Object":6951,"ĠTerm":6952,"ĠVeh":6953,"Ġaccep":6954,"ĠCard":6955,"ĠAdministrator":6956,"ereto":6957,"isher":6958,"hereto":6959,"Ġbg":6960,"hts":6961,"Ġconstru":6962,"ĠUniversity":6963,"sign":6964,"Ġ88":6965,"=\"#":6966,"ĠĊ":6967,"/ï¿½":6968,"Ö·":6969,"IAN":6970,"ĠFamily":6971,"ĠFrom":6972,"Stat":6973,"Ġrole":6974,"Ġtraffic":6975,"ĠAssociation":6976,"FORM":6977,"ĠNov":6978,"xicated":6979,"Height":6980,"Ġcompete":6981,"cords":6982,"reek":6983,"Ġaffirmative":6984,"Ġconsu":6985,"Ġdeductions":6986,"Ġbgcolor":6987,"Schedul":6988,"Ġcontention":6989,"ipe":6990,"ĠDid":6991,"URRED":6992,"Ġhighe":6993,"matic":6994,"ĠIdent":6995,"âķ":6996,"commendation":6997,"Ġhigher":6998,"Ġstudy":6999,"Ġsteps":7000,"âī":7001,"paragraph":7002,"ECLAR":7003,"ANDUM":7004,"Ġprivilege":7005,"557":7006,"INE":7007,"Ġgrow":7008,"Ġquarter":7009,"Ġwal":7010,"130":7011,"pur":7012,"Ġlimits":7013,"Ġillegal":7014,"appropriate":7015,"ught":7016,"-ï¿½":7017,"lements":7018,"iteria":7019,"berty":7020,"Ġ________________":7021,"Ö±":7022,"ĊĠĠĠĠĠĠĠĠĠĠĠĠĠĠĠĠĠĠĠĠĠĠĠĠĠĠĠĠĠĠĠĠĠĠĠĠĠĠĠĠĠĠĠĠĠĠĠĠĠĠĠĠĠĠĠĠĠĠĠĠĠĠĠĠĠĠĠĠĠĠ":7023,"Ġmiles":7024,"ĠExempt":7025,"Ġdisclosed":7026,"ĠFloo":7027,"win":7028,"uts":7029,"inations":7030,"Ġpublished":7031,"ĠColorado":7032,"Ġscheduled":7033,"umerous":7034,"itz":7035,"Ġsamp":7036,"116":7037,"Ġclea":7038,"Ġextra":7039,"Ġrise":7040,"ĠLeases":7041,"EMORANDUM":7042,"%)":7043,"HIB":7044,"Ġfather":7045,"VA":7046,"ĠLouisiana":7047,"particular":7048,"Ġvia":7049,"ares":7050,"edia":7051,"Ġprosecutor":7052,"Fed":7053,"ĠDrive":7054,"Ġcauses":7055,"flow":7056,"Ġmeasure":7057,"Ġpsy":7058,"ĠAPPEAL":7059,"\\<":7060,"FORE":7061,"Ġmaintained":7062,"urring":7063,"Ġwhatever":7064,"ĠPaul":7065,"Ġparagraphs":7066,"ATURE":7067,"Ġsupervised":7068,"Ġmonetary":7069,"Joint":7070,"Ġknowingly":7071,"Ġdelibe":7072,"DQ":7073,"tro":7074,"ĠCommonwealth":7075,"ĠOP":7076,".âĢĻâĢĿ":7077,"Dr":7078,"Ġauthor":7079,"Ġwin":7080,"Ġexecutory":7081,"perties":7082,"ĠCV":7083,"Ġles":7084,"Â¢:":7085,"ols":7086,"Ġsentenced":7087,"ĠFile":7088,"RC":7089,"vs":7090,"iaries":7091,"Ġloo":7092,"RQ":7093,"Ġpersonnel":7094,"Printed":7095,"Ġetc":7096,"ĠSto":7097,"Ġsetting":7098,"Ġindustry":7099,"UH":7100,"ĠCarolina":7101,"gress":7102,"liable":7103,"rrower":7104,"æķ":7105,"ĠGra":7106,"Rule":7107,"alent":7108,"Ġlost":7109,"ĠResponse":7110,"=ï¿½":7111,"Ġphysician":7112,"XObject":7113,"ĠInterests":7114,"losures":7115,"Ġpresence":7116,"Ġ444":7117,";ï¿½":7118,"2002":7119,"rators":7120,"itate":7121,"ishment":7122,"ĠFloor":7123,"due":7124,"eby":7125,"ark":7126,"equest":7127,"ĠOFF":7128,"Ġnatural":7129,"pursuant":7130,"ĠSafe":7131,"Ġincorporated":7132,"Ġestimated":7133,"HIBIT":7134,"DW":7135,"Ġmonitor":7136,"ËĨs":7137,"leading":7138,"Ġawarded":7139,"312":7140,"ĊĠĠĠĠĠĠĠĠĠĠĠĠĠĠĠĠĠĠĠĠĠĠĠĠĠĠĠĠĠĠĠĠĠĠĠĠĠĠĠĠĠĠĠĠĠĠĠĠĠĠĠĠĠĠĠĠĠĠĠĠĠĠĠĠĠĠĠĠĠĠĠ":7141,"Ġgiving":7142,"119":7143,"tant":7144,"204":7145,"request":7146,"Ġcontingen":7147,"Ġcontingent":7148,"ĠNevada":7149,"solute":7150,"reby":7151,"ĠAssistant":7152,"Â¥ï¿½":7153,"ĠUnliquidated":7154,"inso":7155,"Ġbelieved":7156,"Ã¿Ã´":7157,"rman":7158,"ĠDISMISS":7159,"~ï¿½":7160,"Ġdescribe":7161,")ï¿½":7162,"bation":7163,"Ce":7164,"ĠAppellee":7165,"aylor":7166,"some":7167,"ereby":7168,"ĠTwo":7169,"ĠPolice":7170,"Ġovert":7171,"Ġfreque":7172,"bro":7173,"arget":7174,"ĠDue":7175,"hereby":7176,"Ġcrimes":7177,"GMENT":7178,"consi":7179,"UDING":7180,"GS":7181,"Ġ92":7182,"Ġpress":7183,"Ġadmission":7184,"tty":7185,"OO":7186,"ïĢ":7187,"ask":7188,"Ġindicates":7189,"Def":7190,"consin":7191,"Ġtell":7192,"sis":7193,"ĠBased":7194,"ĠClar":7195,"Ġfield":7196,"ĠMaterial":7197,"Continuation":7198,"bed":7199,"Ġfew":7200,"PC":7201,"ĠUNDER":7202,"Ġsubstances":7203,"sessed":7204,"(âĢľ":7205,"member":7206,"owner":7207,"âĢĶï¿½":7208,"Ġlength":7209,"Ġminutes":7210,"ĠPrior":7211,"May":7212,"Â«ï¿½":7213,"Ġoptions":7214,"inson":7215,"Ġtri":7216,"Ġmisconduct":7217,"Ġroad":7218,"Ġexclusion":7219,"ĠLabor":7220,"Ġapplications":7221,"ĠPeople":7222,"Ġapplican":7223,"Ġpayable":7224,"EF":7225,"Ġapplicant":7226,"ĠJersey":7227,"900":7228,"âĤ¬âĤ¬":7229,"Nonpriority":7230,"west":7231,"Ġ108":7232,"Ġevidentiary":7233,"ional":7234,"constitutional":7235,"dix":7236,"Ġresulte":7237,"ĠVA":7238,"Ġbad":7239,"Ġresulted":7240,"PF":7241,"asing":7242,"Ġpreparation":7243,"oned":7244,"Ġadvert":7245,"çĳ":7246,"Ġthereto":7247,"ĠSent":7248,"rants":7249,"Ġsupporting":7250,"2001":7251,"ĠVII":7252,"Ġmoving":7253,"Ġmanaging":7254,"bery":7255,"!âĢŀ":7256,"Ġpadding":7257,"ĠDefense":7258,"Ġdeclaration":7259,"nders":7260,"ows":7261,"hearing":7262,"ipated":7263,"Ġverif":7264,"ÆĴA":7265,"ears":7266,"ISTR":7267,"Ġrestrict":7268,"Ġ87":7269,"ĠEast":7270,"ids":7271,"ĠOTHER":7272,"df":7273,"been":7274,"cap":7275,"ĠSCH":7276,"Ġ86":7277,"Ġ245":7278,"ïģ¯":7279,"Ġcomplaints":7280,"206":7281,"Ġsupervision":7282,"ĠPost":7283,"month":7284,"114":7285,"Ġbarred":7286,"Ġ612":7287,"aa":7288,"Ġsustained":7289,"ĠThank":7290,"Ġresides":7291,"ĠBlack":7292,"ĠLease":7293,"ĠOct":7294,"arat":7295,"lars":7296,"rievance":7297,"ean":7298,"ĠWork":7299,"ĊĠĠĠĠĠĠĠĠĠĠĠĠĠĠĠĠĠĠĠĠĠĠĠĠĠĠĠĠĠĠĠĠĠĠĠĠĠĠĠĠĠĠĠĠĠĠĠĠĠĠĠĠĠĠĠĠĠĠĠĠĠĠĠĠĠĠĠĠĠĠĠĠ":7300,"daho":7301,"ĠDu":7302,"Ġforeclosure":7303,"employed":7304,"lD":7305,"ĠAdministrative":7306,"Ġmargin":7307,"Â®ï¿½":7308,"JUD":7309,"coding":7310,"ĠREL":7311,"pection":7312,"Ġmot":7313,"Ġnotices":7314,"urt":7315,"eft":7316,"otte":7317,"ĠDeputy":7318,"Estimate":7319,"Disputed":7320,"ĠWi":7321,"Ġconcern":7322,"velopment":7323,"Ġ127":7324,"Ġmode":7325,"person":7326,"Ġprisoner":7327,"Ġattention":7328,"WR":7329,"Ġconsidering":7330,"igration":7331,"County":7332,"Accordingly":7333,"ĠVoluntary":7334,"ĠAnal":7335,"DR":7336,"achie":7337,"999":7338,"Ġ1987":7339,"ĠIss":7340,"Ġrepay":7341,"Title":7342,"Ġpercentage":7343,"Ġnumerous":7344,"Ġdescribing":7345,"AX":7346,"ĠINCURRED":7347,"OUTHERN":7348,"lio":7349,"oing":7350,"Ġfavorable":7351,"Ġguidelines":7352,"ĠFire":7353,"owed":7354,"BI":7355,"idance":7356,"ĠâĢ":7357,"perm":7358,"lee":7359,"Ġclar":7360,"ï¿½$":7361,"Ġappointe":7362,"Ġappointed":7363,"Include":7364,"prec":7365,"Ġcorrespon":7366,"ï¿½Ëľ":7367,"Ġpromptly":7368,"Ġargu":7369,"ians":7370,"ĠRichard":7371,"Ġhereto":7372,"ĠJoseph":7373,"Ġcommittee":7374,"conviction":7375,"ami":7376,"administ":7377,"ĠIm":7378,"Ġsections":7379,"Ġfurnish":7380,"Ġrely":7381,"Ġ81":7382,"Ġscheme":7383,"ĠAuto":7384,"Ġfall":7385,"vation":7386,"Ed":7387,"Judge":7388,"ĠFifth":7389,"Ġinvo":7390,"ĠAv":7391,"Ġalleging":7392,"Ġconstrued":7393,"CK":7394,"Ġcredibility":7395,"did":7396,"Ġcounte":7397,"RY":7398,"ĠTITLE":7399,"ĠINS":7400,"Ġthroughout":7401,">ï¿½":7402,"ĠMrs":7403,"Ġstrong":7404,"Ġ165":7405,"lia":7406,"ÃĲa":7407,"doe":7408,"ĠMark":7409,"heft":7410,"continuation":7411,"Ġconflict":7412,"Ġje":7413,"Ġ!":7414,"Ġsuffer":7415,"clear":7416,"Ġfiles":7417,"disclosed":7418,"mea":7419,"Ġessential":7420,"oft":7421,"ĠMat":7422,"Ġmess":7423,"Ġreleased":7424,"Ġtheft":7425,"ĠPg":7426,"Ġinternal":7427,"HH":7428,"Ġrepeate":7429,"Ġ379":7430,"finding":7431,"Ġforward":7432,"ï¿½Â¤":7433,"versed":7434,"owa":7435,"rgan":7436,"Pre":7437,"Ġunfair":7438,"Unliquidated":7439,"directly":7440,"ï¿½âĢ¹":7441,"ITIES":7442,"Ġrepeated":7443,"assed":7444,"PON":7445,"ĠControl":7446,"Ġbelieves":7447,"ĠPERSON":7448,"Ġ..":7449,"Ġprescribed":7450,"ĠArm":7451,"known":7452,"ĊĠĠĠĠĠĠĠĠĠĠĠĠĠĠĠĠĠĠĠĠĠĠĠĠĠĠĠĠĠĠĠĠĠĠĠĠĠĠĠĠĠĠĠĠĠĠĠĠĠĠĠĠĠĠĠĠĠĠĠĠĠĠĠĠĠĠĠĠĠĠĠĠĠ":7453,"Ġ91":7454,"CONS":7455,".-":7456,"ĠCIV":7457,"Ġappointment":7458,"Ġstart":7459,"113":7460,"ĠRev":7461,"urchase":7462,"Ġsk":7463,"________________________________________":7464,"Ġmodified":7465,"ractice":7466,"Ġmat":7467,"cel":7468,"ĠSur":7469,"ari":7470,"Attn":7471,"Ġmagistrate":7472,"Ġdiscip":7473,"ĠHonorable":7474,"008":7475,"ĠAlso":7476,"ĠPLAINTIFF":7477,"LI":7478,"Ġaway":7479,"equired":7480,"Â»ï¿½":7481,"[ï¿½":7482,"riage":7483,"caine":7484,"Ġregistere":7485,"chapter":7486,"ĠWas":7487,"Ġregistered":7488,"Ġbehavior":7489,"laware":7490,"aired":7491,"Ġatten":7492,"fr":7493,"ĠScott":7494,"Ġcor":7495,"Ġ278":7496,"Ġ1988":7497,"Ġearnings":7498,"Ġinterview":7499,"thods":7500,"ĠSC":7501,"ENCE":7502,"ĠUnit":7503,"Ġwebsite":7504,"white":7505,"ccee":7506,"Ġequiv":7507,"Ġcalculated":7508,"375":7509,"ĠCR":7510,"âĢ¡ï¿½":7511,"Ġremedies":7512,"Ġerroneous":7513,"Ġsubstantive":7514,"Ġcompel":7515,"ĠJan":7516,"ĠAnder":7517,"Ġrout":7518,"Ġphotograph":7519,"ĠFrank":7520,"âĢıï¿½":7521,"Ġlitiga":7522,"\\\\":7523,"ĊĠĠĠĠĠĠĠĠĊĠĠĠĠĠĠĠĠĠĊĠĠĠĠĠĠĠĠĠĠ":7524,"ĠStudent":7525,"\"(":7526,"ĠFair":7527,"Â§ï¿½":7528,"ITE":7529,"ĠEnergy":7530,"required":7531,"Ġstrate":7532,"Notice":7533,"ĠSpecifically":7534,"âĢľï¿½":7535,"Ã¿Ã©":7536,"ĠAbout":7537,"Ġuses":7538,"Contingent":7539,"ĠLEX":7540,"ĠBl":7541,"Ġbottom":7542,"ides":7543,"Ã¿Ã¸":7544,"oil":7545,"Aug":7546,"Ġfraudulen":7547,"mc":7548,"Ġcur":7549,"ditures":7550,"Ġfraudulent":7551,"ĠAdv":7552,"Ġinh":7553,"ĠTho":7554,"Ġdelivery":7555,"ĠHarris":7556,"Ġvol":7557,"Ġlevels":7558,"ponents":7559,"ĠCharles":7560,"Ġpowers":7561,"Ġdepartment":7562,"forms":7563,"dist":7564,"Ġnecessarily":7565,"ĠNonpriority":7566,"Ġunderstanding":7567,"Ġregulatory":7568,"ĠTrade":7569,"Ġfront":7570,"INION":7571,"^ï¿½":7572,"ĠLy":7573,"NI":7574,"Ġ1986":7575,"Employ":7576,"Ġpossess":7577,"ĠConference":7578,"bb":7579,"stei":7580,"Ġthemselves":7581,"Ġ255":7582,"ORT":7583,"Ġinfringement":7584,"ECLARATION":7585,"ĠCash":7586,"IGH":7587,"ĠClaimed":7588,"Ġ122":7589,"'ï¿½":7590,"Ġdriver":7591,"Ġbond":7592,"ĠSTATEMENT":7593,"itory":7594,"Ġagrees":7595,"đđ":7596,"Ġ238":7597,"general":7598,"Ġtried":7599,"Ġreached":7600,"Ġasset":7601,"Ġdespite":7602,"Ġrecognize":7603,"Â·ï¿½":7604,"hreat":7605,"FL":7606,"ude":7607,"Ãĳt":7608,"Ġthreat":7609,"ĊĠĠĠĠĠĠĠĠĠĠĠĠĠĠĠĠĠĠĠĠĠĠĠĠĠĠĠĠĠĠĠĠĠĠĠĠĠĠĠĠĠĠĠĠĠĠĠĠĠĠĠĠĠĠĠĠĠĠĠĠĠĠĠĠĠĠĠĠĠĠĠĠĠĠ":7610,"stein":7611,"ĠAppro":7612,"ĠAg":7613,"ots":7614,"DDD":7615,"ĠRights":7616,"IDERATION":7617,"Ġfirearm":7618,"ĠFrancis":7619,"withstanding":7620,"simile":7621,",,":7622,"Ġ82":7623,"war":7624,"Ġdeed":7625,"AK":7626,"ĠNi":7627,"Subtotal":7628,"004":7629,"Ha":7630,"Ġpersonally":7631,"making":7632,"CB":7633,"Je":7634,"\">&#":7635,"âĢ°ï¿½":7636,"Ġ___":7637,"ĠLEXIS":7638,"Her":7639,"utual":7640,"ĠSETOFF":7641,"gated":7642,"people":7643,"Ġaid":7644,"icious":7645,"ci":7646,"Ġadmit":7647,"Ġcontinuing":7648,"CLUS":7649,"Ġallo":7650,"ĠHan":7651,"Ġprinciples":7652,"profit":7653,"×Ļ×Ķ":7654,"Ġtoday":7655,"made":7656,"Ġsurface":7657,"Ġtwenty":7658,"umbia":7659,"Ġconvictions":7660,"ĠLu":7661,"ĠCOU":7662,"allow":7663,"âĢ¦ï¿½":7664,"irms":7665,"Ġforfeit":7666,"amount":7667,"Ġapart":7668,"zations":7669,"Rev":7670,"ndo":7671,"Ġsimilarly":7672,"nj":7673,"ĠExecutory":7674,"Ġ792":7675,"×´":7676,"Wi":7677,"Ġpreva":7678,"ĠTest":7679,"Ġnovo":7680,"Ġold":7681,"valid":7682,"ĠCOUNT":7683,"ĠProtection":7684,"Ġcritical":7685,"Ġimpose":7686,"Ġinconsistent":7687,"Ġsources":7688,"Pursuant":7689,"ĠNeb":7690,"Ġcommunications":7691,"Ġthirty":7692,"ester":7693,"counseling":7694,"Ġestimates":7695,"proceeding":7696,"hreate":7697,"ĠCreek":7698,"ĊČĠĠĠĠĠĠĠ":7699,"{ï¿½":7700,"ĠCAR":7701,"ĠSoc":7702,"ĠMichigan":7703,"ÃĵM":7704,"lasses":7705,"ĠPRIORITY":7706,"Ġfiduciary":7707,"Ġthreate":7708,"OSE":7709,"Ã¾Ã¾":7710,"Ġoperate":7711,"Ã¿ÃĽ":7712,"cogn":7713,"laska":7714,"Ġcontaining":7715,"ximate":7716,"spons":7717,"136":7718,"Ġbetter":7719,"respon":7720,"organ":7721,"Ġtherein":7722,"Ġdivide":7723,"pher":7724,"Ġcombined":7725,"Wil":7726,"Ġparticularly":7727,"Encoding":7728,"Ġnine":7729,"Space":7730,"Ġcriteria":7731,"Source":7732,"lanation":7733,"contract":7734,"ĠDOC":7735,"Ġadministe":7736,"NY":7737,"structions":7738,"Ġfood":7739,"Ġachie":7740,"WK":7741,"ĠIdaho":7742,"Ġreta":7743,"nowrap":7744,"itche":7745,"Ġcontent":7746,"Ġliens":7747,"Ġcontemp":7748,"ents":7749,"Ġrelates":7750,"zz":7751,":\\":7752,"head":7753,"ĠNebraska":7754,"VI":7755,"Ġcalls":7756,"mond":7757,"ĠEntry":7758,"ml":7759,"forcement":7760,"Ġviolence":7761,"Ġstu":7762,"CLUSION":7763,"what":7764,"Ġinv":7765,"Ġ522":7766,"ĠSix":7767,"Ġsend":7768,"Ġobvious":7769,"corp":7770,"Ġsevere":7771,"Ġdiagno":7772,"âĤª":7773,"ĠFinally":7774,"Ġimpairment":7775,"ĠCOMPLAINT":7776,"Ġ357":7777,"commo":7778,"Ġmere":7779,"unications":7780,"Ġadequately":7781,"posure":7782,"Ġchallenges":7783,"Ġopposition":7784,"ĠINTER":7785,"×±":7786,"ults":7787,"bi":7788,"Ġ\"\\[":7789,"Fac":7790,"establish":7791,"ston":7792,"Ġpatient":7793,"usion":7794,"ivity":7795,"ĠPension":7796,"alte":7797,"Reg":7798,"cs":7799,"days":7800,"ĠHospital":7801,"NOTICE":7802,"OUND":7803,"Ġactive":7804,"eme":7805,"Ġappeared":7806,"ĠWher":7807,"abe":7808,"Ġprecedent":7809,"ĠEmploye":7810,"Ġextended":7811,"1986":7812,"Ġpermanent":7813,"\"?":7814,"ĊĠĠĠĠĠĠĠĠĠĠĠĠĠĠĠĠĠĠĠĠĠĠĠĠĠĠĠĠĠĠĠĠĠĠĠĠĠĠĠĠĠĠĠĠĠĠĠĠĠĠĠĠĠĠĠĠĠĠĠĠĠĠĠĠĠĠĠĠĠĠĠĠĠĠĠ":7815,"toff":7816,"unctive":7817,"UMMARY":7818,"005":7819,"Ġreally":7820,"Ġparents":7821,"Ġforum":7822,"Ġsupports":7823,"%ï¿½":7824,"Ġreim":7825,"Ġindica":7826,"Ver":7827,"Ġrental":7828,"Ġappearance":7829,"âĸ":7830,"ĠDi":7831,"ĠMAR":7832,"Ar":7833,"Inte":7834,"Ġclosed":7835,"Ġfam":7836,"\\ï¿½":7837,"ague":7838,"+ï¿½":7839,"ĠRu":7840,"205":7841,"ĠDebt":7842,"Ra":7843,"Ġvolunt":7844,"Ġsupplemental":7845,"should":7846,"aro":7847,"Ġspecies":7848,"Ġye":7849,"sÅ½":7850,"they":7851,"âĢ¹ï¿½":7852,"PER":7853,"ĠIndiana":7854,"Ġwante":7855,"continue":7856,"CERTIFIC":7857,"Ġwanted":7858,"DEFENDANT":7859,":ï¿½":7860,"ĠOw":7861,"idden":7862,"Ġsubsid":7863,"Line":7864,"Trans":7865,"imilarly":7866,"NSEL":7867,"Ġpanel":7868,"Ġtravel":7869,"Ġreduced":7870,"Ġaspect":7871,"Final":7872,"ĠCUR":7873,"million":7874,"Ġinstallments":7875,"Ġdoo":7876,"Codebtor":7877,"Ġdra":7878,"gb":7879,"iend":7880,"MENTAL":7881,"Ġpromi":7882,"life":7883,"Ġdecree":7884,"ounded":7885,"ĠIndee":7886,"And":7887,"Ġparticulars":7888,"ĠIndeed":7889,"Ġlists":7890,"Ġthereby":7891,"CLUDING":7892,"ĠWithout":7893,"Ġemp":7894,"ĠPEN":7895,"CP":7896,"Ġsubdivision":7897,"ĠExemption":7898,"Color":7899,"itimate":7900,"ecord":7901,"ricult":7902,"then":7903,"WKH":7904,"ĠÂ©":7905,"minate":7906,"Ġworkers":7907,"Ġenvironmental":7908,"fac":7909,"Ġfit":7910,"TT":7911,"office":7912,"LEY":7913,"Wa":7914,"Ġhtt":7915,"Ġlegislative":7916,"vantage":7917,"ĠINV":7918,"Ġhabit":7919,"aratory":7920,"Ġamb":7921,"ĠMoo":7922,"inger":7923,"Ġhuman":7924,"Ġrad":7925,"ĠAnderson":7926,"OY":7927,"Ġcustomer":7928,"Ġ1989":7929,"æħ":7930,"ĠRepresentative":7931,"Ġresponded":7932,"tts":7933,"âĢĻï¿½":7934,"Ġappare":7935,"Å¡i":7936,"rove":7937,"GG":7938,"record":7939,"venth":7940,"Xi":7941,"ĠFre":7942,"ĠProceeding":7943,"spective":7944,"America":7945,"rad":7946,"AH":7947,"about":7948,"ingu":7949,"ËĨÃ©":7950,"016":7951,"Ġ159":7952,"Ġdoor":7953,"Table":7954,".**":7955,"ĠEvidence":7956,"corporation":7957,"tance":7958,"Ġguarant":7959,"ĠSuperior":7960,"Ġrecons":7961,"Ġreduction":7962,"Ġlet":7963,"Ġsaying":7964,"rights":7965,"ABLE":7966,"Ġ1984":7967,"Â©ï¿½":7968,"DOC":7969,"tact":7970,"Ġ707":7971,"ĊĠĠĠĠĠĠĠĠĠĠĠĠĠĠĠĠĠĠĠĠĠĠĠĠĠĠĠĠĠĠĠĠĠĠĠĠĠĠĠĠĠĠĠĠĠĠĠĠĠĠĠĠĠĠĠĠĠĠĠĠĠĠĠĠĠĠĠĠĠĠĠĠĠĠĠĠ":7972,"ĠSw":7973,"mons":7974,"140":7975,"poena":7976,"Ġhousing":7977,"âĢ¦âĢ¦âĢ¦âĢ¦":7978,"force":7979,"Ġresolve":7980,"ĠAdditionally":7981,"ĠMet":7982,"lobal":7983,"rep":7984,"isa":7985,"Ġseen":7986,"company":7987,"does":7988,"INCLUDING":7989,"ĠMcC":7990,"Component":7991,"Jud":7992,"yn":7993,"Go":7994,"ibly":7995,"Ġinstitutions":7996,"Fill":7997,"Ġexact":7998,"ãĢ°":7999,"ĊČĠĠĠĠĠĠĠĠ":8000,"ollow":8001,"IX":8002,"Ġmisrepresent":8003,"Dav":8004,"Â¤âĢĻ":8005,"nors":8006,"ĠOpinion":8007,"motional":8008,"ECTION":8009,"Ġcente":8010,"amo":8011,"ĠNor":8012,"irection":8013,"sig":8014,"ĠPrincipal":8015,"vd":8016,"Ġpermission":8017,"Ġindividually":8018,"Ġmajor":8019,"national":8020,"decision":8021,"ĠSho":8022,"CU":8023,"Â±ï¿½":8024,".).":8025,"note":8026,"ĠWhere":8027,"Ġexclusive":8028,"ribution":8029,"June":8030,"ĠTHIS":8031,"available":8032,"Although":8033,"tical":8034,"arable":8035,"Ġ224":8036,"ighth":8037,"Ġweigh":8038,"Ġaggra":8039,"ander":8040,"SO":8041,"126":8042,"burg":8043,"135":8044,"Ġabsolute":8045,"mis":8046,"ORPORATION":8047,"Bits":8048,"Ġmaintains":8049,"bon":8050,"Ġhard":8051,"Ġlabor":8052,"ĠStandards":8053,"ĠCentral":8054,"Ġallowing":8055,"Ġundisputed":8056,"BitsPer":8057,"Ġtele":8058,"versy":8059,"âģ":8060,"Ġgifts":8061,"Ġpaper":8062,"ĠLea":8063,"ories":8064,"reh":8065,"BitsPerComponent":8066,"UBL":8067,"Ġcenter":8068,"âĢºï¿½":8069,"cheduling":8070,"ĠHaw":8071,"rpus":8072,"RISA":8073,"Ġpretrial":8074,"Ġimprove":8075,"Ġdeliver":8076,"isons":8077,"ailability":8078,"sentence":8079,"ĊĠĠĠĠĠĠĠĠĠĠĠĠĠĠĠĠĠĠĠĠĠĠĠĠĠĠĠĠĠĠĠĠĠĠĠĠĠĠĠĠĠĠĠĠĠĠĠĠĠĠĠĠĠĠĠĠĠĠĠĠĠĠĠĠĠĠĠĠĠĠĠĠĠĠĠĠĠ":8080,"venile":8081,"Ġpursue":8082,"ĠMarti":8083,"âĢ¢ï¿½":8084,"ĠWhether":8085,"minated":8086,"ttle":8087,"203":8088,"substantial":8089,"ĠERISA":8090,"Ġcontend":8091,"Ö´":8092,"Ins":8093,"iform":8094,"âĦ¢ï¿½":8095,"West":8096,"Ġterritory":8097,"Ġadministration":8098,"156":8099,"ĠVI":8100,"ĠMont":8101,"'ve":8102,"ell":8103,".\\":8104,"commen":8105,"Ġsupply":8106,"Ġoutcome":8107,"ĠHill":8108,"ensive":8109,"Ġsurv":8110,"Ġreversed":8111,"ory":8112,"verthe":8113,"Ġrecorded":8114,"Gray":8115,"-$":8116,"Ġadd":8117,"Ġelection":8118,"Ġsolic":8119,"ourage":8120,"ÃŁÃ½":8121,"iet":8122,"Ġvo":8123,"mine":8124,"ÂłÂłÂłÂłÂłÂłÂłÂłÂłÂłÂłÂłÂłÂłÂłÂł":8125,"Ġ................":8126,"Ġaba":8127,"une":8128,"ĊČĠĠĠĠĠĠĠĠĠ":8129,"ĠBrief":8130,"Because":8131,"irs":8132,"bama":8133,"Ġuseful":8134,"elt":8135,"URTHER":8136,"vertheless":8137,"vis":8138,"defendants":8139,"gments":8140,"ĠGA":8141,"ĠRather":8142,"Ġ604":8143,"ĠInstead":8144,"provided":8145,"ĠIRS":8146,"Ġremanded":8147,"Mor":8148,"assment":8149,"ĠMarsh":8150,"Ġplus":8151,"Ġquotation":8152,"Ġgoverning":8153,"Ġmind":8154,"ducational":8155,"018":8156,"SK":8157,"mpson":8158,"ĠEle":8159,"Bottom":8160,"Ġven":8161,"Ġregardless":8162,"ĠMO":8163,"Ġsignature":8164,"HER":8165,"Ġdepart":8166,"Ġremains":8167,"Ġ1982":8168,"stated":8169,";,":8170,"hab":8171,"stood":8172,"245":8173,"Ġemergency":8174,"complete":8175,"ĊĊĠĠĠĠĠĠĠ":8176,"Ġword":8177,"Ġchanged":8178,"thew":8179,"ĠItem":8180,"rich":8181,"isks":8182,"ousa":8183,"Ġgrand":8184,"ĠMy":8185,"æ¥":8186,"Ġqua":8187,"illing":8188,"GB":8189,"Ġcocaine":8190,"âĪĴ":8191,"Ġdistingu":8192,"350":8193,"007":8194,"Ġ1985":8195,"Ġ401":8196,"FORMATION":8197,"Ġdifference":8198,"ĊĠĠĠĠĠĠĠĠĠĠĠĠĠĠĠĠĠĠĠĠĠĠĠĠĠĠĠĠĠĠĠĠĠĠĠĠĠĠĠĠĠĠĠĠĠĠĠĠĠĠĠĠĠĠĠĠĠĠĠĠĠĠĠĠĠĠĠĠĠĠĠĠĠĠĠĠĠĠ":8199,"Â¬ï¿½":8200,"Ġdisreg":8201,"Ġtrea":8202,"ĠMONTH":8203,"âĢĶâĢĶâĢĶâĢĶ":8204,"EIN":8205,"Ġinflue":8206,"Ġoutlined":8207,"IRE":8208,"Ġrelative":8209,"Ġfoot":8210,"IJ":8211,"immediately":8212,"Ġclosing":8213,"nnessee":8214,"Ġrecommendation":8215,"ĠRd":8216,"ICAL":8217,"imal":8218,"ĠCONT":8219,"issione":8220,"ĠStatus":8221,"ĠKing":8222,"208":8223,"AST":8224,"Ġdecrease":8225,"Ġutil":8226,"ATIONS":8227,"ĠPC":8228,"ĠAlt":8229,"Citation":8230,"ĠWilson":8231,"Ġcus":8232,"Ġresided":8233,"ĠCor":8234,"consider":8235,"Ġrational":8236,"Ġrecip":8237,"ĊČĠĠĠĠĠĠĠĠĠĠ":8238,"nvest":8239,"ffe":8240,"prise":8241,"Ġexhibits":8242,"Suite":8243,"ĠRec":8244,"them":8245,"Ġplease":8246,"ik":8247,"009":8248,"eenth":8249,"ĠÆĴ":8250,"Ġexceptions":8251,"ĠMartin":8252,":#Â¢":8253,"Ġmandatory":8254,"Ġparts":8255,"cover":8256,"Ġabsent":8257,"Ġunde":8258,"Ġstip":8259,"Ġassociation":8260,"âĢĥâĢĥ":8261,"Device":8262,"OG":8263,"ĠFact":8264,"ĠNW":8265,"Ġdetermines":8266,"luded":8267,"alley":8268,"Ġobtaining":8269,"ĠExt":8270,"name":8271,"Ġmark":8272,"Ġlear":8273,"ĠAssociates":8274,"ĠTER":8275,"625":8276,"JM":8277,"ĠPlace":8278,"ï¿½âĢĿ":8279,"[]":8280,"Ġtechnical":8281,"Ġengage":8282,"Ġacres":8283,"Ġexecution":8284,"Ġ301":8285,"Ġrespective":8286,"ĠYORK":8287,"Â¿Â¯":8288,"ewis":8289,"FS":8290,"Ab":8291,"199":8292,"rgia":8293,"âĶ":8294,"ĠSUPP":8295,"ĠLetter":8296,"uming":8297,"lusion":8298,"ĠSouthern":8299,"Ġinves":8300,"Ġlands":8301,"Ġregistration":8302,"ĠFailure":8303,"dez":8304,"verte":8305,"Document":8306,"ĠTransportation":8307,"Ġoverru":8308,"Au":8309,"ĠTaylor":8310,"Ã¿Ã¿Ã¾":8311,"Ġ_________________________________":8312,"134":8313,"People":8314,"ĊČĠĠĠĠĠĠĠĠĠĠĠ":8315,"Ġvoluntary":8316,"Ġeas":8317,"ĠSUBJECT":8318,"ĊĠĠĠĠĠĠĠĠĠĠĠĠĠĠĠĠĠĠĠĠĠĠĠĠĠĠĠĠĠĠĠĠĠĠĠĠĠĠĠĠĠĠĠĠĠĠĠĠĠĠĠĠĠĠĠĠĠĠĠĠĠĠĠĠĠĠĠĠĠĠĠĠĠĠĠĠĠĠĠ":8319,"Ġadopt":8320,"Ġrecommended":8321,"ĠMembers":8322,"invest":8323,"ĠBenef":8324,"iguous":8325,"xic":8326,"Ġdise":8327,"Ġcircum":8328,"Ġdeal":8329,"Appellee":8330,"ANCIAL":8331,"ĠAngeles":8332,"Ġju":8333,"Ġmeasures":8334,"Ġcommunication":8335,"ested":8336,"Ġallows":8337,"Ġenvironment":8338,"ughte":8339,"nancing":8340,"ËĨÅ½":8341,"Ġtoward":8342,"Ġsea":8343,"issioner":8344,"Ġsufficiently":8345,"ĠTEX":8346,"Ġweeks":8347,"courts":8348,"number":8349,"Ġmista":8350,"LS":8351,"ÃĴÃ¿":8352,"Gu":8353,"EXHIBIT":8354,"tadata":8355,"MW":8356,"However":8357,"uations":8358,"âĢİï¿½":8359,"Ġnar":8360,"Ġretained":8361,"arate":8362,"benef":8363,"ĠRico":8364,"Ġviolate":8365,"ĠALL":8366,"Ġpartners":8367,"Ã«Ã½":8368,"keep":8369,"Ġtranscript":8370,"ĠTru":8371,"ĠSERVICES":8372,"issue":8373,"uerto":8374,"Ġarreste":8375,"ĠFurthermore":8376,"ĠNos":8377,"Ġissuance":8378,"discharge":8379,"ifiable":8380,"Ġarrested":8381,"ĠGover":8382,"Ġmechan":8383,"Ġexcessive":8384,"ronically":8385,"Ġsubsequently":8386,"Ġquan":8387,"bar":8388,"ĠCusto":8389,"book":8390,"ĠSince":8391,"Debtors":8392,"Ġeli":8393,"ughter":8394,"ï¿½;":8395,"ivable":8396,"Ö¹":8397,"mbly":8398,"401":8399,"Ġcorpus":8400,"Ġpatients":8401,"Ġmethods":8402,"Individual":8403,"sequently":8404,"ulate":8405,"Ġig":8406,"Ġirre":8407,"ICK":8408,"aining":8409,"Cle":8410,"LQ":8411,"215":8412,"ĠCodebtor":8413,"Â¿_":8414,".Â·":8415,"Ġobjective":8416,"ĠSal":8417,"ĠPagelD":8418,"ĠCOR":8419,"Ġjustify":8420,"Ġrespectfully":8421,"nite":8422,"Ġ900":8423,"*ï¿½":8424,"ĠTRANS":8425,"Ġreverse":8426,"ĊČĠĠĠĠĠĠĠĠĠĠĠĠ":8427,"Ġended":8428,"Ġexplanation":8429,"Ġ[]":8430,"Ġ212":8431,"NING":8432,"tomobile":8433,"Ms":8434,"ĠLOC":8435,"Ġrobbery":8436,"urrence":8437,"ĠPort":8438,"......":8439,"ColorSpace":8440,"llateral":8441,"Ġquant":8442,"Ġdangerous":8443,"ĊĠĠĠĠĠĠĠĠĠĠĠĠĠĠĠĠĠĠĠĠĠĠĠĠĠĠĠĠĠĠĠĠĠĠĠĠĠĠĠĠĠĠĠĠĠĠĠĠĠĠĠĠĠĠĠĠĠĠĠĠĠĠĠĠĠĠĠĠĠĠĠĠĠĠĠĠĠĠĠĠ":8444,"ĠDENIED":8445,"Ġsymp":8446,"mas":8447,"Ġshowed":8448,"Ġimmediate":8449,"Ġestablishing":8450,"MO":8451,"225":8452,"Ġrelig":8453,"ÃŁÃ¾":8454,"ĠCommerce":8455,"Ġexplicit":8456,"146":8457,"Ġship":8458,"Ġtruck":8459,"Ġrecommendations":8460,"Location":8461,"hought":8462,"Ġthing":8463,"kee":8464,"Complaint":8465,"'d":8466,"Ġthought":8467,"âĺ":8468,"Ġunliquidated":8469,"From":8470,"Secured":8471,"Ġrelatives":8472,"Ġinjured":8473,",ï¿½":8474,"235":8475,"ĠClark":8476,"ces":8477,"rot":8478,"IST":8479,"Ġconvi":8480,"government":8481,"citation":8482,"APP":8483,"ĠRest":8484,"ĠUSC":8485,"rta":8486,"Ġdisabled":8487,"ulative":8488,"ĠCIR":8489,"ĠCodebtors":8490,"Cap":8491,"ĠDelaware":8492,"AIR":8493,"Act":8494,"ĠEN":8495,"Ġpreparing":8496,"xy":8497,"ĠFees":8498,"nied":8499,"eld":8500,"ĠBOX":8501,"vated":8502,"ouri":8503,"EASTERN":8504,"Ã«Ã¾":8505,"Ġcompensa":8506,"Ġultimately":8507,"ĠPeriod":8508,"Ġdisputes":8509,"El":8510,"undre":8511,"ï¿½/":8512,"CI":8513,"July":8514,"121":8515,"Ġexi":8516,"ĠEastern":8517,"ÃĳÃĳ":8518,"Second":8519,"achuse":8520,"998":8521,"nf":8522,"Ġlog":8523,"Ġexpressed":8524,"ĠPet":8525,"Ġconfirmation":8526,"stics":8527,"Ã»Ã½":8528,"esso":8529,"ĊĠĠĠĠĠĠĠĠĠĠĠĠĠĠĠĠĠĠĠĠĠĠĠĠĠĠĠĠĠĠĠĠĠĠĠĠĠĠĠĠĠĠĠĠĠĠĠĠĠĠĠĠĠĠĠĠĠĠĠĠĠĠĠĠĠĠĠĠĠĠĠĠĠĠĠĠĠĠĠĠĠ":8530,"debts":8531,"espons":8532,"Ġorgani":8533,"128":8534,"Ġblood":8535,"Ġpermits":8536,"Ġmentioned":8537,"142":8538,"worth":8539,"Law":8540,"rite":8541,"ÃµÃ½":8542,"ĠAlaska":8543,"stro":8544,"district":8545,"1991":8546,"ncel":8547,"Ġattrib":8548,"ĠEE":8549,"Ġtests":8550,"âĢĿ);":8551,"CD":8552,"itch":8553,"eview":8554,"ĠSTR":8555,"Ġmedi":8556,"bursement":8557,"ĠWisconsin":8558,"gation":8559,"Ġmunicipal":8560,"Community":8561,"Ġrepresents":8562,"Ġsanctions":8563,"Ġtransportation":8564,"Ġaccused":8565,"ditions":8566,"achusetts":8567,"ï¼":8568,"875":8569,"Ġpunitive":8570,"Ġassisted":8571,"ĠFree":8572,"ĠGen":8573,"Ġmodel":8574,"Ġcounterc":8575,"rris":8576,"Ġdouble":8577,"Order":8578,"Ġcolumns":8579,"egory":8580,")**":8581,"je":8582,"Ġenhance":8583,"âĢĵï¿½":8584,"Ġseized":8585,"2021":8586,"oul":8587,"supp":8588,"019":8589,"rum":8590,"uez":8591,"ĠMoor":8592,"Ġgrievance":8593,"Parms":8594,"DecodeParms":8595,"Ġanswers":8596,"VALUE":8597,"ĠSoftware":8598,"ĀĀĀĀĀĀĀĀĀĀĀĀĀĀĀĀĀĀĀĀĀĀĀĀĀĀĀĀĀĀĀĀĀĀĀĀĀĀĀĀĀĀĀĀĀĀĀĀĀĀĀĀĀĀĀĀĀĀĀĀĀĀĀĀ":8599,"Ġintoxicated":8600,"Â¿ÃĹ":8601,"ĠINFORMATION":8602,"×²":8603,"ĠCOMPANY":8604,"Ġ1981":8605,"âĤ¬ï¿½":8606,"180":8607,"Ġinference":8608,"Ġoil":8609,"SM":8610,"link":8611,"ĠENT":8612,"áĦĳ":8613,"Ġmodification":8614,"ĠFURTHER":8615,"Ġtechnology":8616,"review":8617,"complaint":8618,"core":8619,"pring":8620,"Ġdeposits":8621,"Ġidentity":8622,"Ġassist":8623,"ĠFINANCIAL":8624,"Ġincorrect":8625,"respons":8626,"Ġassume":8627,"Ġgarn":8628,"ĠLegal":8629,"rical":8630,"services":8631,"Ġrepair":8632,"Ġkey":8633,"Ġlea":8634,"Ġnegligent":8635,"Ġlegally":8636,"Ġaside":8637,"tG":8638,"ĊĠĠĠĠĠĠĠĠĠĠĠĠĠĠĠĠĠĠĠĠĠĠĠĠĠĠĠĠĠĠĠĠĠĠĠĠĠĠĠĠĠĠĠĠĠĠĠĠĠĠĠĠĠĠĠĠĠĠĠĠĠĠĠĠĠĠĠĠĠĠĠĠĠĠĠĠĠĠĠĠĠĠ":8639,"216":8640,"Ġtyp":8641,"oper":8642,"ĠLiability":8643,"Ġstructure":8644,"Ġdependents":8645,"Â¿Ã·":8646,"ĠAnalysis":8647,"Ġaccessories":8648,"Wher":8649,"ĠLender":8650,"Ġaffiliates":8651,"Ġinspection":8652,"137":8653,"================":8654,"ĠOver":8655,"pendix":8656,"ĠEffective":8657,"ĠMin":8658,"cep":8659,"Motion":8660,"ĠGar":8661,"nct":8662,"debt":8663,"âĢ¹Â¢":8664,"ĠFla":8665,"ĠMother":8666,"Fi":8667,"Ġrepla":8668,"Ġsuspen":8669,"gations":8670,"Ġ1000":8671,"Ġparticipation":8672,"ĠProject":8673,"æ¹":8674,"ĠCollection":8675,"124":8676,"ĠAgain":8677,"Ġdevices":8678,"Ġinstructed":8679,"Ġacross":8680,"Ġdriving":8681,"arma":8682,"ĠPuerto":8683,"ĊČĠĠĠĠĠĠĠĠĠĠĠĠĠ":8684,"same":8685,"Ġsense":8686,"Ġconcerned":8687,"Ġpossibility":8688,"both":8689,"CCITT":8690,"parties":8691,"FaxDecode":8692,"CCITTFaxDecode":8693,"Ġexisted":8694,"Ġimpaired":8695,"ĠCOUNSEL":8696,"Pay":8697,"Ġdeadlines":8698,"Ġerrors":8699,"ĠNature":8700,"attach":8701,"ï¿½âĢĶ":8702,"ĠPac":8703,"ĠVehicle":8704,"risto":8705,"Ġpotentially":8706,"AFF":8707,"Ġoperated":8708,"Complete":8709,"Ġadminister":8710,"Ġowing":8711,"ĊĠĠĠĠĠĠĠĠĠĠĠĠĠĠĠĠĠĠĠĠĠĠĠĠĠĠĠĠĠĠĠĠĠĠĠĠĠĠĠĠĠĠĠĠĠĠĠĠĠĠĠĠĠĠĠĠĠĠĠĠĠĠĠĠĠĠĠĠĠĠĠĠĠĠĠĠĠĠĠĠĠĠĠ":8712,"gni":8713,"ĠMS":8714,"ĠCompensation":8715,"put":8716,"ĠMod":8717,"ouston":8718,"138":8719,"luding":8720,"ĠUN":8721,"following":8722,"WN":8723,"OHN":8724,"IPUL":8725,"Ġstation":8726,"Ġuser":8727,"Ġprosec":8728,"Ġclin":8729,"ying":8730,"Ġassertion":8731,"irman":8732,"ĠAPPEALS":8733,"MU":8734,"MI":8735,"Robert":8736,"Ġcontrols":8737,"Ġappealed":8738,"122":8739,"pel":8740,"reme":8741,"AU":8742,"Ġrisks":8743,"JH":8744,"control":8745,"DeviceGray":8746,"federal":8747,"ĠHuman":8748,"ĠMal":8749,"Ġbanks":8750,"two":8751,"Ġamendments":8752,"ĠINCOME":8753,"127":8754,"EP":8755,"ĠColumbia":8756,"(ï¿½":8757,"ĠEducation":8758,"uana":8759,"âĢĿ;":8760,"Ġresolved":8761,"Ġalways":8762,"Ġconsolidated":8763,"ugh":8764,"ĠRod":8765,"ĠJudicial":8766,"STATEMENT":8767,"September":8768,"bell":8769,"Ġsol":8770,"ĠIndian":8771,"ĊĠĠĠĠĠĠĠĠĠĠĠĠĠĠĠĠĠĠĠĠĠĠĠĠĠĠĠĠĠĠĠĠĠĠĠĠĠĠĠĠĠĠĠĠĠĠĠĠĠĠĠĠĠĠĠĠĠĠĠĠĠĠĠĠĠĠĠĠĠĠĠĠĠĠĠĠĠĠĠĠĠĠĠĠ":8772,"dismiss":8773,"Ġpartial":8774,"Ġexposure":8775,"ĠMoore":8776,"ALE":8777,"Ġ125":8778,"reasonably":8779,"nore":8780,"gun":8781,"Ġimplied":8782,"Ġstage":8783,"Ġ000":8784,"Ġauthorities":8785,"Ope":8786,"OK":8787,"Ġoccasion":8788,"Ġanticipated":8789,"asis":8790,"VH":8791,"possession":8792,"DECLARATION":8793,"ĠREQU":8794,"735":8795,"bank":8796,"licated":8797,"415":8798,"210":8799,"Cha":8800,"ĠStandard":8801,"CW":8802,"Ġoutstanding":8803,"Ġclaiming":8804,"Ġ________________________________________________________________":8805,"Ġprohibited":8806,"GU":8807,"Ġauthorize":8808,"Ġchoose":8809,"ens":8810,"Ġrevers":8811,"gaap":8812,"1999":8813,"ĠSubject":8814,"idents":8815,"Ġreply":8816,"ĠCrim":8817,"poss":8818,"Ġoffender":8819,"ï¿½?":8820,"ĠMONTHLY":8821,"AF":8822,"ÃĲËĨ":8823,"ï¿½:":8824,"could":8825,"RB":8826,"Office":8827,"One":8828,"Ġfunctions":8829,"anied":8830,"Ġinno":8831,"ï¿½Â±":8832,"(Â¢âĤ¬":8833,"examination":8834,"ĊĠĠĠĠĠĠĠĠĠĠĠĠĠĠĠĠĠĠĠĠĠĠĠĠĠĠĠĠĠĠĠĠĠĠĠĠĠĠĠĠĠĠĠĠĠĠĠĠĠĠĠĠĠĠĠĠĠĠĠĠĠĠĠĠĠĠĠĠĠĠĠĠĠĠĠĠĠĠĠĠĠĠĠĠĠ":8835,"rted":8836,"MP":8837,"TX":8838,"Ġresponses":8839,"Ġexigent":8840,"Ġextend":8841,"Ġperiods":8842,"years":8843,"Ġ1978":8844,"ĠForms":8845,"Ġpurported":8846,"ĠAlabama":8847,"Ġhalf":8848,"ping":8849,"Â¿Â¿":8850,"jurisdiction":8851,"Ġacquired":8852,"Ġpaying":8853,"Ġblack":8854,"\\^":8855,"Any":8856,"Ġstudents":8857,"oÃ¿":8858,"Ġparole":8859,"ĠGood":8860,"ĠCOL":8861,"ĠTHAT":8862,"ĠPRE":8863,"ounding":8864,"MH":8865,"ĠProducts":8866,"207":8867,"ĠPl":8868,"ques":8869,"Ġchoice":8870,"Ġcommerce":8871,"ÃºÃ½":8872,"Ġdirection":8873,"Ġinterro":8874,"ĠDepos":8875,"Ġappellants":8876,"Ġconside":8877,"class":8878,"quisite":8879,"city":8880,"Ste":8881,"Char":8882,"ĊĠĠĠĠĠĠĠĠĠĠĠĠĠĠĠĠĠĠĠĠĠĠĠĠĠĠĠĠĠĠĠĠĠĠĠĠĠĠĠĠĠĠĠĠĠĠĠĠĠĠĠĠĠĠĠĠĠĠĠĠĠĠĠĠĠĠĠĠĠĠĠĠĠĠĠĠĠĠĠĠĠĠĠĠĠĠ":8883,"Ġterminate":8884,"minatory":8885,"Ġportions":8886,"010":8887,"William":8888,"145":8889,"Ohio":8890,"âĪ¢":8891,".),":8892,")-":8893,"yal":8894,"Ġhands":8895,"ĠBre":8896,"account":8897,"ĠClause":8898,"Ġversion":8899,"ĠÂĹ":8900,"ÃĤi":8901,"ĠMer":8902,"Ġstrike":8903,"ĠHam":8904,"è¢Ī":8905,"Ġremove":8906,"Ġlegitimate":8907,"held":8908,"Ġarticle":8909,"circumstances":8910,"ĠMot":8911,"ĠDay":8912,"ĠâĢ¦":8913,"Ġreturns":8914,"sert":8915,"Ġmemorandum":8916,"Ġbroke":8917,"Ġovertime":8918,"iley":8919,"Ġchallenged":8920,"ĠMAT":8921,"Ġpertinent":8922,"139":8923,"003":8924,"ï¿½`":8925,"Ġstrict":8926,"Ġgrants":8927,"linary":8928,"ÂµÃ¿":8929,"Ġdeliberate":8930,"Ġste":8931,"DP":8932,"ngible":8933,"Where":8934,"More":8935,"Ġpremium":8936,"ĠJUDGMENT":8937,"ĠReporte":8938,"Ġparen":8939,"ĠCas":8940,"January":8941,"commod":8942,"gative":8943,"welry":8944,"Ġbasic":8945,"\"!":8946,"Ġasking":8947,"ĠChrist":8948,"untary":8949,"ĊĠĠĠĠĠĠĠĠĠĠĠĠĠĠĠĠĠĠĠĠĠĠĠĠĠĠĠĠĠĠĠĠĠĠĠĠĠĠĠĠĠĠĠĠĠĠĠĠĠĠĠĠĠĠĠĠĠĠĠĠĠĠĠĠĠĠĠĠĠĠĠĠĠĠĠĠĠĠĠĠĠĠĠĠĠĠĠ":8950,"Ġincarce":8951,"123":8952,"'$":8953,"ulatory":8954,"itial":8955,"PÃ¡":8956,"Ġcoordi":8957,"Ġsuspect":8958,"Ġcontroversy":8959,"collect":8960,"ĠPriority":8961,"Ġaccounting":8962,"Obligations":8963,"~Â¿":8964,"PAY":8965,"ï»":8966,"SHIP":8967,"Ġconsumers":8968,"Ġretaliation":8969,"ĠNow":8970,"Text":8971,"Creditors":8972,"ĠSuper":8973,"Ġaccr":8974,"Ġoccup":8975,"Tho":8976,"ĠWood":8977,"long":8978,"REL":8979,"Ġlacks":8980,"eng":8981,"ĠJudges":8982,"Ðĺ":8983,"Ġfunding":8984,"Ġ366":8985,"EQEQEQEQEQEQEQEQ":8986,"Ġwage":8987,"spouses":8988,"vative":8989,"Ġcompletion":8990,"ĠMI":8991,"Ġmach":8992,"olly":8993,"ĠSystems":8994,"Your":8995,"129":8996,"1998":8997,"ĠCORPORATION":8998,"xA":8999,"\").":9000,"Ġpack":9001,"ĠPete":9002,"dor":9003,"ĠIndicate":9004,"ĊĠĠĠĠĠĠĠĠĠĠĠĠĠĠĠĠĠĠĠĠĠĠĠĠĠĠĠĠĠĠĠĠĠĠĠĠĠĠĠĠĠĠĠĠĠĠĠĠĠĠĠĠĠĠĠĠĠĠĠĠĠĠĠĠĠĠĠĠĠĠĠĠĠĠĠĠĠĠĠĠĠĠĠĠĠĠĠĠ":9005,"body":9006,"MAND":9007,"Ġwillful":9008,"ĠLin":9009,"AJ":9010,"Ġ521":9011,"ÃĦD":9012,"QW":9013,"hl":9014,"Ġbeneficiary":9015,"ÃºÃ¾":9016,"450":9017,"ĠBuilding":9018,"Ġinstance":9019,"specific":9020,"Ġdiscovered":9021,"ĠAuthority":9022,"Ġbinding":9023,"1997":9024,"209":9025,"Ġcertificates":9026,"creditors":9027,"ĠMur":9028,"Ġinitially":9029,"Ġspo":9030,"ios":9031,"ĠPal":9032,"Ġ605":9033,"ĠNORTHERN":9034,"lemental":9035,"Ġplant":9036,"Pg":9037,"polic":9038,"ĠSep":9039,"âĢĹï¿½":9040,"tos":9041,"Ġteam":9042,"roe":9043,"material":9044,"nator":9045,"General":9046,"reatment":9047,"Ġdetention":9048,"Ġconsequences":9049,"Ġcomplex":9050,"ĠResearch":9051,"ĠCHAPTER":9052,"Ã¿Ã°":9053,"ĠInd":9054,"ĊĠĠĠĠĠĠĠĠĠĠĠĠĠĠĠĠĠĠĠĠĠĠĠĠĠĠĠĠĠĠĠĠĠĠĠĠĠĠĠĠĠĠĠĠĠĠĠĠĠĠĠĠĠĠĠĠĠĠĠĠĠĠĠĠĠĠĠĠĠĠĠĠĠĠĠĠĠĠĠĠĠĠĠĠĠĠĠĠĠ":9055,"Ġchemical":9056,"ĠLitigation":9057,"hin":9058,"Ġenergy":9059,"ĠSun":9060,"æ½":9061,"ĠUt":9062,"YS":9063,"Ġ128":9064,"Here":9065,"Ġemotional":9066,"ĠEmployment":9067,"Ġpolitical":9068,"Ġreliance":9069,"OND":9070,"Ġinvolves":9071,"char":9072,"Ëľï¿½":9073,"Ġproposal":9074,"Ġinventory":9075,"option":9076,"Ġobjects":9077,"ĠRat":9078,"Ġfloo":9079,"Ġfuel":9080,"175":9081,"Ġsituated":9082,"Ġguidance":9083,"ĠRelease":9084,"key":9085,"Ġattack":9086,"GF":9087,"ĊČĠĠĠĠĠĠĠĠĠĠĠĠĠĠ":9088,"neg":9089,"Ġsentences":9090,"Ġru":9091,"Ġarises":9092,"ĠRecommendation":9093,"ongoing":9094,"ĠProcess":9095,"iring":9096,"ĠPreparer":9097,"1996":9098,"ĠMaster":9099,"Ġport":9100,"Ġdollars":9101,"Nature":9102,"ĊĠĠĠĠĠĠĠĠĠĠĠĠĠĠĠĠĠĠĠĠĠĠĠĠĠĠĠĠĠĠĠĠĠĠĠĠĠĠĠĠĠĠĠĠĠĠĠĠĠĠĠĠĠĠĠĠĠĠĠĠĠĠĠĠĠĠĠĠĠĠĠĠĠĠĠĠĠĠĠĠĠĠĠĠĠĠĠĠĠĠ":9103,"Ġconcludes":9104,"citations":9105,"VEN":9106,"ĠTri":9107,"acc":9108,"306":9109,"ĠâĢĭ":9110,"gins":9111,"Counsel":9112,"CHAPTER":9113,"1983":9114,"ĠDisclosure":9115,"Ġdeficiency":9116,"ACCOUNT":9117,"inct":9118,"ouglas":9119,"lap":9120,"Ã¯Ã½":9121,"dp":9122,"167":9123,"ĠVol":9124,"×ģ":9125,"Ġrecently":9126,"ĠCases":9127,"ĠNav":9128,"ï·":9129,"Ġcombination":9130,"#Â£":9131,"upon":9132,"lients":9133,"WHERE":9134,"ĠCross":9135,"ĠProbation":9136,"155":9137,"ĠSixth":9138,"Ġhabita":9139,"ĠMD":9140,"305":9141,"ĊĠĠĠĠĠĠĠĠĠĠĠĠĠĠĠĠĠĠĠĠĠĠĠĠĠĠĠĠĠĠĠĠĠĠĠĠĠĠĠĠĠĠĠĠĠĠĠĠĠĠĠĠĠĠĠĠĠĠĠĠĠĠĠĠĠĠĠĠĠĠĠĠĠĠĠĠĠĠĠĠĠĠĠĠĠĠĠĠĠĠĠ":9142,"nna":9143,"Ġregularly":9144,"Ġeligibility":9145,"Ã¿Ã¹":9146,"ENDED":9147,"gene":9148,"..............":9149,"cene":9150,"ĠSept":9151,"Ġpublication":9152,"Ġbed":9153,"ĠGas":9154,"Ġexamine":9155,"ordinance":9156,"dustrial":9157,"Ġformal":9158,"Ġrebut":9159,"hre":9160,"quare":9161,"sell":9162,"Ġbook":9163,"asive":9164,"Ġequivalent":9165,"corporated":9166,"Ġsites":9167,"ĠEmployer":9168,"conne":9169,"ĠCOUNTY":9170,"ĠSigned":9171,"Ġconfirmed":9172,"ĠBefore":9173,"urers":9174,"014":9175,"ç¿":9176,"ĠTennessee":9177,"298":9178,".......":9179,"Ġdaily":9180,"ĊĠĠĠĠĠĠĠĠĠĠĠĠĠĠĠĠĠĠĠĠĠĠĠĠĠĠĠĠĠĠĠĠĠĠĠĠĠĠĠĠĠĠĠĠĠĠĠĠĠĠĠĠĠĠĠĠĠĠĠĠĠĠĠĠĠĠĠĠĠĠĠĠĠĠĠĠĠĠĠĠĠĠĠĠĠĠĠĠĠĠĠĠ":9181,"Ġsupplies":9182,"Ġtrying":9183,"Â¢ï¿½":9184,"Ġvalidity":9185,"randa":9186,"DATED":9187,"Ã¿Ãļ":9188,"personal":9189,"148":9190,"Ġhear":9191,"Ġdistributed":9192,"Ġ129":9193,"äĳĦ":9194,"`âĢŀ":9195,"appeal":9196,"ĠFrancisco":9197,"Ġprices":9198,"Ġsued":9199,"Ġadmissible":9200,"ĠBoth":9201,"ires":9202,"Ġunpaid":9203,"Ġmanage":9204,"ĠMaryland":9205,"Ġ126":9206,"subject":9207,"emo":9208,"Ġinvolve":9209,"ĠDocuments":9210,"occ":9211,"ĠBell":9212,"ĊĠĠĠĠĠĠĠĠĠĠĠĠĠĠĠĠĠĠĠĠĠĠĠĠĠĠĠĠĠĠĠĠĠĠĠĠĠĠĠĠĠĠĠĠĠĠĠĠĠĠĠĠĠĠĠĠĠĠĠĠĠĠĠĠĠĠĠĠĠĠĠĠĠĠĠĠĠĠĠĠĠĠĠĠĠĠĠĠĠĠĠĠĠ":9213,"ĠOur":9214,"ĠDecision":9215,"Ġzone":9216,"ĠFord":9217,"Ġapplying":9218,"Cons":9219,"Â¨ï¿½":9220,"Ġbio":9221,"rchan":9222,"lands":9223,"âĿ":9224,"Ġvirt":9225,"Ã¿Ã¡":9226,"Ã¿ÃĴ":9227,".[":9228,"Ġenact":9229,"ĠInternal":9230,"JS":9231,"Ġ416":9232,"Ġmedia":9233,"iler":9234,"Ġgain":9235,"dd":9236,"Ġserif":9237,"ĊĠĠĠĠĠĠĠĠĠĠĠĠĠĠĠĠĠĠĠĠĠĠĠĠĠĠĠĠĠĠĠĠĠĠĠĠĠĠĠĠĠĠĠĠĠĠĠĠĠĠĠĠĠĠĠĠĠĠĠĠĠĠĠĠĠĠĠĠĠĠĠĠĠĠĠĠĠĠĠĠĠĠĠĠĠĠĠĠĠĠĠĠĠĠ":9238,"moving":9239,"ĠBlvd":9240,"Ġcomponents":9241,"ĠEIN":9242,"ĠGeorge":9243,"Ġcharacter":9244,"Ġ1980":9245,"Ġopportunities":9246,"rante":9247,".);":9248,"equ":9249,"ijuana":9250,"133":9251,"brief":9252,"ĊĠĠĠĠĠĠĠĠĠĠĠĠĠĠĠĠĠĠĠĠĠĠĠĠĠĠĠĠĠĠĠĠĠĠĠĠĠĠĠĠĠĠĠĠĠĠĠĠĠĠĠĠĠĠĠĠĠĠĠĠĠĠĠĠĠĠĠĠĠĠĠĠĠĠĠĠĠĠĠĠĠĠĠĠĠĠĠĠĠĠĠĠĠĠĠ":9253,"COMP":9254,"ĠEXP":9255,"Ġpositions":9256,"ero":9257,"DB":9258,"REE":9259,"159":9260,"Ġsurrender":9261,"Ġcred":9262,"Ã»Ã¾":9263,"Öµ":9264,"Ġ1974":9265,"MG":9266,"Ġmodify":9267,"ĊĠĠĠĠĠĠĠĠĠĠĠĠĠĠĠĠĠĠĠĠĠĠĠĠĠĠĠĠĠĠĠĠĠĠĠĠĠĠĠĠĠĠĠĠĠĠĠĠĠĠĠĠĠĠĠĠĠĠĠĠĠĠĠĠĠĠĠĠĠĠĠĠĠĠĠĠĠĠĠĠĠĠĠĠĠĠĠĠĠĠĠĠĠĠĠĠ":9268,"1994":9269,"Ġsubmission":9270,"prece":9271,"Ġdoesn":9272,"itude":9273,"Ġcategories":9274,"ev":9275,"eek":9276,"Ġinjunctive":9277,"Ġchecks":9278,"Parent":9279,"ifest":9280,"Ġweapon":9281,"Ġindemn":9282,"John":9283,"285":9284,"ĠAllen":9285,"ristopher":9286,"Ġcitizen":9287,"wal":9288,"easury":9289,"310":9290,"financial":9291,"020":9292,"ATIONAL":9293,"perform":9294,"ĠJO":9295,"Ġwhite":9296,"ï¿½âĦ¢":9297,"ĊĠĠĠĠĠĠĠĠĠĠĠĠĠĠĠĠĠĠĠĠĠĠĠĠĠĠĠĠĠĠĠĠĠĠĠĠĠĠĠĠĠĠĠĠĠĠĠĠĠĠĠĠĠĠĠĠĠĠĠĠĠĠĠĠĠĠĠĠĠĠĠĠĠĠĠĠĠĠĠĠĠĠĠĠĠĠĠĠĠĠĠĠĠĠĠĠĠ":9298,"Ġfarmers":9299,"Ġrepresentatives":9300,"Ġunderstood":9301,"Ġarguing":9302,"times":9303,"Ġ355":9304,"ĠClaima":9305,"ĠDATES":9306,"Fla":9307,"./":9308,"Ġimproperly":9309,"rÅĵ":9310,"Ġdetail":9311,"ux":9312,"ĠFDA":9313,"ĊĠĠĠĠĠĠĠĠĠĠĠĠĠĠĠĠĠĠĠĠĠĠĠĠĠĠĠĠĠĠĠĠĠĠĠĠĠĠĠĠĠĠĠĠĠĠĠĠĠĠĠĠĠĠĠĠĠĠĠĠĠĠĠĠĠĠĠĠĠĠĠĠĠĠĠĠĠĠĠĠĠĠĠĠĠĠĠĠĠĠĠĠĠĠĠĠĠĠ":9314,"ĠExpen":9315,"ÃµÃ¾":9316,"ĠDaniel":9317,"Ġlawyer":9318,"itness":9319,"170":9320,"Ġmonitoring":9321,"Ġhearings":9322,"Wo":9323,"zed":9324,"Ã¿K":9325,"reach":9326,"Ġsupplying":9327,"ishermen":9328,"liability":9329,"ĊĠĠĠĠĠĠĠĠĠĠĠĠĠĠĠĠĠĠĠĠĠĠĠĠĠĠĠĠĠĠĠĠĠĠĠĠĠĠĠĠĠĠĠĠĠĠĠĠĠĠĠĠĠĠĠĠĠĠĠĠĠĠĠĠĠĠĠĠĠĠĠĠĠĠĠĠĠĠĠĠĠĠĠĠĠĠĠĠĠĠĠĠĠĠĠĠĠĠĠ":9330,"Ġciting":9331,"Ġ140":9332,"Ġprin":9333,"Â·Â·":9334,"Ġ611":9335,"matter":9336,"Ġrede":9337,"303":9338,"âĢĶ|":9339,"Interest":9340,"xxx":9341,"Ġintend":9342,"ĠTur":9343,"ĊĠĠĠĠĠĠĠĠĠĠĠĠĠĠĠĠĠĠĠĠĠĠĠĠĠĠĠĠĠĠĠĠĠĠĠĠĠĠĠĠĠĠĠĠĠĠĠĠĠĠĠĠĠĠĠĠĠĠĠĠĠĠĠĠĠĠĠĠĠĠĠĠĠĠĠĠĠĠĠĠĠĠĠĠĠĠĠĠĠĠĠĠĠĠĠĠĠĠĠĠ":9344,"FFFFFF":9345,"Ã½ÃĮ":9346,"ĠDEF":9347,"sic":9348,"132":9349,"Ã¯Ã¾":9350,"homa":9351,"Ã°ÆĴ":9352,"022":9353,"015":9354,"inez":9355,"ML":9356,"195":9357,"mart":9358,"ï¿½@":9359,"Ġaircraft":9360,"Ġdepository":9361,"ĠCamp":9362,"Ġinvalid":9363,"ICO":9364,"ulli":9365,"urch":9366,"ĠTransfer":9367,"American":9368,"levant":9369,"Ġpassed":9370,"ï¿½âĢĻ":9371,"alter":9372,"Reason":9373,"ĠFood":9374,"Å¡a":9375,"usa":9376,"PEPE":9377,"Ġ202":9378,"ÃłËĨ":9379,"ĊČĠĠĠĠĠĠĠĠĠĠĠĠĠĠĠ":9380,"visions":9381,"ĠTRI":9382,"SOUTHERN":9383,"LED":9384,"alleged":9385,"Ġcollected":9386,"Ġcodebtor":9387,"131":9388,"Copyright":9389,"Ġpopulation":9390,"ĠTaxe":9391,"ĠHen":9392,"ĠWestern":9393,"ĠSuperv":9394,"marks":9395,"Ġnetwork":9396,"thony":9397,"Ġapparent":9398,"ROM":9399,"ĠUSDC":9400,"Ġwrongful":9401,"Link":9402,"Ġscient":9403,"Ġ130":9404,"Civ":9405,"Ġesto":9406,"1993":9407,"ĠDates":9408,"Ġhappened":9409,"Ġtre":9410,"ĠCONTR":9411,"Â¸ï¿½":9412,"ĠMetadata":9413,"240":9414,"Ġed":9415,"lains":9416,"Ġmanager":9417,"ĠTaxes":9418,"thers":9419,"Ġrestrictions":9420,"HR":9421,"Â£ï¿½":9422,"Ġdependent":9423,"ĠBill":9424,"Ġ{":9425,"ĠLewis":9426,"rgani":9427,"Ġesc":9428,"ĠGRANTED":9429,"bes":9430,"239":9431,"Ġdemonstrated":9432,"Ġsimple":9433,"Ġconcen":9434,"304":9435,"ĠHERE":9436,"December":9437,"190":9438,"Ġretain":9439,"overflow":9440,"Ġdecedent":9441,"Ġnight":9442,"ĠEstimate":9443,"vy":9444,"Ġune":9445,"Ġentirely":9446,"ratory":9447,"Ġ477":9448,"BO":9449,"1984":9450,"icable":9451,"pending":9452,"rab":9453,"Ġinvestigat":9454,"ĠSW":9455,"ĠGeorgia":9456,"Domestic":9457,"ollowing":9458,"Ġpic":9459,"ĠPERSONAL":9460,"ĠOkla":9461,"ÃĴm":9462,"Judgment":9463,"isha":9464,"Ġdr":9465,"authorized":9466,"Ġmisleading":9467,"Ġenjo":9468,"rence":9469,"Ġinvestigate":9470,"ĠAlte":9471,"ĠDeducting":9472,"ĠLegis":9473,"mpt":9474,"gers":9475,"ĠOperating":9476,"ildren":9477,"Ġrgb":9478,"Ġsecure":9479,"Ġcitation":9480,"March":9481,"255":9482,"Ġevaluate":9483,"nalty":9484,"âĢ¢âĢ¢âĢ¢âĢ¢":9485,"him":9486,"Ġfishing":9487,"ï¿½ï¿½ï¿½ï¿½ï¿½":9488,"ulting":9489,"ïģ±":9490,"\";":9491,"habil":9492,"161":9493,"âĢļ!":9494,"WO":9495,"Ġcounter":9496,"Ġordinance":9497,"rehensive":9498,"sur":9499,"era":9500,"process":9501,"Ġowners":9502,"LD":9503,"Ã¿Ã¿Ã½":9504,"Ġsalary":9505,"tants":9506,"Resources":9507,"Ġletters":9508,"Ġprovider":9509,"ĠFAC":9510,"otel":9511,"ĠLong":9512,"Ġcharacteri":9513,"Ġ750":9514,"ĠWells":9515,"Ġclients":9516,"Ġcoup":9517,"pension":9518,"ĠAmend":9519,"idavits":9520,"epre":9521,"Ġlived":9522,"Ġacquisition":9523,"nwealth":9524,"ĠSam":9525,"presentation":9526,"Ġfunda":9527,"coming":9528,"Ġwish":9529,"ĠAuthorized":9530,"ĠÃĲ":9531,"dale":9532,"017":9533,"WS":9534,"Ġrei":9535,"documents":9536,"allas":9537,"ÃĪÃĩ":9538,"Ġannou":9539,"dra":9540,"ĠSome":9541,"Ġstorage":9542,"Administ":9543,"INS":9544,"220":9545,"Ġyes":9546,"auto":9547,"Ġ778":9548,"ppel":9549,"ATT":9550,"ctor":9551,"ĠFILED":9552,"ĠGuidelines":9553,"ë¿":9554,"@âĢŀ":9555,"ĠOPINION":9556,"Man":9557,"CONSIDERATION":9558,"ÂºÃ¿":9559,"notice":9560,"ENERAL":9561,"Ġ350":9562,"pÃĤ":9563,"GROUND":9564,"Bar":9565,"Ġconcent":9566,"ĊČĠĠĠĠĠĠĠĠĠĠĠĠĠĠĠĠ":9567,"ĠIRA":9568,"ters":9569,"Ġillness":9570,"Ġdesignation":9571,"Ġintentional":9572,"ÃĹ_":9573,"Ġdeman":9574,"ĠReply":9575,"ENTIAL":9576,"ĠPH":9577,"never":9578,"FH":9579,"Rich":9580,"Ġending":9581,"ĠArk":9582,"ĠMAN":9583,"Ġ2255":9584,"Ġdili":9585,"Ġaccompanied":9586,"inde":9587,"Ġdefe":9588,"166":9589,"Ġdefenses":9590,"čĊĠčĊ":9591,"Ġ__________________________________________________________________":9592,"named":9593,"ĠDel":9594,"Service":9595,"lihood":9596,"Ġcontents":9597,"tecte":9598,"Ġjail":9599,"ĠOpposition":9600,"Ġcontractor":9601,"tected":9602,"Finally":9603,"ĠForest":9604,"Ġprojects":9605,"ips":9606,"Ġ667":9607,"LEMENT":9608,"ĠADA":9609,"ĠMarshal":9610,"Ã»Ã»":9611,"kÃ¿":9612,"ech":9613,"1985":9614,"Ġalimony":9615,"ĠFunds":9616,"Ġvoid":9617,"ĠIdentify":9618,".........":9619,"Gr":9620,"tention":9621,"Ãĺa":9622,"ranted":9623,"Ġfocus":9624,"Ġpunishment":9625,"AMES":9626,"repre":9627,"ERK":9628,"ĠJury":9629,"Ġrein":9630,"Ġacknowledged":9631,"Ġfla":9632,"arted":9633,"ĠDevelopment":9634,"ĠSf":9635,"ARE":9636,"230":9637,"gery":9638,"ncome":9639,"PARTMENT":9640,"Ġ121":9641,"Ġ529":9642,"While":9643,"UTION":9644,"Ġcertainly":9645,"urrency":9646,"Ġsuggested":9647,"fill":9648,"ĠDESCRIPTION":9649,"ĠWay":9650,"cret":9651,"ntal":9652,"Ġvoluntarily":9653,"phen":9654,"Ġ205":9655,"ĠNinth":9656,"plan":9657,"214":9658,"Ġreading":9659,"Ġdeducte":9660,"Ġdeducted":9661,"Ġ403":9662,"reo":9663,"333":9664,"ĠCollateral":9665,"Ġpromul":9666,"Ġcompeten":9667,"Ã·_":9668,"ï¿½-":9669,"Ġcompetent":9670,"riguez":9671,"quidation":9672,"..........":9673,"tz":9674,"213":9675,"168":9676,"ĠAnt":9677,"238":9678,"lead":9679,"essor":9680,"ously":9681,"Ġdisease":9682,"ractors":9683,"positive":9684,"Ġ237":9685,"ĠAli":9686,"''":9687,"ï¿½\\":9688,"âĢļ(":9689,"Ġassig":9690,"ĠAge":9691,"ifer":9692,"commencement":9693,").)":9694,"phia":9695,"system":9696,"ĠAsset":9697,"309":9698,"Ġidentical":9699,"ï¿½Â¨":9700,"cente":9701,"Ġcontractual":9702,"Br":9703,"zer":9704,"during":9705,"âĢŁ":9706,"OUT":9707,"Ġproperties":9708,"elly":9709,"Ġselecte":9710,"ĠEighth":9711,"ĠLEAD":9712,"shold":9713,"ĊČĠĠĠĠĠĠĠĠĠĠĠĠĠĠĠĠĠ":9714,"ÃĪÃ¹":9715,"Ġselected":9716,"cations":9717,"Ġfirms":9718,"Ġ................................................":9719,"Ġapartment":9720,"Ġjuvenile":9721,"Ġmandate":9722,"JO":9723,"Ã¾Å¸":9724,"ĠCompl":9725,"agreement":9726,"ï¿½âĢĵ":9727,"ĠAlex":9728,"Ġshot":9729,"Ġsubpoena":9730,"Michael":9731,"ĠAf":9732,"UND":9733,"ĠDiscovery":9734,"md":9735,"nta":9736,"ez":9737,"ĠDoes":9738,"Ġ................................":9739,"Estimated":9740,"Ġcorrectly":9741,"Ġassign":9742,"ĠTRUST":9743,"Ġongoing":9744,"Ġselling":9745,"Ġ329":9746,"nderson":9747,"Ġrecall":9748,"payments":9749,"Ã½Ã½":9750,"1995":9751,"Ġfacie":9752,"Ġmailed":9753,"ATIONSHIP":9754,"ĠFrm":9755,"ah":9756,"342":9757,"ĠPrisons":9758,"Ġrepresentations":9759,"ĠAlter":9760,"vested":9761,"Â®Â¿":9762,"Ġrace":9763,"ENCY":9764,"rote":9765,"Ġcolor":9766,"Ġcausing":9767,"sho":9768,"Ġ800":9769,"Ġframe":9770,"logies":9771,"ĠER":9772,"arcia":9773,"Civil":9774,"USS":9775,"VERN":9776,"ming":9777,"153":9778,"ĠFmt":9779,"cceeff":9780,"aye":9781,"ranty":9782,"ĠJkt":9783,"ĠSfmt":9784,"Ġasserting":9785,"delphia":9786,"Ġguilt":9787,"188":9788,"ĠWill":9789,"Ġpree":9790,"home":9791,"mington":9792,"VerDate":9793,"sey":9794,"Ġbonds":9795,"ï¿½|":9796,"iller":9797,"1989":9798,"Ġplanning":9799,"ĠRight":9800,"hila":9801,"Ġprinciple":9802,"Ġdistribute":9803,"1992":9804,"Ġexercised":9805,"Ġ1915":9806,"Ġespec":9807,"adequat":9808,"Ġopposing":9809,"EY":9810,"404":9811,"adequate":9812,"Ġmorning":9813,"ĠRelief":9814,"Ã¨Å½":9815,"Ġsoftware":9816,"schedule":9817,"ĠHolder":9818,"ĠLicen":9819,"Ġassumed":9820,"ï¿½.":9821,"Department":9822,"yan":9823,"ĊČĠĠĠĠĠĠĠĠĠĠĠĠĠĠĠĠĠĠ":9824,"Ġjurors":9825,"LM":9826,"Ġ303":9827,"Ip":9828,"ĠDie":9829,"fender":9830,"sting":9831,"bate":9832,"ĠMassachusetts":9833,"ACKGROUND":9834,"ĠTelephone":9835,"JF":9836,"Ġtreating":9837,"ĠBorrower":9838,"Ġvisit":9839,"VW":9840,"rele":9841,"ĠBon":9842,"Washington":9843,"Ġprivacy":9844,"Ġsubparagraph":9845,"ĠPower":9846,"Ã¿ÃĿ":9847,"ĠDD":9848,"jections":9849,"ertain":9850,"Ġ123":9851,"bold":9852,"UCTION":9853,"level":9854,"Ġcontinues":9855,"ĠMailing":9856,"Ġseries":9857,"Ġsuggests":9858,"Ġplaus":9859,"eta":9860,"PÆĴ":9861,"Ġhabitat":9862,"RENT":9863,"discri":9864,"Facsimile":9865,"$âĢĿ":9866,"226":9867,"Â¯Â¯":9868,"Media":9869,"phy":9870,"Ġsymptoms":9871,"prep":9872,"organized":9873,"ĠTd":9874,"176":9875,"Ġsignificantly":9876,"Ġfishermen":9877,"aler":9878,"Ġ405":9879,"FE":9880,"PI":9881,"ĠRay":9882,"Ġdocumentation":9883,"ĠObjection":9884,"ĠFargo":9885,"Ġ175":9886,"Ġson":9887,"Ġremember":9888,"ĠMad":9889,"insurance":9890,"ĠFLSD":9891,"illage":9892,"Ġ3571":9893,"ïĥ":9894,"income":9895,"JURY":9896,"Ġproce":9897,"ĠSerif":9898,"JD":9899,"Ġliquidated":9900,"ĠMissouri":9901,"çī":9902,"ĠYoung":9903,"GIN":9904,"center":9905,"Â¶âĢĶ":9906,"Ġ206":9907,"Ġencourage":9908,"Ġwire":9909,"ĊČĠĠĠĠĠĠĠĠĠĠĠĠĠĠĠĠĠĠĠ":9910,"Par":9911,"pts":9912,"Ġlawful":9913,"025":9914,"nandez":9915,"ĠSenior":9916,"between":9917,"Ġvacated":9918,"Ġspent":9919,"144":9920,"these":9921,"Ġbid":9922,"Ġdeclaratory":9923,"ËĻËĻËĻËĻËĻËĻËĻËĻËĻËĻËĻËĻËĻËĻËĻËĻ":9924,"NESS":9925,"Ġespecially":9926,"Ġcontrolling":9927,"Ġchooses":9928,"ĠWILL":9929,"ĠEar":9930,"áĢ":9931,"à¨":9932,"file":9933,"Ġrefusal":9934,"Ġlegislature":9935,"â¼":9936,"ÃĹÃĹ":9937,"ĠAme":9938,"Ġalmost":9939,"ï¿½>":9940,"Ġsets":9941,"Ġparticipants":9942,"Ġreck":9943,"USE":9944,"Ġstudies":9945,"ĠRan":9946,"ï¿½Â¡":9947,"Ġaffor":9948,"gar":9949,"Ġkept":9950,"302":9951,"196":9952,"RES":9953,"WER":9954,"Ġrespectively":9955,"147":9956,"ĠVice":9957,"Ġresident":9958,"'ll":9959,"ĠEli":9960,"ĠÃĵ":9961,"hind":9962,"ectional":9963,"ĠCause":9964,"ĠMedicare":9965,"Ġdisorder":9966,"rivol":9967,"utable":9968,"Ġtaxable":9969,"Ġexamined":9970,"âĢŀ\"":9971,"YN":9972,"Ġvictims":9973,"ĊĠĠĠĠĠĠĠĠĊĠĠĠĠĠĠ":9974,"ĊĠĠĠĠĠĠĠĊĠĠĠĠĠĠĠĠĠĊĠĠĠĠĠĠĠĠĠĠ":9975,"MT":9976,"hand":9977,"Ã¾ÃŁ":9978,"ĠChange":9979,"JL":9980,"ICHA":9981,"Ġrel":9982,"Ġinsurer":9983,"ĠLos":9984,"ĠProvide":9985,"Ġrente":9986,"Ġbriefs":9987,"hnson":9988,"Summary":9989,".............":9990,"BP":9991,"Ġ124":9992,"Ġinstrument":9993,"MAILING":9994,"308":9995,"ATIVE":9996,"Ġunion":9997,"ivities":9998,"ĊČĠĠĠĠĠĠĠĠĠĠĠĠĠĠĠĠĠĠĠĠ":9999,"Ġseems":10000,"ĠPret":10001,"Ã¾Ã½":10002,"Ġrail":10003,"Ġdifficulty":10004,"Ġbrokerage":10005,"una":10006,"ï¿½âĢ°":10007,"ĠValley":10008,"rivative":10009,"ĠQual":10010,"ï¿½Â¬":10011,"Xa":10012,"1988":10013,"ï¿½+":10014,"179":10015,"inement":10016,"Ġled":10017,"ĠCalcu":10018,"ĠThompson":10019,"finition":10020,"uk":10021,"Ġfixed":10022,"ĠRock":10023,"#:":10024,"ESTERN":10025,"Ġreckless":10026,"Ġinferences":10027,"ÃĺA":10028,"Ġindicating":10029,"ociations":10030,"URANCE":10031,"750":10032,"ï¿½=":10033,"copy":10034,"275":10035,"ĊĠĠĠĠĠĠĠĠĠĠĠĠĠĠĠĠĠĠĠĠĠĠĠĠĠĠĠĠĠĠĠĠĠĠĠĠĠĠĠĠĠĠĠĠĠĠĠĠĠĠĠĠĠĠĠĠĠĠĠĠĠĠĠĠĠĠĠĠĠĠĠĠĠĠĠĠĠĠĠĠĠĠĠĠĠĠĠĠĠĠĠĠĠĠĠĠĠĠĠĠĊĠĠĠĠĠĠĠĠĠĠĠĠĠĠĠĠĠĠĠĠĠĠĠĠĠĠĠĠĠĠĠĠĠĠĠĠĠĠĠĠĠĠĠĠĠĠĠĠĠĠĠĠĠĠĠĠĠĠĠĠĠĠĠĠĠĠĠĠĠĠĠĠĠĠĠĠĠĠĠĠĠĠĠĠĠĠĠĠĠĠĠĠĠĠĠĠĠĠĠĠ":10036,"149":10037,"Ġnegative":10038,"Normal":10039,"ĠAverage":10040,"169":10041,"ngr":10042,"Ã¨Âº":10043,"Ġconsultation":10044,"compensation":10045,"har":10046,"Ġassessed":10047,"Ġimpe":10048,"Ġjuror":10049,"165":10050,"Ġprocessing":10051,"186":10052,"Ġ135":10053,"Ġspeech":10054,"Ġ207":10055,"address":10056,"Va":10057,"Ġseiz":10058,"Ġjo":10059,"Ġharassment":10060,"ĠSafety":10061,"ictures":10062,"Ġrefers":10063,"David":10064,"utor":10065,"California":10066,"Ġrelies":10067,"Additional":10068,"ĠHall":10069,"Agreement":10070,"ception":10071,"Ġlose":10072,"MEMORANDUM":10073,"Ġunderta":10074,"ilo":10075,"Ġ550":10076,"Ġunnecessary":10077,"246":10078,"...........":10079,"limited":10080,"TRANS":10081,"ICHAEL":10082,"stituted":10083,"Ġserving":10084,"Ġsound":10085,"Ġdivision":10086,"riers":10087,"ĠQuest":10088,"1990":10089,"164":10090,"178":10091,"Ġsharing":10092,"Ġmarketing":10093,"ĠConc":10094,"utation":10095,"IFICATION":10096,"OA":10097,"Commo":10098,"board":10099,"Ġjoin":10100,"Ġfourth":10101,"ram":10102,"ĊČĠĠĠĠĠĠĠĠĠĠĠĠĠĠĠĠĠĠĠĠĠ":10103,"didate":10104,"ilers":10105,"GI":10106,"Ġmoot":10107,"Security":10108,"irming":10109,"Ġirr":10110,"proced":10111,"EDUL":10112,"Ġcopyright":10113,"medi":10114,"âĢļâĢļ":10115,"Ġfloor":10116,"Ã¿o":10117,"LAW":10118,"BIL":10119,"Ġwind":10120,"ended":10121,"Ġabused":10122,"228":10123,"ĠSD":10124,"Student":10125,"housa":10126,"prin":10127,"ïĤ·":10128,"236":10129,"Ġapprove":10130,"ĠElectric":10131,"Ġfacil":10132,"erro":10133,"Ġrac":10134,"rivolous":10135,"____________":10136,"folio":10137,"Ġadmits":10138,"vid":10139,"Ġtoxic":10140,"Ġ365":10141,"dicte":10142,"Ġplaces":10143,"ĠRegister":10144,"tah":10145,"ponde":10146,"dicted":10147,"base":10148,"lace":10149,"Ã¿Ãķ":10150,"Ġorganizations":10151,"Ġwidth":10152,"ĠREPORT":10153,"Ġide":10154,"ĠGold":10155,"ĠAU":10156,"ĠFeb":10157,"medical":10158,"ĠSubtotal":10159,"Ġforma":10160,"rase":10161,"ĠFacility":10162,"Ġwaive":10163,"Ġcut":10164,"cognition":10165,"ĠCIVIL":10166,"ÃļM":10167,"Ġthousa":10168,"Ġproprietor":10169,"usti":10170,"Ġsurve":10171,"Street":10172,"rve":10173,"Ġexperts":10174,"marize":10175,"ĠINTEREST":10176,"ĠFather":10177,"Ġcarrying":10178,"/);":10179,"ĠDrug":10180,"lore":10181,"Ġnorth":10182,"ĠDun":10183,"Ġfarms":10184,"ffrey":10185,"Company":10186,"Ġarrangement":10187,"ĠSentencing":10188,"pÆĴ":10189,"Ġdoctor":10190,"Ġintereste":10191,"Tenn":10192,"Ġnonprofit":10193,"Ġinterested":10194,"Based":10195,"185":10196,"Pri":10197,"Ã¿Ã®":10198,"ĠSenate":10199,"Ġprima":10200,"ĠAppellate":10201,"ĠAdvance":10202,"Mart":10203,"ĠWash":10204,"allegations":10205,"ĊČĠĠĠĠĠĠĠĠĠĠĠĠĠĠĠĠĠĠĠĠĠĠ":10206,"ï¿½âĢº":10207,"Ġextreme":10208,"Or":10209,"Ġconstituted":10210,"Win":10211,"defined":10212,"Ġdrive":10213,"Â§Â§":10214,"how":10215,"specify":10216,"Ġindirectly":10217,"Ġdete":10218,"Ġ362":10219,"Ġhundre":10220,"Ã·Ã·":10221,"Ġinstal":10222,"appoint":10223,"Ã°ÃĤ":10224,"ï¿½%":10225,"bel":10226,"policy":10227,"nold":10228,"Ġpromote":10229,"Ġlooking":10230,"Ġjobs":10231,"ĠHEREBY":10232,"Ġelectronically":10233,"ĠMarket":10234,"either":10235,"hiladelphia":10236,"Ġ136":10237,"ĠAccounts":10238,"yes":10239,"mony":10240,"Ġ157":10241,"àł":10242,"egon":10243,"Ġprohibit":10244,"\"/":10245,"Nove":10246,"CLAIM":10247,"Ġarise":10248,"inu":10249,"158":10250,"ĠChild":10251,"Ġstipulation":10252,"ISH":10253,"Ġinmates":10254,"lyn":10255,"Ġmarijuana":10256,"EEFF":10257,"owell":10258,"PDF":10259,"Ġ208":10260,"BT":10261,"Ġcompetition":10262,"ÃĵA":10263,"141":10264,"ĠFED":10265,"ï¿½*":10266,"Ġaspects":10267,"CCEEFF":10268,"into":10269,"ĠCook":10270,"sep":10271,"mery":10272,"189":10273,"SL":10274,"ustin":10275,"Wife":10276,"Ġcommence":10277,"ĠINVENT":10278,"October":10279,"particulars":10280,"Ġ6633":10281,"Ġsettled":10282,"ĠPretrial":10283,"154":10284,"ĠFirm":10285,"Ġconven":10286,"299":10287,"024":10288,"ats":10289,"first":10290,"OUSE":10291,"Contents":10292,"ĠVan":10293,"ĠAndrew":10294,"Ġsear":10295,"Ġcure":10296,"Ġvenue":10297,"org":10298,"Ġrecording":10299,"deli":10300,"compet":10301,"ĊČĠĠĠĠĠĠĠĠĠĠĠĠĠĠĠĠĠĠĠĠĠĠĠ":10302,"Ġaccoun":10303,"Ġrelation":10304,"ï¿½,":10305,"HU":10306,"Ġearned":10307,"tative":10308,"Ġruled":10309,"opport":10310,"Ġpurchases":10311,"ĠRecords":10312,"iliar":10313,"dc":10314,"Ã¿Ã²":10315,"ĠResidence":10316,"522":10317,"193":10318,"sory":10319,"PFG":10320,"Corporation":10321,"Ġlink":10322,"ĠSUMMARY":10323,"aint":10324,"Ġmistake":10325,"ĠâĢĺâĢĺ":10326,"hidden":10327,"Ġtrib":10328,"Ġbod":10329,"âĢĿ:":10330,"lip":10331,"Ġlimiting":10332,"ENDER":10333,"ĠTim":10334,"ï¿½Â¸":10335,"Ġran":10336,"sup":10337,"Ġbear":10338,"argument":10339,"ĠConso":10340,"ĠConne":10341,"Pub":10342,"Ġnotification":10343,"Ġsupplied":10344,"ĠFE":10345,"Ġbargain":10346,"ĠDEC":10347,"Ġinvestors":10348,"Acct":10349,"ï¿½âĢ¢":10350,"Ġ156":10351,"oll":10352,"%%":10353,"llectual":10354,"versary":10355,"Ġignore":10356,"tso":10357,"ctic":10358,"Ġtakes":10359,"ĠHousehold":10360,"stands":10361,"weigh":10362,"ĠAda":10363,"Ġguide":10364,"...............":10365,"Ġlandlord":10366,"riginal":10367,"Ġred":10368,"hy":10369,"ĠExplain":10370,"Â¶Â¿":10371,"1987":10372,"ecked":10373,"Ġpleaded":10374,"uÃ¿":10375,"those":10376,"Ġpetitioners":10377,"028":10378,"Class":10379,"\"),":10380,"RELATIONSHIP":10381,"Ġ[/":10382,"Ġpasse":10383,"ĠReports":10384,"xa":10385,"ĠOrgani":10386,"Ġeffectively":10387,"sch":10388,"opt":10389,"ĠLimited":10390,"Ġzip":10391,"Ġgives":10392,"177":10393,"Ġarose":10394,"002":10395,"AIN":10396,"Ġsusp":10397,"260":10398,"ĠUnexpired":10399,"ĊČĠĠĠĠĠĠĠĠĠĠĠĠĠĠĠĠĠĠĠĠĠĠĠĠ":10400,"Ġintentionally":10401,"nvol":10402,"ishes":10403,"ĠManager":10404,"tary":10405,"Annot":10406,"MER":10407,"IEL":10408,"ipts":10409,"Ġduly":10410,"GM":10411,"calcu":10412,"possible":10413,"Debts":10414,"otherwise":10415,"IRST":10416,"Ġapparently":10417,"425":10418,"Ġadvise":10419,"November":10420,"ĠColumn":10421,"ĠAttorneys":10422,"rature":10423,"nown":10424,"Ġ................................................................................":10425,"Ġrepresenting":10426,"nsing":10427,"isors":10428,"ĠRegarding":10429,"ĠAppellants":10430,"Ġwilling":10431,"lary":10432,"auper":10433,"defense":10434,"143":10435,"Ġsuper":10436,"Ġreasoning":10437,"274":10438,"ending":10439,"Ġhighly":10440,"verable":10441,"loa":10442,"Ġsummons":10443,"ĠWin":10444,"Ã¶ÃĴ":10445,"ĠRegular":10446,"Ġinfluence":10447,"Ã«Ãº":10448,"ĠHart":10449,"April":10450,"UBLIC":10451,"Ġ378":10452,"IEF":10453,"testimony":10454,"Â´âĢº":10455,"ĠPartic":10456,"Ġsuperior":10457,"JC":10458,"Ġcy":10459,"ITIONS":10460,"Ġ134":10461,"Ġfranch":10462,"nnesota":10463,"Ġreferences":10464,"ourteenth":10465,"Ġdismissing":10466,"Ġwide":10467,"Ġ132":10468,"ĠRam":10469,"That":10470,"Ġreligious":10471,"Ġsuits":10472,"157":10473,"Ġphysically":10474,"Ġrevised":10475,"oath":10476,"$âĢļ":10477,"ĠFine":10478,"Ġeducational":10479,"National":10480,"Åĵr":10481,"ĠIowa":10482,"rya":10483,"Ġowns":10484,"ĠRate":10485,"published":10486,"Ġbecomes":10487,"Ö¼":10488,"Ġproviders":10489,"Ġopening":10490,"Government":10491,"ĠRed":10492,"pan":10493,"veral":10494,"ĠONLY":10495,"ranting":10496,"Ġaffidavits":10497,"Ġviewed":10498,"ĊČĠĠĠĠĠĠĠĠĠĠĠĠĠĠĠĠĠĠĠĠĠĠĠĠĠ":10499,"ĠAB":10500,"ĠWright":10501,"high":10502,"Ġusers":10503,"âĢŀ!":10504,"ĠME":10505,"Ġdrawn":10506,"ĠPerson":10507,"184":10508,"Ġautomobile":10509,"invol":10510,"ung":10511,"illo":10512,"Ġanti":10513,"tone":10514,"Ġ530":10515,"OMM":10516,"Ġoverall":10517,"regarding":10518,"Ġwrote":10519,"ouble":10520,"224":10521,"ĠClaiman":10522,"Dates":10523,"ĠClaimant":10524,"ÃļÃ¿":10525,"LAND":10526,"utical":10527,"ĠLOCATION":10528,"ï¿½Â©":10529,"Taxe":10530,"ĉĉĉĉ":10531,"rickland":10532,"Ġnarrow":10533,"empe":10534,"Ġadvantage":10535,"expenses":10536,"ĠFax":10537,"Taxes":10538,"Ġhouses":10539,"ĠWA":10540,"graphic":10541,"550":10542,"These":10543,"ĠMember":10544,"197":10545,"Ġ133":10546,"Ġvalues":10547,"Ġbla":10548,"ĠFinding":10549,"junction":10550,"Ġrefunds":10551,"Ġdeciding":10552,"Ġcomplained":10553,"Ġexceeds":10554,"ĠBla":10555,"XA":10556,"Ġstruct":10557,"KK":10558,"sett":10559,"Ġpie":10560,"307":10561,"ui":10562,"227":10563,"sex":10564,"âĢľ[":10565,"Ġbriefly":10566,"023":10567,"Ġ{Â¶":10568,"405":10569,"Ġrema":10570,"layed":10571,"ĠMorgan":10572,"050":10573,"Ġbears":10574,"ĠFinance":10575,"zi":10576,"Ġcommunica":10577,"248":10578,"ĠSimilarly":10579,"sufficient":10580,"ĊĠĠĠĠĠĠĠĠĊĠĠĠĠĠĠĊĠĠĠĠĊĠĠĠĠĠĊĠĠĠĠĠĠ":10581,"af":10582,"Ġprofits":10583,"arations":10584,"âĢĻâĢĻ":10585,"1982":10586,"Ġ137":10587,"Cen":10588,"026":10589,"Ġtalking":10590,"Ġmob":10591,"even":10592,"pes":10593,"---":10594,"Ġ(âĢľ[":10595,"Ġcamp":10596,"Unsecured":10597,"rne":10598,"Ġclasses":10599,"ĠSales":10600,"Ġthre":10601,"Â¡ï¿½":10602,"Ġcompared":10603,"auperis":10604,"down":10605,"ĊČĠĠĠĠĠĠĠĠĠĠĠĠĠĠĠĠĠĠĠĠĠĠĠĠĠĠ":10606,"ĠPrice":10607,"Ġ160":10608,"151":10609,"GT":10610,"lications":10611,"Ġsustai":10612,"ĠWeb":10613,"ĠTRIAL":10614,"ĠCosts":10615,"ĠAsh":10616,"ĠBack":10617,"Ġsettlements":10618,"pread":10619,"Ġpsycho":10620,"WA":10621,"Ġbehind":10622,"ifican":10623,"Ġ236":10624,"ĠRecovery":10625,"Ġblock":10626,"ĠDam":10627,"ĠGrand":10628,"spectfully":10629,"Ġmalicious":10630,"August":10631,"Ġways":10632,"ĠArmy":10633,"rix":10634,"ĠMAG":10635,"ĠEnforcement":10636,"ĠCourts":10637,"ndere":10638,"iva":10639,"But":10640,"Â¯_":10641,"tson":10642,"Ġremained":10643,"Ġauthorization":10644,"Ġ210":10645,"ilton":10646,"Ġ131":10647,"Ġlite":10648,"ĠTable":10649,"print":10650,"difference":10651,"nologies":10652,"Ġconversation":10653,"Ġinterprete":10654,"ÃĤh":10655,"Ġopposed":10656,"Ġassociations":10657,"Base":10658,"Ġgroups":10659,"exp":10660,"Ġjurisdictional":10661,"Ġintroduced":10662,"Ġconform":10663,"ligible":10664,"Ġquite":10665,"Ġtalk":10666,"titled":10667,"joint":10668,"ĠMac":10669,"elief":10670,"ENTS":10671,"itchell":10672,"ĠBroad":10673,")),":10674,"ryan":10675,"Ġoath":10676,"ĠStipulation":10677,"Ġexhibit":10678,"try":10679,"torial":10680,"Ġinhe":10681,"Ġaccommod":10682,"YYY":10683,"Ġexclude":10684,"Ġhea":10685,"KA":10686,"Note":10687,"dee":10688,"ponderance":10689,"IABIL":10690,"Ġproposition":10691,"ĠKim":10692,"ĠDeta":10693,"027":10694,"Ġ216":10695,"Ġidentifying":10696,"itting":10697,"ĠGonz":10698,"Ġ358":10699,"Ġcomes":10700,"Ġinher":10701,"Ġ636":10702,"ĠREV":10703,"Ġtu":10704,"Ġholders":10705,"relief":10706,"ĠIsland":10707,"Ġsustain":10708,"Ġsoo":10709,"âĢĶ|^":10710,"Ġrepeatedly":10711,":.":10712,"ema":10713,"BM":10714,"Ġcarried":10715,"Ġworld":10716,"Ġrenew":10717,"Ġdealing":10718,"ĊČĠĠĠĠĠĠĠĠĠĠĠĠĠĠĠĠĠĠĠĠĠĠĠĠĠĠĠ":10719,"ĠConn":10720,"ĠCra":10721,"Ġtarget":10722,"ĠInven":10723,"Ġheav":10724,"Ġfish":10725,"Ġconducting":10726,"Ġdiffer":10727,"Fra":10728,"ĊĠč":10729,"Ġfunctional":10730,"Ġthreshold":10731,"Ġcitations":10732,"MediaBox":10733,"âĢĿ,":10734,"ËĨA":10735,"ĠFour":10736,"Ġ227":10737,"Ġdeterminations":10738,"ĠWalker":10739,"Ġlisting":10740,"iends":10741,"ĠItemize":10742,"ĠÃļ":10743,"Ã¶Ã¿":10744,"Supreme":10745,"worn":10746,"ĠOil":10747,"ÃĽK":10748,"actory":10749,"ĠChase":10750,"INGS":10751,"Ġmitiga":10752,"Ġlikelihood":10753,"inafter":10754,"chiat":10755,"allenging":10756,"ĠINVENTORY":10757,"Ġ220":10758,"Ġpresents":10759,"Ġincap":10760,"includes":10761,"Ġjewelry":10762,"Ġreconsideration":10763,"asions":10764,"owned":10765,"âĢĿï¿½":10766,"Ġexpa":10767,"ĠImm":10768,"Ġworks":10769,"ĠPENAL":10770,"Ġmedication":10771,"222":10772,"lent":10773,"Ġ235":10774,"uating":10775,"030":10776,"Op":10777,"Ġpul":10778,"ĠRESPON":10779,"Ġacqu":10780,"Ġcites":10781,"eating":10782,"ĠEL":10783,"operative":10784,"×°":10785,"174":10786,"ĠVio":10787,"ĠYYYY":10788,"ĠLA":10789,"ĠSCHEDUL":10790,"029":10791,"Sc":10792,"Ġsuppress":10793,"phys":10794,"Ġmessage":10795,"ĠTreasury":10796,"187":10797,"Ga":10798,"ĠJR":10799,"ILE":10800,"Ã·Â¯":10801,"Ġinside":10802,"Ġfairly":10803,"ĠArea":10804,".âĢĿ);":10805,"application":10806,"Ġsoon":10807,"ORD":10808,"Ġprecise":10809,"Ġcancel":10810,"Ġcompletely":10811,"Ġsufficiency":10812,"ĠHoldings":10813,"Ġestoppel":10814,"ificant":10815,"bursements":10816,"ĠJJ":10817,"hoe":10818,"ĠConstruction":10819,"title":10820,"Ġadj":10821,"ĠPur":10822,"continued":10823,"ĠTown":10824,"ÃīÅ½":10825,"bitration":10826,"dation":10827,"conce":10828,"Tra":10829,"Respondent":10830,"ĠRobinson":10831,"223":10832,"Ġdepositions":10833,"Ġsort":10834,"superv":10835,"Ġconstitution":10836,"ĠDirect":10837,"ĠLar":10838,"February":10839,"ĠAppendix":10840,"Voluntary":10841,"(\"":10842,"Ġdisregard":10843,"Ġ2254":10844,"039":10845,"Ġthreatened":10846,"serves":10847,"Ġrefund":10848,"Ġdisclosures":10849,"Ġmachine":10850,"unless":10851,"ĠAffidavit":10852,"bte":10853,"mj":10854,"Ġcommunicat":10855,"JA":10856,"234":10857,"itan":10858,"Ġ389":10859,"Ġoccurs":10860,"illips":10861,"Ġfurnishings":10862,"bu":10863,"struct":10864,"ĠCoast":10865,"ocal":10866,"Ġenacted":10867,"Ġgrowth":10868,"Ġrecipient":10869,"Ġspeak":10870,"Ġoffers":10871,"Ġattend":10872,"Ġmanifest":10873,"Ġconclus":10874,"Â¤Â¤":10875,"Ġ240":10876,"ÃļÃļ":10877,"Ġstream":10878,"ĠMid":10879,"Ġcommunicate":10880,"Ġimplementation":10881,"ĠSy":10882,"ĠApr":10883,"lear":10884,"oud":10885,"Ġproc":10886,"Ġentering":10887,"rsons":10888,"Ġoffering":10889,"Ġestablishes":10890,"James":10891,"âĢļâĢŀ":10892,"Ġbreached":10893,"ullivan":10894,"\\_\\_\\_\\_\\_\\_\\_\\_":10895,"concer":10896,"Ã¿Ãª":10897,"Ġexpe":10898,"ĠFun":10899,"ĠSign":10900,"ĠEll":10901,"Ġincorporates":10902,"ucky":10903,"Ġ\\`":10904,"MAR":10905,"Ġregist":10906,"ĠPAGE":10907,"237":10908,"Ġtw":10909,"called":10910,"ĠCM":10911,"JR":10912,"ĊČĠĠĠĠĠĠĠĠĠĠĠĠĠĠĠĠĠĠĠĠĠĠĠĠĠĠĠĠ":10913,"ĠDEPARTMENT":10914,",'":10915,"Ġinterstate":10916,"Ġessentially":10917,"Ġunconstitutional":10918,"ĠMIN":10919,"page":10920,"rican":10921,"Ġpositive":10922,"obby":10923,"ĠAllow":10924,"Ġmarked":10925,"ĠFLSA":10926,"Annots":10927,"Ġ144":10928,"Ġposses":10929,"ydro":10930,"Ġcomponent":10931,"ĠSections":10932,"olf":10933,"ĠLegislature":10934,"EÃĳ":10935,"ĠSM":10936,"ÃŁÃ»":10937,"ssment":10938,"Ġperiodic":10939,"Ġ203":10940,"Ġcarrier":10941,"ĠCro":10942,"Ġstarted":10943,"ĠWorld":10944,"Ġinad":10945,"OV":10946,"Åłb":10947,"igations":10948,"ï¿½âĤ¬":10949,"Ġgeo":10950,"Ta":10951,"Ġcra":10952,"Ġ328":10953,"Ġmedic":10954,"ĠHousing":10955,"Ġdefend":10956,"Ġemb":10957,"Ġarrived":10958,"ants":10959,"ĠAvailable":10960,"armace":10961,"bted":10962,"ĠRef":10963,"Ġeasily":10964,"_ÃĹ":10965,"ï¯":10966,"leman":10967,"Ġgovern":10968,"ĠResources":10969,"eah":10970,"ĠLI":10971,"Ap":10972,"ĠNJ":10973,"elect":10974,"Ġproximate":10975,"night":10976,"Ġ450":10977,"ĠFD":10978,"habilitation":10979,"conomic":10980,"Ġwarrante":10981,"USA":10982,"Ġwarranted":10983,"229":10984,"Ġconvey":10985,"Ġcontribution":10986,"Â´Â¿":10987,"Ġhost":10988,"Ã¿k":10989,"Ġviolates":10990,"dicated":10991,"$Â¥":10992,"Ġobliga":10993,"Ã¿Âµ":10994,"âĢĿâĢĻ":10995,"collectively":10996,"rrow":10997,"Ġdele":10998,"online":10999,"ĠBRO":11000,"inf":11001,"Ġpreven":11002,"Ġcandidate":11003,"rift":11004,"ACE":11005,"ĠUnits":11006,"ĠConfidential":11007,"Ġdefinitions":11008,"OSS":11009,"ĠNat":11010,"Ã¯Ã»":11011,"ĠUT":11012,"Ã¿Ãĸ":11013,"Ġscene":11014,"agency":11015,"ournal":11016,"Ġallowance":11017,"Ġselection":11018,"ĠUp":11019,"Ġshareholders":11020,"Ġaggravated":11021,"ĠPacific":11022,"Ġ138":11023,"Ġattachments":11024,"ĠFROM":11025,"Ġdestro":11026,"Ġenable":11027,"Ġforfeiture":11028,"ĠKent":11029,"266":11030,"five":11031,"194":11032,"346":11033,"ov":11034,"Ka":11035,"Ġbag":11036,"ĠAgree":11037,"ĠGE":11038,"ĠMN":11039,"ben":11040,"ÆĴM":11041,"Ġnearly":11042,"Ö¾":11043,"Ġconcur":11044,"181":11045,"ĠEZ":11046,"Ġhistor":11047,"ISTRATE":11048,"usation":11049,"ÃŁÃº":11050,"Ġorigi":11051,"Ã«Ã»":11052,"Ġ233":11053,"));":11054,"Ġ501":11055,"ishable":11056,"UB":11057,"mployment":11058,"imals":11059,"ributions":11060,"ï¿¾ï¿¾ï¿¾ï¿¾":11061,"preceding":11062,"itrust":11063,"Ġ1979":11064,"einafter":11065,"Ġbul":11066,"280":11067,"stating":11068,"determined":11069,"Ġomissions":11070,"IDENTIAL":11071,"reinafter":11072,"Ġprogress":11073,"eal":11074,"ereinafter":11075,"hereinafter":11076,"EALTH":11077,"fs":11078,"Ġfundamental":11079,"Ġworth":11080,"Ġobjecte":11081,"Ġobjected":11082,"Sen":11083,"152":11084,"idental":11085,"ĠSil":11086,"Ġlearned":11087,"mph":11088,"Ġ322":11089,"means":11090,"Ö»":11091,"Ġqualify":11092,"ae":11093,"ĠLIABIL":11094,"tol":11095,"ĠShare":11096,"Ġprotective":11097,"Ġmobile":11098,"statements":11099,"Ã½Ã¾":11100,"appellant":11101,"Ġvice":11102,"theless":11103,"ĠYOU":11104,"IPULATION":11105,"Except":11106,"usual":11107,"ĠPE":11108,"Ġdistress":11109,"practice":11110,"ĠDNA":11111,"2424":11112,"ĠSheets":11113,"VERAGE":11114,"Ġinsiders":11115,"active":11116,"Ġchecked":11117,"OSURE":11118,"ĠText":11119,"Ġdemands":11120,"Dan":11121,"hannel":11122,"additional":11123,"ĠSale":11124,"Ġoverruled":11125,"Ġmarriage":11126,"ĠType":11127,"Ġprejudicial":11128,"Ġcove":11129,"Ġmeetings":11130,"Record":11131,"gomery":11132,"ÃµÃ»":11133,"credit":11134,"Ã¿Ãĵ":11135,"Ã¸A":11136,"ĠRequired":11137,"nell":11138,"Ġ................................................................................................":11139,"ĠSheriff":11140,"Ġinhere":11141,"ITIN":11142,"ĠTRANSFER":11143,"AIRS":11144,"Ġattempting":11145,"ĠAFFIRM":11146,"MON":11147,"ĠRoom":11148,"Ġartic":11149,"tax":11150,"employment":11151,"ĠSTE":11152,"ĠLat":11153,"ĠDouglas":11154,"SEC":11155,"ĠMotor":11156,"JB":11157,"Ġreflects":11158,"Oc":11159,"Ġdry":11160,"wan":11161,"PB":11162,"å¿":11163,"Ġprospective":11164,"\"$":11165,"Ġpracticable":11166,"rec":11167,"Ġattempts":11168,"itor":11169,"Ġprobably":11170,"ĠINSURANCE":11171,"Ġcharitable":11172,"ĠÂ¸":11173,"Defined":11174,"Ġhears":11175,"=#":11176,"Ġsigns":11177,"ĠMee":11178,"rel":11179,"Ġrelate":11180,"parent":11181,"ĠMis":11182,"Pat":11183,"armaceutical":11184,"Ġ153":11185,"Ã¿Ãŀ":11186,"ÑŁ":11187,"elson":11188,"ware":11189,"Ġsupervisor":11190,"Ġretro":11191,"182":11192,"Ġidentifiable":11193,"Ġ139":11194,"504":11195,"265":11196,"Ġimpacts":11197,"Ġcontest":11198,"ITS":11199,"Ġofthe":11200,"Ġunique":11201,"Ġsample":11202,"Ġ312":11203,"approved":11204,"found":11205,"Ġcapable":11206,"ĠIts":11207,"ĠBlue":11208,"ï¿½)":11209,"uable":11210,"verted":11211,"______________________________________________":11212,"viding":11213,"Ã¤Ã®":11214,"abeth":11215,"Ġgetting":11216,"Ġprobability":11217,"ĠProtective":11218,"Ġwastes":11219,"proper":11220,"ntitled":11221,"html":11222,"LB":11223,"aster":11224,"CERTIFICATE":11225,"\\],":11226,"dustr":11227,"pdf":11228,"Ġlicensed":11229,"gg":11230,"How":11231,"äĦ":11232,"object":11233,"Ġpointe":11234,"ĠMarine":11235,"ĠFin":11236,"Ġextensive":11237,"Ġ146":11238,"335":11239,"GAN":11240,"oca":11241,"Ġpreclude":11242,"damages":11243,"Ġcitizens":11244,"ĊĊĠĠ":11245,"233":11246,"ĠWI":11247,"Ãļi":11248,"ĠMatthew":11249,"ippi":11250,"Ġpublicly":11251,"Add":11252,"013":11253,"pha":11254,"]:":11255,"entitled":11256,"Ġimpairments":11257,"CUIT":11258,"arren":11259,"256":11260,"173":11261,"nants":11262,"ĠMinnesota":11263,"Ġ310":11264,"MISSION":11265,"Ġaccomplish":11266,"Ġobligat":11267,"âĢŀâĢŀ":11268,"Ġsurr":11269,"Ġjudges":11270,"ĠTXSD":11271,"Ġsigning":11272,"];":11273,"Ġ305":11274,"Ġdistributions":11275,"Ġcharacteristics":11276,"ENSE":11277,"Ġwomen":11278,"à¤":11279,"FIN":11280,"Lan":11281,"Ġtim":11282,"èł":11283,"Ġ145":11284,"Ġsoil":11285,"arcot":11286,"Ġsir":11287,"Ġ155":11288,"https":11289,"cking":11290,"consideration":11291,"Ġadvertising":11292,"Ġobligate":11293,"Bcs":11294,"ĠOut":11295,"Ġappra":11296,"nknown":11297,"1000":11298,"rid":11299,"dustries":11300,"ANDARD":11301,"ZA":11302,"Ġstopped":11303,"âĢļ)":11304,"Ġultimate":11305,"urse":11306,"DH":11307,"WLRQ":11308,"ĠMotions":11309,"Ġlacked":11310,"colle":11311,"GY":11312,"ï¿½âĢĹ":11313,"WW":11314,"OCI":11315,"Subtotals":11316,"stal":11317,"âĢĿ.":11318,"ĠKansas":11319,"èĲ":11320,"During":11321,"success":11322,"urned":11323,"Å¸Ã¿":11324,"Ġsignal":11325,"Quest":11326,"lator":11327,"FT":11328,"Ġ204":11329,"lantic":11330,"Ġdistinct":11331,"Ġ149":11332,"āā":11333,"ĠFAA":11334,"ĊČĠĠĠĠĠĠĠĠĠĠĠĠĠĠĠĠĠĠĠĠĠĠĠĠĠĠĠĠĠ":11335,"1978":11336,"Ġinteg":11337,"Ġsuspended":11338,"town":11339,"IME":11340,"ÃĵÃĵ":11341,"ONEY":11342,"1979":11343,"ĠOklahoma":11344,"employees":11345,"Ġdividends":11346,"Ã¾Âº":11347,"HQ":11348,"LU":11349,"Ö¶":11350,"ĠInjury":11351,"Â¶âĢľ":11352,"ĠThose":11353,"ĠForce":11354,"inction":11355,"Ġexpenditures":11356,"sentencing":11357,"ĠMcK":11358,"Ġrevo":11359,"GC":11360,"termination":11361,"Cent":11362,"stall":11363,"Ġ158":11364,"POSITION":11365,"Ġdisciplinary":11366,"ĠHawai":11367,"Ġheight":11368,"odity":11369,"ĠSUP":11370,"Ġpointed":11371,"kel":11372,"508":11373,"ink":11374,"gatories":11375,"Ġwasn":11376,"Â¯Ã·":11377,"Ġassociates":11378,"ĠCustomer":11379,"221":11380,"!âĢļ":11381,"matically":11382,"Ġreceiver":11383,"211":11384,"Ġoriginally":11385,"Ġconvincing":11386,"Ġinternational":11387,"Ġ230":11388,"urchaser":11389,"æį":11390,".âĢĿ)":11391,"icide":11392,"Ġdiversity":11393,"247":11394,"258":11395,"Upon":11396,"ĠET":11397,"sk":11398,"alo":11399,"Ġjudgments":11400,"ĠOfficers":11401,"Ġ408":11402,"Ġadministere":11403,"Ġlives":11404,"Ġresidents":11405,"custo":11406,"Ġadministered":11407,"ĠÃĺ":11408,"Ġbreak":11409,"side":11410,"ĠCD":11411,"Ġmaterially":11412,"Ġ700":11413,"Ġchecking":11414,"ualty":11415,"lers":11416,"440":11417,"kk":11418,"members":11419,"ĠBas":11420,"isable":11421,"itig":11422,"217":11423,"show":11424,"ĠStore":11425,"Ġderived":11426,"ï«":11427,"Ġunlike":11428,"cS":11429,"noting":11430,"ĠPROC":11431,"Ġexplicitly":11432,"being":11433,"ducing":11434,"iture":11435,"EET":11436,"ĠBen":11437,"Ġchosen":11438,"establishe":11439,"idge":11440,"èĳ":11441,"Ġcontrast":11442,"HG":11443,"nneth":11444,"ffer":11445,"ĠPUR":11446,"legal":11447,"rizing":11448,"^Â¿":11449,"Ġtrading":11450,"163":11451,"ĠDOE":11452,"Ġunknown":11453,"Ġclub":11454,"Ġinterve":11455,"dacted":11456,"Ġpayroll":11457,"cussion":11458,"issippi":11459,"Ġalternat":11460,"aller":11461,"ncorporated":11462,"rNI":11463,"Ġinstances":11464,"Ġseller":11465,"ÃºÃº":11466,"FD":11467,"OURCE":11468,"Ġmiss":11469,"Fr":11470,"Ġaban":11471,"Ġ141":11472,"505":11473,"Ġunjust":11474,"Ã¨t":11475,"Ġcustom":11476,"Ġseal":11477,"ĠNames":11478,"Ã¤t":11479,"lam":11480,"ĠCIRCUIT":11481,"ËĨËĨËĨËĨËĨ":11482,"ARL":11483,"Statistical":11484,"Ġconsiste":11485,"Person":11486,"ÃĲi":11487,"Ġpipe":11488,"Ġ296":11489,"360":11490,"Ġmerchan":11491,"haps":11492,"ĠNC":11493,"supporte":11494,"ĠMd":11495,"nsus":11496,"Environmental":11497,"Ġdecline":11498,"1976":11499,"Ġleaving":11500,"FO":11501,"Amendment":11502,"ASH":11503,"Ġcredible":11504,"ĠAFFAIRS":11505,"requirement":11506,"rtgages":11507,"Even":11508,"Ġhearsay":11509,"Ġentirety":11510,"Ġcooperative":11511,"ĠBR":11512,"íŁ":11513,"sus":11514,"supported":11515,"ĠWrite":11516,"Ġdefea":11517,"ptr":11518,"Ġcontinuance":11519,"ÃĹÂ¯":11520,"Ġdefeat":11521,"ĠZIp":11522,"Ġpromulgated":11523,"purpose":11524,"Ġfamiliar":11525,"INGTON":11526,"Ġconfinement":11527,"mptions":11528,"ildlife":11529,"group":11530,"Ġdeclined":11531,"290":11532,"à¢":11533,"lays":11534,"Average":11535,"Ġ148":11536,"Ġoperator":11537,"ĠPartners":11538,"administrative":11539,"riz":11540,"Ġlatter":11541,"OLL":11542,"ĠSim":11543,"ĠLeo":11544,"ĠStr":11545,"Ġclinical":11546,"Ġminim":11547,"opez":11548,"Ġmedian":11549,"Ġgoe":11550,"ceptive":11551,"cast":11552,"Ġusually":11553,"BN":11554,"Ġpl":11555,"Ġdues":11556,"incurred":11557,"ĠES":11558,"1981":11559,"IJI":11560,"Ġphrase":11561,"Ġ151":11562,"ĠPlease":11563,"ypothe":11564,"Ã¤Ãĩ":11565,"Ġmeets":11566,"Business":11567,"iens":11568,"Ġpreserve":11569,"ORE":11570,"Ġhttp":11571,"_Â¯":11572,"Ġsuccessful":11573,"ĠSupplemental":11574,"Ġ503":11575,"Health":11576,"above":11577,"Ġpresently":11578,"ĠReporting":11579,"Ġemployers":11580,"Ġsha":11581,"ÂµÂµ":11582,"249":11583,"Ġsummar":11584,"Ġgoes":11585,"nating":11586,"Ġraises":11587,"ĠChairman":11588,"Ġ248":11589,"Ġfem":11590,"Ġ147":11591,"Mat":11592,"Â¶Â¶":11593,"imm":11594,"DISTRICT":11595,"Respectfully":11596,"Â¡âĢŀ":11597,"odd":11598,"ĠMcG":11599,"Ġft":11600,"Ġoffices":11601,"dant":11602,"ĠLike":11603,"244":11604,"Ġtea":11605,"231":11606,"ËĨÃª":11607,"Ġsouth":11608,"dro":11609,"Use":11610,"Ġpled":11611,"Ġvolume":11612,"WÃ¿":11613,"loss":11614,"183":11615,"gic":11616,"Ġstamp":11617,"ĠExtension":11618,"Each":11619,"ETS":11620,"ĠGarcia":11621,"Wilmington":11622,"GK":11623,"Appeal":11624,"Ġaudio":11625,"Ġfinance":11626,"rporations":11627,"INC":11628,"Ġreleases":11629,"Ġ504":11630,"labo":11631,"ertainment":11632,"Ã¤c":11633,"æµ":11634,"Ġ436":11635,"Chase":11636,"uscourts":11637,"Exec":11638,"chers":11639,"LR":11640,"276":11641,"ĠFalls":11642,"Ġoccu":11643,"Ġaccordingly":11644,"Ġpatte":11645,"stau":11646,"à©":11647,"Ġsalaries":11648,"Ã¸a":11649,"PROPERTY":11650,"Ġ142":11651,"zabeth":11652,"ĠCT":11653,"qÃĬ":11654,"Ġ179":11655,"Ġreimbursement":11656,"ineering":11657,"tract":11658,"War":11659,"Ġparental":11660,"aron":11661,"ĠMel":11662,"Ġafforded":11663,"Ġoccurrence":11664,"nard":11665,"satisf":11666,"Ġ169":11667,"utt":11668,"çķ":11669,"278":11670,"Ġdiscriminatory":11671,"PLAINTIFF":11672,"Ġ170":11673,"Ġaddressing":11674,"Ġconversion":11675,"ê¿":11676,"mal":11677,"ĠAnthony":11678,"VD":11679,"lk":11680,"Ġplacement":11681,"Ġ213":11682,"INA":11683,",\\":11684,"Ġalien":11685,"ÃĹÃ·":11686,"North":11687,"Ġ154":11688,"iter":11689,"253":11690,"Ġrating":11691,"ĠCounts":11692,"Ã¿Ã¿Ã¿Ã¿Ã¿Ã¿Ã¿Ã¿Ã¿Ã¿Ã¿Ã¿Ã¿Ã¿Ã¿Ã¿Ã¿Ã¿Ã¿Ã¿Ã¿Ã¿Ã¿Ã¿Ã¿Ã¿Ã¿Ã¿Ã¿Ã¿Ã¿Ã¿Ã¿Ã¿Ã¿Ã¿Ã¿Ã¿Ã¿Ã¿Ã¿Ã¿Ã¿Ã¿Ã¿Ã¿Ã¿Ã¿Ã¿Ã¿Ã¿Ã¿Ã¿Ã¿Ã¿Ã¿Ã¿Ã¿Ã¿Ã¿Ã¿Ã¿Ã¿Ã¿":11693,"favo":11694,"VS":11695,"ĠHon":11696,"llen":11697,"Ġstrategy":11698,"Ġassessments":11699,"Ġtrig":11700,"procee":11701,"Ġ307":11702,"340":11703,"Ġwholly":11704,"solid":11705,"oe":11706,"lution":11707,"OTT":11708,"Ġcentral":11709,"Ġroutine":11710,"wy":11711,"Ġfacilitate":11712,"ĠOregon":11713,"nas":11714,"241":11715,"501":11716,"ĠTranscript":11717,"Ġcontempt":11718,"Ġpreponderance":11719,"Ġpressure":11720,"ĠEdward":11721,"281":11722,"hÅ½":11723,"ĠEEOC":11724,"GW":11725,"reats":11726,"ÂŃÂ¥":11727,"Ġprojecte":11728,"270":11729,"Ġprojected":11730,"Ġdied":11731,"ereo":11732,"Ġ1976":11733,"ï¿½î":11734,"mann":11735,"Ġsurvey":11736,"Ġ242":11737,"Ġfeel":11738,"Ġmap":11739,"GÃĳ":11740,"Ġavailability":11741,"Ġirrelevant":11742,"330":11743,"cence":11744,"Ġforced":11745,"Ġfault":11746,"288":11747,"Ġsecret":11748,"%)$âĢĻ":11749,"Ã¬Å½":11750,"ĠMartinez":11751,"Ġlegislation":11752,"ĠKelly":11753,"ĠGiven":11754,"192":11755,"1980":11756,"iness":11757,"judice":11758,"HD":11759,"Ġutility":11760,"ĠRegulations":11761,"ĠPurchase":11762,"ĠMed":11763,"Ã¾Ãļ":11764,"Ġ168":11765,"506":11766,"191":11767,"WE":11768,"alez":11769,"Ġreferenced":11770,"Ġconfer":11771,"Ġ197":11772,"ITLED":11773,"Ġadoption":11774,"ĠChristopher":11775,"iration":11776,"Ġcalculation":11777,"Ġgoverned":11778,"cheduled":11779,"ÂŃÂ¯":11780,"rudent":11781,"Ġerr":11782,"ĠServs":11783,"ĠSpouses":11784,"BaseFont":11785,"iven":11786,"ĠDisability":11787,"ardy":11788,"ĠAcc":11789,"ĠRECE":11790,"Ġdiscretionary":11791,"feree":11792,"ĠRodriguez":11793,"Ġprong":11794,"ĠEmployee":11795,"Ġ432":11796,"ĠLP":11797,"à¸":11798,"hera":11799,"Ġcommitment":11800,"mma":11801,"Ġdeclared":11802,"ĠClub":11803,"ĠLoans":11804,"Ġaudit":11805,"Ġsitting":11806,"Ġstre":11807,"Ġjustified":11808,"ÃĹÂ¿":11809,"503":11810,"Ġanswere":11811,"Ġbearing":11812,"Ã¿Âº":11813,"going":11814,"259":11815,"Ġanswered":11816,"Ġmanufacturer":11817,"Ã¾Ã»":11818,"Ġprint":11819,"Ġdistur":11820,"Ã«Ã«":11821,"ĠFish":11822,"ĠInvestment":11823,"Ġvs":11824,"Ġinadequate":11825,"HÅ½":11826,"ĠChecking":11827,"Ġclassified":11828,"Ġ1977":11829,"Ġpattern":11830,"Ġ215":11831,"ĠAGENCY":11832,"`Ëľ":11833,"CUSS":11834,"ÆĴL":11835,"FIDENTIAL":11836,"Ġ229":11837,"Ġinvolvement":11838,"Ġmention":11839,"kh":11840,"ealth":11841,"pecte":11842,"ĠFourteenth":11843,"Ġinterpreted":11844,"OCK":11845,"406":11846,"ĠCONCLUSION":11847,"Ġcollections":11848,"Ġharmless":11849,"Ġ1934":11850,"nix":11851,"='":11852,",âĢĻ":11853,"Ġdem":11854,"Ġindication":11855,"Ġphysicians":11856,"hereo":11857,"UP":11858,"Ġmus":11859,"çģ":11860,"ĠLeave":11861,"Stock":11862,"çį":11863,"said":11864,"Ġenactment":11865,"ĠACT":11866,"ology":11867,"cts":11868,"ussell":11869,"BBBB":11870,"week":11871,"ĠDirectors":11872,"232":11873,"Ġ506":11874,"Ġcaution":11875,"Ġthereo":11876,"Ġstatistical":11877,"ÃµÃµ":11878,"380":11879,"ĠClin":11880,"uti":11881,"cade":11882,"Ġconsec":11883,"_Ã·":11884,"ËĨÃ¹":11885,"OUS":11886,"aga":11887,"safe":11888,"Ġthera":11889,"359":11890,"ĠNation":11891,"ĠAdams":11892,"period":11893,"Ġ466":11894,"[[":11895,"Ġrecre":11896,"355":11897,"Ġthereon":11898,"ĠThree":11899,"ĠHoward":11900,"KÃ¿":11901,"Ġdisposal":11902,"Ġsick":11903,"Ġinfra":11904,"verance":11905,"TUR":11906,"LEASE":11907,"Ġresidential":11908,"Ġconcealing":11909,"ĠVal":11910,"ĠInstructions":11911,"Ġ226":11912,"Ġ502":11913,"health":11914,"ountain":11915,"ĠTD":11916,"Ġadjudication":11917,"ĠTEXAS":11918,"VIR":11919,"NG":11920,"Aff":11921,"Ġdraft":11922,"Ġusual":11923,"Ġonline":11924,"posite":11925,"Ġneglect":11926,"Ġdiligence":11927,"ĠAlimony":11928,"imely":11929,"................................................................................":11930,"Ġsuspension":11931,"Ã¿Ã¿Ã¿Ã¿Ã¿Ã¿":11932,"lls":11933,"amon":11934,"}**":11935,"Ġresponsive":11936,"ĠSea":11937,"Moreover":11938,"ĠCommercial":11939,"ĠMAGISTRATE":11940,"Ġstra":11941,"BERT":11942,"JK":11943,"vG":11944,"lict":11945,"Ġhired":11946,"Ġautomatic":11947,"ricultural":11948,"ĠMic":11949,"***":11950,"Ġcomplied":11951,"acing":11952,"UU":11953,"written":11954,"further":11955,"iencies":11956,"ĠTAX":11957,"secution":11958,"serving":11959,"polis":11960,"EA":11961,"Ġrespondents":11962,"æĦ":11963,"ball":11964,"Ġ1975":11965,"Ġeconomy":11966,"share":11967,"Ġexperienced":11968,"Doe":11969,"imi":11970,"Ġseizure":11971,"162":11972,"Ġ.âĢĿ":11973,"ÃĴÃ½":11974,"Ġvaluable":11975,"Ġexpiration":11976,"Ġchallenging":11977,"Ġcollective":11978,"Cl":11979,"zy":11980,"Thus":11981,"ĠÂ£":11982,"stage":11983,"What":11984,"Ġcertifies":11985,"Ġposted":11986,"ĠPAYMENT":11987,"otals":11988,"CUSSION":11989,"ĠRegulatory":11990,"ĠBeach":11991,"OUP":11992,"ĠRad":11993,"nnis":11994,"Ġinta":11995,"Assistant":11996,"Ġparticipated":11997,"408":11998,"Ġabsolutely":11999,"nsi":12000,"\"'":12001,"Ġmovant":12002,"Ġoccasions":12003,"arant":12004,"ĠDescription":12005,"Dq":12006,"Ġentit":12007,"ndered":12008,"ĠPaid":12009,"Ġleased":12010,"_Â¿":12011,"Ġ415":12012,"Ġquestione":12013,"meanor":12014,"ĠPeter":12015,"three":12016,"ĠWel":12017,"ĠUNIT":12018,"location":12019,"ĠSteven":12020,"ĠFort":12021,",]":12022,"ã°":12023,"âĢļ@":12024,"Ġ143":12025,"ishments":12026,"standard":12027,"ĠDiego":12028,"Ġregulating":12029,"Of":12030,"ĠËĨ":12031,"ringing":12032,"missed":12033,"268":12034,"ĠNeither":12035,"ĠCy":12036,"ĠGrant":12037,"ÃºÃ»":12038,"oz":12039,"æĳ":12040,"Ġfilings":12041,"Ġturned":12042,"ĠGO":12043,"good":12044,"343":12045,"ĠOnce":12046,"286":12047,"Bankr":12048,"Ġstipulated":12049,"asks":12050,"Ġquestioned":12051,"ĠLiberty":12052,"296":12053,"Trustee":12054,"Pl":12055,"issa":12056,"410":12057,"cticut":12058,"ĠFUND":12059,"Net":12060,"decess":12061,"ĠRepublic":12062,"Ġinvoluntary":12063,"Ġsurrounding":12064,"ÃĽÃ¿":12065,"Ġacceptance":12066,"ĊĊĠĠĠĠ":12067,"Sta":12068,"Ġ544":12069,"Ġemissions":12070,"Ġ388":12071,"Ġ306":12072,"â½":12073,"Ġafore":12074,"Ġ166":12075,"_____________________________":12076,"267":12077,"iti":12078,"ĠAssistance":12079,"ONS":12080,"172":12081,"itals":12082,"tu":12083,"Ġrevealed":12084,"171":12085,"ĠREG":12086,"ĠARE":12087,"ĠExh":12088,"ÃŃÃ¿":12089,"ounte":12090,"si":12091,"Ġer":12092,"Ġwarranty":12093,"aca":12094,"475":12095,"Ö½":12096,"jÅ¡":12097,"ĠEquity":12098,"Ġobligated":12099,"leg":12100,"commissioner":12101,"ĠModified":12102,"iating":12103,"ÆĴa":12104,"CFF":12105,"second":12106,"Ġpauperis":12107,"ĠNATURE":12108,"Ġcoming":12109,"ORTH":12110,"dise":12111,"325":12112,"ĠFO":12113,"ĠGlobal":12114,"ĠMitchell":12115,"Ġproved":12116,"ãĦ":12117,"Ġconfe":12118,"ĠVenue":12119,"ĠFollowing":12120,"ĠOK":12121,"fun":12122,"OWING":12123,"Ġopt":12124,"violation":12125,"received":12126,"ĠSteve":12127,"CEED":12128,"icion":12129,"AI":12130,"doned":12131,"ĠLane":12132,"Ġwhichever":12133,"alers":12134,"Ġspecify":12135,"ĠCourtroom":12136,"ÆĴB":12137,"ardi":12138,"ĊČĠĠĠĠĠĠĠĠĠĠĠĠĠĠĠĠĠĠĠĠĠĠĠĠĠĠĠĠĠĠ":12139,"Ġsoc":12140,"communications":12141,"336":12142,"ĠAMENDED":12143,"Ġassuming":12144,"JRI":12145,"HC":12146,"accu":12147,"unch":12148,"ĠReporter":12149,"Ġdefines":12150,"ĠâĢľâĢĺ":12151,"WD":12152,"ĠVete":12153,"ewart":12154,"Capital":12155,"usan":12156,"bid":12157,"Ġ523":12158,"zÃ¿":12159,"nity":12160,"trustee":12161,"Ġ555":12162,"hasize":12163,"db":12164,"attery":12165,"320":12166,"ĠInitial":12167,"Ġpor":12168,"ĠGil":12169,"ĠCURRENT":12170,"Ġsm":12171,"Ġlesser":12172,"Ġlabel":12173,"650":12174,"ĠRU":12175,"pected":12176,"Ġmile":12177,"summary":12178,"ractices":12179,"ZZ":12180,"ardo":12181,"Ġcontemplated":12182,"IVER":12183,"WC":12184,"ĠTele":12185,"ĠUtah":12186,"Ġdemonstrates":12187,"219":12188,"welve":12189,"Ġparking":12190,"Ġbuy":12191,"Ġdepending":12192,"Ġinsider":12193,"acr":12194,"get":12195,"ïģ®":12196,"ĠRose":12197,"Ġcite":12198,"Ġcas":12199,"Ġacquire":12200,"ÃĵL":12201,"Ġ190":12202,"umbus":12203,"Ġscore":12204,"ĠRptr":12205,"Ġfinancing":12206,"Ġlieu":12207,"Ġcontacted":12208,"bative":12209,"Ġcompelling":12210,"Ġ219":12211,"Ġclassification":12212,"icensing":12213,"Ġuna":12214,"ĠGree":12215,"Ġadult":12216,"asons":12217,"Ġfulfill":12218,"ãĢ°ãĢ°":12219,"management":12220,"ĠConsent":12221,"sw":12222,"Ġ211":12223,"Ġ246":12224,"701":12225,"Related":12226,"036":12227,"Ġ304":12228,"jor":12229,"Ġfrivolous":12230,"Ġsurgery":12231,"XXXX":12232,"Ġrendering":12233,"Ġtrai":12234,"Ġafford":12235,"Ġadjuste":12236,"ĠBrian":12237,"Ġmedium":12238,"Ġowes":12239,"relevant":12240,"Plan":12241,"PÃł":12242,"Ġreceivable":12243,"Ġexactly":12244,"Prior":12245,"ĠInstitution":12246,"Ġinterference":12247,"cannot":12248,"ENTION":12249,"Ġ189":12250,"Ġphase":12251,"Ġshift":12252,"Ġuniform":12253,"demonst":12254,"ÃĬr":12255,"istics":12256,"334":12257,"Smith":12258,"ĠMEMORANDUM":12259,"cea":12260,"Ġhy":12261,"Ã»Ã¯":12262,"bra":12263,"xim":12264,"Ġfriend":12265,"Ġreceives":12266,"DDDDDD":12267,"Ġmine":12268,"tech":12269,"discovery":12270,"277":12271,"Ġ167":12272,"ĠDAV":12273,"tire":12274,"Ġtools":12275,"ĠCharge":12276,"ĠčĊĠčĊĠčĊĠčĊ":12277,"Ġcomma":12278,"Ġtrain":12279,"structure":12280,"Ġvague":12281,"Ġprohibits":12282,"Ġuncertain":12283,"dol":12284,"Ġfeat":12285,"DY":12286,"279":12287,"äĲ":12288,"Â¯ÃĹ":12289,"Ġimminent":12290,"ĠOrganization":12291,"601":12292,"cus":12293,"Ġpictures":12294,"Wages":12295,"Ġfelt":12296,"1974":12297,"vÅ¡":12298,"ĠGal":12299,"Ġproving":12300,"geo":12301,"ĠCITY":12302,"ĠDetective":12303,"Ġreflecte":12304,"leas":12305,"Ġ309":12306,"Ġreflected":12307,"PUT":12308,"UMER":12309,"determination":12310,"ĠRen":12311,"Ġapproa":12312,"Ġ^":12313,"urd":12314,"Ġjoined":12315,"rts":12316,"ìĪ":12317,"established":12318,"ĠReform":12319,"Ġconsisting":12320,"Ġbus":12321,"Ġleading":12322,"ror":12323,"Ġ||":12324,"Ġ185":12325,"eye":12326,"Ġ409":12327,"ogle":12328,"ÎĨ":12329,"Ġ222":12330,"Ġdefective":12331,"Â¶âĢ¢":12332,"Ġpertaining":12333,"hour":12334,"**{Â¶":12335,"Ġadvisory":12336,"409":12337,"Ġdaughter":12338,"Ġenhancement":12339,"Emp":12340,"ĠDEFENDANTS":12341,"free":12342,"Ġest":12343,"ÂµÃ½":12344,"ĠIndictment":12345,"Ġduration":12346,"Mon":12347,"uan":12348,"Ġpetitions":12349,"Ã¿Ã±":12350,"Ġsatisfactory":12351,"257":12352,"Ã¿Ãĥ":12353,"Ġfell":12354,"KI":12355,"ĠRelationship":12356,"graphy":12357,"domin":12358,"ĠLaws":12359,"ĠOperations":12360,"lding":12361,"ËĨÃ¢":12362,"employee":12363,"#âĢł":12364,"Ġengaging":12365,"Ġflu":12366,"ĠMM":12367,"ÃĪÆĴ":12368,"Ġpra":12369,"ski":12370,"ÃºÃ«":12371,"Ġ161":12372,"218":12373,"243":12374,"Ġlocations":12375,"Collection":12376,"rald":12377,"velope":12378,"othy":12379,"ÃĦDD":12380,"Ġwherei":12381,"nnel":12382,"Å½Å½":12383,"suits":12384,"Ġwherein":12385,"solution":12386,"iciaries":12387,"ÃŁÃŁ":12388,"ĠRequire":12389,"EO":12390,"foot":12391,"ĠSavings":12392,"issued":12393,"ligence":12394,"Ġunr":12395,"Â²8":12396,"264":12397,"ĠPENALTY":12398,"Ġ209":12399,"284":12400,"Ġ214":12401,"ĠBAR":12402,"ĠâĢĿ":12403,"ĠËľ":12404,"WAL":12405,"Ġmaintaining":12406,"ĠMust":12407,"Ġscheduling":12408,"vict":12409,"LIC":12410,"ulf":12411,"Thomas":12412,"lidated":12413,"aB":12414,"ĠPUBLIC":12415,"Ġrevocation":12416,"TI":12417,"Ġflight":12418,"ĠDomestic":12419,"value":12420,"Ġquarterly":12421,"Ġnegotiations":12422,"settlement":12423,"Ġ....":12424,"Ġban":12425,"ava":12426,"ÃĴI":12427,"stract":12428,"Ġpatents":12429,"ĠBaker":12430,"Ġtransmission":12431,"exempt":12432,"Ã¿ÃĤ":12433,"Ġ223":12434,"Ġgar":12435,"509":12436,"ĠBACKGROUND":12437,"Sch":12438,"Ġunions":12439,"ĠHas":12440,"ario":12441,"ila":12442,"plaintiffs":12443,"Ġ177":12444,"Ġdeficient":12445,"ĠRail":12446,"Ġtape":12447,"REC":12448,"Ġ234":12449,"uasive":12450,"ATH":12451,"ĠRO":12452,"Ġ308":12453,"Ġseat":12454,"Land":12455,"DI":12456,"Ġ________________________________________":12457,"load":12458,"Ġcombat":12459,"âĪĳ":12460,"2022":12461,"áħ":12462,"Ġefficient":12463,"Ġimposition":12464,"Ġsubstitute":12465,"Ġfeed":12466,"Ġburde":12467,"Ġexpired":12468,"ĠMach":12469,"ĠDecree":12470,"espect":12471,"Ã¿Ã¬":12472,"lican":12473,"\"\"\"\"\"\"":12474,"376":12475,"Ko":12476,"Ġago":12477,"ETITION":12478,"ĠYear":12479,"Ġjuris":12480,"Ġease":12481,"POSED":12482,"ĠTechnology":12483,"Ġaccompany":12484,"ĠReserve":12485,"Ġ178":12486,"ĠMeeting":12487,"Ġbodily":12488,"ĠRoss":12489,"Ġconsists":12490,"ulings":12491,"ĠSTREET":12492,"ĠVo":12493,"Dep":12494,"ĠCorrect":12495,"Ġgoal":12496,"295":12497,"HV":12498,"Ġ162":12499,"respect":12500,"arters":12501,"ĠCalculate":12502,"Ġ330":12503,"ãĪ":12504,"sult":12505,"Ġasks":12506,"Trial":12507,"$Â¥$âĢĻ":12508,"STAT":12509,"crete":12510,"ĠPaper":12511,"WV":12512,"dominium":12513,"đđđđ":12514,"Ġworker":12515,"ĠGU":12516,"Ġadvanced":12517,"Ġdistinction":12518,"ĠBou":12519,"Ġhonor":12520,"inating":12521,"illy":12522,"Ġ475":12523,"Ġalia":12524,"Ġtraditional":12525,"Figure":12526,"$âĢĻâĢĿâĢĻ":12527,"Ġ402":12528,"ĠCLERK":12529,"uff":12530,"star":12531,"Ansi":12532,"Ġtypically":12533,"Appro":12534,"WI":12535,"-.":12536,"WinAnsi":12537,"WinAnsiEncoding":12538,"Ġgoals":12539,"ĠConsequently":12540,"$âĢĿÂ¤âĢĻ":12541,"Ġconcluding":12542,"263":12543,"Ġva":12544,"Ġaccrued":12545,"ĠStep":12546,"ĠApple":12547,"ĠSeller":12548,"Ġincapable":12549,"ĠPartnership":12550,"Ġpoo":12551,"ĠChina":12552,"ÃĽI":12553,"Ġ164":12554,"ç½":12555,"iam":12556,"acre":12557,"î¯":12558,"Ġpose":12559,"ïĹ":12560,"etamine":12561,".\\]":12562,"Ġprejudiced":12563,"Ġscientific":12564,"appointe":12565,"listed":12566,"Decl":12567,"child":12568,"appointed":12569,"035":12570,"ENTR":12571,"Ġadversary":12572,"prior":12573,"ĠSanta":12574,"CIV":12575,"ĠPi":12576,"Ġaccepting":12577,"GOVERN":12578,"Ġprescription":12579,"minant":12580,"Ġnowrap":12581,"269":12582,"Ġdispositive":12583,"leep":12584,"Ġrunning":12585,"Ġproportion":12586,"Ġprohibition":12587,"sters":12588,"vard":12589,"Ġsim":12590,"ÃĥA":12591,"Â¯Â¿":12592,"Tel":12593,"Ġcouple":12594,")/":12595,"dq":12596,"ĠMONEY":12597,"252":12598,"Ġlooked":12599,"Ġachieve":12600,"ĠRECOMM":12601,"345":12602,"287":12603,"Ġ176":12604,"uclear":12605,"254":12606,"Ġ423":12607,"Ã¾Ã«":12608,"ïŁ":12609,"Ġ302":12610,"Ġconfirm":12611,"ĠMutual":12612,"Ġshooting":12613,"Ġfalls":12614,"Ġmembership":12615,"Ġhomestead":12616,"MK":12617,"ÂŃâĢŀ":12618,"Ġdeprived":12619,"Ã¥Å½":12620,"Ġ410":12621,"502":12622,"Ġincreasing":12623,"Ġvariety":12624,"Ġreasonableness":12625,"valuation":12626,"ĠGENERAL":12627,"Ġfear":12628,"rdon":12629,"Å¡h":12630,"ã¸":12631,"nnifer":12632,"ÐĶ":12633,"ÃĪÃ¡":12634,"iZ":12635,"Ġassure":12636,"Mortgage":12637,"Ġdiscount":12638,"Ġradio":12639,"She":12640,"gently":12641,"ËĨÆĴ":12642,"ĠPERJURY":12643,"Ġsession":12644,"ÃĴo":12645,"discretion":12646,"ngle":12647,"din":12648,"242":12649,"Ok":12650,"âĢĺâĢĺ":12651,"ĠMorris":12652,"Ġinitiated":12653,"Ġcour":12654,"ĠVeg":12655,"ï¿½ï¿½âĢı":12656,"viously":12657,"priately":12658,"IEW":12659,"âĮ":12660,"Â·_":12661,"different":12662,"Ġcomprehensive":12663,"âĹ":12664,"ĠROB":12665,"Ġtruthfully":12666,"ãģ":12667,"petitione":12668,"gatory":12669,"Ġsuffering":12670,"Ġstored":12671,"Ġomission":12672,"apa":12673,"illance":12674,"NATURE":12675,"\"-":12676,"transferred":12677,"explain":12678,"logist":12679,"ĠNM":12680,"judicial":12681,"mens":12682,"ĊČĠĠĠĠĠĠĠĠĠĠĠĠĠĠĠĠĠĠĠĠĠĠĠĠĠĠĠĠĠĠĠ":12683,"ĠJOHN":12684,"ĠMail":12685,"}}":12686,"Ġfig":12687,"FM":12688,"Ġaccuracy":12689,"Ġrestricte":12690,"Ġbit":12691,"Ġgang":12692,"Ġrestricted":12693,"Ġ$-":12694,"RR":12695,"Ġcarefully":12696,"æ±":12697,"Ġnation":12698,"ĠInstru":12699,"Ġreviews":12700,"Â°Ëľ":12701,"ĠSY":12702,"UI":12703,"ÂłÂłÂł":12704,"',":12705,"cb":12706,"ĠAmeric":12707,"Ġconfusion":12708,"ACTED":12709,"county":12710,"linque":12711,"ÃĲh":12712,"ËĨa":12713,"ĠField":12714,"Ã¯Ã¯":12715,"Ġpu":12716,"Miss":12717,"Ġnewspa":12718,"Ġattributable":12719,"Phone":12720,"exclu":12721,"399":12722,"eb":12723,"HN":12724,"556":12725,"ĠLien":12726,"Ġwarrants":12727,"Fa":12728,"issory":12729,"rizon":12730,"Ġconve":12731,"\">\\*":12732,"Ġcustodian":12733,"tur":12734,"Ġlicenses":12735,"ĠThen":12736,"ÃµÃº":12737,"ĠAccess":12738,"ÃĤA":12739,"riculture":12740,"Ġcorro":12741,"Ġkn":12742,"Ã´Å¸":12743,"Ġ1970":12744,"JE":12745,"ĠBal":12746,"PG":12747,"Ġ163":12748,"Ġconsiderations":12749,"Ġpredecess":12750,"Ġparticipating":12751,"ĠElectronic":12752,"Ġrefusing":12753,"Ġcontacts":12754,"LAB":12755,"ĠExpress":12756,"Ġburg":12757,"nnett":12758,"iers":12759,"Ġsubchapter":12760,"compliance":12761,"uters":12762,"uild":12763,"HO":12764,"column":12765,"xo":12766,"ENSES":12767,"ĠTRA":12768,"Har":12769,"My":12770,"Ġsometimes":12771,"ANE":12772,"istence":12773,"Ġmanufacturing":12774,"ĠBer":12775,"289":12776,"Ġevaluating":12777,"356":12778,"ĠEM":12779,"Ġq":12780,"hamph":12781,"Ġwaters":12782,"à¡":12783,"XP":12784,"Ġhypothe":12785,"Ã½u":12786,"pD":12787,"ĠJeffrey":12788,"ÐĴ":12789,"transfer":12790,"Ġstriking":12791,"fin":12792,"BD":12793,"Ġrevision":12794,"exerc":12795,"332":12796,"uess":12797,"Ġdup":12798,"297":12799,"contro":12800,"cella":12801,"ITNESS":12802,"Ġsetoff":12803,"Ġheat":12804,"danger":12805,"llins":12806,"COMPLAINT":12807,"Ġextraordinary":12808,"Ġseem":12809,"ÅłÅł":12810,"WHEREFORE":12811,"ĠFound":12812,"cd":12813,"AKH":12814,"Ġfriends":12815,"vet":12816,"Ġaffecting":12817,"ï¶":12818,"Party":12819,"degree":12820,"Ġ509":12821,"keeping":12822,"Jose":12823,"Medical":12824,"petitioner":12825,"mod":12826,"Ġposes":12827,"ĠTro":12828,"338":12829,"ambling":12830,"ATA":12831,"contingent":12832,"Ġviolating":12833,"ĠAVERAGE":12834,"ĠFOUR":12835,"ĠSHE":12836,"Ġ182":12837,"ï¿½ï¿½âĢİ":12838,"ÃĲM":12839,"cas":12840,"rra":12841,"348":12842,"444":12843,"Ã©Ã©":12844,"Ġhundred":12845,"nia":12846,"ZIP":12847,"haw":12848,"ĠBrad":12849,"ĠSPOUSE":12850,"ASES":12851,"Ġproven":12852,"Ġindifference":12853,"386":12854,"ĠBUS":12855,"ĠAnnual":12856,"plea":12857,"ULL":12858,"Ġopened":12859,"failure":12860,"ĠFacts":12861,"Ġspons":12862,"Ġclothing":12863,"Ġtips":12864,"lfare":12865,"Ġimportance":12866,"Ġinternet":12867,"ultip":12868,"Ġ\"[":12869,"Ġ______________":12870,"Ġhighest":12871,"Ġ188":12872,"ĠPrem":12873,"alleges":12874,"ĠStephen":12875,"Ġdeceased":12876,"ching":12877,"Ġ299":12878,"âĢ¦âĢŀ":12879,"Ġpet":12880,"settled":12881,"Ã¿m":12882,"Ġ375":12883,"Ġgir":12884,"ifteen":12885,"vereign":12886,"339":12887,"466":12888,"Ġoffe":12889,"Summarize":12890,"Ġelsewhere":12891,"Ġ510":12892,"ruit":12893,"ĠDIR":12894,"ĠBalance":12895,"ĠFBI":12896,"Ġ249":12897,"ĠLTD":12898,"utr":12899,"Ġvacation":12900,"receive":12901,"Ġbirth":12902,"Ġannounced":12903,"Ġpassenger":12904,"äĮ":12905,"ĠCarter":12906,"Taxpayer":12907,"âĨ":12908,"Donald":12909,"Di":12910,"Unexpired":12911,"Ġ327":12912,"ĠNetwork":12913,"ĠSpe":12914,"Ġelectric":12915,"Ġsituations":12916,"Ġarbitrary":12917,"Ġmale":12918,"ĠAffiliate":12919,"ĠHEALTH":12920,"ĠAward":12921,"licant":12922,"Ö¿":12923,"Ġexplaining":12924,"hreats":12925,"Ġacceptable":12926,"480":12927,"ĠComplete":12928,"failed":12929,"workers":12930,"ĠShort":12931,"ĠSETT":12932,"ĠSummons":12933,"Ã¿Ã¤":12934,"Ġthreats":12935,"ĠNET":12936,"LÅ½":12937,"ĠOwner":12938,"ë¾":12939,"Ġschools":12940,"esult":12941,"Ġformed":12942,"ĠPractice":12943,"Ġcorrespondence":12944,"ĠPhil":12945,"()":12946,"407":12947,"èĪ":12948,"Ðŀ":12949,"âĢŀâĢļ":12950,"Ġwarning":12951,"Ġbench":12952,"Ġreserve":12953,"555":12954,"doing":12955,"Ġadding":12956,"ĠStay":12957,"ĠInstitute":12958,"Ġ172":12959,"Therefore":12960,"rb":12961,"Ġcompetitive":12962,"Ġtempe":12963,"ĠSUPPORT":12964,"ĠHunt":12965,"Ġ______________________________":12966,"result":12967,"Ġbanc":12968,"Ġseque":12969,"Ġfurnished":12970,"Ġ239":12971,"Ġ186":12972,"Ġdifferences":12973,"remo":12974,"ĠCat":12975,"ĠLau":12976,"qualified":12977,"ENTER":12978,"tonio":12979,"ĠÃĬ":12980,"[_":12981,"aF":12982,"ÃĵN":12983,"oulder":12984,"Information":12985,"hamphetamine":12986,"ĠStud":12987,"Ġmid":12988,"Â°âĢļ":12989,"Ġsworn":12990,"isal":12991,"missible":12992,"ĠHighway":12993,"MD":12994,"Ġdeparture":12995,"Ġ317":12996,"Ġcore":12997,"criminal":12998,"feet":12999,"Ġscree":13000,"ĠMississippi":13001,"Ġstab":13002,"Ġ297":13003,".](/":13004,"ĠGuard":13005,"850":13006,"connection":13007,"Ġhel":13008,"460":13009,"Ġconfront":13010,"370":13011,"ULT":13012,"Ã¿a":13013,"403":13014,"ĠBd":13015,"while":13016,"283":13017,"Ġ430":13018,"Ġcompensat":13019,"RX":13020,"Ġappearing":13021,"Ġ1973":13022,"ĠREPOR":13023,"ĠWhich":13024,";'":13025,"Ġfigure":13026,"ntire":13027,"uo":13028,"otat":13029,"inj":13030,"Ġ171":13031,"ĠProduct":13032,"Ġspoke":13033,"itution":13034,"Ġpermitting":13035,"rio":13036,"ĠThrough":13037,"ïµ":13038,"ÃŁÃ«":13039,"certificate":13040,"ĠRED":13041,"Ġrulings":13042,"ĠRecognition":13043,"507":13044,"ĠGoogle":13045,"äĨ":13046,"Ġtrier":13047,"Ġcompensate":13048,"Ġrequisite":13049,"Ã¿Ãĺ":13050,";#":13051,"Ġpresentation":13052,"ĠCONSUMER":13053,"stone":13054,"\"=":13055,"Ġadjusted":13056,"VIRON":13057,"Ġawards":13058,"Ġ552":13059,"LLC":13060,"Ġvet":13061,"Ġ195":13062,"Ġintelli":13063,"ĠFranklin":13064,"ĠCorporate":13065,"Ġinvestments":13066,"URES":13067,"cases":13068,"ĠÃ¢":13069,"Ġsubmitting":13070,"employer":13071,"fire":13072,"ĠCOVID":13073,"ilies":13074,"Rese":13075,"power":13076,"Ġconsul":13077,"except":13078,"477":13079,"ĠBan":13080,"COURT":13081,"Ġuntimely":13082,"èĮ":13083,"Ġunusual":13084,"Ġsuspicion":13085,"Äŀ":13086,"ĠSUBTOTAL":13087,"Ġfinally":13088,"Ġ173":13089,"!#":13090,"ĠCru":13091,"itors":13092,"Ġprocesses":13093,"Ã¿O":13094,"irk":13095,"UC":13096,"Ġplay":13097,"ĊČĠĠĠĠĠĠĠĠĠĠĠĠĠĠĠĠĠĠĠĠĠĠĠĠĠĠĠĠĠĠĠĠ":13098,"Ġpollution":13099,"effect":13100,"ÃĪA":13101,"quez":13102,"ĠFindings":13103,"Ġrelying":13104,"HB":13105,"********":13106,"ĠMoney":13107,"Ġ217":13108,"Ã»k":13109,"Conf":13110,"entire":13111,"Ġcorresponding":13112,"Ġilleg":13113,"tre":13114,"umulative":13115,"Ġbargaining":13116,"ĠSECURED":13117,"ĠSA":13118,"Ġascertain":13119,"scriptions":13120,"product":13121,"ilot":13122,"Ġsubmits":13123,"Ġ505":13124,"ĠDEDU":13125,"Ġrestrictive":13126,"pping":13127,"Ġrecommen":13128,"cting":13129,"minating":13130,"ĠAppearance":13131,"iously":13132,"ĠVE":13133,"ifting":13134,"ïº":13135,"Ġquick":13136,"gniz":13137,"Ġ319":13138,"make":13139,"arison":13140,"Ġplausible":13141,"Ã»K":13142,"desig":13143,"Ã¿z":13144,"briefing":13145,"ãĲ":13146,"Ġconnected":13147,",&":13148,"365":13149,"Ïİ":13150,"490":13151,"otate":13152,"251":13153,"Ġ218":13154,"Ġinvention":13155,"341":13156,"Ġupdate":13157,"366":13158,"ĠNelson":13159,"[.]":13160,"Ġobjectives":13161,"Ġ276":13162,"Ġcounterclaims":13163,"ĠMarshall":13164,"Ġmisrepresentation":13165,"Ġhac":13166,"esee":13167,"ĠTERMIN":13168,"Commonwealth":13169,"Ãĵi":13170,"Ġroute":13171,"î¿":13172,"æī":13173,"!\"":13174,"prises":13175,"Ġrevenues":13176,"MOTION":13177,"1977":13178,"Ġfraudulently":13179,"separate":13180,"ĠBooks":13181,"identified":13182,"Employe":13183,"Ġcorporations":13184,"Ġpossessed":13185,"hapters":13186,"Ġinappropriate":13187,"Ã¾Ãĥ":13188,"trust":13189,"Ġcomplicated":13190,"Ġ841":13191,"Ġdic":13192,"Ġincreases":13193,"ĠTenn":13194,"Ġemphasize":13195,"Å½Å¡":13196,"Ġremainder":13197,"ĠBIA":13198,"Ġherself":13199,"ë½":13200,"Ġarmed":13201,"Ġprevailing":13202,"ĠRemo":13203,"provides":13204,"Subject":13205,":/":13206,"~âĢĶ":13207,"Ġlessee":13208,"ECTIVE":13209,"ĠWE":13210,"Ġ174":13211,"TORY":13212,"ĊČĊĊ":13213,"cash":13214,"272":13215,"Ġpractical":13216,"Ġretail":13217,"ĠGovernmental":13218,"gt":13219,"Ġhope":13220,"áĦĳáĦĳ":13221,"ĠGROUP":13222,"gregating":13223,"Ġhttps":13224,"Ġ341":13225,"Ġnoting":13226,"ÃŁÃ¯":13227,"Ġmodifications":13228,"038":13229,"ĠExhibits":13230,"ĠBio":13231,"ĠÃĪ":13232,"utral":13233,"ĠRichards":13234,"nstruction":13235,"LO":13236,"MV":13237,"vile":13238,"Ġimmigration":13239,"JW":13240,"Ġball":13241,"ĠDeath":13242,"Ġannually":13243,"Ġdigital":13244,"ÃłÆĴ":13245,"Brief":13246,"ĠPhillips":13247,"ĠNich":13248,"patient":13249,"ĠOpp":13250,"510":13251,"Emphasis":13252,"Ġ194":13253,"ĠOak":13254,"Mag":13255,"Ġchief":13256,"Ġevaluated":13257,"Ġ196":13258,"Ġpartnerships":13259,"Ġapprec":13260,"ĠRELIEF":13261,"Ġ228":13262,"ZI":13263,"ĠWILLIAM":13264,"ÃĦG":13265,"Ġelecte":13266,"Ïį":13267,"Ġplat":13268,"Ġ275":13269,"Ġelected":13270,"nning":13271,"Ġfrequently":13272,"Ã¶Ã½":13273,"ĠCAUSE":13274,"Ġsmo":13275,"ĠDR":13276,"KS":13277,"ÃµÃ¯":13278,"Ġ499":13279,"Ġabandoned":13280,"arrison":13281,"activities":13282,"Ġprobative":13283,"INESS":13284,"Ġnotwithstanding":13285,"ĠLet":13286,"337":13287,"ãµ":13288,"ĠProfessional":13289,"Ġbringing":13290,"ĠAgreements":13291,"ĠFDIC":13292,"Ġseverance":13293,"ĠFY":13294,"Ġinsert":13295,"Ã¿u":13296,"ĠEquipment":13297,"viation":13298,"Ġreliable":13299,"dem":13300,"instruction":13301,"Â»Â»":13302,"ĠJOINT":13303,"ĠPos":13304,"ĠLawrence":13305,"Ġhappens":13306,"CONCLUSION":13307,"ĠRFC":13308,"Åĵp":13309,"Ġdesignate":13310,"Ġsens":13311,"Ġcommonwealth":13312,"Ġsanction":13313,"Deducting":13314,"349":13315,"Ġregion":13316,"Ġmarkets":13317,"ĠSr":13318,"ÂºÃ½":13319,"âĢ¦âĢł":13320,"mpte":13321,"ĠRho":13322,"coln":13323,"dorse":13324,"Ġreadily":13325,"Ġmaiden":13326,"Ġtree":13327,"ĠInventory":13328,"Ġmoves":13329,"Ġsquare":13330,"Ġ183":13331,"TL":13332,"Ġ512":13333,"Social":13334,"Ġreorganization":13335,"last":13336,"ICTION":13337,"rins":13338,"OMAS":13339,"ĠBond":13340,"Ġspeed":13341,"Ġimprovement":13342,"ĠHenry":13343,"ĠDesign":13344,"äĪ":13345,"347":13346,"ÃļÃ½":13347,"ĠSTILL":13348,"unable":13349,"South":13350,"ras":13351,"acts":13352,"hD":13353,"ĠKentucky":13354,"Ġrestra":13355,"ĠProcedures":13356,"Ġcoll":13357,"ĠAUTH":13358,"QH":13359,"ĠCommunications":13360,"&Ëľ":13361,"ĠKan":13362,"ËĨÅł":13363,"Ġlearn":13364,"pl":13365,"ĠCODEBTOR":13366,"ĠTow":13367,"extra":13368,"ĠRegional":13369,"obiles":13370,"Ġhourly":13371,"SN":13372,"Ġ407":13373,"ï£":13374,"Ã¾ÃĴ":13375,"VIRONMENTAL":13376,"Ġbills":13377,"292":13378,"Ġ232":13379,"yalty":13380,"uge":13381,"MINAL":13382,"oph":13383,"icata":13384,"357":13385,"Ġtransport":13386,"client":13387,"ĠWithdraw":13388,"Ġincen":13389,"iliation":13390,"school":13391,"Ġforesee":13392,"cellaneous":13393,"belie":13394,"ÂŃÂŃ":13395,"Ġnarcot":13396,"File":13397,"Ġhire":13398,"Ġvacc":13399,"Ġkinds":13400,"358":13401,"Ġtown":13402,"besto":13403,"ĠSeventh":13404,"determine":13405,"Ġadjour":13406,"Ġsubjecte":13407,"bd":13408,"Ġpoor":13409,"Ġsubjected":13410,"ĠCLASS":13411,"Ġfeatures":13412,"ĠPlaza":13413,"Ġbroker":13414,"ĠFormer":13415,"Ġdeems":13416,"GAL":13417,"ĠOFFIC":13418,"ĠShares":13419,"Ġprevail":13420,"ĠDefault":13421,"ĠMus":13422,"actual":13423,"ibles":13424,"ĠRidge":13425,"onest":13426,"Ġsuccessors":13427,"prom":13428,"%,":13429,"Ġneigh":13430,"DRA":13431,"Ġdamaged":13432,"Ġfarmer":13433,"Ġengine":13434,"Ġ425":13435,"Ġ181":13436,"Ġep":13437,"Ġrailroad":13438,"ĠAmo":13439,"ĠCast":13440,"Ġreplacement":13441,"Ġconsc":13442,"imor":13443,"-,":13444,"Ġreversal":13445,"ĠAtty":13446,"imon":13447,"Ġoccurring":13448,"Ġtask":13449,"estate":13450,"ĠBru":13451,"ĠHEAR":13452,"ngers":13453,"ĠUtilities":13454,"Ġinterim":13455,"regulations":13456,"william":13457,"ĠSullivan":13458,"Ġdiscussions":13459,"ĠDeposition":13460,"Ġirrep":13461,"ĠLines":13462,"Partnership":13463,"ĠCERT":13464,"Ġgenerated":13465,"wÃ¿":13466,"ĠFri":13467,"Ġshared":13468,"Ġeliminate":13469,"Ġlay":13470,"Ġ554":13471,"ĠTj":13472,"ìĬ":13473,"ĠEnglish":13474,"ĠDOCU":13475,"$____________":13476,"nathan":13477,"HIP":13478,"ĠDefender":13479,"Ġcontamination":13480,"PËĨ":13481,"Ġprevente":13482,"ĠStar":13483,"AGEMENT":13484,"Ġcli":13485,"ĠPoint":13486,"ĠStewart":13487,"ĠLopez":13488,"tail":13489,"Ġtwice":13490,"398":13491,"Ġvete":13492,"ĠDespite":13493,"obligations":13494,"nable":13495,"mentally":13496,"ĠJurisdiction":13497,"Ġunauthorized":13498,"Our":13499,"YES":13500,"è¢Īè¢Ī":13501,"Ġconsiders":13502,"ĠLoss":13503,"ĠHouston":13504,"ĠAttachment":13505,"denied":13506,"Ġconceal":13507,"Ġnorm":13508,"Ġcru":13509,"$</":13510,"ĠTimely":13511,"æĩ":13512,"Gross":13513,"Ġpresumed":13514,"Ġpsychiat":13515,"ĠServicer":13516,"Ġconsolidation":13517,"stra":13518,"ashion":13519,"395":13520,"Ġ187":13521,"Ġdisplay":13522,"ç¾":13523,"asure":13524,"Îı":13525,"CTIONS":13526,"IFE":13527,"Ġprevented":13528,"Ġtechni":13529,"Ġinability":13530,"Penalty":13531,"Ã«Ã¯":13532,"ĠPAT":13533,"Ġtherapy":13534,"Ġ231":13535,"Ġinfer":13536,"èĴ":13537,"294":13538,"Â¦Ëľ":13539,"ĠREAL":13540,"Ġcontentions":13541,"HY":13542,"udgeting":13543,"Paid":13544,"áĨ":13545,"Ġarm":13546,"Johnson":13547,"ĠLandlord":13548,"AVE":13549,"ÃĪÃł":13550,"ĠCampbell":13551,"Ġimprovements":13552,"ĠBern":13553,"ĠEmail":13554,"Ġparte":13555,"Ġviews":13556,"Ġsuccessfully":13557,"Ġ266":13558,"âĢ¡)":13559,"Â°âĢŀ":13560,"lanta":13561,"ĠTHERE":13562,"ĠFace":13563,"Administrative":13564,"ï¹":13565,"Ġtotals":13566,"950":13567,"ĠÃ¡":13568,"Ġ368":13569,"Jan":13570,"concerning":13571,"ĠBranch":13572,"ĠPartner":13573,"Ġ363":13574,"Ġcredited":13575,"Ġ336":13576,"(&":13577,"tti":13578,"VV":13579,"áĤ":13580,"Âµm":13581,"Ġchannel":13582,"ĠBryan":13583,"ĠAgainst":13584,"mpted":13585,"sten":13586,"Bc":13587,"SW":13588,"1111":13589,"áĩ":13590,"GER":13591,"ĠHE":13592,"roper":13593,"Ġwithdrawal":13594,"FN":13595,"385":13596,"à£":13597,"ĊČĠĠĠĠĠĠĠĠĠĠĠĠĠĠĠĠĠĠĠĠĠĠĠĠĠĠĠĠĠĠĠĠĠ":13598,"mentioned":13599,"ÂªÂª":13600,"Ġcleaning":13601,"ignatures":13602,"390":13603,"cSet":13604,"*.":13605,"FP":13606,"ProcSet":13607,"proceedings":13608,"JJ":13609,"uen":13610,"Totals":13611,"rances":13612,"Ġdeposited":13613,"requirements":13614,"Ã»Ãº":13615,"ĠGib":13616,"imore":13617,"Lr":13618,"ITAL":13619,"ocational":13620,"Ġ247":13621,"ZM":13622,"Checking":13623,"Mich":13624,"ĠHy":13625,"ĠLIABILITIES":13626,"strong":13627,"ĠLevel":13628,"ĠMonta":13629,"ĠHay":13630,"ĠADDRESSES":13631,"iser":13632,"Ġaccord":13633,"056":13634,"Ġstress":13635,"ĠDeposit":13636,"Ġgrowing":13637,"BÅ½":13638,"420":13639,"Ġincidents":13640,"ÃļV":13641,"Ã¿Ã¿Ã¿Ã¿Ã¿Ã¿Ã¿":13642,"Ġimposing":13643,"Ġtwelve":13644,"Ġderivative":13645,"Ġsubjective":13646,"kÃ½":13647,"ÅłÅ¡":13648,"273":13649,"Signed":13650,"ĠBea":13651,"ludes":13652,"ĠPreliminary":13653,"CLOSURE":13654,"486":13655,"fl":13656,"ĠWorkers":13657,"îĢ":13658,"ricia":13659,"Ġiso":13660,"ĠLead":13661,"OUGH":13662,"Ġphotographs":13663,"456":13664,"Time":13665,"Single":13666,"thy":13667,"CERTIFICATION":13668,"ãł":13669,"ĠED":13670,"ĠScience":13671,"hel":13672,"Ġ411":13673,"Ġsuccesso":13674,"ĠMetro":13675,"oods":13676,"Ġsuccessor":13677,"Ġpromise":13678,"oÃ½":13679,"bara":13680,"Ġcreating":13681,"ittal":13682,"*)":13683,"access":13684,"Ġorganized":13685,"ordinarily":13686,"Ġincarcerated":13687,"born":13688,"æĨ":13689,"Ġ192":13690,"ĠBackground":13691,"Ġimposes":13692,"Ġmaster":13693,"Ġparticipan":13694,"adline":13695,"âĪ¢âĪ¢":13696,"Ġnewly":13697,"Ġparticipant":13698,"Ġze":13699,"Ġshop":13700,"NOW":13701,"ourteen":13702,"Ġutilize":13703,"ÃŁÃµ":13704,"House":13705,"ĠCRI":13706,"Third":13707,"Ġcompleting":13708,"MARK":13709,"262":13710,"ĠHAR":13711,"cupation":13712,"ĠHand":13713,"ÃĪÅ½":13714,"diment":13715,"Ġconclusory":13716,"Ġappropri":13717,"QJ":13718,"taneous":13719,"Ð¢":13720,"istic":13721,"ĠKevin":13722,"Ġsenior":13723,"Stan":13724,"Ġstolen":13725,"Ġinforma":13726,"GDtGDt":13727,"Ġ221":13728,"à°":13729,"ambiguous":13730,"Ġ325":13731,"ĠCollege":13732,"Ġfut":13733,"ĠASSOCI":13734,"ERC":13735,"Ġsuitable":13736,"Ġsile":13737,"Ġfirearms":13738,"011":13739,"Ġcommente":13740,"ĠDistribution":13741,"PLOY":13742,"Ġissuing":13743,"Ġimplemente":13744,"XB":13745,"ĠRyan":13746,"ĠLiquidation":13747,"mun":13748,"ÃĩÃ¿":13749,"LH":13750,"Ġvirtue":13751,"ĠUnless":13752,"ÂŃ/":13753,"Ã¾Ãµ":13754,"Ġmeant":13755,"LT":13756,"Ġraising":13757,"ĠYa":13758,"Ġpreparers":13759,"IGNMENT":13760,"motions":13761,"775":13762,"FB":13763,"Ġindee":13764,"ĠTurner":13765,"chez":13766,"Ġindeed":13767,"ĠEric":13768,"ĠNV":13769,"æ©":13770,"Ġqualifying":13771,"Ġimplemented":13772,"Crop":13773,"Ġ193":13774,"otiable":13775,"Ġundue":13776,"ĠParker":13777,"Ġincentive":13778,"ĠRespondents":13779,"benefits":13780,"Ġbattery":13781,"ĠEmergency":13782,"Ġheart":13783,"Ġmanufactured":13784,"ĠMED":13785,"ĠPatrick":13786,"Ġsat":13787,"Ã¯Ãº":13788,"ĠDISMISSED":13789,"ĠCorps":13790,"Ġpicture":13791,"ĠMake":13792,"Card":13793,"conte":13794,"Ġ412":13795,"gel":13796,"388":13797,"ĠConnecticut":13798,"Ġexposed":13799,"396":13800,"VIN":13801,"Ã´Ã¿":13802,"Ġdeduction":13803,"ISD":13804,"ĠWhy":13805,"bc":13806,"Ġforty":13807,"âĢļ\"":13808,"Ġexclus":13809,"Ġassumption":13810,"048":13811,"ĠMontgomery":13812,"Ġliberty":13813,"Ġmic":13814,"âĢŀ]":13815,"ÅĴr":13816,"\"\"\"\"\"\"\"\"\"\"\"\"\"\"\"\"":13817,"@@":13818,"ĠSCHEDULES":13819,"NP":13820,"responsible":13821,"ĠComments":13822,"Ġpurchaser":13823,"ĠVer":13824,"ĠBel":13825,"OLD":13826,"ĠGary":13827,"issues":13828,"kota":13829,"ÃĴn":13830,"äĳĦäĳĦ":13831,"Ġdeference":13832,"Ã»i":13833,"446":13834,"Å½ÆĴ":13835,"response":13836,"ĠWy":13837,"Ġliqu":13838,"ĠEuro":13839,"369":13840,"Ut":13841,"ĠBrook":13842,"ĠRegistration":13843,"Ġrespects":13844,"ĠPhys":13845,"Ã·ÃĹ":13846,"Ġprivileges":13847,"Ã¤Åĵ":13848,"ĠDea":13849,"Ġbrings":13850,"äĩ":13851,"siding":13852,"379":13853,"Ġcausation":13854,"uso":13855,"athy":13856,"Ġfemale":13857,"ĠImmigration":13858,"ĠSUBCHAPTER":13859,"facts":13860,"Ġteste":13861,"ĠMC":13862,"servations":13863,"ughe":13864,"Ġsovereign":13865,"nnell":13866,"former":13867,"æĿ":13868,"389":13869,"IGHT":13870,"BUR":13871,"Rotate":13872,"ocat":13873,"Ġdeveloping":13874,"ĠObjections":13875,"nsity":13876,"PÃĤ":13877,"ĠUSE":13878,"ÃĵÃ¿":13879,"bestos":13880,"Ġarbitrator":13881,"Ġcircumstance":13882,"Ġ520":13883,"Ġambiguous":13884,"owners":13885,"Ġterro":13886,"271":13887,"Ġrepos":13888,"Ġoutweigh":13889,"Black":13890,"MINISTR":13891,"ĠONE":13892,"ĠHac":13893,"Ġenterprise":13894,"Ġrenter":13895,"loom":13896,"Ġpounds":13897,"Ġcess":13898,"ĠVic":13899,"497":13900,"ĠTOTAL":13901,"NM":13902,"Ġ701":13903,"Ġfired":13904,"ĠPatents":13905,"#Â¡":13906,"ĠCost":13907,"261":13908,"ECURITY":13909,"ĠCarl":13910,"ĠJURY":13911,"Ġchose":13912,"Illinois":13913,"ferential":13914,"Ġmass":13915,"Ġdesire":13916,"LW":13917,"ĠCORP":13918,"ĠRetirement":13919,"ĠCollins":13920,"ĠAmendments":13921,"nim":13922,"Â¶âĢĻ":13923,"Ġexecute":13924,"mu":13925,"ĠCounseling":13926,"ĠGross":13927,"Ġcomparable":13928,"Ġmutual":13929,"ĠSem":13930,"Ġwelfare":13931,"#Â¢:":13932,"mento":13933,"ĠEntity":13934,"äħ":13935,"Ġbrother":13936,"ĠLitig":13937,"Ġexcluding":13938,"ease":13939,"Ġ191":13940,"BILL":13941,"xtures":13942,"Ġ334":13943,"ĠLIEN":13944,"Ġnonpriority":13945,"Ġsecondary":13946,"Ġrecovered":13947,"Ġdemonstrating":13948,"inery":13949,"spacing":13950,"ĠENTITLED":13951,"ĠVen":13952,"Ġreaching":13953,"âĢ¹Â£":13954,"Ġdissent":13955,"Ġarticles":13956,"Ġ406":13957,"Ġcharging":13958,"Ġsupposed":13959,"Term":13960,"Ã«Ãµ":13961,"ĠPenal":13962,".'\"":13963,"Ã½z":13964,"aign":13965,"470":13966,"Ġslight":13967,"Ġkeeping":13968,"Â©âĢŀ":13969,"Ġprecluded":13970,"itter":13971,"specified":13972,"btedness":13973,"Ġtowards":13974,"Since":13975,"Ġ260":13976,"Ġ424":13977,"ĠOriginal":13978,"ĠVillage":13979,"ricts":13980,"Ġmeaningful":13981,"Ġ1969":13982,"real":13983,"377":13984,"TERS":13985,"Ġdistance":13986,"ĠFA":13987,"OÃ¿":13988,"ORDERED":13989,"ĠTenant":13990,"âĢłâĢŀ":13991,"Statement":13992,"ĠHernandez":13993,"ĠClothing":13994,"ÅĴÅ½":13995,"ËĨËĨËĨËĨËĨËĨ":13996,"Ġdescribes":13997,"Ġunlawfully":13998,"368":13999,"469":14000,"èĵ":14001,"ĠExpert":14002,"ĠPanel":14003,"ĠJaco":14004,"Ġdisabilities":14005,"Ġ549":14006,"nit":14007,"ĠArkansas":14008,"079":14009,"ĠMAILING":14010,"unk":14011,"compete":14012,"ĠPut":14013,"Ġ610":14014,"Daniel":14015,"046":14016,"Ġ360":14017,"ĠNOTES":14018,"âĺĲ":14019,"ivat":14020,"ĠInstall":14021,"ï¿½ï¿½ï¿½ï¿½ï¿½ï¿½ï¿½ï¿½ï¿½ï¿½ï¿½ï¿½ï¿½ï¿½ï¿½ï¿½":14022,"oa":14023,"Ġrealizing":14024,"Ġorigin":14025,"Ġ924":14026,"need":14027,"520":14028,"Ġstruck":14029,"described":14030,"ĠFINAL":14031,"ÃĺM":14032,"ÃºM":14033,"1975":14034,"Ġcessation":14035,"Ġscr":14036,"dictions":14037,"Ġwithheld":14038,"ĠInf":14039,"Ġ448":14040,"eference":14041,"REG":14042,"Ġcompri":14043,"staurant":14044,"Ñį":14045,"Ġtow":14046,"GOVERNMENTAL":14047,"Ġversus":14048,"ÃŁÃŃ":14049,"zen":14050,"Ġcounterclaim":14051,"Ġrecognition":14052,"773":14053,"cooperative":14054,"NITY":14055,"Ġconflicts":14056,"Port":14057,"Ġ1972":14058,"Ġbeneficiaries":14059,"VC":14060,"Dp":14061,"Ġgift":14062,"Ġidea":14063,"ĠStatutes":14064,"]/":14065,"Geo":14066,"Ġchemicals":14067,"lc":14068,"Â¶âĢĵ":14069,"ĉč":14070,"Ġdefine":14071,"Ġsorry":14072,"Ġhandling":14073,"security":14074,"Ġavoidance":14075,"Ġfifteen":14076,"Ġdirecting":14077,"Ġrefuse":14078,"ĠTA":14079,"conditions":14080,"ÃģB":14081,"ivate":14082,"Ġlitigat":14083,"rev":14084,"disp":14085,"Wat":14086,"Ġpool":14087,"Ġmeasured":14088,"CAP":14089,";(":14090,"veloped":14091,"Ġcreates":14092,"Ġ323":14093,"exec":14094,"Ġ435":14095,"387":14096,"consiste":14097,"Ġconsecutive":14098,"ĠÂ¨":14099,"Ġnecessity":14100,"293":14101,"altimore":14102,"Ġ184":14103,"Ġreas":14104,"ĠCam":14105,"Ġ241":14106,"Creditos":14107,"')":14108,"reference":14109,"amin":14110,"Ġlitigate":14111,"}/":14112,"Ġ315":14113,"TRY":14114,"282":14115,"cular":14116,"eation":14117,"ĠNevertheless":14118,"ĠBran":14119,"Ġcountries":14120,"Ġliquid":14121,"Ġtrigger":14122,"rthur":14123,"479":14124,"ĠHlding":14125,"ĊČĠĠĠĠĠĠĠĠĠĠĠĠĠĠĠĠĠĠĠĠĠĠĠĠĠĠĠĠĠĠĠĠĠĠ":14126,"Ġformerly":14127,"ĠDEPOS":14128,"Ġenforceable":14129,"Ġlarger":14130,"hips":14131,
[...]
