{
  "version": "1.0",
  "truncation": null,
  "padding": {
    "strategy": "BatchLongest",
    "direction": "Left",
    "pad_to_multiple_of": null,
    "pad_id": 2,
    "pad_type_id": 0,
    "pad_token": "<|pad|>"
  },
  "added_tokens": [
    {
      "id": 0,
      "content": "<|start|>",
      "single_word": false,
      "lstrip": false,
      "rstrip": false,
      "normalized": false,
      "special": true
    },
    {
      "id": 1,
      "content": "<|end|>",
      "single_word": false,
      "lstrip": false,
      "rstrip": false,
      "normalized": false,
      "special": true
    },
    {
      "id": 2,
      "content": "<|pad|>",
      "single_word": false,
      "lstrip": false,
      "rstrip": false,
      "normalized": false,
      "special": true
    },
    {
      "id": 3,
      "content": "<|unk|>",
      "single_word": false,
      "lstrip": false,
      "rstrip": false,
      "normalized": false,
      "special": true
    },
    {
      "id": 4,
      "content": "<|sep|>",
      "single_word": false,
      "lstrip": false,
      "rstrip": false,
      "normalized": false,
      "special": true
    },
    {
      "id": 5,
      "content": "<|cls|>",
      "single_word": false,
      "lstrip": false,
      "rstrip": false,
      "normalized": false,
      "special": true
    },
    {
      "id": 6,
      "content": "<|mask|>",
      "single_word": false,
      "lstrip": false,
      "rstrip": false,
      "normalized": false,
      "special": true
    },
    {
      "id": 7,
      "content": "<|system|>",
      "single_word": false,
      "lstrip": false,
      "rstrip": false,
      "normalized": false,
      "special": true
    },
    {
      "id": 8,
      "content": "</|system|>",
      "single_word": false,
      "lstrip": false,
      "rstrip": false,
      "normalized": false,
      "special": true
    },
    {
      "id": 9,
      "content": "<|user|>",
      "single_word": false,
      "lstrip": false,
      "rstrip": false,
      "normalized": false,
      "special": true
    },
    {
      "id": 10,
      "content": "</|user|>",
      "single_word": false,
      "lstrip": false,
      "rstrip": false,
      "normalized": false,
      "special": true
    },
    {
      "id": 11,
      "content": "<|instruction|>",
      "single_word": false,
      "lstrip": false,
      "rstrip": false,
      "normalized": false,
      "special": true
    },
    {
      "id": 12,
      "content": "</|instruction|>",
      "single_word": false,
      "lstrip": false,
      "rstrip": false,
      "normalized": false,
      "special": true
    },
    {
      "id": 4083,
      "content": "  ",
      "single_word": false,
      "lstrip": false,
      "rstrip": false,
      "normalized": true,
      "special": false
    },
    {
      "id": 4084,
      "content": "\n\n",
      "single_word": false,
      "lstrip": false,
      "rstrip": false,
      "normalized": true,
      "special": false
    },
    {
      "id": 4085,
      "content": "   ",
      "single_word": false,
      "lstrip": false,
      "rstrip": false,
      "normalized": true,
      "special": false
    },
    {
      "id": 4086,
      "content": "\n\n\n",
      "single_word": false,
      "lstrip": false,
      "rstrip": false,
      "normalized": true,
      "special": false
    },
    {
      "id": 4087,
      "content": "    ",
      "single_word": false,
      "lstrip": false,
      "rstrip": false,
      "normalized": true,
      "special": false
    },
    {
      "id": 4088,
      "content": "\n\n\n\n",
      "single_word": false,
      "lstrip": false,
      "rstrip": false,
      "normalized": true,
      "special": false
    },
    {
      "id": 4089,
      "content": "     ",
      "single_word": false,
      "lstrip": false,
      "rstrip": false,
      "normalized": true,
      "special": false
    },
    {
      "id": 4090,
      "content": "\n\n\n\n\n",
      "single_word": false,
      "lstrip": false,
      "rstrip": false,
      "normalized": true,
      "special": false
    },
    {
      "id": 4091,
      "content": "      ",
      "single_word": false,
      "lstrip": false,
      "rstrip": false,
      "normalized": true,
      "special": false
    },
    {
      "id": 4092,
      "content": "\n\n\n\n\n\n",
      "single_word": false,
      "lstrip": false,
      "rstrip": false,
      "normalized": true,
      "special": false
    },
    {
      "id": 4093,
      "content": "       ",
      "single_word": false,
      "lstrip": false,
      "rstrip": false,
      "normalized": true,
      "special": false
    },
    {
      "id": 4094,
      "content": "\n\n\n\n\n\n\n",
      "single_word": false,
      "lstrip": false,
      "rstrip": false,
      "normalized": true,
      "special": false
    },
    {
      "id": 4095,
      "content": "        ",
      "single_word": false,
      "lstrip": false,
      "rstrip": false,
      "normalized": true,
      "special": false
    }
  ],
  "normalizer": {
    "type": "Sequence",
    "normalizers": [
      {
        "type": "NFKC"
      }
    ]
  },
  "pre_tokenizer": {
    "type": "ByteLevel",
    "add_prefix_space": false,
    "trim_offsets": true,
    "use_regex": true
  },
  "post_processor": {
    "type": "ByteLevel",
    "add_prefix_space": true,
    "trim_offsets": false,
    "use_regex": true
  },
  "decoder": {
    "type": "ByteLevel",
    "add_prefix_space": true,
    "trim_offsets": true,
    "use_regex": true
  },
  "model": {
    "type": "BPE",
    "dropout": null,
    "unk_token": null,
    "continuing_subword_prefix": null,
    "end_of_word_suffix": null,
    "fuse_unk": false,
    "byte_fallback": false,
    "ignore_merges": false,
    "vocab": {
      "<|start|>": 0,
      "<|end|>": 1,
      "<|pad|>": 2,
      "<|unk|>": 3,
      "<|sep|>": 4,
      "<|cls|>": 5,
      "<|mask|>": 6,
      "<|system|>": 7,
      "</|system|>": 8,
      "<|user|>": 9,
      "</|user|>": 10,
      "<|instruction|>": 11,
      "</|instruction|>": 12,
      "\u0000": 13,
      "\u0001": 14,
      "\u0002": 15,
      "\u0003": 16,
      "\u0004": 17,
      "\u0005": 18,
      "\u0006": 19,
      "\u0007": 20,
      "\b": 21,
      "\t": 22,
      "\n": 23,
      "\u000b": 24,
      "\f": 25,
      "\r": 26,
      "\u000e": 27,
      "\u000f": 28,
      "\u0010": 29,
      "\u0011": 30,
      "\u0012": 31,
      "\u0013": 32,
      "\u0014": 33,
      "\u0015": 34,
      "\u0016": 35,
      "\u0017": 36,
      "\u0018": 37,
      "\u0019": 38,
      "\u001a": 39,
      "\u001b": 40,
      "\u001c": 41,
      "\u001d": 42,
      "\u001e": 43,
      "\u001f": 44,
      " ": 45,
      "!": 46,
      "\"": 47,
      "#": 48,
      "$": 49,
      "%": 50,
      "&": 51,
      "'": 52,
      "(": 53,
      ")": 54,
      "*": 55,
      "+": 56,
      ",": 57,
      "-": 58,
      ".": 59,
      "/": 60,
      "0": 61,
      "1": 62,
      "2": 63,
      "3": 64,
      "4": 65,
      "5": 66,
      "6": 67,
      "7": 68,
      "8": 69,
      "9": 70,
      ":": 71,
      ";": 72,
      "<": 73,
      "=": 74,
      ">": 75,
      "?": 76,
      "@": 77,
      "A": 78,
      "B": 79,
      "C": 80,
      "D": 81,
      "E": 82,
      "F": 83,
      "G": 84,
      "H": 85,
      "I": 86,
      "J": 87,
      "K": 88,
      "L": 89,
      "M": 90,
      "N": 91,
      "O": 92,
      "P": 93,
      "Q": 94,
      "R": 95,
      "S": 96,
      "T": 97,
      "U": 98,
      "V": 99,
      "W": 100,
      "X": 101,
      "Y": 102,
      "Z": 103,
      "[": 104,
      "\\": 105,
      "]": 106,
      "^": 107,
      "_": 108,
      "`": 109,
      "a": 110,
      "b": 111,
      "c": 112,
      "d": 113,
      "e": 114,
      "f": 115,
      "g": 116,
      "h": 117,
      "i": 118,
      "j": 119,
      "k": 120,
      "l": 121,
      "m": 122,
      "n": 123,
      "o": 124,
      "p": 125,
      "q": 126,
      "r": 127,
      "s": 128,
      "t": 129,
      "u": 130,
      "v": 131,
      "w": 132,
      "x": 133,
      "y": 134,
      "z": 135,
      "{": 136,
      "|": 137,
      "}": 138,
      "~": 139,
      "": 140,
      "": 141,
      "": 142,
      "": 143,
      "": 144,
      "": 145,
      "": 146,
      "": 147,
      "": 148,
      "": 149,
      "": 150,
      "": 151,
      "": 152,
      "": 153,
      "": 154,
      "": 155,
      "": 156,
      "": 157,
      "": 158,
      "": 159,
      "": 160,
      "": 161,
      "": 162,
      "": 163,
      "": 164,
      "": 165,
      "": 166,
      "": 167,
      "": 168,
      "": 169,
      "": 170,
      "": 171,
      "": 172,
      " ": 173,
      "¡": 174,
      "¢": 175,
      "£": 176,
      "¤": 177,
      "¥": 178,
      "¦": 179,
      "§": 180,
      "¨": 181,
      "©": 182,
      "ª": 183,
      "«": 184,
      "¬": 185,
      "­": 186,
      "®": 187,
      "¯": 188,
      "°": 189,
      "±": 190,
      "²": 191,
      "³": 192,
      "´": 193,
      "µ": 194,
      "¶": 195,
      "·": 196,
      "¸": 197,
      "¹": 198,
      "º": 199,
      "»": 200,
      "¼": 201,
      "½": 202,
      "¾": 203,
      "¿": 204,
      "À": 205,
      "Á": 206,
      "Â": 207,
      "Ã": 208,
      "Ä": 209,
      "Å": 210,
      "Æ": 211,
      "Ç": 212,
      "È": 213,
      "É": 214,
      "Ê": 215,
      "Ë": 216,
      "Ì": 217,
      "Í": 218,
      "Î": 219,
      "Ï": 220,
      "Ð": 221,
      "Ñ": 222,
      "Ò": 223,
      "Ó": 224,
      "Ô": 225,
      "Õ": 226,
      "Ö": 227,
      "×": 228,
      "Ø": 229,
      "Ù": 230,
      "Ú": 231,
      "Û": 232,
      "Ü": 233,
      "Ý": 234,
      "Þ": 235,
      "ß": 236,
      "à": 237,
      "á": 238,
      "â": 239,
      "ã": 240,
      "ä": 241,
      "å": 242,
      "æ": 243,
      "ç": 244,
      "è": 245,
      "é": 246,
      "ê": 247,
      "ë": 248,
      "ì": 249,
      "í": 250,
      "î": 251,
      "ï": 252,
      "ð": 253,
      "ñ": 254,
      "ò": 255,
      "ó": 256,
      "ô": 257,
      "õ": 258,
      "ö": 259,
      "÷": 260,
      "ø": 261,
      "ù": 262,
      "ú": 263,
      "û": 264,
      "ü": 265,
      "ý": 266,
      "þ": 267,
      "Ā": 268,
      "ā": 269,
      "Ă": 270,
      "ă": 271,
      "Ą": 272,
      "ą": 273,
      "Ć": 274,
      "ć": 275,
      "Ĉ": 276,
      "ĉ": 277,
      "Ċ": 278,
      "ċ": 279,
      "Č": 280,
      "č": 281,
      "Ď": 282,
      "ď": 283,
      "Đ": 284,
      "đ": 285,
      "Ē": 286,
      "ē": 287,
      "Ĕ": 288,
      "ĕ": 289,
      "Ė": 290,
      "ė": 291,
      "ę": 292,
      "Ě": 293,
      "ě": 294,
      "Ĝ": 295,
      "ĝ": 296,
      "Ğ": 297,
      "ğ": 298,
      "Ġ": 299,
      "ġ": 300,
      "Ģ": 301,
      "ģ": 302,
      "Ĥ": 303,
      "ĥ": 304,
      "Ħ": 305,
      "ħ": 306,
      "Ĩ": 307,
      "ĩ": 308,
      "Ī": 309,
      "ī": 310,
      "Ĭ": 311,
      "ĭ": 312,
      "Į": 313,
      "į": 314,
      "İ": 315,
      "ı": 316,
      "Ĳ": 317,
      "ĳ": 318,
      "Ĵ": 319,
      "ĵ": 320,
      "Ķ": 321,
      "ķ": 322,
      "ĸ": 323,
      "Ĺ": 324,
      "ĺ": 325,
      "Ļ": 326,
      "ļ": 327,
      "Ľ": 328,
      "ľ": 329,
      "Ŀ": 330,
      "ŀ": 331,
      "Ł": 332,
      "ł": 333,
      "Ń": 334,
      "ĠĠ": 335,
      "Ġt": 336,
      "Ġa": 337,
      "in": 338,
      "..": 339,
      "he": 340,
      "on": 341,
      "re": 342,
      "Ġo": 343,
      "er": 344,
      "ti": 345,
      "en": 346,
      "--": 347,
      "Ġs": 348,
      "or": 349,
      "ed": 350,
      "Ġp": 351,
      "es": 352,
      "Ġc": 353,
      "al": 354,
      "Ġof": 355,
      "at": 356,
      "is": 357,
      "an": 358,
      "Ġan": 359,
      "Ġin": 360,
      "it": 361,
      "Ġf": 362,
      "ar": 363,
      "Ġb": 364,
      "ing": 365,
      "Ġ1": 366,
      "ro": 367,
      "Ġw": 368,
      "ic": 369,
      "Ġto": 370,
      "ĠĊ": 371,
      "Ġd": 372,
      "ent": 373,
      "ec": 374,
      "Ġm": 375,
      "ati": 376,
      "Ġre": 377,
      "Ġ2": 378,
      "le": 379,
      "00": 380,
      "as": 381,
      "Ġ(": 382,
      "Ġe": 383,
      "ou": 384,
      "Ġth": 385,
      "âĢ": 386,
      "ĠS": 387,
      "ĠC": 388,
      "ĠA": 389,
      "om": 390,
      "Ġn": 391,
      "##": 392,
      "ce": 393,
      "ons": 394,
      "&#": 395,
      "il": 396,
      "Ġ.": 397,
      "Ġor": 398,
      "ve": 399,
      "st": 400,
      "Ġbe": 401,
      "ĠT": 402,
      "Ġl": 403,
      "Ġh": 404,
      "id": 405,
      "ur": 406,
      "__": 407,
      "Ġ3": 408,
      "un": 409,
      "ĠI": 410,
      "et": 411,
      "ot": 412,
      "ol": 413,
      "ac": 414,
      "ĠP": 415,
      "Ġis": 416,
      "im": 417,
      "ly": 418,
      "Ġsu": 419,
      "Ġ0": 420,
      "se": 421,
      "ate": 422,
      "Ġas": 423,
      "ut": 424,
      "ĠF": 425,
      "ra": 426,
      "pp": 427,
      "ul": 428,
      "ch": 429,
      "ith": 430,
      "ĠĠĠ": 431,
      "ab": 432,
      "Ġ4": 433,
      "ĠM": 434,
      "Ġon": 435,
      "ay": 436,
      "Ġby": 437,
      "ĠD": 438,
      "ig": 439,
      "ĠR": 440,
      "ers": 441,
      "em": 442,
      "qu": 443,
      "ct": 444,
      "Ġg": 445,
      "the": 446,
      "ag": 447,
      "el": 448,
      "01": 449,
      "ow": 450,
      "ĠN": 451,
      "ir": 452,
      "ĠE": 453,
      "ect": 454,
      "ter": 455,
      "if": 456,
      "od": 457,
      "Ġ5": 458,
      "ri": 459,
      "um": 460,
      "am": 461,
      "res": 462,
      "us": 463,
      "os": 464,
      "**": 465,
      "ity": 466,
      "iti": 467,
      "Ġst": 468,
      "ver": 469,
      "ion": 470,
      "der": 471,
      "Ġex": 472,
      "xD": 473,
      "ess": 474,
      "ad": 475,
      "and": 476,
      "ont": 477,
      "Ġun": 478,
      "Ġ19": 479,
      "ĠĠĊ": 480,
      "Ġ6": 481,
      "Ġsh": 482,
      "red": 483,
      "ĠO": 484,
      "ĠB": 485,
      "ĠâĢ": 486,
      "ort": 487,
      "Ġwh": 488,
      "ist": 489,
      "all": 490,
      "oc": 491,
      "ain": 492,
      "ant": 493,
      "Ġv": 494,
      "end": 495,
      "du": 496,
      "Ġde": 497,
      "omp": 498,
      "Ġac": 499,
      "oun": 500,
      "Ġal": 501,
      "art": 502,
      "Ġat": 503,
      ";&#": 504,
      "orm": 505,
      "ud": 506,
      "omm": 507,
      "ff": 508,
      "Ġr": 509,
      "ĠU": 510,
      "est": 511,
      "ĠIn": 512,
      "rom": 513,
      "Ġ7": 514,
      "ĠL": 515,
      "sp": 516,
      "ure": 517,
      "10": 518,
      "ĠH": 519,
      "###": 520,
      "ĠW": 521,
      "Ġ8": 522,
      "rov": 523,
      "per": 524,
      "),": 525,
      "Ġit": 526,
      "Ġ9": 527,
      "ere": 528,
      "ich": 529,
      "ill": 530,
      "our": 531,
      "tic": 532,
      "ĊĊ": 533,
      "th": 534,
      "Ġy": 535,
      "iv": 536,
      "16": 537,
      "ĠG": 538,
      "ore": 539,
      "cl": 540,
      "âĢĻ": 541,
      "12": 542,
      "Ġ-": 543,
      "ary": 544,
      "ĠSt": 545,
      "ard": 546,
      "ial": 547,
      "19": 548,
      "pl": 549,
      "ire": 550,
      "ub": 551,
      "Ġad": 552,
      "ord": 553,
      "Ġhe": 554,
      "ep": 555,
      "ld": 556,
      "20": 557,
      "ber": 558,
      "op": 559,
      "igh": 560,
      "ies": 561,
      "000": 562,
      "ak": 563,
      "ice": 564,
      "age": 565,
      "ans": 566,
      "Ġha": 567,
      "ear": 568,
      "11": 569,
      "lic": 570,
      "ge": 571,
      "Ġen": 572,
      "ust": 573,
      "act": 574,
      "Ġ10": 575,
      "ew": 576,
      "cti": 577,
      "âĢĶ": 578,
      "ase": 579,
      "erm": 580,
      "Ġch": 581,
      "pos": 582,
      "erv": 583,
      "23": 584,
      "Ġu": 585,
      "Ġsp": 586,
      "ap": 587,
      "95": 588,
      "ip": 589,
      "ond": 590,
      "low": 591,
      "tit": 592,
      "iss": 593,
      "bs": 594,
      "ĠJ": 595,
      "Ġim": 596,
      "ph": 597,
      "22": 598,
      "ine": 599,
      "96": 600,
      "Ġle": 601,
      "Ġme": 602,
      "ied": 603,
      ")(": 604,
      "Ġ**": 605,
      "200": 606,
      ").": 607,
      "ts": 608,
      "13": 609,
      "iz": 610,
      "ue": 611,
      "ign": 612,
      "ĊĠĠ": 613,
      "ON": 614,
      "eg": 615,
      "Ġpl": 616,
      "ass": 617,
      "Ġam": 618,
      "ual": 619,
      "ee": 620,
      "15": 621,
      "tif": 622,
      "14": 623,
      "94": 624,
      "ef": 625,
      "25": 626,
      "ide": 627,
      "ru": 628,
      "her": 629,
      "ted": 630,
      "og": 631,
      "Ġcl": 632,
      "Ġus": 633,
      "Ġ|": 634,
      "17": 635,
      "ex": 636,
      "24": 637,
      "ens": 638,
      "The": 639,
      "30": 640,
      "ĠV": 641,
      "ER": 642,
      ".&#": 643,
      "Ġtr": 644,
      "Ġ..": 645,
      "ail": 646,
      "ll": 647,
      "ĠUn": 648,
      "ach": 649,
      "Ġab": 650,
      "ib": 651,
      "201": 652,
      "Ġ$": 653,
      "Ġem": 654,
      "ost": 655,
      "99": 656,
      "roc": 657,
      "18": 658,
      "are": 659,
      "rib": 660,
      "âĢĿ": 661,
      "to": 662,
      "Ġar": 663,
      "Ġ20": 664,
      "ous": 665,
      "ast": 666,
      "enc": 667,
      "vel": 668,
      "ram": 669,
      "ric": 670,
      "Ġag": 671,
      "ose": 672,
      "ry": 673,
      "rop": 674,
      "uti": 675,
      "Ġno": 676,
      "TI": 677,
      "hen": 678,
      "ome": 679,
      "rou": 680,
      "50": 681,
      "Ġ12": 682,
      "ork": 683,
      "gh": 684,
      "ĠÙ": 685,
      "Ġ&#": 686,
      "rog": 687,
      "und": 688,
      "anc": 689,
      "Ġ13": 690,
      "hor": 691,
      "Ġ14": 692,
      "160": 693,
      "In": 694,
      "Ġwe": 695,
      "ia": 696,
      "ĠØ": 697,
      "âĢĵ": 698,
      "li": 699,
      "Ġ<": 700,
      "ell": 701,
      "vi": 702,
      "ory": 703,
      "26": 704,
      "EN": 705,
      "ty": 706,
      "ata": 707,
      "Ġ15": 708,
      "ov": 709,
      "yst": 710,
      "out": 711,
      "27": 712,
      "ple": 713,
      "Ġqu": 714,
      "28": 715,
      "erc": 716,
      "40": 717,
      "ime": 718,
      "ace": 719,
      "ove": 720,
      "Ġif": 721,
      "Ġ18": 722,
      "ES": 723,
      "nt": 724,
      "Ġ16": 725,
      "ors": 726,
      "su": 727,
      "ong": 728,
      "any": 729,
      "90": 730,
      "ood": 731,
      "Ġk": 732,
      "OR": 733,
      "of": 734,
      "Â§": 735,
      "33": 736,
      "Ġi": 737,
      "\",": 738,
      "Ġdo": 739,
      "ĠTh": 740,
      "ade": 741,
      "ult": 742,
      "ack": 743,
      "=\"": 744,
      "IN": 745,
      "Ġj": 746,
      "pti": 747,
      ".,": 748,
      "ven": 749,
      "ark": 750,
      "...": 751,
      "ish": 752,
      "Ġ17": 753,
      "oy": 754,
      "97": 755,
      "one": 756,
      "ax": 757,
      "80": 758,
      "35": 759,
      "au": 760,
      "fer": 761,
      "che": 762,
      "ise": 763,
      "Ġ--": 764,
      "ÙĦ": 765,
      "Ġpr": 766,
      "AR": 767,
      "Ġ11": 768,
      "pe": 769,
      "21": 770,
      "eri": 771,
      "pt": 772,
      "AL": 773,
      "its": 774,
      "ĠCh": 775,
      "Ķ-": 776,
      "==": 777,
      "ĠAn": 778,
      "\",\"": 779,
      "ive": 780,
      "60": 781,
      "AN": 782,
      "ake": 783,
      "ame": 784,
      "itt": 785,
      "ock": 786,
      "98": 787,
      "cc": 788,
      "so": 789,
      "abl": 790,
      "gul": 791,
      "Ġso": 792,
      "ĠK": 793,
      "38": 794,
      "</": 795,
      "34": 796,
      "70": 797,
      "ang": 798,
      "'s": 799,
      "Ġel": 800,
      "ann": 801,
      "tim": 802,
      "ss": 803,
      "int": 804,
      "Ġ30": 805,
      "eed": 806,
      "ĠNo": 807,
      "lat": 808,
      "36": 809,
      "qui": 810,
      "AT": 811,
      "82": 812,
      "Ġ[": 813,
      "45": 814,
      "Ġco": 815,
      "eth": 816,
      "aw": 817,
      "37": 818,
      "min": 819,
      "cre": 820,
      "ite": 821,
      "FR": 822,
      "rol": 823,
      "ys": 824,
      "fic": 825,
      "ech": 826,
      "ces": 827,
      "ree": 828,
      "IS": 829,
      "ank": 830,
      "av": 831,
      "EC": 832,
      "Sch": 833,
      "86": 834,
      "own": 835,
      "als": 836,
      "Ø§": 837,
      "ind": 838,
      "âĢ¢": 839,
      "55": 840,
      "old": 841,
      "lem": 842,
      "bj": 843,
      "Ġse": 844,
      "ile": 845,
      "Ġ,": 846,
      "hey": 847,
      "PA": 848,
      "we": 849,
      "oll": 850,
      "ext": 851,
      "ild": 852,
      "cts": 853,
      "nce": 854,
      "ara": 855,
      "rad": 856,
      "Ġ24": 857,
      "âĢĺ": 858,
      "rot": 859,
      "Ġ25": 860,
      "75": 861,
      "Ġli": 862,
      "88": 863,
      "ĠAm": 864,
      "isc": 865,
      "esc": 866,
      "ĠY": 867,
      "05": 868,
      "ret": 869,
      "29": 870,
      "onc": 871,
      "af": 872,
      "ves": 873,
      "ĠAd": 874,
      "arg": 875,
      "44": 876,
      "ert": 877,
      "for": 878,
      "ii": 879,
      "Ġev": 880,
      "IC": 881,
      "ED": 882,
      ")**": 883,
      "ude": 884,
      "ĠEn": 885,
      "Ġaf": 886,
      "ppl": 887,
      "isi": 888,
      "Ġup": 889,
      "aim": 890,
      "46": 891,
      "hed": 892,
      "rat": 893,
      "85": 894,
      "not": 895,
      "ĊĠ": 896,
      "ke": 897,
      "76": 898,
      "wn": 899,
      "AS": 900,
      "ĠÂ§": 901,
      "ix": 902,
      "31": 903,
      "pro": 904,
      "ww": 905,
      "Ġ26": 906,
      "ari": 907,
      "Ġro": 908,
      "onf": 909,
      "ĠEx": 910,
      "onn": 911,
      "sh": 912,
      "Ġ40": 913,
      "sec": 914,
      "74": 915,
      "tt": 916,
      "ĠCO": 917,
      "Ġgo": 918,
      "hem": 919,
      "air": 920,
      "rea": 921,
      "Ġty": 922,
      "39": 923,
      "ule": 924,
      "ĠOF": 925,
      "bt": 926,
      "ĠRe": 927,
      "aid": 928,
      "ked": 929,
      "77": 930,
      "erg": 931,
      "Ġ21": 932,
      "06": 933,
      "edu": 934,
      "yl": 935,
      "ute": 936,
      "vol": 937,
      "IT": 938,
      "ays": 939,
      "irc": 940,
      "\">": 941,
      "iff": 942,
      "oss": 943,
      "56": 944,
      "Ġav": 945,
      "duc": 946,
      "Ġ28": 947,
      "ĠAr": 948,
      "Ġ\"": 949,
      "Ġid": 950,
      "32": 951,
      "eal": 952,
      "par": 953,
      "UR": 954,
      "pr": 955,
      "04": 956,
      "92": 957,
      "te": 958,
      "div": 959,
      "78": 960,
      "ne": 961,
      "me": 962,
      "por": 963,
      "AC": 964,
      "ran": 965,
      "Ġ22": 966,
      "93": 967,
      "twe": 968,
      "tiv": 969,
      "IG": 970,
      "ĉĉ": 971,
      "ĠAg": 972,
      ");": 973,
      "RO": 974,
      "dic": 975,
      "mit": 976,
      "gan": 977,
      "oci": 978,
      "ici": 979,
      "erf": 980,
      "Ġ*": 981,
      "ÙĨ": 982,
      "lev": 983,
      "84": 984,
      "91": 985,
      "wo": 986,
      "ENT": 987,
      "nm": 988,
      "54": 989,
      "Ġfl": 990,
      "81": 991,
      "Ġ27": 992,
      "ob": 993,
      "urn": 994,
      "ÙĬ": 995,
      "aym": 996,
      "Ġ23": 997,
      "Ġsc": 998,
      "oth": 999,
      "ink": 1000,
      "arm": 1001,
      "ren": 1002,
      "alu": 1003,
      "Ġ&": 1004,
      "Ùħ": 1005,
      "ND": 1006,
      "66": 1007,
      "ĠFR": 1008,
      "87": 1009,
      "tem": 1010,
      "fin": 1011,
      "ĠPl": 1012,
      "Ġet": 1013,
      "ps": 1014,
      "ets": 1015,
      "ĠĊĊ": 1016,
      "ATI": 1017,
      "ode": 1018,
      "Not": 1019,
      "onm": 1020,
      "vis": 1021,
      "ern": 1022,
      "---": 1023,
      "anu": 1024,
      "Ġ50": 1025,
      "Ġdi": 1026,
      "ft": 1027,
      "ale": 1028,
      "ĠCl": 1029,
      "ety": 1030,
      "ok": 1031,
      "LE": 1032,
      "Ġ:": 1033,
      ",,": 1034,
      "Ġes": 1035,
      "II": 1036,
      "ĠAl": 1037,
      "ier": 1038,
      "Ġ31": 1039,
      "89": 1040,
      "roj": 1041,
      "72": 1042,
      "Ġve": 1043,
      "ten": 1044,
      "65": 1045,
      "gov": 1046,
      "lt": 1047,
      "¿½": 1048,
      "ï¿½": 1049,
      "ĊĊĊ": 1050,
      "rit": 1051,
      "ash": 1052,
      "Ġgr": 1053,
      "ser": 1054,
      "eld": 1055,
      "Ġlo": 1056,
      "ĠIN": 1057,
      "med": 1058,
      "ref": 1059,
      "vir": 1060,
      "Ġpe": 1061,
      "US": 1062,
      "Ġph": 1063,
      "Ġ35": 1064,
      "No": 1065,
      "Ġpo": 1066,
      "sel": 1067,
      "64": 1068,
      "07": 1069,
      "02": 1070,
      "||": 1071,
      "Ġop": 1072,
      "ium": 1073,
      "ĠCo": 1074,
      "ĠOr": 1075,
      "ems": 1076,
      "ie": 1077,
      "ean": 1078,
      "hip": 1079,
      "app": 1080,
      "til": 1081,
      "rec": 1082,
      "ĠWe": 1083,
      "ize": 1084,
      "ĠIf": 1085,
      "09": 1086,
      "47": 1087,
      "tr": 1088,
      "Ġfe": 1089,
      "83": 1090,
      "ĠØ§": 1091,
      "005": 1092,
      "bod": 1093,
      "ĠQ": 1094,
      "de": 1095,
      "ïģ": 1096,
      "ton": 1097,
      "03": 1098,
      "ily": 1099,
      "opm": 1100,
      "ian": 1101,
      "amp": 1102,
      "led": 1103,
      "up": 1104,
      "ug": 1105,
      "Ġvi": 1106,
      "Ġ29": 1107,
      "Ġkn": 1108,
      "EL": 1109,
      "Ġ36": 1110,
      "nb": 1111,
      "ox": 1112,
      "les": 1113,
      "100": 1114,
      "Th": 1115,
      "omb": 1116,
      "get": 1117,
      "08": 1118,
      "inc": 1119,
      "bst": 1120,
      "cem": 1121,
      "An": 1122,
      "rep": 1123,
      "isk": 1124,
      "//": 1125,
      "EM": 1126,
      "ath": 1127,
      "ien": 1128,
      "owe": 1129,
      "be": 1130,
      "cil": 1131,
      "Ġ__": 1132,
      "tal": 1133,
      "Ġra": 1134,
      "io": 1135,
      "002": 1136,
      "42": 1137,
      "row": 1138,
      "ron": 1139,
      "Ùĩ": 1140,
      "ogy": 1141,
      "79": 1142,
      "ĠEu": 1143,
      ".)": 1144,
      "Ġ#": 1145,
      "48": 1146,
      "ipm": 1147,
      "006": 1148,
      "rem": 1149,
      "by": 1150,
      "Ġbl": 1151,
      "ĠX": 1152,
      "reg": 1153,
      "ĠAs": 1154,
      "co": 1155,
      "007": 1156,
      "010": 1157,
      "inu": 1158,
      "hic": 1159,
      "://": 1160,
      "Ġgu": 1161,
      "Ġ45": 1162,
      "41": 1163,
      "003": 1164,
      "IL": 1165,
      "Sec": 1166,
      "71": 1167,
      "233": 1168,
      "St": 1169,
      "ĠSu": 1170,
      "49": 1171,
      "001": 1172,
      "AM": 1173,
      "43": 1174,
      "ĠÂ": 1175,
      "sub": 1176,
      "59": 1177,
      "pec": 1178,
      "man": 1179,
      "73": 1180,
      "put": 1181,
      "TR": 1182,
      "ING": 1183,
      "CO": 1184,
      "equ": 1185,
      "alc": 1186,
      "ĠNO": 1187,
      "CFR": 1188,
      "riv": 1189,
      "Ġ42": 1190,
      "ify": 1191,
      "rob": 1192,
      "orn": 1193,
      "ĠDe": 1194,
      "emb": 1195,
      "AP": 1196,
      "TH": 1197,
      "urp": 1198,
      "urf": 1199,
      "tru": 1200,
      "âĢľ": 1201,
      "fl": 1202,
      "Ġ60": 1203,
      "Ġsm": 1204,
      "Ø±": 1205,
      "sul": 1206,
      "009": 1207,
      "ck": 1208,
      "ote": 1209,
      "Sub": 1210,
      "ĠUS": 1211,
      "AA": 1212,
      "012": 1213,
      "008": 1214,
      "Ġ)": 1215,
      "ĠIt": 1216,
      "ris": 1217,
      "ees": 1218,
      "Ġ39": 1219,
      "UM": 1220,
      "RE": 1221,
      "ool": 1222,
      "004": 1223,
      "Ġ32": 1224,
      "une": 1225,
      "bl": 1226,
      "ane": 1227,
      "asu": 1228,
      ",&#": 1229,
      "ism": 1230,
      "Ġbu": 1231,
      "rim": 1232,
      "oti": 1233,
      "ful": 1234,
      "67": 1235,
      "ĠTH": 1236,
      "ins": 1237,
      "58": 1238,
      "52": 1239,
      "rof": 1240,
      "ÙĪ": 1241,
      "Ġ41": 1242,
      "53": 1243,
      "ody": 1244,
      "nol": 1245,
      "Ġ33": 1246,
      "wh": 1247,
      "68": 1248,
      "013": 1249,
      "ĠMr": 1250,
      "57": 1251,
      "aj": 1252,
      "arb": 1253,
      "www": 1254,
      "ett": 1255,
      "eng": 1256,
      "Ġ34": 1257,
      "sed": 1258,
      "ds": 1259,
      "ĠBo": 1260,
      "rw": 1261,
      "51": 1262,
      "ha": 1263,
      "Ġ/": 1264,
      "uel": 1265,
      "eb": 1266,
      "Ġec": 1267,
      "ĠSc": 1268,
      "ĠTr": 1269,
      "ick": 1270,
      "ID": 1271,
      "OL": 1272,
      "011": 1273,
      "Ġ44": 1274,
      "Ġz": 1275,
      "att": 1276,
      "Ġ38": 1277,
      "Ġ=": 1278,
      "Ġ43": 1279,
      "ods": 1280,
      "ÙĦØ": 1281,
      "icy": 1282,
      "63": 1283,
      "62": 1284,
      "cur": 1285,
      "yd": 1286,
      "945": 1287,
      "fen": 1288,
      "CH": 1289,
      "nal": 1290,
      "Ġ37": 1291,
      "vic": 1292,
      "gin": 1293,
      "ĠII": 1294,
      "69": 1295,
      "aff": 1296,
      "sid": 1297,
      "sur": 1298,
      "leg": 1299,
      "atm": 1300,
      "ury": 1301,
      "OC": 1302,
      "ĠGo": 1303,
      "rel": 1304,
      "ull": 1305,
      "ife": 1306,
      "mm": 1307,
      "tig": 1308,
      "den": 1309,
      "way": 1310,
      "uly": 1311,
      "61": 1312,
      "IV": 1313,
      "whe": 1314,
      "TA": 1315,
      "inf": 1316,
      "014": 1317,
      "964": 1318,
      "irt": 1319,
      "cle": 1320,
      "@@": 1321,
      "Ġfi": 1322,
      "Ġte": 1323,
      "EP": 1324,
      "ead": 1325,
      "015": 1326,
      "ole": 1327,
      "hes": 1328,
      "AD": 1329,
      "999": 1330,
      "For": 1331,
      "IP": 1332,
      "arn": 1333,
      "ene": 1334,
      "rox": 1335,
      "eek": 1336,
      "IR": 1337,
      "rn": 1338,
      "ĠÙĪ": 1339,
      "Ġla": 1340,
      "ral": 1341,
      "Ø¨": 1342,
      "Ġer": 1343,
      "CC": 1344,
      "oym": 1345,
      "gg": 1346,
      "lor": 1347,
      "ĠST": 1348,
      "str": 1349,
      "959": 1350,
      "ved": 1351,
      "ST": 1352,
      "vey": 1353,
      "arc": 1354,
      "OJ": 1355,
      "ded": 1356,
      "alf": 1357,
      "NA": 1358,
      "Ġ49": 1359,
      "ĠWh": 1360,
      "DA": 1361,
      "Ø³": 1362,
      "Ġ46": 1363,
      "sc": 1364,
      "ars": 1365,
      "rs": 1366,
      "Ch": 1367,
      "Ġ47": 1368,
      "Ġ48": 1369,
      "ĠEm": 1370,
      "ET": 1371,
      "Ġ63": 1372,
      "udy": 1373,
      "Ġ51": 1374,
      "ask": 1375,
      "hib": 1376,
      "953": 1377,
      "Ġsl": 1378,
      "aus": 1379,
      "nic": 1380,
      "els": 1381,
      "Ġ54": 1382,
      "ONS": 1383,
      "Ġ55": 1384,
      "ecl": 1385,
      "UN": 1386,
      "htt": 1387,
      "ird": 1388,
      "day": 1389,
      "Ġx": 1390,
      "uch": 1391,
      "Ġ52": 1392,
      "see": 1393,
      "rev": 1394,
      "500": 1395,
      "Ġ53": 1396,
      "ubl": 1397,
      "ATE": 1398,
      "Un": 1399,
      "irm": 1400,
      "UL": 1401,
      "cy": 1402,
      "acc": 1403,
      "opy": 1404,
      "sem": 1405,
      "ym": 1406,
      "ume": 1407,
      "esp": 1408,
      "ues": 1409,
      "Ġ64": 1410,
      "ĠEl": 1411,
      "mov": 1412,
      "sf": 1413,
      "IF": 1414,
      "CE": 1415,
      "gl": 1416,
      "cor": 1417,
      "Ġ01": 1418,
      "eli": 1419,
      "TS": 1420,
      "``": 1421,
      "Ġbo": 1422,
      "Ġne": 1423,
      "Ø¯": 1424,
      "eti": 1425,
      "Ġ65": 1426,
      "Ø¹": 1427,
      "ah": 1428,
      "PP": 1429,
      "MM": 1430,
      "az": 1431,
      "Ex": 1432,
      "sue": 1433,
      "949": 1434,
      "ĠIs": 1435,
      "ĠTO": 1436,
      "ĠIm": 1437,
      "ïģ²": 1438,
      "lie": 1439,
      "iqu": 1440,
      "ĠPt": 1441,
      "957": 1442,
      "Ġwr": 1443,
      "ĠZ": 1444,
      "Ġbr": 1445,
      "yn": 1446,
      "eas": 1447,
      "ner": 1448,
      "Ġaw": 1449,
      "fr": 1450,
      "raw": 1451,
      "CR": 1452,
      "Ġed": 1453,
      "ogn": 1454,
      "Mr": 1455,
      "osp": 1456,
      "sol": 1457,
      "TER": 1458,
      "uty": 1459,
      "etw": 1460,
      "hs": 1461,
      "Ġ56": 1462,
      "rug": 1463,
      "acy": 1464,
      "ĠSh": 1465,
      "OS": 1466,
      "ave": 1467,
      "Ġ61": 1468,
      "use": 1469,
      "OD": 1470,
      "Ġke": 1471,
      "ÙĤ": 1472,
      "GE": 1473,
      "225": 1474,
      "try": 1475,
      "loc": 1476,
      "tra": 1477,
      "con": 1478,
      "ĠPh": 1479,
      "If": 1480,
      "Al": 1481,
      "GR": 1482,
      "ope": 1483,
      "Ġjo": 1484,
      "uss": 1485,
      "MP": 1486,
      "___": 1487,
      "ĠÎ": 1488,
      "ght": 1489,
      "Ġ00": 1490,
      "Ġ62": 1491,
      "ady": 1492,
      "Ġ70": 1493,
      "ery": 1494,
      "ev": 1495,
      "uts": 1496,
      "ns": 1497,
      "ina": 1498,
      "ble": 1499,
      "gis": 1500,
      "ĠTo": 1501,
      "ĠÙħ": 1502,
      "ĠGu": 1503,
      "Whe": 1504,
      "SE": 1505,
      "IA": 1506,
      "uit": 1507,
      "Øª": 1508,
      "Ġ+": 1509,
      "ppo": 1510,
      "Ġ80": 1511,
      "dep": 1512,
      "lex": 1513,
      "Ġ59": 1514,
      "isp": 1515,
      "bas": 1516,
      ";&": 1517,
      "udg": 1518,
      "umb": 1519,
      "fe": 1520,
      "ĠRi": 1521,
      "ats": 1522,
      "pic": 1523,
      "Ġ90": 1524,
      "oad": 1525,
      "Â°": 1526,
      "Ġ57": 1527,
      "Ġ58": 1528,
      "let": 1529,
      "do": 1530,
      "ml": 1531,
      "TE": 1532,
      "SP": 1533,
      "sw": 1534,
      "):": 1535,
      "ĠAt": 1536,
      "go": 1537,
      "com": 1538,
      "ĠOn": 1539,
      "ĠID": 1540,
      "Ġbi": 1541,
      "App": 1542,
      "ESS": 1543,
      "Ġ75": 1544,
      "016": 1545,
      ".]": 1546,
      "ept": 1547,
      "off": 1548,
      "Ġss": 1549,
      "Ġâ": 1550,
      "lp": 1551,
      "CA": 1552,
      "aly": 1553,
      "Ġ66": 1554,
      "ĠPM": 1555,
      "ror": 1556,
      "Ġmy": 1557,
      "cto": 1558,
      "itu": 1559,
      "otl": 1560,
      "oh": 1561,
      "rid": 1562,
      "teg": 1563,
      "Am": 1564,
      "ior": 1565,
      "))": 1566,
      "951": 1567,
      "ics": 1568,
      "ĠRE": 1569,
      "PS": 1570,
      "Ùĥ": 1571,
      "gen": 1572,
      "Num": 1573,
      "oms": 1574,
      "961": 1575,
      "ai": 1576,
      "tro": 1577,
      "Ùİ": 1578,
      "MS": 1579,
      "Ġsw": 1580,
      "oid": 1581,
      "gal": 1582,
      "wat": 1583,
      "017": 1584,
      "ott": 1585,
      "ĠPr": 1586,
      "cid": 1587,
      "EU": 1588,
      "Ġ'": 1589,
      "ĠSp": 1590,
      "963": 1591,
      "cal": 1592,
      "960": 1593,
      "ĠÙİ": 1594,
      "ley": 1595,
      "Ġfr": 1596,
      "lin": 1597,
      "As": 1598,
      "pd": 1599,
      "eff": 1600,
      "phs": 1601,
      "vem": 1602,
      "LL": 1603,
      "urb": 1604,
      "ews": 1605,
      "ĠØ£": 1606,
      "ĠEN": 1607,
      "ows": 1608,
      "Ġ</": 1609,
      "018": 1610,
      "Ad": 1611,
      "ĠAD": 1612,
      "tab": 1613,
      "pes": 1614,
      "ART": 1615,
      "iii": 1616,
      "Ġgl": 1617,
      "ERS": 1618,
      "set": 1619,
      "tri": 1620,
      "En": 1621,
      "ĠGe": 1622,
      "igu": 1623,
      "ĠØ¨": 1624,
      "FIG": 1625,
      "sts": 1626,
      "FOR": 1627,
      "urs": 1628,
      "ney": 1629,
      "Ø©": 1630,
      "ray": 1631,
      "tak": 1632,
      "gs": 1633,
      "Reg": 1634,
      "sum": 1635,
      "SA": 1636,
      "RA": 1637,
      "ĠØ¹": 1638,
      "243": 1639,
      "Tit": 1640,
      "ĠSo": 1641,
      "ĠÃ": 1642,
      "agn": 1643,
      "arr": 1644,
      "Ġsk": 1645,
      "IM": 1646,
      "ica": 1647,
      ",-": 1648,
      "FF": 1649,
      "Cl": 1650,
      "tu": 1651,
      "edI": 1652,
      "son": 1653,
      "CL": 1654,
      "ĠÙģ": 1655,
      "Ġ_": 1656,
      "Tab": 1657,
      "|||": 1658,
      "org": 1659,
      "Sc": 1660,
      "Ref": 1661,
      "Ġpp": 1662,
      "Ġ%": 1663,
      "ili": 1664,
      "det": 1665,
      "300": 1666,
      "ĠNA": 1667,
      "Ġ!": 1668,
      "Tot": 1669,
      "DE": 1670,
      "Ùģ": 1671,
      "oot": 1672,
      "ĠOR": 1673,
      "962": 1674,
      "ĠHe": 1675,
      "ĠDo": 1676,
      "OP": 1677,
      "954": 1678,
      "ĠÙĦ": 1679,
      "ĠCH": 1680,
      "enn": 1681,
      "inn": 1682,
      "ctu": 1683,
      "AB": 1684,
      "ads": 1685,
      "atu": 1686,
      "400": 1687,
      "ĠÎ¼": 1688,
      "hol": 1689,
      "ĠAf": 1690,
      "elf": 1691,
      "dom": 1692,
      "OM": 1693,
      "Ġ72": 1694,
      "250": 1695,
      "ced": 1696,
      "Ġ99": 1697,
      "SS": 1698,
      "ĠMe": 1699,
      "ana": 1700,
      "ĠLe": 1701,
      "ler": 1702,
      "AND": 1703,
      "no": 1704,
      "Ġ68": 1705,
      "IB": 1706,
      "VE": 1707,
      "ĠAC": 1708,
      "237": 1709,
      "ĠGr": 1710,
      "Ġ95": 1711,
      "ĠFl": 1712,
      "eds": 1713,
      "umm": 1714,
      "Ġ67": 1715,
      "po": 1716,
      "ipp": 1717,
      "ino": 1718,
      "van": 1719,
      ".\"": 1720,
      "unt": 1721,
      "pdf": 1722,
      "ĠBl": 1723,
      "Ġir": 1724,
      "110": 1725,
      "gt": 1726,
      "fi": 1727,
      "ION": 1728,
      "Ġ93": 1729,
      "NG": 1730,
      "ype": 1731,
      "EPA": 1732,
      "ttp": 1733,
      "594": 1734,
      "Ġ91": 1735,
      "EA": 1736,
      "Ġ74": 1737,
      "ump": 1738,
      "ony": 1739,
      "Ġ98": 1740,
      "Ġge": 1741,
      "ief": 1742,
      "Ġcr": 1743,
      "ĠDC": 1744,
      "ĠSO": 1745,
      "956": 1746,
      "Fed": 1747,
      "alk": 1748,
      "ITY": 1749,
      ")-": 1750,
      "965": 1751,
      "Wh": 1752,
      "Ġcy": 1753,
      "val": 1754,
      "bo": 1755,
      "Ġ71": 1756,
      "ĠCD": 1757,
      "OT": 1758,
      "AG": 1759,
      "gro": 1760,
      "381": 1761,
      "gag": 1762,
      ".**": 1763,
      "iol": 1764,
      "Ġ85": 1765,
      "ĠEd": 1766,
      "Â·": 1767,
      "''": 1768,
      "Ġ78": 1769,
      "ĠTR": 1770,
      "UB": 1771,
      "ams": 1772,
      "alt": 1773,
      "Ġ84": 1774,
      "Ġ76": 1775,
      "PR": 1776,
      "UC": 1777,
      "Ar": 1778,
      "Inf": 1779,
      "des": 1780,
      "Ġ77": 1781,
      "men": 1782,
      "ids": 1783,
      "We": 1784,
      "dis": 1785,
      "LC": 1786,
      "urg": 1787,
      "Ġ96": 1788,
      "Ġ69": 1789,
      "ĪĴ": 1790,
      "ape": 1791,
      "800": 1792,
      "bly": 1793,
      "mon": 1794,
      "pre": 1795,
      "Mod": 1796,
      "ITI": 1797,
      ",\"": 1798,
      "202": 1799,
      "019": 1800,
      "Ġmg": 1801,
      "kg": 1802,
      "pen": 1803,
      "HS": 1804,
      "fol": 1805,
      "UD": 1806,
      "oft": 1807,
      "Yes": 1808,
      "Ġ88": 1809,
      "oly": 1810,
      "url": 1811,
      "aut": 1812,
      "UT": 1813,
      "ibr": 1814,
      "eu": 1815,
      "Ġ73": 1816,
      "eps": 1817,
      "SO": 1818,
      "Ġ05": 1819,
      "ils": 1820,
      "ulf": 1821,
      "ift": 1822,
      "ØŃ": 1823,
      "ĠAc": 1824,
      "230": 1825,
      "nd": 1826,
      "ols": 1827,
      "OW": 1828,
      ".;": 1829,
      "Ġ94": 1830,
      "td": 1831,
      "ms": 1832,
      "bm": 1833,
      "ARY": 1834,
      "Ġ89": 1835,
      "čĊ": 1836,
      "aws": 1837,
      "600": 1838,
      "ĠEv": 1839,
      "Ùī": 1840,
      "olt": 1841,
      "224": 1842,
      "gor": 1843,
      "kn": 1844,
      "OE": 1845,
      "bse": 1846,
      "mal": 1847,
      "ĠSH": 1848,
      "ĠSm": 1849,
      "imp": 1850,
      "ONT": 1851,
      "Ġ92": 1852,
      "TC": 1853,
      "cv": 1854,
      "ĠId": 1855,
      "Ġ97": 1856,
      "ico": 1857,
      "CS": 1858,
      "ĠDE": 1859,
      "Fig": 1860,
      "emn": 1861,
      "NE": 1862,
      "orw": 1863,
      "may": 1864,
      "ĠAR": 1865,
      "ĠEU": 1866,
      "228": 1867,
      "Ġ87": 1868,
      "120": 1869,
      "Ġ81": 1870,
      "Res": 1871,
      "Ġ79": 1872,
      "Ġpa": 1873,
      "ht": 1874,
      "Ġ``": 1875,
      "203": 1876,
      "esi": 1877,
      "Ġ82": 1878,
      "ĠSe": 1879,
      "dex": 1880,
      "ĠÙĬ": 1881,
      "LA": 1882,
      "ĠRo": 1883,
      "ado": 1884,
      "ĠBe": 1885,
      "add": 1886,
      "afe": 1887,
      "gy": 1888,
      "Lab": 1889,
      "but": 1890,
      "rag": 1891,
      "Ġ~": 1892,
      "ida": 1893,
      "ung": 1894,
      "cr": 1895,
      "ses": 1896,
      "955": 1897,
      "Re": 1898,
      "END": 1899,
      "enz": 1900,
      "flu": 1901,
      "ĠCA": 1902,
      "PD": 1903,
      "Ġ;": 1904,
      "Ġwa": 1905,
      "ĠAM": 1906,
      "br": 1907,
      "900": 1908,
      "Ġox": 1909,
      "vo": 1910,
      "Ø£": 1911,
      "apt": 1912,
      "::": 1913,
      "ĠUN": 1914,
      "Ġ86": 1915,
      "cri": 1916,
      "my": 1917,
      "rap": 1918,
      "Ġ83": 1919,
      "ĠBu": 1920,
      "ACT": 1921,
      "-.": 1922,
      "On": 1923,
      "ÙĲ": 1924,
      "new": 1925,
      "jud": 1926,
      "AY": 1927,
      "ada": 1928,
      "Pro": 1929,
      "ipl": 1930,
      "ORT": 1931,
      "Co": 1932,
      "uid": 1933,
      "Off": 1934,
      "cou": 1935,
      "ik": 1936,
      "ĠMc": 1937,
      "def": 1938,
      "umn": 1939,
      "Pl": 1940,
      "ĠSE": 1941,
      "ĠIV": 1942,
      "Ġdr": 1943,
      "NO": 1944,
      "bit": 1945,
      "QU": 1946,
      "ĠDr": 1947,
      "ots": 1948,
      "112": 1949,
      "hou": 1950,
      "dul": 1951,
      "Cu": 1952,
      "omy": 1953,
      "URE": 1954,
      "ĠAL": 1955,
      "Ġnu": 1956,
      "ero": 1957,
      "ĠQu": 1958,
      "ĠFr": 1959,
      "ppe": 1960,
      "Ġ02": 1961,
      "net": 1962,
      "All": 1963,
      "tot": 1964,
      "oor": 1965,
      "246": 1966,
      "DIV": 1967,
      "uc": 1968,
      "ein": 1969,
      "lig": 1970,
      "FS": 1971,
      "ma": 1972,
      "vil": 1973,
      "iab": 1974,
      "ĠAN": 1975,
      "TT": 1976,
      "ece": 1977,
      "arv": 1978,
      "tre": 1979,
      "113": 1980,
      "252": 1981,
      "tis": 1982,
      "150": 1983,
      "ĠGA": 1984,
      "ICE": 1985,
      "Ġce": 1986,
      "hel": 1987,
      "700": 1988,
      "101": 1989,
      "ĠEX": 1990,
      "943": 1991,
      "aps": 1992,
      "RC": 1993,
      "tor": 1994,
      "Ġ03": 1995,
      "OG": 1996,
      "Mar": 1997,
      "INE": 1998,
      "Ġri": 1999,
      "Any": 2000,
      "ILL": 2001,
      "227": 2002,
      "105": 2003,
      "mat": 2004,
      "bp": 2005,
      "103": 2006,
      "EST": 2007,
      "ROD": 2008,
      "ze": 2009,
      "eam": 2010,
      "MA": 2011,
      "IAL": 2012,
      "|--": 2013,
      "rig": 2014,
      "âĪĴ": 2015,
      "ush": 2016,
      "ks": 2017,
      "SC": 2018,
      "DR": 2019,
      "ĠBy": 2020,
      "itm": 2021,
      "940": 2022,
      "MB": 2023,
      "igr": 2024,
      "ula": 2025,
      "cep": 2026,
      "Acc": 2027,
      "ĠNE": 2028,
      "Ġ09": 2029,
      "was": 2030,
      "âĢ²": 2031,
      "Ġdu": 2032,
      "xml": 2033,
      "ota": 2034,
      "It": 2035,
      "ros": 2036,
      "Dec": 2037,
      "102": 2038,
      "ERV": 2039,
      "106": 2040,
      ")*": 2041,
      "era": 2042,
      "exp": 2043,
      "TY": 2044,
      "ĠPR": 2045,
      "CP": 2046,
      "bch": 2047,
      "104": 2048,
      "col": 2049,
      "Â«": 2050,
      "Ġ>": 2051,
      "ilm": 2052,
      "pay": 2053,
      "bi": 2054,
      "Ø¬": 2055,
      "DS": 2056,
      "itn": 2057,
      "232": 2058,
      "ĠPa": 2059,
      "seh": 2060,
      "130": 2061,
      "REF": 2062,
      "Ŀ.": 2063,
      "onv": 2064,
      "fa": 2065,
      "dat": 2066,
      "ØĮ": 2067,
      "ĠFY": 2068,
      "unn": 2069,
      "**;": 2070,
      "ĠON": 2071,
      "nex": 2072,
      "Gen": 2073,
      "gi": 2074,
      "Ġ06": 2075,
      "Ġ04": 2076,
      "~~": 2077,
      "OH": 2078,
      "ĠÂ·": 2079,
      "yth": 2080,
      "han": 2081,
      "To": 2082,
      "ipt": 2083,
      "IST": 2084,
      "mun": 2085,
      "107": 2086,
      "969": 2087,
      "See": 2088,
      "Ag": 2089,
      "opp": 2090,
      "ECT": 2091,
      "ME": 2092,
      "125": 2093,
      "ĠLo": 2094,
      "115": 2095,
      "Ġil": 2096,
      "bur": 2097,
      "231": 2098,
      "UE": 2099,
      "111": 2100,
      "ĠPL": 2101,
      "que": 2102,
      "mes": 2103,
      "ĠAb": 2104,
      "ĊĠĊ": 2105,
      "Ġ08": 2106,
      "Ġfa": 2107,
      "phy": 2108,
      "BER": 2109,
      "DD": 2110,
      "UTI": 2111,
      "Ġmm": 2112,
      "bor": 2113,
      "PL": 2114,
      ".-": 2115,
      "lu": 2116,
      "ïģ´": 2117,
      "pir": 2118,
      "PM": 2119,
      "avy": 2120,
      "Em": 2121,
      "ĠPe": 2122,
      "TAB": 2123,
      "tac": 2124,
      "De": 2125,
      ".*": 2126,
      "cm": 2127,
      "ĠJo": 2128,
      "ilt": 2129,
      "Nor": 2130,
      "ïģ¥": 2131,
      "čĠĠ": 2132,
      "ĠÂ°": 2133,
      "iam": 2134,
      "Rep": 2135,
      "ïĤ": 2136,
      "306": 2137,
      "RS": 2138,
      "259": 2139,
      "317": 2140,
      "met": 2141,
      "bre": 2142,
      "ĠVA": 2143,
      "lo": 2144,
      "PH": 2145,
      "ped": 2146,
      "mod": 2147,
      "ona": 2148,
      ":**": 2149,
      ";,": 2150,
      "972": 2151,
      "121": 2152,
      "zen": 2153,
      "Ġ07": 2154,
      "UND": 2155,
      "FO": 2156,
      "ese": 2157,
      "CON": 2158,
      "947": 2159,
      "ĠPA": 2160,
      "\\/": 2161,
      "xx": 2162,
      "Ss": 2163,
      "IE": 2164,
      "Ran": 2165,
      "utt": 2166,
      "gra": 2167,
      "269": 2168,
      "Pub": 2169,
      "irp": 2170,
      "zed": 2171,
      "Ġft": 2172,
      "948": 2173,
      "iat": 2174,
      "III": 2175,
      "205": 2176,
      "has": 2177,
      "rew": 2178,
      "941": 2179,
      "ENS": 2180,
      "pub": 2181,
      "119": 2182,
      "ohn": 2183,
      "DL": 2184,
      "EX": 2185,
      "elt": 2186,
      "ĠÙĤ": 2187,
      "140": 2188,
      "idd": 2189,
      "ĠEs": 2190,
      "ĠFL": 2191,
      "xic": 2192,
      "ĠLG": 2193,
      "SD": 2194,
      "OUR": 2195,
      "New": 2196,
      "HH": 2197,
      "CD": 2198,
      "Ġmo": 2199,
      "pur": 2200,
      "FD": 2201,
      "GS": 2202,
      "Ġtw": 2203,
      "Ø§Ø": 2204,
      "136": 2205,
      "Ã©": 2206,
      "ger": 2207,
      "HA": 2208,
      "fus": 2209,
      "pol": 2210,
      "CT": 2211,
      "],": 2212,
      "Dep": 2213,
      "UP": 2214,
      "arl": 2215,
      "BS": 2216,
      "oxy": 2217,
      "108": 2218,
      "din": 2219,
      "VER": 2220,
      "ĠGl": 2221,
      "UME": 2222,
      "ĠIS": 2223,
      "pi": 2224,
      "590": 2225,
      "UMM": 2226,
      "num": 2227,
      "ALL": 2228,
      "**,": 2229,
      "%)": 2230,
      "]&#": 2231,
      "ker": 2232,
      "353": 2233,
      "116": 2234,
      "Tr": 2235,
      "voc": 2236,
      "CY": 2237,
      "hly": 2238,
      ":*": 2239,
      "942": 2240,
      "Ġrs": 2241,
      "Rec": 2242,
      "ffs": 2243,
      "ipi": 2244,
      "180": 2245,
      "na": 2246,
      "dra": 2247,
      "EAR": 2248,
      "319": 2249,
      "ips": 2250,
      "ĠCr": 2251,
      "122": 2252,
      "gr": 2253,
      "Ġoz": 2254,
      "âĢĲ": 2255,
      "pid": 2256,
      "ģĦ": 2257,
      "pkg": 2258,
      "ASA": 2259,
      "ĠLa": 2260,
      "MAN": 2261,
      "ae": 2262,
      "Ø°": 2263,
      "222": 2264,
      "109": 2265,
      "FL": 2266,
      "Ġyi": 2267,
      "ops": 2268,
      "Par": 2269,
      "Ġhy": 2270,
      "hyd": 2271,
      "-(": 2272,
      "208": 2273,
      "oma": 2274,
      "ĠBL": 2275,
      "oph": 2276,
      "GA": 2277,
      "Ġax": 2278,
      "Ġap": 2279,
      "234": 2280,
      "ANT": 2281,
      "PC": 2282,
      "orb": 2283,
      "yr": 2284,
      "nov": 2285,
      "Act": 2286,
      "cer": 2287,
      "lf": 2288,
      "].": 2289,
      "At": 2290,
      "SI": 2291,
      "114": 2292,
      "lim": 2293,
      "123": 2294,
      "ube": 2295,
      "Af": 2296,
      "wou": 2297,
      "354": 2298,
      "BB": 2299,
      "240": 2300,
      "PER": 2301,
      "cit": 2302,
      "Att": 2303,
      "olv": 2304,
      "ASS": 2305,
      "eel": 2306,
      "Fin": 2307,
      "pon": 2308,
      "ux": 2309,
      "147": 2310,
      "lab": 2311,
      "ĠLA": 2312,
      "rm": 2313,
      "ĠÌ": 2314,
      "cap": 2315,
      "ald": 2316,
      "'#": 2317,
      "206": 2318,
      "SR": 2319,
      "gic": 2320,
      "Ġur": 2321,
      "rd": 2322,
      "ĠBi": 2323,
      "124": 2324,
      "amb": 2325,
      "jac": 2326,
      "ama": 2327,
      "egm": 2328,
      "ey": 2329,
      "ELL": 2330,
      "ixt": 2331,
      "Ġfo": 2332,
      "Sen": 2333,
      "jec": 2334,
      "ki": 2335,
      "orp": 2336,
      "204": 2337,
      "aci": 2338,
      "AF": 2339,
      "cen": 2340,
      "209": 2341,
      "ges": 2342,
      "><": 2343,
      "117": 2344,
      "By": 2345,
      "Id": 2346,
      "ĠBr": 2347,
      "cks": 2348,
      "OO": 2349,
      "eda": 2350,
      "ict": 2351,
      "ĠPo": 2352,
      "VA": 2353,
      "hr": 2354,
      "EE": 2355,
      "ato": 2356,
      "itr": 2357,
      "Ġ##": 2358,
      "nti": 2359,
      "Ph": 2360,
      "ĠDi": 2361,
      "rb": 2362,
      "nte": 2363,
      "IES": 2364,
      "ĠAG": 2365,
      ".:": 2366,
      "238": 2367,
      "pow": 2368,
      "uls": 2369,
      "can": 2370,
      "ARD": 2371,
      "127": 2372,
      "PE": 2373,
      "ĠFi": 2374,
      "ÙĢ": 2375,
      "aa": 2376,
      "322": 2377,
      "Su": 2378,
      "raz": 2379,
      "opt": 2380,
      "sm": 2381,
      "ĠØ¥": 2382,
      "146": 2383,
      "CF": 2384,
      "Ã³": 2385,
      "UG": 2386,
      "ĠØª": 2387,
      "XX": 2388,
      "132": 2389,
      "MT": 2390,
      "207": 2391,
      "952": 2392,
      "erk": 2393,
      "sey": 2394,
      "ASE": 2395,
      "ĠSW": 2396,
      "118": 2397,
      "gu": 2398,
      ".--": 2399,
      "oul": 2400,
      "Ġnd": 2401,
      "amm": 2402,
      "usi": 2403,
      "ini": 2404,
      "bu": 2405,
      "Def": 2406,
      "133": 2407,
      "ĠAT": 2408,
      "=\"/": 2409,
      "'t": 2410,
      "cru": 2411,
      "oo": 2412,
      "Ġpi": 2413,
      "129": 2414,
      "303": 2415,
      "gre": 2416,
      "ĠDL": 2417,
      "uge": 2418,
      "Btu": 2419,
      "idi": 2420,
      "DC": 2421,
      "TON": 2422,
      "SIS": 2423,
      "382": 2424,
      "170": 2425,
      "ĠÙı": 2426,
      "PO": 2427,
      "Øµ": 2428,
      "doc": 2429,
      ")-(": 2430,
      "></": 2431,
      "261": 2432,
      "Ġ]": 2433,
      "866": 2434,
      "142": 2435,
      "ĠVe": 2436,
      "El": 2437,
      "law": 2438,
      "126": 2439,
      "aty": 2440,
      "COM": 2441,
      "380": 2442,
      "Ġ^": 2443,
      "ĠCL": 2444,
      "ANS": 2445,
      "ĠÙĴ": 2446,
      "di": 2447,
      "));": 2448,
      "ĠMs": 2449,
      "bb": 2450,
      "Ms": 2451,
      "BR": 2452,
      "967": 2453,
      "148": 2454,
      "175": 2455,
      "IZ": 2456,
      "327": 2457,
      "Ass": 2458,
      "dem": 2459,
      "318": 2460,
      "ĠDR": 2461,
      "top": 2462,
      "asp": 2463,
      "IO": 2464,
      ")]": 2465,
      "ĠÙĥ": 2466,
      "ĠTe": 2467,
      "ĠAv": 2468,
      "LY": 2469,
      "ilk": 2470,
      "%,": 2471,
      "Ġlb": 2472,
      "Ġom": 2473,
      "now": 2474,
      "fit": 2475,
      "309": 2476,
      "gum": 2477,
      "305": 2478,
      "145": 2479,
      "Ø¥": 2480,
      "Ġov": 2481,
      "Ġ\\": 2482,
      "253": 2483,
      "TIC": 2484,
      "310": 2485,
      "ged": 2486,
      "May": 2487,
      "134": 2488,
      "260": 2489,
      "ĠIL": 2490,
      "BI": 2491,
      "HR": 2492,
      "SEC": 2493,
      "128": 2494,
      "220": 2495,
      "ĠMA": 2496,
      "URT": 2497,
      "fac": 2498,
      "Ĺı": 2499,
      "Sh": 2500,
      "ACK": 2501,
      "135": 2502,
      "ĠNC": 2503,
      "ICT": 2504,
      "mak": 2505,
      "151": 2506,
      "974": 2507,
      "BA": 2508,
      "GG": 2509,
      "ecu": 2510,
      "dec": 2511,
      "245": 2512,
      "ĠAS": 2513,
      "HT": 2514,
      "jun": 2515,
      "301": 2516,
      "ĠÙĨ": 2517,
      "UTH": 2518,
      "199": 2519,
      "Ġdw": 2520,
      "ano": 2521,
      "144": 2522,
      "Ġng": 2523,
      "QS": 2524,
      "pth": 2525,
      "âģĦ": 2526,
      "hat": 2527,
      "hab": 2528,
      "ĠNY": 2529,
      "ci": 2530,
      "ĠSP": 2531,
      "Ùı": 2532,
      "Ġxl": 2533,
      "ĠPO": 2534,
      "ye": 2535,
      "fec": 2536,
      "190": 2537,
      ":&#": 2538,
      "210": 2539,
      "riz": 2540,
      "alm": 2541,
      "350": 2542,
      "ĠMS": 2543,
      "ĠBR": 2544,
      "Apr": 2545,
      "FC": 2546,
      "ALS": 2547,
      "ĠEL": 2548,
      "ipe": 2549,
      "157": 2550,
      "ĠSw": 2551,
      "WA": 2552,
      "non": 2553,
      "ka": 2554,
      "emp": 2555,
      "223": 2556,
      "KE": 2557,
      "226": 2558,
      "Ġru": 2559,
      "ĠNe": 2560,
      "asc": 2561,
      "lan": 2562,
      "ĉĊ": 2563,
      "304": 2564,
      "ïĤ·": 2565,
      "urv": 2566,
      "ĠØ±": 2567,
      "fil": 2568,
      "241": 2569,
      "CCM": 2570,
      "TO": 2571,
      "ĠCR": 2572,
      "hio": 2573,
      "ALE": 2574,
      "ymb": 2575,
      "Ġul": 2576,
      "\\\"": 2577,
      "MO": 2578,
      "973": 2579,
      "ĠMO": 2580,
      "cus": 2581,
      "750": 2582,
      "149": 2583,
      "Ġï": 2584,
      "roy": 2585,
      "Im": 2586,
      "MR": 2587,
      "281": 2588,
      "263": 2589,
      "Is": 2590,
      "oke": 2591,
      "la": 2592,
      "ATA": 2593,
      "Dis": 2594,
      "ĠHE": 2595,
      "tly": 2596,
      "917": 2597,
      "eak": 2598,
      "Ġcu": 2599,
      "ubp": 2600,
      "TN": 2601,
      "Ġok": 2602,
      "155": 2603,
      "oks": 2604,
      "ĠEC": 2605,
      "050": 2606,
      "139": 2607,
      "uck": 2608,
      "tip": 2609,
      "Doc": 2610,
      "ĠÙĩ": 2611,
      "gth": 2612,
      "950": 2613,
      "ĠER": 2614,
      "966": 2615,
      "PDF": 2616,
      "rip": 2617,
      "ACE": 2618,
      ";.": 2619,
      "Ann": 2620,
      "Ã¡": 2621,
      "bec": 2622,
      "ĠME": 2623,
      "302": 2624,
      "bc": 2625,
      "ĠØŃ": 2626,
      "ULE": 2627,
      "270": 2628,
      "Ø®": 2629,
      "450": 2630,
      "NS": 2631,
      "fs": 2632,
      "Ġ{": 2633,
      "FA": 2634,
      "pag": 2635,
      "DER": 2636,
      "184": 2637,
      "Ġti": 2638,
      ")).": 2639,
      "err": 2640,
      "161": 2641,
      "198": 2642,
      "141": 2643,
      "325": 2644,
      "165": 2645,
      "355": 2646,
      "And": 2647,
      "229": 2648,
      "PRO": 2649,
      "020": 2650,
      "mt": 2651,
      "Ġll": 2652,
      "ria": 2653,
      "ITH": 2654,
      "131": 2655,
      "MC": 2656,
      "nam": 2657,
      "ggs": 2658,
      "307": 2659,
      "oir": 2660,
      "Ġda": 2661,
      "MI": 2662,
      "Ø¶": 2663,
      "ĠOf": 2664,
      "IGN": 2665,
      "inv": 2666,
      "ANC": 2667,
      "ete": 2668,
      "ĠUs": 2669,
      "NB": 2670,
      "308": 2671,
      "hy": 2672,
      "137": 2673,
      "040": 2674,
      "164": 2675,
      "Ø«": 2676,
      "244": 2677,
      "ĠOk": 2678,
      "Ġeu": 2679,
      "ĠTX": 2680,
      "176": 2681,
      "cei": 2682,
      "pot": 2683,
      "ACH": 2684,
      "ij": 2685,
      "070": 2686,
      "340": 2687,
      "***": 2688,
      "235": 2689,
      "152": 2690,
      "AME": 2691,
      "tm": 2692,
      "nec": 2693,
      "158": 2694,
      "hw": 2695,
      "Ġnc": 2696,
      "gle": 2697,
      "gar": 2698,
      "Feb": 2699,
      "195": 2700,
      "bus": 2701,
      "248": 2702,
      "MIN": 2703,
      "ito": 2704,
      "WR": 2705,
      "162": 2706,
      "166": 2707,
      "360": 2708,
      "138": 2709,
      "TIT": 2710,
      "257": 2711,
      "ĠSC": 2712,
      "Ġol": 2713,
      "156": 2714,
      "280": 2715,
      "ADE": 2716,
      "ORP": 2717,
      "ali": 2718,
      "dur": 2719,
      "FIC": 2720,
      "143": 2721,
      "si": 2722,
      "290": 2723,
      "ken": 2724,
      "ben": 2725,
      "ych": 2726,
      "TEE": 2727,
      "Ùĳ": 2728,
      "Ġmi": 2729,
      "key": 2730,
      "FI": 2731,
      "HQ": 2732,
      "Sep": 2733,
      "221": 2734,
      "vit": 2735,
      "ĠVI": 2736,
      "ÃŃ": 2737,
      "nu": 2738,
      "ago": 2739,
      "ISS": 2740,
      "333": 2741,
      "Wat": 2742,
      "ZM": 2743,
      "PAR": 2744,
      "337": 2745,
      "345": 2746,
      "Ġob": 2747,
      "ĠLi": 2748,
      "Min": 2749,
      "ONE": 2750,
      "\":": 2751,
      "335": 2752,
      "320": 2753,
      "167": 2754,
      "ĠMo": 2755,
      "060": 2756,
      "236": 2757,
      "Col": 2758,
      "255": 2759,
      "eny": 2760,
      "ĠMD": 2761,
      "urr": 2762,
      "242": 2763,
      "404": 2764,
      "159": 2765,
      "atf": 2766,
      "da": 2767,
      "WS": 2768,
      "Bas": 2769,
      "249": 2770,
      "196": 2771,
      "jur": 2772,
      "cel": 2773,
      "ham": 2774,
      "168": 2775,
      "Aug": 2776,
      "ROM": 2777,
      "153": 2778,
      "Add": 2779,
      "169": 2780,
      "OF": 2781,
      "Ġ==": 2782,
      "gat": 2783,
      "LIC": 2784,
      "ita": 2785,
      "INT": 2786,
      "154": 2787,
      "ocr": 2788,
      "âĹı": 2789,
      "ĠOP": 2790,
      "Con": 2791,
      "Bl": 2792,
      "hal": 2793,
      "402": 2794,
      "ras": 2795,
      "ĠCT": 2796,
      "MD": 2797,
      "sfy": 2798,
      "211": 2799,
      "bet": 2800,
      "cas": 2801,
      "usp": 2802,
      "174": 2803,
      "Ġnt": 2804,
      "tes": 2805,
      "lel": 2806,
      "BO": 2807,
      "ĠBY": 2808,
      "275": 2809,
      "405": 2810,
      "186": 2811,
      "946": 2812,
      "bts": 2813,
      "KS": 2814,
      "279": 2815,
      "ĠMR": 2816,
      "ea": 2817,
      "ĠÙĳ": 2818,
      "Cal": 2819,
      "Man": 2820,
      "yer": 2821,
      "PT": 2822,
      "IX": 2823,
      "313": 2824,
      "ĠLE": 2825,
      "254": 2826,
      "Or": 2827,
      "uCu": 2828,
      "ĠSl": 2829,
      "ML": 2830,
      "Ø´": 2831,
      "Ġ($": 2832,
      "ju": 2833,
      "185": 2834,
      "Me": 2835,
      "ULT": 2836,
      "HG": 2837,
      "kt": 2838,
      "sl": 2839,
      "SK": 2840,
      "cum": 2841,
      "Loc": 2842,
      "aft": 2843,
      "uer": 2844,
      "Ġâģ": 2845,
      "Non": 2846,
      "PPE": 2847,
      "194": 2848,
      "ani": 2849,
      "Med": 2850,
      "Ġna": 2851,
      "rup": 2852,
      "311": 2853,
      "460": 2854,
      "mar": 2855,
      "HE": 2856,
      "Vol": 2857,
      "cs": 2858,
      "ĠSA": 2859,
      "nts": 2860,
      "274": 2861,
      "ERC": 2862,
      "awa": 2863,
      "407": 2864,
      "oto": 2865,
      "ogs": 2866,
      "312": 2867,
      "you": 2868,
      "rod": 2869,
      "Pr": 2870,
      "sin": 2871,
      "347": 2872,
      "Ġod": 2873,
      "080": 2874,
      "sch": 2875,
      "jo": 2876,
      ".(": 2877,
      "oz": 2878,
      "Ġau": 2879,
      "va": 2880,
      "ĠND": 2881,
      "ĠCM": 2882,
      "ĠBE": 2883,
      "188": 2884,
      "scm": 2885,
      "\"/": 2886,
      "\")": 2887,
      "182": 2888,
      "192": 2889,
      "178": 2890,
      "ena": 2891,
      "SU": 2892,
      "Ġq": 2893,
      "AST": 2894,
      "ĠØ³": 2895,
      "187": 2896,
      "NY": 2897,
      "NM": 2898,
      "409": 2899,
      "283": 2900,
      "ĠIT": 2901,
      "urt": 2902,
      "Rem": 2903,
      "ĠÂ±": 2904,
      "352": 2905,
      "But": 2906,
      "ng": 2907,
      "ĠIC": 2908,
      "zer": 2909,
      "FT": 2910,
      "lay": 2911,
      "IAN": 2912,
      "181": 2913,
      "183": 2914,
      "rab": 2915,
      "ca": 2916,
      "Ċĉĉ": 2917,
      "lb": 2918,
      "yle": 2919,
      "251": 2920,
      "ĠNu": 2921,
      "htm": 2922,
      "adc": 2923,
      "enu": 2924,
      "BL": 2925,
      "163": 2926,
      "ĠRO": 2927,
      "POS": 2928,
      "172": 2929,
      "ĠED": 2930,
      "ubj": 2931,
      "Ġow": 2932,
      "197": 2933,
      "ho": 2934,
      "GO": 2935,
      "*(": 2936,
      "ĠCy": 2937,
      "958": 2938,
      "703": 2939,
      "171": 2940,
      "191": 2941,
      "550": 2942,
      "eco": 2943,
      "rav": 2944,
      "ĠOH": 2945,
      "uff": 2946,
      "arp": 2947,
      "212": 2948,
      "rik": 2949,
      "Ġcm": 2950,
      "ebr": 2951,
      "eck": 2952,
      "cod": 2953,
      "GD": 2954,
      "#'#": 2955,
      "pri": 2956,
      "rum": 2957,
      "raq": 2958,
      "Sou": 2959,
      "Ġye": 2960,
      "ISH": 2961,
      "Ã³n": 2962,
      "Cor": 2963,
      "706": 2964,
      "olo": 2965,
      "537": 2966,
      "etl": 2967,
      "ĠES": 2968,
      "\"><": 2969,
      "Ġ-.": 2970,
      "410": 2971,
      "239": 2972,
      "uk": 2973,
      "173": 2974,
      "177": 2975,
      "sis": 2976,
      "zz": 2977,
      "028": 2978,
      "ĠNW": 2979,
      "CK": 2980,
      "THE": 2981,
      "ĠSU": 2982,
      "Ġca": 2983,
      "VI": 2984,
      "HO": 2985,
      "413": 2986,
      "TD": 2987,
      "ĠSY": 2988,
      "EEC": 2989,
      "371": 2990,
      "ASH": 2991,
      "sim": 2992,
      "Î¼": 2993,
      "Ġic": 2994,
      "mil": 2995,
      "AIR": 2996,
      "ANK": 2997,
      "IGS": 2998,
      ".</": 2999,
      "ĠOp": 3000,
      "ga": 3001,
      "189": 3002,
      "214": 3003,
      "VIS": 3004,
      "Do": 3005,
      "iet": 3006,
      "ĠĊĠ": 3007,
      "ned": 3008,
      "ORS": 3009,
      "LP": 3010,
      "267": 3011,
      "bel": 3012,
      "351": 3013,
      "375": 3014,
      "Ġep": 3015,
      "Sp": 3016,
      "SB": 3017,
      "\"/>": 3018,
      "eur": 3019,
      "247": 3020,
      ".),": 3021,
      "256": 3022,
      "ĠIR": 3023,
      "470": 3024,
      "390": 3025,
      ";%": 3026,
      "266": 3027,
      "420": 3028,
      "ta": 3029,
      "ths": 3030,
      "uns": 3031,
      "thw": 3032,
      "osu": 3033,
      "aho": 3034,
      "406": 3035,
      "lee": 3036,
      "rix": 3037,
      "Ġut": 3038,
      "980": 3039,
      "iry": 3040,
      "OCK": 3041,
      "213": 3042,
      "ulk": 3043,
      "Eu": 3044,
      "gel": 3045,
      "179": 3046,
      "193": 3047,
      "ni": 3048,
      "ĠGR": 3049,
      "258": 3050,
      "adl": 3051,
      "sk": 3052,
      "265": 3053,
      "acu": 3054,
      "NC": 3055,
      "299": 3056,
      "539": 3057,
      "840": 3058,
      "TX": 3059,
      "ARB": 3060,
      "Ø·": 3061,
      "264": 3062,
      "nat": 3063,
      "py": 3064,
      "iod": 3065,
      "Ġ<.": 3066,
      "Go": 3067,
      "Ġma": 3068,
      "ĠBO": 3069,
      "So": 3070,
      "sor": 3071,
      "Aut": 3072,
      "Le": 3073,
      "mic": 3074,
      "357": 3075,
      "480": 3076,
      ")..": 3077,
      "BC": 3078,
      "ba": 3079,
      "JI": 3080,
      "cat": 3081,
      "DP": 3082,
      "bal": 3083,
      "%%": 3084,
      "328": 3085,
      "Ġou": 3086,
      "ÙĴ": 3087,
      "Us": 3088,
      "ĠFO": 3089,
      "thy": 3090,
      "UNT": 3091,
      "650": 3092,
      "ïĢ": 3093,
      "xA": 3094,
      "sys": 3095,
      "344": 3096,
      "HOC": 3097,
      "uri": 3098,
      "602": 3099,
      "]]": 3100,
      "Ø²": 3101,
      "ono": 3102,
      "TM": 3103,
      "SH": 3104,
      "331": 3105,
      "707": 3106,
      "ĠSk": 3107,
      "ura": 3108,
      "423": 3109,
      "bef": 3110,
      "epa": 3111,
      "LO": 3112,
      "Ã®": 3113,
      "215": 3114,
      "Jan": 3115,
      "090": 3116,
      "osa": 3117,
      "obj": 3118,
      "510": 3119,
      "aks": 3120,
      "BM": 3121,
      "EO": 3122,
      "330": 3123,
      "ĠNM": 3124,
      "288": 3125,
      "LEM": 3126,
      "Ge": 3127,
      "ARK": 3128,
      "ĠMI": 3129,
      "egu": 3130,
      "408": 3131,
      "295": 3132,
      "AFF": 3133,
      "isl": 3134,
      "lea": 3135,
      ",,,": 3136,
      "nor": 3137,
      "504": 3138,
      "car": 3139,
      "030": 3140,
      "rar": 3141,
      "Ac": 3142,
      "ARE": 3143,
      "iev": 3144,
      "SON": 3145,
      "ĠAP": 3146,
      "hum": 3147,
      "BT": 3148,
      "je": 3149,
      "268": 3150,
      "za": 3151,
      "ĠPC": 3152,
      "FIN": 3153,
      ";*": 3154,
      "ĠJr": 3155,
      "401": 3156,
      "ls": 3157,
      "285": 3158,
      "nde": 3159,
      "VEN": 3160,
      "âĸ": 3161,
      "FE": 3162,
      "ael": 3163,
      "utc": 3164,
      "ORY": 3165,
      "Gr": 3166,
      "AMS": 3167,
      "ITE": 3168,
      "uis": 3169,
      "OND": 3170,
      "Hz": 3171,
      "otw": 3172,
      "imm": 3173,
      "455": 3174,
      "503": 3175,
      "ĠMy": 3176,
      "560": 3177,
      "ĠÂ£": 3178,
      "505": 3179,
      "Ġ).": 3180,
      "ĠÙĲ": 3181,
      "Ins": 3182,
      "aud": 3183,
      "ĠFe": 3184,
      "370": 3185,
      "888": 3186,
      "ued": 3187,
      "lis": 3188,
      "etr": 3189,
      "Day": 3190,
      "ïĥ": 3191,
      "rub": 3192,
      "fal": 3193,
      "276": 3194,
      "ĠWy": 3195,
      "CES": 3196,
      "Pre": 3197,
      "á»": 3198,
      "Mis": 3199,
      "ĠCS": 3200,
      "Ġč": 3201,
      "aph": 3202,
      "316": 3203,
      "IAT": 3204,
      "bro": 3205,
      "oic": 3206,
      "UAL": 3207,
      "GT": 3208,
      "RES": 3209,
      "ĠPH": 3210,
      "Bef": 3211,
      "801": 3212,
      "Ġ#:": 3213,
      "ĠNS": 3214,
      "289": 3215,
      "TIN": 3216,
      "278": 3217,
      "292": 3218,
      "\".": 3219,
      "277": 3220,
      "sen": 3221,
      "ĉĉĉ": 3222,
      "fun": 3223,
      "who": 3224,
      "339": 3225,
      "356": 3226,
      "Â»": 3227,
      "ERG": 3228,
      "870": 3229,
      "Ed": 3230,
      "LR": 3231,
      "ori": 3232,
      "Ġ?": 3233,
      "oud": 3234,
      "Val": 3235,
      "502": 3236,
      "905": 3237,
      "dim": 3238,
      "880": 3239,
      "NI": 3240,
      "hin": 3241,
      "Ġ(\"": 3242,
      "ĠNR": 3243,
      "815": 3244,
      "506": 3245,
      "nav": 3246,
      "ĠUK": 3247,
      "lot": 3248,
      "286": 3249,
      "DEP": 3250,
      "emy": 3251,
      "219": 3252,
      "iar": 3253,
      "Air": 3254,
      "273": 3255,
      ".).": 3256,
      "363": 3257,
      "ums": 3258,
      "820": 3259,
      "Ġho": 3260,
      ",.": 3261,
      "580": 3262,
      "334": 3263,
      "324": 3264,
      "364": 3265,
      "sam": 3266,
      "ĠIP": 3267,
      "680": 3268,
      "vas": 3269,
      "tah": 3270,
      "336": 3271,
      "217": 3272,
      "[[": 3273,
      "Ġsi": 3274,
      "BP": 3275,
      "agg": 3276,
      "ORD": 3277,
      "*)": 3278,
      "262": 3279,
      "365": 3280,
      "ĠÐ": 3281,
      "FP": 3282,
      "ZZ": 3283,
      "HAP": 3284,
      "chm": 3285,
      "quo": 3286,
      "ags": 3287,
      "ola": 3288,
      "ĠAw": 3289,
      "Â£": 3290,
      "366": 3291,
      "RY": 3292,
      "sib": 3293,
      "rac": 3294,
      "ĠIr": 3295,
      "314": 3296,
      "284": 3297,
      "TAL": 3298,
      "ja": 3299,
      "218": 3300,
      "272": 3301,
      "mem": 3302,
      "604": 3303,
      "348": 3304,
      "271": 3305,
      "346": 3306,
      "(\"": 3307,
      "Ġju": 3308,
      "Bo": 3309,
      "VAL": 3310,
      "454": 3311,
      "332": 3312,
      "ĠWH": 3313,
      "367": 3314,
      "tax": 3315,
      "362": 3316,
      "ora": 3317,
      "025": 3318,
      "JEC": 3319,
      "usa": 3320,
      "ICH": 3321,
      "owa": 3322,
      "386": 3323,
      "Es": 3324,
      "mo": 3325,
      "456": 3326,
      "391": 3327,
      "One": 3328,
      "ĠFA": 3329,
      "she": 3330,
      "ĠNH": 3331,
      "ios": 3332,
      "TP": 3333,
      "Ver": 3334,
      "440": 3335,
      "VES": 3336,
      "plo": 3337,
      "452": 3338,
      "bed": 3339,
      "FER": 3340,
      "wr": 3341,
      "Leg": 3342,
      "862": 3343,
      "čĊč": 3344,
      "ĠEG": 3345,
      "Dr": 3346,
      "ĠSR": 3347,
      ")),": 3348,
      "bud": 3349,
      "Eff": 3350,
      "ĠFE": 3351,
      "298": 3352,
      "unl": 3353,
      "970": 3354,
      "emi": 3355,
      "WK": 3356,
      "eit": 3357,
      "ĠLO": 3358,
      "NR": 3359,
      "sa": 3360,
      "ROC": 3361,
      "ĠWA": 3362,
      "216": 3363,
      "416": 3364,
      "ocy": 3365,
      "ĠÂ¶": 3366,
      "uto": 3367,
      "430": 3368,
      "ĠNI": 3369,
      "nan": 3370,
      "ubc": 3371,
      "ĠpH": 3372,
      "Fir": 3373,
      "385": 3374,
      "fra": 3375,
      "Se": 3376,
      "uth": 3377,
      "deg": 3378,
      "ima": 3379,
      "403": 3380,
      "603": 3381,
      "mg": 3382,
      "fir": 3383,
      "606": 3384,
      "291": 3385,
      "338": 3386,
      "287": 3387,
      "ECH": 3388,
      "704": 3389,
      "SM": 3390,
      "ĠTy": 3391,
      "378": 3392,
      "520": 3393,
      "PX": 3394,
      "315": 3395,
      "297": 3396,
      "his": 3397,
      "ORK": 3398,
      "CM": 3399,
      "846": 3400,
      "DI": 3401,
      "Ġml": 3402,
      "BE": 3403,
      "607": 3404,
      "605": 3405,
      "esh": 3406,
      "fig": 3407,
      "usb": 3408,
      "AZ": 3409,
      "Î¼g": 3410,
      "DF": 3411,
      "293": 3412,
      "IGH": 3413,
      "358": 3414,
      "cu": 3415,
      "490": 3416,
      "oys": 3417,
      "342": 3418,
      "ĠDO": 3419,
      "ĠÂ©": 3420,
      "urd": 3421,
      "499": 3422,
      "osc": 3423,
      "ROL": 3424,
      "fur": 3425,
      "Fur": 3426,
      "ĠBS": 3427,
      "two": 3428,
      "Wal": 3429,
      "AV": 3430,
      "507": 3431,
      "IND": 3432,
      "ĠHz": 3433,
      "Ġps": 3434,
      "WH": 3435,
      "610": 3436,
      "807": 3437,
      "425": 3438,
      "ĠMa": 3439,
      "',": 3440,
      "349": 3441,
      "ĠØ¯": 3442,
      "adv": 3443,
      "rey": 3444,
      "388": 3445,
      "369": 3446,
      "ELD": 3447,
      "Sm": 3448,
      "508": 3449,
      "lah": 3450,
      "Det": 3451,
      "412": 3452,
      "282": 3453,
      "Net": 3454,
      "bac": 3455,
      "rin": 3456,
      "379": 3457,
      "bil": 3458,
      "kyl": 3459,
      "055": 3460,
      "ius": 3461,
      "EMS": 3462,
      "ĠØµ": 3463,
      "022": 3464,
      "AK": 3465,
      "ĠOS": 3466,
      "GC": 3467,
      "ĊĊĠ": 3468,
      "540": 3469,
      "wid": 3470,
      "GUL": 3471,
      "uan": 3472,
      "You": 3473,
      "Ŀ,": 3474,
      "Ġsy": 3475,
      "368": 3476,
      "ERE": 3477,
      "868": 3478,
      "343": 3479,
      "359": 3480,
      "341": 3481,
      "La": 3482,
      "oro": 3483,
      "AGE": 3484,
      "Fl": 3485,
      "387": 3486,
      "916": 3487,
      "805": 3488,
      "--|": 3489,
      "erp": 3490,
      "620": 3491,
      ".&": 3492,
      "075": 3493,
      "ANY": 3494,
      "ORE": 3495,
      "ĠGO": 3496,
      "907": 3497,
      "Â±": 3498,
      "utu": 3499,
      "MY": 3500,
      "ĠEP": 3501,
      "361": 3502,
      "074": 3503,
      "906": 3504,
      "Ind": 3505,
      "cub": 3506,
      "417": 3507,
      "ÃĹ": 3508,
      ",..": 3509,
      "Gu": 3510,
      "NH": 3511,
      "701": 3512,
      "rie": 3513,
      "nes": 3514,
      "Ġum": 3515,
      "PRI": 3516,
      "YS": 3517,
      "CV": 3518,
      "985": 3519,
      "444": 3520,
      "Ġwi": 3521,
      "389": 3522,
      "TED": 3523,
      "Ð¾": 3524,
      "850": 3525,
      "ĠSM": 3526,
      "384": 3527,
      "FY": 3528,
      "USE": 3529,
      "fed": 3530,
      "zy": 3531,
      "054": 3532,
      "nul": 3533,
      "Max": 3534,
      "530": 3535,
      "erh": 3536,
      "??": 3537,
      "ĠWr": 3538,
      "990": 3539,
      "ĠUE": 3540,
      "424": 3541,
      "\"(": 3542,
      "Int": 3543,
      "~**": 3544,
      ":\\": 3545,
      "Oct": 3546,
      "ĠmL": 3547,
      "Che": 3548,
      "Mem": 3549,
      "ĠSi": 3550,
      "RTN": 3551,
      "Inc": 3552,
      "609": 3553,
      "IDE": 3554,
      "RI": 3555,
      "ĠCP": 3556,
      "dar": 3557,
      "377": 3558,
      "===": 3559,
      "806": 3560,
      "tir": 3561,
      "hea": 3562,
      "âĶ": 3563,
      "awn": 3564,
      "SW": 3565,
      ";]": 3566,
      "705": 3567,
      "323": 3568,
      "adj": 3569,
      "392": 3570,
      "CIT": 3571,
      "864": 3572,
      "OLD": 3573,
      "920": 3574,
      "465": 3575,
      "ERN": 3576,
      "702": 3577,
      ")&#": 3578,
      "onw": 3579,
      "987": 3580,
      "ws": 3581,
      "xbr": 3582,
      "nn": 3583,
      "cf": 3584,
      "lam": 3585,
      "due": 3586,
      "812": 3587,
      "872": 3588,
      ";**": 3589,
      "464": 3590,
      "fam": 3591,
      "*\"": 3592,
      "Tex": 3593,
      "Ġvo": 3594,
      "He": 3595,
      "376": 3596,
      "âĢķ": 3597,
      "446": 3598,
      "ĠØ¬": 3599,
      "Ro": 3600,
      "Cap": 3601,
      "Ev": 3602,
      "oli": 3603,
      "458": 3604,
      "Hou": 3605,
      "isa": 3606,
      "ĠÂ«": 3607,
      "ike": 3608,
      "808": 3609,
      "804": 3610,
      "374": 3611,
      "904": 3612,
      "âĸł": 3613,
      "TF": 3614,
      "998": 3615,
      "ffe": 3616,
      "cd": 3617,
      "DAT": 3618,
      "ĠSN": 3619,
      "wa": 3620,
      "ĠUp": 3621,
      "thc": 3622,
      "AID": 3623,
      "Â®": 3624,
      "het": 3625,
      "Mat": 3626,
      "Pa": 3627,
      "720": 3628,
      "San": 3629,
      "fre": 3630,
      "Ġje": 3631,
      "VD": 3632,
      "md": 3633,
      "ky": 3634,
      "415": 3635,
      "hec": 3636,
      "ÂŃ": 3637,
      "Dur": 3638,
      "024": 3639,
      "GL": 3640,
      "mi": 3641,
      "EF": 3642,
      "^^": 3643,
      "457": 3644,
      "Ġhi": 3645,
      ".'": 3646,
      "Ġrt": 3647,
      "eer": 3648,
      "944": 3649,
      "373": 3650,
      "ĠOx": 3651,
      "810": 3652,
      "rif": 3653,
      "Ġâī": 3654,
      "had": 3655,
      "oe": 3656,
      "Run": 3657,
      "640": 3658,
      "321": 3659,
      "gue": 3660,
      "326": 3661,
      "LEY": 3662,
      "giv": 3663,
      "975": 3664,
      "453": 3665,
      "EMA": 3666,
      "383": 3667,
      "411": 3668,
      "ĠSD": 3669,
      "443": 3670,
      "555": 3671,
      "fo": 3672,
      "deb": 3673,
      "968": 3674,
      "INS": 3675,
      "Ab": 3676,
      "eef": 3677,
      "dd": 3678,
      "910": 3679,
      "CAP": 3680,
      "),*": 3681,
      "857": 3682,
      "760": 3683,
      "%.": 3684,
      "ICS": 3685,
      "Pt": 3686,
      "399": 3687,
      "372": 3688,
      "\":\"": 3689,
      "ĠKe": 3690,
      "442": 3691,
      "ĠHO": 3692,
      "utl": 3693,
      "448": 3694,
      "âĶĤ": 3695,
      "SN": 3696,
      "982": 3697,
      "ĠCC": 3698,
      "902": 3699,
      "asi": 3700,
      "ĠAF": 3701,
      "447": 3702,
      "*.": 3703,
      "oat": 3704,
      "Exp": 3705,
      "ĠTA": 3706,
      "708": 3707,
      "idn": 3708,
      "Top": 3709,
      "WN": 3710,
      "*,": 3711,
      "rc": 3712,
      "obs": 3713,
      "(#": 3714,
      "501": 3715,
      "575": 3716,
      "462": 3717,
      ")[": 3718,
      "660": 3719,
      "ĠPE": 3720,
      "076": 3721,
      "UST": 3722,
      "DO": 3723,
      "451": 3724,
      "pou": 3725,
      "488": 3726,
      "601": 3727,
      "554": 3728,
      "Dat": 3729,
      "nc": 3730,
      "erb": 3731,
      "860": 3732,
      "469": 3733,
      "Mc": 3734,
      "Ðµ": 3735,
      "APH": 3736,
      "459": 3737,
      "rio": 3738,
      "del": 3739,
      "GIS": 3740,
      "VN": 3741,
      "Ġkm": 3742,
      "Â¶": 3743,
      "597": 3744,
      "Nov": 3745,
      "occ": 3746,
      "how": 3747,
      "asy": 3748,
      "ZA": 3749,
      "903": 3750,
      "085": 3751,
      "913": 3752,
      "816": 3753,
      "gun": 3754,
      "bar": 3755,
      "VP": 3756,
      "986": 3757,
      "pts": 3758,
      "usc": 3759,
      "570": 3760,
      "GI": 3761,
      "Pol": 3762,
      "Cur": 3763,
      "Ne": 3764,
      "VEL": 3765,
      "SL": 3766,
      "igs": 3767,
      "pat": 3768,
      "766": 3769,
      "296": 3770,
      "UF": 3771,
      "Ġnm": 3772,
      "757": 3773,
      "unc": 3774,
      "871": 3775,
      "468": 3776,
      "780": 3777,
      "Qu": 3778,
      "pa": 3779,
      "Ġ.,": 3780,
      "pai": 3781,
      "023": 3782,
      "393": 3783,
      "ĠNG": 3784,
      "Br": 3785,
      "=\\\"": 3786,
      "ĠâĪ": 3787,
      "Gre": 3788,
      "Sal": 3789,
      "lon": 3790,
      "ĠØ°": 3791,
      "tid": 3792,
      "ORM": 3793,
      "Ð°": 3794,
      "630": 3795,
      "PV": 3796,
      "ĠCF": 3797,
      "463": 3798,
      "map": 3799,
      "861": 3800,
      ";(": 3801,
      "OK": 3802,
      "ĠEM": 3803,
      "993": 3804,
      "ATT": 3805,
      "!!": 3806,
      "ĠDu": 3807,
      "Low": 3808,
      "lla": 3809,
      "yo": 3810,
      "cet": 3811,
      "yes": 3812,
      "oni": 3813,
      "Ġta": 3814,
      "Ġkg": 3815,
      "ORG": 3816,
      "Tax": 3817,
      "oa": 3818,
      "Sin": 3819,
      "ĠĠč": 3820,
      "raf": 3821,
      "AW": 3822,
      "ĠÌĪ": 3823,
      "ĠOz": 3824,
      "ITS": 3825,
      "âĪ": 3826,
      "lls": 3827,
      "ego": 3828,
      "sta": 3829,
      "509": 3830,
      "Imp": 3831,
      "ĠØ´": 3832,
      "777": 3833,
      "ĠRF": 3834,
      "ncy": 3835,
      "LES": 3836,
      "Tre": 3837,
      "ply": 3838,
      "764": 3839,
      "072": 3840,
      "Â¥": 3841,
      "329": 3842,
      "sto": 3843,
      "ĠCY": 3844,
      "Ã¸": 3845,
      "Ġly": 3846,
      "Ġ@": 3847,
      "467": 3848,
      "ĠMT": 3849,
      "Ġïģ": 3850,
      "vii": 3851,
      "558": 3852,
      "ISA": 3853,
      "ANN": 3854,
      "Car": 3855,
      "449": 3856,
      "740": 3857,
      "BD": 3858,
      "048": 3859,
      "sU": 3860,
      "pop": 3861,
      "YE": 3862,
      "709": 3863,
      "466": 3864,
      "adi": 3865,
      "tiz": 3866,
      "890": 3867,
      "027": 3868,
      "885": 3869,
      "Gl": 3870,
      "log": 3871,
      "ĠÃĹ": 3872,
      "TRY": 3873,
      "Ŀ;": 3874,
      "\"\"": 3875,
      "Ġ||": 3876,
      "ĠÃ¸": 3877,
      "784": 3878,
      "iew": 3879,
      "ORN": 3880,
      "unk": 3881,
      "ua": 3882,
      "Pur": 3883,
      "coo": 3884,
      "PAT": 3885,
      "rok": 3886,
      "Pow": 3887,
      "441": 3888,
      "Ãĭ": 3889,
      "eta": 3890,
      "Ġsn": 3891,
      "984": 3892,
      "033": 3893,
      "294": 3894,
      "865": 3895,
      "pra": 3896,
      "alo": 3897,
      "AMP": 3898,
      "710": 3899,
      "CU": 3900,
      "ĠÙĭ": 3901,
      "989": 3902,
      "556": 3903,
      "Ġ(*": 3904,
      "imb": 3905,
      "397": 3906,
      "884": 3907,
      "ïĥŃ": 3908,
      "026": 3909,
      "Mon": 3910,
      "512": 3911,
      "Ġts": 3912,
      "Nat": 3913,
      "ala": 3914,
      "988": 3915,
      "irw": 3916,
      "ĠØ«": 3917,
      "NN": 3918,
      "UH": 3919,
      "475": 3920,
      "max": 3921,
      "tw": 3922,
      "ira": 3923,
      "sly": 3924,
      "803": 3925,
      "VIR": 3926,
      "991": 3927,
      "GEN": 3928,
      "ICK": 3929,
      "cro": 3930,
      "625": 3931,
      "mer": 3932,
      "ji": 3933,
      "YL": 3934,
      "765": 3935,
      "tin": 3936,
      "069": 3937,
      "arf": 3938,
      "bsc": 3939,
      "690": 3940,
      "ĠGE": 3941,
      "PI": 3942,
      "Rel": 3943,
      "548": 3944,
      "714": 3945,
      "656": 3946,
      "ANG": 3947,
      "ĠNJ": 3948,
      "YR": 3949,
      "ĠÏ": 3950,
      "552": 3951,
      "ISC": 3952,
      "ny": 3953,
      "OTH": 3954,
      "461": 3955,
      "edi": 3956,
      "VID": 3957,
      "035": 3958,
      "414": 3959,
      "Ġai": 3960,
      "VOC": 3961,
      "ĠTw": 3962,
      "RED": 3963,
      "dig": 3964,
      "Ġsa": 3965,
      "ĠEr": 3966,
      "wns": 3967,
      "919": 3968,
      "utd": 3969,
      "ĠSI": 3970,
      "Fre": 3971,
      "802": 3972,
      "Dra": 3973,
      "abs": 3974,
      "Inv": 3975,
      "llm": 3976,
      "395": 3977,
      "liv": 3978,
      "ĠPs": 3979,
      "Bro": 3980,
      "Ð¸": 3981,
      "695": 3982,
      "TIS": 3983,
      "Fr": 3984,
      "cry": 3985,
      "770": 3986,
      "Fi": 3987,
      "EG": 3988,
      "bg": 3989,
      "549": 3990,
      "gas": 3991,
      "ubs": 3992,
      "768": 3993,
      "901": 3994,
      "UK": 3995,
      "ĠEF": 3996,
      "ĠOm": 3997,
      "LD": 3998,
      "sce": 3999,
      "áº": 4000,
      "cra": 4001,
      "981": 4002,
      "SCR": 4003,
      "'-": 4004,
      "751": 4005,
      "Equ": 4006,
      "741": 4007,
      "`@": 4008,
      "608": 4009,
      "HC": 4010,
      "Te": 4011,
      "ĠHa": 4012,
      "670": 4013,
      "WO": 4014,
      "ETY": 4015,
      "809": 4016,
      "alv": 4017,
      "747": 4018,
      "ĠHy": 4019,
      "GM": 4020,
      "787": 4021,
      "ĠFD": 4022,
      "Est": 4023,
      "WI": 4024,
      "976": 4025,
      "666": 4026,
      "ĠGU": 4027,
      "Tra": 4028,
      "peu": 4029,
      "tl": 4030,
      "ĠAB": 4031,
      "ĠRT": 4032,
      "och": 4033,
      "UAS": 4034,
      "829": 4035,
      "ĠØĮ": 4036,
      "396": 4037,
      "039": 4038,
      "OGY": 4039,
      "Ġpt": 4040,
      "Av": 4041,
      "don": 4042,
      "Po": 4043,
      "URI": 4044,
      "Ġ}": 4045,
      "754": 4046,
      "MN": 4047,
      "Be": 4048,
      "769": 4049,
      "adm": 4050,
      "445": 4051,
      "559": 4052,
      "'re": 4053,
      "WIn": 4054,
      "itz": 4055,
      "422": 4056,
      "hex": 4057,
      "Des": 4058,
      "VL": 4059,
      "ko": 4060,
      "Sam": 4061,
      "ĠUA": 4062,
      "efs": 4063,
      "978": 4064,
      "ĠIM": 4065,
      "fat": 4066,
      ",**": 4067,
      "GRO": 4068,
      "WD": 4069,
      "uor": 4070,
      "Gas": 4071,
      "xi": 4072,
      "758": 4073,
      "ĠCu": 4074,
      "Øº": 4075,
      "971": 4076,
      "748": 4077,
      "][": 4078,
      "ĠRu": 4079,
      "ĠUR": 4080,
      "992": 4081,
      "REA": 4082
    },
    "merges": [
      [
        "Ġ",
        "Ġ"
      ],
      [
        "Ġ",
        "t"
      ],
      [
        "Ġ",
        "a"
      ],
      [
        "i",
        "n"
      ],
      [
        ".",
        "."
      ],
      [
        "h",
        "e"
      ],
      [
        "o",
        "n"
      ],
      [
        "r",
        "e"
      ],
      [
        "Ġ",
        "o"
      ],
      [
        "e",
        "r"
      ],
      [
        "t",
        "i"
      ],
      [
        "e",
        "n"
      ],
      [
        "-",
        "-"
      ],
      [
        "Ġ",
        "s"
      ],
      [
        "o",
        "r"
      ],
      [
        "e",
        "d"
      ],
      [
        "Ġ",
        "p"
      ],
      [
        "e",
        "s"
      ],
      [
        "Ġ",
        "c"
      ],
      [
        "a",
        "l"
      ],
      [
        "Ġo",
        "f"
      ],
      [
        "a",
        "t"
      ],
      [
        "i",
        "s"
      ],
      [
        "a",
        "n"
      ],
      [
        "Ġa",
        "n"
      ],
      [
        "Ġ",
        "in"
      ],
      [
        "i",
        "t"
      ],
      [
        "Ġ",
        "f"
      ],
      [
        "a",
        "r"
      ],
      [
        "Ġ",
        "b"
      ],
      [
        "in",
        "g"
      ],
      [
        "Ġ",
        "1"
      ],
      [
        "r",
        "o"
      ],
      [
        "Ġ",
        "w"
      ],
      [
        "i",
        "c"
      ],
      [
        "Ġt",
        "o"
      ],
      [
        "Ġ",
        "Ċ"
      ],
      [
        "Ġ",
        "d"
      ],
      [
        "en",
        "t"
      ],
      [
        "e",
        "c"
      ],
      [
        "Ġ",
        "m"
      ],
      [
        "a",
        "ti"
      ],
      [
        "Ġ",
        "re"
      ],
      [
        "Ġ",
        "2"
      ],
      [
        "l",
        "e"
      ],
      [
        "0",
        "0"
      ],
      [
        "a",
        "s"
      ],
      [
        "Ġ",
        "("
      ],
      [
        "Ġ",
        "e"
      ],
      [
        "o",
        "u"
      ],
      [
        "Ġt",
        "h"
      ],
      [
        "â",
        "Ģ"
      ],
      [
        "Ġ",
        "S"
      ],
      [
        "Ġ",
        "C"
      ],
      [
        "Ġ",
        "A"
      ],
      [
        "o",
        "m"
      ],
      [
        "Ġ",
        "n"
      ],
      [
        "#",
        "#"
      ],
      [
        "c",
        "e"
      ],
      [
        "on",
        "s"
      ],
      [
        "&",
        "#"
      ],
      [
        "i",
        "l"
      ],
      [
        "Ġ",
        "."
      ],
      [
        "Ġo",
        "r"
      ],
      [
        "v",
        "e"
      ],
      [
        "s",
        "t"
      ],
      [
        "Ġb",
        "e"
      ],
      [
        "Ġ",
        "T"
      ],
      [
        "Ġ",
        "l"
      ],
      [
        "Ġ",
        "h"
      ],
      [
        "i",
        "d"
      ],
      [
        "u",
        "r"
      ],
      [
        "_",
        "_"
      ],
      [
        "Ġ",
        "3"
      ],
      [
        "u",
        "n"
      ],
      [
        "Ġ",
        "I"
      ],
      [
        "e",
        "t"
      ],
      [
        "o",
        "t"
      ],
      [
        "o",
        "l"
      ],
      [
        "a",
        "c"
      ],
      [
        "Ġ",
        "P"
      ],
      [
        "Ġ",
        "is"
      ],
      [
        "i",
        "m"
      ],
      [
        "l",
        "y"
      ],
      [
        "Ġs",
        "u"
      ],
      [
        "Ġ",
        "0"
      ],
      [
        "s",
        "e"
      ],
      [
        "at",
        "e"
      ],
      [
        "Ġa",
        "s"
      ],
      [
        "u",
        "t"
      ],
      [
        "Ġ",
        "F"
      ],
      [
        "r",
        "a"
      ],
      [
        "p",
        "p"
      ],
      [
        "u",
        "l"
      ],
      [
        "c",
        "h"
      ],
      [
        "it",
        "h"
      ],
      [
        "ĠĠ",
        "Ġ"
      ],
      [
        "a",
        "b"
      ],
      [
        "Ġ",
        "4"
      ],
      [
        "Ġ",
        "M"
      ],
      [
        "Ġ",
        "on"
      ],
      [
        "a",
        "y"
      ],
      [
        "Ġb",
        "y"
      ],
      [
        "Ġ",
        "D"
      ],
      [
        "i",
        "g"
      ],
      [
        "Ġ",
        "R"
      ],
      [
        "er",
        "s"
      ],
      [
        "e",
        "m"
      ],
      [
        "q",
        "u"
      ],
      [
        "c",
        "t"
      ],
      [
        "Ġ",
        "g"
      ],
      [
        "t",
        "he"
      ],
      [
        "a",
        "g"
      ],
      [
        "e",
        "l"
      ],
      [
        "0",
        "1"
      ],
      [
        "o",
        "w"
      ],
      [
        "Ġ",
        "N"
      ],
      [
        "i",
        "r"
      ],
      [
        "Ġ",
        "E"
      ],
      [
        "ec",
        "t"
      ],
      [
        "t",
        "er"
      ],
      [
        "i",
        "f"
      ],
      [
        "o",
        "d"
      ],
      [
        "Ġ",
        "5"
      ],
      [
        "r",
        "i"
      ],
      [
        "u",
        "m"
      ],
      [
        "a",
        "m"
      ],
      [
        "re",
        "s"
      ],
      [
        "u",
        "s"
      ],
      [
        "o",
        "s"
      ],
      [
        "*",
        "*"
      ],
      [
        "it",
        "y"
      ],
      [
        "i",
        "ti"
      ],
      [
        "Ġs",
        "t"
      ],
      [
        "v",
        "er"
      ],
      [
        "i",
        "on"
      ],
      [
        "d",
        "er"
      ],
      [
        "Ġe",
        "x"
      ],
      [
        "x",
        "D"
      ],
      [
        "es",
        "s"
      ],
      [
        "a",
        "d"
      ],
      [
        "an",
        "d"
      ],
      [
        "on",
        "t"
      ],
      [
        "Ġ",
        "un"
      ],
      [
        "Ġ1",
        "9"
      ],
      [
        "ĠĠ",
        "Ċ"
      ],
      [
        "Ġ",
        "6"
      ],
      [
        "Ġs",
        "h"
      ],
      [
        "re",
        "d"
      ],
      [
        "Ġ",
        "O"
      ],
      [
        "Ġ",
        "B"
      ],
      [
        "Ġ",
        "âĢ"
      ],
      [
        "or",
        "t"
      ],
      [
        "Ġw",
        "h"
      ],
      [
        "is",
        "t"
      ],
      [
        "al",
        "l"
      ],
      [
        "o",
        "c"
      ],
      [
        "a",
        "in"
      ],
      [
        "an",
        "t"
      ],
      [
        "Ġ",
        "v"
      ],
      [
        "en",
        "d"
      ],
      [
        "d",
        "u"
      ],
      [
        "Ġd",
        "e"
      ],
      [
        "om",
        "p"
      ],
      [
        "Ġa",
        "c"
      ],
      [
        "ou",
        "n"
      ],
      [
        "Ġa",
        "l"
      ],
      [
        "ar",
        "t"
      ],
      [
        "Ġa",
        "t"
      ],
      [
        ";",
        "&#"
      ],
      [
        "or",
        "m"
      ],
      [
        "u",
        "d"
      ],
      [
        "om",
        "m"
      ],
      [
        "f",
        "f"
      ],
      [
        "Ġ",
        "r"
      ],
      [
        "Ġ",
        "U"
      ],
      [
        "es",
        "t"
      ],
      [
        "ĠI",
        "n"
      ],
      [
        "ro",
        "m"
      ],
      [
        "Ġ",
        "7"
      ],
      [
        "Ġ",
        "L"
      ],
      [
        "s",
        "p"
      ],
      [
        "u",
        "re"
      ],
      [
        "1",
        "0"
      ],
      [
        "Ġ",
        "H"
      ],
      [
        "##",
        "#"
      ],
      [
        "Ġ",
        "W"
      ],
      [
        "Ġ",
        "8"
      ],
      [
        "ro",
        "v"
      ],
      [
        "p",
        "er"
      ],
      [
        ")",
        ","
      ],
      [
        "Ġ",
        "it"
      ],
      [
        "Ġ",
        "9"
      ],
      [
        "e",
        "re"
      ],
      [
        "ic",
        "h"
      ],
      [
        "il",
        "l"
      ],
      [
        "ou",
        "r"
      ],
      [
        "ti",
        "c"
      ],
      [
        "Ċ",
        "Ċ"
      ],
      [
        "t",
        "h"
      ],
      [
        "Ġ",
        "y"
      ],
      [
        "i",
        "v"
      ],
      [
        "1",
        "6"
      ],
      [
        "Ġ",
        "G"
      ],
      [
        "o",
        "re"
      ],
      [
        "c",
        "l"
      ],
      [
        "âĢ",
        "Ļ"
      ],
      [
        "1",
        "2"
      ],
      [
        "Ġ",
        "-"
      ],
      [
        "ar",
        "y"
      ],
      [
        "ĠS",
        "t"
      ],
      [
        "ar",
        "d"
      ],
      [
        "i",
        "al"
      ],
      [
        "1",
        "9"
      ],
      [
        "p",
        "l"
      ],
      [
        "i",
        "re"
      ],
      [
        "u",
        "b"
      ],
      [
        "Ġa",
        "d"
      ],
      [
        "or",
        "d"
      ],
      [
        "Ġ",
        "he"
      ],
      [
        "e",
        "p"
      ],
      [
        "l",
        "d"
      ],
      [
        "2",
        "0"
      ],
      [
        "b",
        "er"
      ],
      [
        "o",
        "p"
      ],
      [
        "ig",
        "h"
      ],
      [
        "i",
        "es"
      ],
      [
        "00",
        "0"
      ],
      [
        "a",
        "k"
      ],
      [
        "ic",
        "e"
      ],
      [
        "ag",
        "e"
      ],
      [
        "an",
        "s"
      ],
      [
        "Ġh",
        "a"
      ],
      [
        "e",
        "ar"
      ],
      [
        "1",
        "1"
      ],
      [
        "l",
        "ic"
      ],
      [
        "g",
        "e"
      ],
      [
        "Ġ",
        "en"
      ],
      [
        "u",
        "st"
      ],
      [
        "ac",
        "t"
      ],
      [
        "Ġ1",
        "0"
      ],
      [
        "e",
        "w"
      ],
      [
        "c",
        "ti"
      ],
      [
        "âĢ",
        "Ķ"
      ],
      [
        "as",
        "e"
      ],
      [
        "er",
        "m"
      ],
      [
        "Ġc",
        "h"
      ],
      [
        "p",
        "os"
      ],
      [
        "er",
        "v"
      ],
      [
        "2",
        "3"
      ],
      [
        "Ġ",
        "u"
      ],
      [
        "Ġs",
        "p"
      ],
      [
        "a",
        "p"
      ],
      [
        "9",
        "5"
      ],
      [
        "i",
        "p"
      ],
      [
        "on",
        "d"
      ],
      [
        "l",
        "ow"
      ],
      [
        "ti",
        "t"
      ],
      [
        "is",
        "s"
      ],
      [
        "b",
        "s"
      ],
      [
        "Ġ",
        "J"
      ],
      [
        "Ġ",
        "im"
      ],
      [
        "p",
        "h"
      ],
      [
        "2",
        "2"
      ],
      [
        "in",
        "e"
      ],
      [
        "9",
        "6"
      ],
      [
        "Ġ",
        "le"
      ],
      [
        "Ġm",
        "e"
      ],
      [
        "i",
        "ed"
      ],
      [
        ")",
        "("
      ],
      [
        "Ġ",
        "**"
      ],
      [
        "2",
        "00"
      ],
      [
        ")",
        "."
      ],
      [
        "t",
        "s"
      ],
      [
        "1",
        "3"
      ],
      [
        "i",
        "z"
      ],
      [
        "u",
        "e"
      ],
      [
        "ig",
        "n"
      ],
      [
        "Ċ",
        "ĠĠ"
      ],
      [
        "O",
        "N"
      ],
      [
        "e",
        "g"
      ],
      [
        "Ġp",
        "l"
      ],
      [
        "as",
        "s"
      ],
      [
        "Ġa",
        "m"
      ],
      [
        "u",
        "al"
      ],
      [
        "e",
        "e"
      ],
      [
        "1",
        "5"
      ],
      [
        "ti",
        "f"
      ],
      [
        "1",
        "4"
      ],
      [
        "9",
        "4"
      ],
      [
        "e",
        "f"
      ],
      [
        "2",
        "5"
      ],
      [
        "id",
        "e"
      ],
      [
        "r",
        "u"
      ],
      [
        "he",
        "r"
      ],
      [
        "t",
        "ed"
      ],
      [
        "o",
        "g"
      ],
      [
        "Ġc",
        "l"
      ],
      [
        "Ġ",
        "us"
      ],
      [
        "Ġ",
        "|"
      ],
      [
        "1",
        "7"
      ],
      [
        "e",
        "x"
      ],
      [
        "2",
        "4"
      ],
      [
        "en",
        "s"
      ],
      [
        "T",
        "he"
      ],
      [
        "3",
        "0"
      ],
      [
        "Ġ",
        "V"
      ],
      [
        "E",
        "R"
      ],
      [
        ".",
        "&#"
      ],
      [
        "Ġt",
        "r"
      ],
      [
        "Ġ",
        ".."
      ],
      [
        "a",
        "il"
      ],
      [
        "l",
        "l"
      ],
      [
        "ĠU",
        "n"
      ],
      [
        "ac",
        "h"
      ],
      [
        "Ġa",
        "b"
      ],
      [
        "i",
        "b"
      ],
      [
        "2",
        "01"
      ],
      [
        "Ġ",
        "$"
      ],
      [
        "Ġe",
        "m"
      ],
      [
        "o",
        "st"
      ],
      [
        "9",
        "9"
      ],
      [
        "ro",
        "c"
      ],
      [
        "1",
        "8"
      ],
      [
        "a",
        "re"
      ],
      [
        "ri",
        "b"
      ],
      [
        "âĢ",
        "Ŀ"
      ],
      [
        "t",
        "o"
      ],
      [
        "Ġa",
        "r"
      ],
      [
        "Ġ2",
        "0"
      ],
      [
        "ou",
        "s"
      ],
      [
        "as",
        "t"
      ],
      [
        "en",
        "c"
      ],
      [
        "ve",
        "l"
      ],
      [
        "ra",
        "m"
      ],
      [
        "r",
        "ic"
      ],
      [
        "Ġa",
        "g"
      ],
      [
        "o",
        "se"
      ],
      [
        "r",
        "y"
      ],
      [
        "ro",
        "p"
      ],
      [
        "u",
        "ti"
      ],
      [
        "Ġn",
        "o"
      ],
      [
        "T",
        "I"
      ],
      [
        "he",
        "n"
      ],
      [
        "om",
        "e"
      ],
      [
        "ro",
        "u"
      ],
      [
        "5",
        "0"
      ],
      [
        "Ġ1",
        "2"
      ],
      [
        "or",
        "k"
      ],
      [
        "g",
        "h"
      ],
      [
        "Ġ",
        "Ù"
      ],
      [
        "Ġ",
        "&#"
      ],
      [
        "ro",
        "g"
      ],
      [
        "un",
        "d"
      ],
      [
        "an",
        "c"
      ],
      [
        "Ġ1",
        "3"
      ],
      [
        "h",
        "or"
      ],
      [
        "Ġ1",
        "4"
      ],
      [
        "16",
        "0"
      ],
      [
        "I",
        "n"
      ],
      [
        "Ġw",
        "e"
      ],
      [
        "i",
        "a"
      ],
      [
        "Ġ",
        "Ø"
      ],
      [
        "âĢ",
        "ĵ"
      ],
      [
        "l",
        "i"
      ],
      [
        "Ġ",
        "<"
      ],
      [
        "el",
        "l"
      ],
      [
        "v",
        "i"
      ],
      [
        "or",
        "y"
      ],
      [
        "2",
        "6"
      ],
      [
        "E",
        "N"
      ],
      [
        "t",
        "y"
      ],
      [
        "at",
        "a"
      ],
      [
        "Ġ1",
        "5"
      ],
      [
        "o",
        "v"
      ],
      [
        "y",
        "st"
      ],
      [
        "ou",
        "t"
      ],
      [
        "2",
        "7"
      ],
      [
        "p",
        "le"
      ],
      [
        "Ġ",
        "qu"
      ],
      [
        "2",
        "8"
      ],
      [
        "er",
        "c"
      ],
      [
        "4",
        "0"
      ],
      [
        "im",
        "e"
      ],
      [
        "a",
        "ce"
      ],
      [
        "o",
        "ve"
      ],
      [
        "Ġ",
        "if"
      ],
      [
        "Ġ1",
        "8"
      ],
      [
        "E",
        "S"
      ],
      [
        "n",
        "t"
      ],
      [
        "Ġ1",
        "6"
      ],
      [
        "or",
        "s"
      ],
      [
        "s",
        "u"
      ],
      [
        "on",
        "g"
      ],
      [
        "an",
        "y"
      ],
      [
        "9",
        "0"
      ],
      [
        "o",
        "od"
      ],
      [
        "Ġ",
        "k"
      ],
      [
        "O",
        "R"
      ],
      [
        "o",
        "f"
      ],
      [
        "Â",
        "§"
      ],
      [
        "3",
        "3"
      ],
      [
        "Ġ",
        "i"
      ],
      [
        "\"",
        ","
      ],
      [
        "Ġd",
        "o"
      ],
      [
        "ĠT",
        "h"
      ],
      [
        "ad",
        "e"
      ],
      [
        "ul",
        "t"
      ],
      [
        "ac",
        "k"
      ],
      [
        "=",
        "\""
      ],
      [
        "I",
        "N"
      ],
      [
        "Ġ",
        "j"
      ],
      [
        "p",
        "ti"
      ],
      [
        ".",
        ","
      ],
      [
        "v",
        "en"
      ],
      [
        "ar",
        "k"
      ],
      [
        "..",
        "."
      ],
      [
        "is",
        "h"
      ],
      [
        "Ġ1",
        "7"
      ],
      [
        "o",
        "y"
      ],
      [
        "9",
        "7"
      ],
      [
        "on",
        "e"
      ],
      [
        "a",
        "x"
      ],
      [
        "8",
        "0"
      ],
      [
        "3",
        "5"
      ],
      [
        "a",
        "u"
      ],
      [
        "f",
        "er"
      ],
      [
        "c",
        "he"
      ],
      [
        "is",
        "e"
      ],
      [
        "Ġ",
        "--"
      ],
      [
        "Ù",
        "Ħ"
      ],
      [
        "Ġp",
        "r"
      ],
      [
        "A",
        "R"
      ],
      [
        "Ġ1",
        "1"
      ],
      [
        "p",
        "e"
      ],
      [
        "2",
        "1"
      ],
      [
        "er",
        "i"
      ],
      [
        "p",
        "t"
      ],
      [
        "A",
        "L"
      ],
      [
        "it",
        "s"
      ],
      [
        "ĠC",
        "h"
      ],
      [
        "Ķ",
        "-"
      ],
      [
        "=",
        "="
      ],
      [
        "ĠA",
        "n"
      ],
      [
        "\",",
        "\""
      ],
      [
        "i",
        "ve"
      ],
      [
        "6",
        "0"
      ],
      [
        "A",
        "N"
      ],
      [
        "ak",
        "e"
      ],
      [
        "am",
        "e"
      ],
      [
        "it",
        "t"
      ],
      [
        "oc",
        "k"
      ],
      [
        "9",
        "8"
      ],
      [
        "c",
        "c"
      ],
      [
        "s",
        "o"
      ],
      [
        "ab",
        "l"
      ],
      [
        "g",
        "ul"
      ],
      [
        "Ġs",
        "o"
      ],
      [
        "Ġ",
        "K"
      ],
      [
        "3",
        "8"
      ],
      [
        "<",
        "/"
      ],
      [
        "3",
        "4"
      ],
      [
        "7",
        "0"
      ],
      [
        "an",
        "g"
      ],
      [
        "'",
        "s"
      ],
      [
        "Ġe",
        "l"
      ],
      [
        "an",
        "n"
      ],
      [
        "ti",
        "m"
      ],
      [
        "s",
        "s"
      ],
      [
        "in",
        "t"
      ],
      [
        "Ġ3",
        "0"
      ],
      [
        "e",
        "ed"
      ],
      [
        "ĠN",
        "o"
      ],
      [
        "l",
        "at"
      ],
      [
        "3",
        "6"
      ],
      [
        "qu",
        "i"
      ],
      [
        "A",
        "T"
      ],
      [
        "8",
        "2"
      ],
      [
        "Ġ",
        "["
      ],
      [
        "4",
        "5"
      ],
      [
        "Ġc",
        "o"
      ],
      [
        "et",
        "h"
      ],
      [
        "a",
        "w"
      ],
      [
        "3",
        "7"
      ],
      [
        "m",
        "in"
      ],
      [
        "c",
        "re"
      ],
      [
        "it",
        "e"
      ],
      [
        "F",
        "R"
      ],
      [
        "ro",
        "l"
      ],
      [
        "y",
        "s"
      ],
      [
        "f",
        "ic"
      ],
      [
        "ec",
        "h"
      ],
      [
        "c",
        "es"
      ],
      [
        "re",
        "e"
      ],
      [
        "I",
        "S"
      ],
      [
        "an",
        "k"
      ],
      [
        "a",
        "v"
      ],
      [
        "E",
        "C"
      ],
      [
        "S",
        "ch"
      ],
      [
        "8",
        "6"
      ],
      [
        "ow",
        "n"
      ],
      [
        "al",
        "s"
      ],
      [
        "Ø",
        "§"
      ],
      [
        "in",
        "d"
      ],
      [
        "âĢ",
        "¢"
      ],
      [
        "5",
        "5"
      ],
      [
        "ol",
        "d"
      ],
      [
        "le",
        "m"
      ],
      [
        "b",
        "j"
      ],
      [
        "Ġs",
        "e"
      ],
      [
        "i",
        "le"
      ],
      [
        "Ġ",
        ","
      ],
      [
        "he",
        "y"
      ],
      [
        "P",
        "A"
      ],
      [
        "w",
        "e"
      ],
      [
        "ol",
        "l"
      ],
      [
        "ex",
        "t"
      ],
      [
        "il",
        "d"
      ],
      [
        "ct",
        "s"
      ],
      [
        "n",
        "ce"
      ],
      [
        "ar",
        "a"
      ],
      [
        "ra",
        "d"
      ],
      [
        "Ġ2",
        "4"
      ],
      [
        "âĢ",
        "ĺ"
      ],
      [
        "ro",
        "t"
      ],
      [
        "Ġ2",
        "5"
      ],
      [
        "7",
        "5"
      ],
      [
        "Ġl",
        "i"
      ],
      [
        "8",
        "8"
      ],
      [
        "ĠA",
        "m"
      ],
      [
        "is",
        "c"
      ],
      [
        "es",
        "c"
      ],
      [
        "Ġ",
        "Y"
      ],
      [
        "0",
        "5"
      ],
      [
        "re",
        "t"
      ],
      [
        "2",
        "9"
      ],
      [
        "on",
        "c"
      ],
      [
        "a",
        "f"
      ],
      [
        "v",
        "es"
      ],
      [
        "ĠA",
        "d"
      ],
      [
        "ar",
        "g"
      ],
      [
        "4",
        "4"
      ],
      [
        "er",
        "t"
      ],
      [
        "f",
        "or"
      ],
      [
        "i",
        "i"
      ],
      [
        "Ġe",
        "v"
      ],
      [
        "I",
        "C"
      ],
      [
        "E",
        "D"
      ],
      [
        ")",
        "**"
      ],
      [
        "ud",
        "e"
      ],
      [
        "ĠE",
        "n"
      ],
      [
        "Ġa",
        "f"
      ],
      [
        "pp",
        "l"
      ],
      [
        "is",
        "i"
      ],
      [
        "Ġu",
        "p"
      ],
      [
        "a",
        "im"
      ],
      [
        "4",
        "6"
      ],
      [
        "he",
        "d"
      ],
      [
        "r",
        "at"
      ],
      [
        "8",
        "5"
      ],
      [
        "n",
        "ot"
      ],
      [
        "Ċ",
        "Ġ"
      ],
      [
        "k",
        "e"
      ],
      [
        "7",
        "6"
      ],
      [
        "w",
        "n"
      ],
      [
        "A",
        "S"
      ],
      [
        "Ġ",
        "Â§"
      ],
      [
        "i",
        "x"
      ],
      [
        "3",
        "1"
      ],
      [
        "p",
        "ro"
      ],
      [
        "w",
        "w"
      ],
      [
        "Ġ2",
        "6"
      ],
      [
        "ar",
        "i"
      ],
      [
        "Ġ",
        "ro"
      ],
      [
        "on",
        "f"
      ],
      [
        "ĠE",
        "x"
      ],
      [
        "on",
        "n"
      ],
      [
        "s",
        "h"
      ],
      [
        "Ġ4",
        "0"
      ],
      [
        "s",
        "ec"
      ],
      [
        "7",
        "4"
      ],
      [
        "t",
        "t"
      ],
      [
        "ĠC",
        "O"
      ],
      [
        "Ġg",
        "o"
      ],
      [
        "he",
        "m"
      ],
      [
        "a",
        "ir"
      ],
      [
        "re",
        "a"
      ],
      [
        "Ġt",
        "y"
      ],
      [
        "3",
        "9"
      ],
      [
        "u",
        "le"
      ],
      [
        "ĠO",
        "F"
      ],
      [
        "b",
        "t"
      ],
      [
        "ĠR",
        "e"
      ],
      [
        "a",
        "id"
      ],
      [
        "k",
        "ed"
      ],
      [
        "7",
        "7"
      ],
      [
        "er",
        "g"
      ],
      [
        "Ġ2",
        "1"
      ],
      [
        "0",
        "6"
      ],
      [
        "ed",
        "u"
      ],
      [
        "y",
        "l"
      ],
      [
        "ut",
        "e"
      ],
      [
        "v",
        "ol"
      ],
      [
        "I",
        "T"
      ],
      [
        "ay",
        "s"
      ],
      [
        "ir",
        "c"
      ],
      [
        "\"",
        ">"
      ],
      [
        "if",
        "f"
      ],
      [
        "os",
        "s"
      ],
      [
        "5",
        "6"
      ],
      [
        "Ġa",
        "v"
      ],
      [
        "du",
        "c"
      ],
      [
        "Ġ2",
        "8"
      ],
      [
        "ĠA",
        "r"
      ],
      [
        "Ġ",
        "\""
      ],
      [
        "Ġ",
        "id"
      ],
      [
        "3",
        "2"
      ],
      [
        "e",
        "al"
      ],
      [
        "p",
        "ar"
      ],
      [
        "U",
        "R"
      ],
      [
        "p",
        "r"
      ],
      [
        "0",
        "4"
      ],
      [
        "9",
        "2"
      ],
      [
        "t",
        "e"
      ],
      [
        "d",
        "iv"
      ],
      [
        "7",
        "8"
      ],
      [
        "n",
        "e"
      ],
      [
        "m",
        "e"
      ],
      [
        "p",
        "or"
      ],
      [
        "A",
        "C"
      ],
      [
        "r",
        "an"
      ],
      [
        "Ġ2",
        "2"
      ],
      [
        "9",
        "3"
      ],
      [
        "t",
        "we"
      ],
      [
        "ti",
        "v"
      ],
      [
        "I",
        "G"
      ],
      [
        "ĉ",
        "ĉ"
      ],
      [
        "ĠA",
        "g"
      ],
      [
        ")",
        ";"
      ],
      [
        "R",
        "O"
      ],
      [
        "d",
        "ic"
      ],
      [
        "m",
        "it"
      ],
      [
        "g",
        "an"
      ],
      [
        "oc",
        "i"
      ],
      [
        "ic",
        "i"
      ],
      [
        "er",
        "f"
      ],
      [
        "Ġ",
        "*"
      ],
      [
        "Ù",
        "Ĩ"
      ],
      [
        "le",
        "v"
      ],
      [
        "8",
        "4"
      ],
      [
        "9",
        "1"
      ],
      [
        "w",
        "o"
      ],
      [
        "EN",
        "T"
      ],
      [
        "n",
        "m"
      ],
      [
        "5",
        "4"
      ],
      [
        "Ġf",
        "l"
      ],
      [
        "8",
        "1"
      ],
      [
        "Ġ2",
        "7"
      ],
      [
        "o",
        "b"
      ],
      [
        "ur",
        "n"
      ],
      [
        "Ù",
        "Ĭ"
      ],
      [
        "ay",
        "m"
      ],
      [
        "Ġ2",
        "3"
      ],
      [
        "Ġs",
        "c"
      ],
      [
        "ot",
        "h"
      ],
      [
        "in",
        "k"
      ],
      [
        "ar",
        "m"
      ],
      [
        "re",
        "n"
      ],
      [
        "al",
        "u"
      ],
      [
        "Ġ",
        "&"
      ],
      [
        "Ù",
        "ħ"
      ],
      [
        "N",
        "D"
      ],
      [
        "6",
        "6"
      ],
      [
        "ĠF",
        "R"
      ],
      [
        "8",
        "7"
      ],
      [
        "t",
        "em"
      ],
      [
        "f",
        "in"
      ],
      [
        "ĠP",
        "l"
      ],
      [
        "Ġe",
        "t"
      ],
      [
        "p",
        "s"
      ],
      [
        "et",
        "s"
      ],
      [
        "ĠĊ",
        "Ċ"
      ],
      [
        "A",
        "TI"
      ],
      [
        "od",
        "e"
      ],
      [
        "N",
        "ot"
      ],
      [
        "on",
        "m"
      ],
      [
        "v",
        "is"
      ],
      [
        "er",
        "n"
      ],
      [
        "--",
        "-"
      ],
      [
        "an",
        "u"
      ],
      [
        "Ġ5",
        "0"
      ],
      [
        "Ġd",
        "i"
      ],
      [
        "f",
        "t"
      ],
      [
        "al",
        "e"
      ],
      [
        "ĠC",
        "l"
      ],
      [
        "et",
        "y"
      ],
      [
        "o",
        "k"
      ],
      [
        "L",
        "E"
      ],
      [
        "Ġ",
        ":"
      ],
      [
        ",",
        ","
      ],
      [
        "Ġ",
        "es"
      ],
      [
        "I",
        "I"
      ],
      [
        "ĠA",
        "l"
      ],
      [
        "i",
        "er"
      ],
      [
        "Ġ3",
        "1"
      ],
      [
        "8",
        "9"
      ],
      [
        "ro",
        "j"
      ],
      [
        "7",
        "2"
      ],
      [
        "Ġ",
        "ve"
      ],
      [
        "t",
        "en"
      ],
      [
        "6",
        "5"
      ],
      [
        "g",
        "ov"
      ],
      [
        "l",
        "t"
      ],
      [
        "¿",
        "½"
      ],
      [
        "ï",
        "¿½"
      ],
      [
        "ĊĊ",
        "Ċ"
      ],
      [
        "r",
        "it"
      ],
      [
        "as",
        "h"
      ],
      [
        "Ġg",
        "r"
      ],
      [
        "s",
        "er"
      ],
      [
        "el",
        "d"
      ],
      [
        "Ġl",
        "o"
      ],
      [
        "ĠI",
        "N"
      ],
      [
        "m",
        "ed"
      ],
      [
        "re",
        "f"
      ],
      [
        "v",
        "ir"
      ],
      [
        "Ġp",
        "e"
      ],
      [
        "U",
        "S"
      ],
      [
        "Ġp",
        "h"
      ],
      [
        "Ġ3",
        "5"
      ],
      [
        "N",
        "o"
      ],
      [
        "Ġp",
        "o"
      ],
      [
        "se",
        "l"
      ],
      [
        "6",
        "4"
      ],
      [
        "0",
        "7"
      ],
      [
        "0",
        "2"
      ],
      [
        "|",
        "|"
      ],
      [
        "Ġo",
        "p"
      ],
      [
        "i",
        "um"
      ],
      [
        "ĠC",
        "o"
      ],
      [
        "ĠO",
        "r"
      ],
      [
        "em",
        "s"
      ],
      [
        "i",
        "e"
      ],
      [
        "e",
        "an"
      ],
      [
        "h",
        "ip"
      ],
      [
        "a",
        "pp"
      ],
      [
        "ti",
        "l"
      ],
      [
        "re",
        "c"
      ],
      [
        "ĠW",
        "e"
      ],
      [
        "iz",
        "e"
      ],
      [
        "ĠI",
        "f"
      ],
      [
        "0",
        "9"
      ],
      [
        "4",
        "7"
      ],
      [
        "t",
        "r"
      ],
      [
        "Ġf",
        "e"
      ],
      [
        "8",
        "3"
      ],
      [
        "ĠØ",
        "§"
      ],
      [
        "00",
        "5"
      ],
      [
        "b",
        "od"
      ],
      [
        "Ġ",
        "Q"
      ],
      [
        "d",
        "e"
      ],
      [
        "ï",
        "ģ"
      ],
      [
        "t",
        "on"
      ],
      [
        "0",
        "3"
      ],
      [
        "il",
        "y"
      ],
      [
        "op",
        "m"
      ],
      [
        "i",
        "an"
      ],
      [
        "am",
        "p"
      ],
      [
        "l",
        "ed"
      ],
      [
        "u",
        "p"
      ],
      [
        "u",
        "g"
      ],
      [
        "Ġv",
        "i"
      ],
      [
        "Ġ2",
        "9"
      ],
      [
        "Ġk",
        "n"
      ],
      [
        "E",
        "L"
      ],
      [
        "Ġ3",
        "6"
      ],
      [
        "n",
        "b"
      ],
      [
        "o",
        "x"
      ],
      [
        "l",
        "es"
      ],
      [
        "1",
        "00"
      ],
      [
        "T",
        "h"
      ],
      [
        "om",
        "b"
      ],
      [
        "g",
        "et"
      ],
      [
        "0",
        "8"
      ],
      [
        "in",
        "c"
      ],
      [
        "b",
        "st"
      ],
      [
        "ce",
        "m"
      ],
      [
        "A",
        "n"
      ],
      [
        "re",
        "p"
      ],
      [
        "is",
        "k"
      ],
      [
        "/",
        "/"
      ],
      [
        "E",
        "M"
      ],
      [
        "at",
        "h"
      ],
      [
        "i",
        "en"
      ],
      [
        "ow",
        "e"
      ],
      [
        "b",
        "e"
      ],
      [
        "c",
        "il"
      ],
      [
        "Ġ",
        "__"
      ],
      [
        "t",
        "al"
      ],
      [
        "Ġ",
        "ra"
      ],
      [
        "i",
        "o"
      ],
      [
        "00",
        "2"
      ],
      [
        "4",
        "2"
      ],
      [
        "ro",
        "w"
      ],
      [
        "r",
        "on"
      ],
      [
        "Ù",
        "ĩ"
      ],
      [
        "og",
        "y"
      ],
      [
        "7",
        "9"
      ],
      [
        "ĠE",
        "u"
      ],
      [
        ".",
        ")"
      ],
      [
        "Ġ",
        "#"
      ],
      [
        "4",
        "8"
      ],
      [
        "ip",
        "m"
      ],
      [
        "00",
        "6"
      ],
      [
        "re",
        "m"
      ],
      [
        "b",
        "y"
      ],
      [
        "Ġb",
        "l"
      ],
      [
        "Ġ",
        "X"
      ],
      [
        "re",
        "g"
      ],
      [
        "ĠA",
        "s"
      ],
      [
        "c",
        "o"
      ],
      [
        "00",
        "7"
      ],
      [
        "01",
        "0"
      ],
      [
        "in",
        "u"
      ],
      [
        "h",
        "ic"
      ],
      [
        ":",
        "//"
      ],
      [
        "Ġg",
        "u"
      ],
      [
        "Ġ4",
        "5"
      ],
      [
        "4",
        "1"
      ],
      [
        "00",
        "3"
      ],
      [
        "I",
        "L"
      ],
      [
        "S",
        "ec"
      ],
      [
        "7",
        "1"
      ],
      [
        "23",
        "3"
      ],
      [
        "S",
        "t"
      ],
      [
        "ĠS",
        "u"
      ],
      [
        "4",
        "9"
      ],
      [
        "00",
        "1"
      ],
      [
        "A",
        "M"
      ],
      [
        "4",
        "3"
      ],
      [
        "Ġ",
        "Â"
      ],
      [
        "s",
        "ub"
      ],
      [
        "5",
        "9"
      ],
      [
        "p",
        "ec"
      ],
      [
        "m",
        "an"
      ],
      [
        "7",
        "3"
      ],
      [
        "p",
        "ut"
      ],
      [
        "T",
        "R"
      ],
      [
        "IN",
        "G"
      ],
      [
        "C",
        "O"
      ],
      [
        "e",
        "qu"
      ],
      [
        "al",
        "c"
      ],
      [
        "ĠN",
        "O"
      ],
      [
        "C",
        "FR"
      ],
      [
        "ri",
        "v"
      ],
      [
        "Ġ4",
        "2"
      ],
      [
        "if",
        "y"
      ],
      [
        "ro",
        "b"
      ],
      [
        "or",
        "n"
      ],
      [
        "ĠD",
        "e"
      ],
      [
        "em",
        "b"
      ],
      [
        "A",
        "P"
      ],
      [
        "T",
        "H"
      ],
      [
        "ur",
        "p"
      ],
      [
        "ur",
        "f"
      ],
      [
        "t",
        "ru"
      ],
      [
        "âĢ",
        "ľ"
      ],
      [
        "f",
        "l"
      ],
      [
        "Ġ6",
        "0"
      ],
      [
        "Ġs",
        "m"
      ],
      [
        "Ø",
        "±"
      ],
      [
        "s",
        "ul"
      ],
      [
        "00",
        "9"
      ],
      [
        "c",
        "k"
      ],
      [
        "ot",
        "e"
      ],
      [
        "S",
        "ub"
      ],
      [
        "ĠU",
        "S"
      ],
      [
        "A",
        "A"
      ],
      [
        "01",
        "2"
      ],
      [
        "00",
        "8"
      ],
      [
        "Ġ",
        ")"
      ],
      [
        "ĠI",
        "t"
      ],
      [
        "r",
        "is"
      ],
      [
        "e",
        "es"
      ],
      [
        "Ġ3",
        "9"
      ],
      [
        "U",
        "M"
      ],
      [
        "R",
        "E"
      ],
      [
        "o",
        "ol"
      ],
      [
        "00",
        "4"
      ],
      [
        "Ġ3",
        "2"
      ],
      [
        "un",
        "e"
      ],
      [
        "b",
        "l"
      ],
      [
        "an",
        "e"
      ],
      [
        "as",
        "u"
      ],
      [
        ",",
        "&#"
      ],
      [
        "is",
        "m"
      ],
      [
        "Ġb",
        "u"
      ],
      [
        "r",
        "im"
      ],
      [
        "o",
        "ti"
      ],
      [
        "f",
        "ul"
      ],
      [
        "6",
        "7"
      ],
      [
        "ĠT",
        "H"
      ],
      [
        "in",
        "s"
      ],
      [
        "5",
        "8"
      ],
      [
        "5",
        "2"
      ],
      [
        "ro",
        "f"
      ],
      [
        "Ù",
        "Ī"
      ],
      [
        "Ġ4",
        "1"
      ],
      [
        "5",
        "3"
      ],
      [
        "od",
        "y"
      ],
      [
        "n",
        "ol"
      ],
      [
        "Ġ3",
        "3"
      ],
      [
        "w",
        "h"
      ],
      [
        "6",
        "8"
      ],
      [
        "01",
        "3"
      ],
      [
        "ĠM",
        "r"
      ],
      [
        "5",
        "7"
      ],
      [
        "a",
        "j"
      ],
      [
        "ar",
        "b"
      ],
      [
        "ww",
        "w"
      ],
      [
        "et",
        "t"
      ],
      [
        "en",
        "g"
      ],
      [
        "Ġ3",
        "4"
      ],
      [
        "s",
        "ed"
      ],
      [
        "d",
        "s"
      ],
      [
        "ĠB",
        "o"
      ],
      [
        "r",
        "w"
      ],
      [
        "5",
        "1"
      ],
      [
        "h",
        "a"
      ],
      [
        "Ġ",
        "/"
      ],
      [
        "u",
        "el"
      ],
      [
        "e",
        "b"
      ],
      [
        "Ġ",
        "ec"
      ],
      [
        "ĠS",
        "c"
      ],
      [
        "ĠT",
        "r"
      ],
      [
        "ic",
        "k"
      ],
      [
        "I",
        "D"
      ],
      [
        "O",
        "L"
      ],
      [
        "01",
        "1"
      ],
      [
        "Ġ4",
        "4"
      ],
      [
        "Ġ",
        "z"
      ],
      [
        "at",
        "t"
      ],
      [
        "Ġ3",
        "8"
      ],
      [
        "Ġ",
        "="
      ],
      [
        "Ġ4",
        "3"
      ],
      [
        "od",
        "s"
      ],
      [
        "ÙĦ",
        "Ø"
      ],
      [
        "ic",
        "y"
      ],
      [
        "6",
        "3"
      ],
      [
        "6",
        "2"
      ],
      [
        "c",
        "ur"
      ],
      [
        "y",
        "d"
      ],
      [
        "94",
        "5"
      ],
      [
        "f",
        "en"
      ],
      [
        "C",
        "H"
      ],
      [
        "n",
        "al"
      ],
      [
        "Ġ3",
        "7"
      ],
      [
        "v",
        "ic"
      ],
      [
        "g",
        "in"
      ],
      [
        "ĠI",
        "I"
      ],
      [
        "6",
        "9"
      ],
      [
        "a",
        "ff"
      ],
      [
        "s",
        "id"
      ],
      [
        "s",
        "ur"
      ],
      [
        "le",
        "g"
      ],
      [
        "at",
        "m"
      ],
      [
        "ur",
        "y"
      ],
      [
        "O",
        "C"
      ],
      [
        "ĠG",
        "o"
      ],
      [
        "re",
        "l"
      ],
      [
        "ul",
        "l"
      ],
      [
        "if",
        "e"
      ],
      [
        "m",
        "m"
      ],
      [
        "ti",
        "g"
      ],
      [
        "d",
        "en"
      ],
      [
        "w",
        "ay"
      ],
      [
        "u",
        "ly"
      ],
      [
        "6",
        "1"
      ],
      [
        "I",
        "V"
      ],
      [
        "w",
        "he"
      ],
      [
        "T",
        "A"
      ],
      [
        "in",
        "f"
      ],
      [
        "01",
        "4"
      ],
      [
        "96",
        "4"
      ],
      [
        "ir",
        "t"
      ],
      [
        "c",
        "le"
      ],
      [
        "@",
        "@"
      ],
      [
        "Ġf",
        "i"
      ],
      [
        "Ġt",
        "e"
      ],
      [
        "E",
        "P"
      ],
      [
        "e",
        "ad"
      ],
      [
        "01",
        "5"
      ],
      [
        "o",
        "le"
      ],
      [
        "he",
        "s"
      ],
      [
        "A",
        "D"
      ],
      [
        "99",
        "9"
      ],
      [
        "F",
        "or"
      ],
      [
        "I",
        "P"
      ],
      [
        "ar",
        "n"
      ],
      [
        "en",
        "e"
      ],
      [
        "ro",
        "x"
      ],
      [
        "ee",
        "k"
      ],
      [
        "I",
        "R"
      ],
      [
        "r",
        "n"
      ],
      [
        "ĠÙ",
        "Ī"
      ],
      [
        "Ġl",
        "a"
      ],
      [
        "r",
        "al"
      ],
      [
        "Ø",
        "¨"
      ],
      [
        "Ġ",
        "er"
      ],
      [
        "C",
        "C"
      ],
      [
        "oy",
        "m"
      ],
      [
        "g",
        "g"
      ],
      [
        "l",
        "or"
      ],
      [
        "ĠS",
        "T"
      ],
      [
        "st",
        "r"
      ],
      [
        "95",
        "9"
      ],
      [
        "v",
        "ed"
      ],
      [
        "S",
        "T"
      ],
      [
        "ve",
        "y"
      ],
      [
        "ar",
        "c"
      ],
      [
        "O",
        "J"
      ],
      [
        "d",
        "ed"
      ],
      [
        "al",
        "f"
      ],
      [
        "N",
        "A"
      ],
      [
        "Ġ4",
        "9"
      ],
      [
        "ĠW",
        "h"
      ],
      [
        "D",
        "A"
      ],
      [
        "Ø",
        "³"
      ],
      [
        "Ġ4",
        "6"
      ],
      [
        "s",
        "c"
      ],
      [
        "ar",
        "s"
      ],
      [
        "r",
        "s"
      ],
      [
        "C",
        "h"
      ],
      [
        "Ġ4",
        "7"
      ],
      [
        "Ġ4",
        "8"
      ],
      [
        "ĠE",
        "m"
      ],
      [
        "E",
        "T"
      ],
      [
        "Ġ6",
        "3"
      ],
      [
        "ud",
        "y"
      ],
      [
        "Ġ5",
        "1"
      ],
      [
        "as",
        "k"
      ],
      [
        "h",
        "ib"
      ],
      [
        "95",
        "3"
      ],
      [
        "Ġs",
        "l"
      ],
      [
        "a",
        "us"
      ],
      [
        "n",
        "ic"
      ],
      [
        "el",
        "s"
      ],
      [
        "Ġ5",
        "4"
      ],
      [
        "ON",
        "S"
      ],
      [
        "Ġ5",
        "5"
      ],
      [
        "ec",
        "l"
      ],
      [
        "U",
        "N"
      ],
      [
        "h",
        "tt"
      ],
      [
        "ir",
        "d"
      ],
      [
        "d",
        "ay"
      ],
      [
        "Ġ",
        "x"
      ],
      [
        "u",
        "ch"
      ],
      [
        "Ġ5",
        "2"
      ],
      [
        "se",
        "e"
      ],
      [
        "re",
        "v"
      ],
      [
        "5",
        "00"
      ],
      [
        "Ġ5",
        "3"
      ],
      [
        "ub",
        "l"
      ],
      [
        "AT",
        "E"
      ],
      [
        "U",
        "n"
      ],
      [
        "ir",
        "m"
      ],
      [
        "U",
        "L"
      ],
      [
        "c",
        "y"
      ],
      [
        "ac",
        "c"
      ],
      [
        "op",
        "y"
      ],
      [
        "se",
        "m"
      ],
      [
        "y",
        "m"
      ],
      [
        "um",
        "e"
      ],
      [
        "es",
        "p"
      ],
      [
        "u",
        "es"
      ],
      [
        "Ġ6",
        "4"
      ],
      [
        "ĠE",
        "l"
      ],
      [
        "m",
        "ov"
      ],
      [
        "s",
        "f"
      ],
      [
        "I",
        "F"
      ],
      [
        "C",
        "E"
      ],
      [
        "g",
        "l"
      ],
      [
        "c",
        "or"
      ],
      [
        "Ġ0",
        "1"
      ],
      [
        "el",
        "i"
      ],
      [
        "T",
        "S"
      ],
      [
        "`",
        "`"
      ],
      [
        "Ġb",
        "o"
      ],
      [
        "Ġn",
        "e"
      ],
      [
        "Ø",
        "¯"
      ],
      [
        "e",
        "ti"
      ],
      [
        "Ġ6",
        "5"
      ],
      [
        "Ø",
        "¹"
      ],
      [
        "a",
        "h"
      ],
      [
        "P",
        "P"
      ],
      [
        "M",
        "M"
      ],
      [
        "a",
        "z"
      ],
      [
        "E",
        "x"
      ],
      [
        "s",
        "ue"
      ],
      [
        "94",
        "9"
      ],
      [
        "ĠI",
        "s"
      ],
      [
        "ĠT",
        "O"
      ],
      [
        "ĠI",
        "m"
      ],
      [
        "ïģ",
        "²"
      ],
      [
        "li",
        "e"
      ],
      [
        "i",
        "qu"
      ],
      [
        "ĠP",
        "t"
      ],
      [
        "95",
        "7"
      ],
      [
        "Ġw",
        "r"
      ],
      [
        "Ġ",
        "Z"
      ],
      [
        "Ġb",
        "r"
      ],
      [
        "y",
        "n"
      ],
      [
        "e",
        "as"
      ],
      [
        "n",
        "er"
      ],
      [
        "Ġa",
        "w"
      ],
      [
        "f",
        "r"
      ],
      [
        "ra",
        "w"
      ],
      [
        "C",
        "R"
      ],
      [
        "Ġ",
        "ed"
      ],
      [
        "og",
        "n"
      ],
      [
        "M",
        "r"
      ],
      [
        "os",
        "p"
      ],
      [
        "s",
        "ol"
      ],
      [
        "T",
        "ER"
      ],
      [
        "ut",
        "y"
      ],
      [
        "et",
        "w"
      ],
      [
        "h",
        "s"
      ],
      [
        "Ġ5",
        "6"
      ],
      [
        "ru",
        "g"
      ],
      [
        "ac",
        "y"
      ],
      [
        "ĠS",
        "h"
      ],
      [
        "O",
        "S"
      ],
      [
        "a",
        "ve"
      ],
      [
        "Ġ6",
        "1"
      ],
      [
        "u",
        "se"
      ],
      [
        "O",
        "D"
      ],
      [
        "Ġk",
        "e"
      ],
      [
        "Ù",
        "Ĥ"
      ],
      [
        "G",
        "E"
      ],
      [
        "22",
        "5"
      ],
      [
        "t",
        "ry"
      ],
      [
        "l",
        "oc"
      ],
      [
        "t",
        "ra"
      ],
      [
        "c",
        "on"
      ],
      [
        "ĠP",
        "h"
      ],
      [
        "I",
        "f"
      ],
      [
        "A",
        "l"
      ],
      [
        "G",
        "R"
      ],
      [
        "op",
        "e"
      ],
      [
        "Ġj",
        "o"
      ],
      [
        "us",
        "s"
      ],
      [
        "M",
        "P"
      ],
      [
        "__",
        "_"
      ],
      [
        "Ġ",
        "Î"
      ],
      [
        "gh",
        "t"
      ],
      [
        "Ġ",
        "00"
      ],
      [
        "Ġ6",
        "2"
      ],
      [
        "ad",
        "y"
      ],
      [
        "Ġ7",
        "0"
      ],
      [
        "er",
        "y"
      ],
      [
        "e",
        "v"
      ],
      [
        "ut",
        "s"
      ],
      [
        "n",
        "s"
      ],
      [
        "in",
        "a"
      ],
      [
        "b",
        "le"
      ],
      [
        "g",
        "is"
      ],
      [
        "ĠT",
        "o"
      ],
      [
        "ĠÙ",
        "ħ"
      ],
      [
        "ĠG",
        "u"
      ],
      [
        "W",
        "he"
      ],
      [
        "S",
        "E"
      ],
      [
        "I",
        "A"
      ],
      [
        "u",
        "it"
      ],
      [
        "Ø",
        "ª"
      ],
      [
        "Ġ",
        "+"
      ],
      [
        "pp",
        "o"
      ],
      [
        "Ġ8",
        "0"
      ],
      [
        "d",
        "ep"
      ],
      [
        "le",
        "x"
      ],
      [
        "Ġ5",
        "9"
      ],
      [
        "is",
        "p"
      ],
      [
        "b",
        "as"
      ],
      [
        ";",
        "&"
      ],
      [
        "ud",
        "g"
      ],
      [
        "um",
        "b"
      ],
      [
        "f",
        "e"
      ],
      [
        "ĠR",
        "i"
      ],
      [
        "at",
        "s"
      ],
      [
        "p",
        "ic"
      ],
      [
        "Ġ9",
        "0"
      ],
      [
        "o",
        "ad"
      ],
      [
        "Â",
        "°"
      ],
      [
        "Ġ5",
        "7"
      ],
      [
        "Ġ5",
        "8"
      ],
      [
        "le",
        "t"
      ],
      [
        "d",
        "o"
      ],
      [
        "m",
        "l"
      ],
      [
        "T",
        "E"
      ],
      [
        "S",
        "P"
      ],
      [
        "s",
        "w"
      ],
      [
        ")",
        ":"
      ],
      [
        "ĠA",
        "t"
      ],
      [
        "g",
        "o"
      ],
      [
        "c",
        "om"
      ],
      [
        "ĠO",
        "n"
      ],
      [
        "ĠI",
        "D"
      ],
      [
        "Ġb",
        "i"
      ],
      [
        "A",
        "pp"
      ],
      [
        "ES",
        "S"
      ],
      [
        "Ġ7",
        "5"
      ],
      [
        "01",
        "6"
      ],
      [
        ".",
        "]"
      ],
      [
        "ep",
        "t"
      ],
      [
        "o",
        "ff"
      ],
      [
        "Ġs",
        "s"
      ],
      [
        "Ġ",
        "â"
      ],
      [
        "l",
        "p"
      ],
      [
        "C",
        "A"
      ],
      [
        "al",
        "y"
      ],
      [
        "Ġ6",
        "6"
      ],
      [
        "ĠP",
        "M"
      ],
      [
        "r",
        "or"
      ],
      [
        "Ġm",
        "y"
      ],
      [
        "ct",
        "o"
      ],
      [
        "it",
        "u"
      ],
      [
        "ot",
        "l"
      ],
      [
        "o",
        "h"
      ],
      [
        "r",
        "id"
      ],
      [
        "t",
        "eg"
      ],
      [
        "A",
        "m"
      ],
      [
        "i",
        "or"
      ],
      [
        ")",
        ")"
      ],
      [
        "95",
        "1"
      ],
      [
        "ic",
        "s"
      ],
      [
        "ĠR",
        "E"
      ],
      [
        "P",
        "S"
      ],
      [
        "Ù",
        "ĥ"
      ],
      [
        "g",
        "en"
      ],
      [
        "N",
        "um"
      ],
      [
        "om",
        "s"
      ],
      [
        "96",
        "1"
      ],
      [
        "a",
        "i"
      ],
      [
        "t",
        "ro"
      ],
      [
        "Ù",
        "İ"
      ],
      [
        "M",
        "S"
      ],
      [
        "Ġs",
        "w"
      ],
      [
        "o",
        "id"
      ],
      [
        "g",
        "al"
      ],
      [
        "w",
        "at"
      ],
      [
        "01",
        "7"
      ],
      [
        "ot",
        "t"
      ],
      [
        "ĠP",
        "r"
      ],
      [
        "c",
        "id"
      ],
      [
        "E",
        "U"
      ],
      [
        "Ġ",
        "'"
      ],
      [
        "ĠS",
        "p"
      ],
      [
        "96",
        "3"
      ],
      [
        "c",
        "al"
      ],
      [
        "96",
        "0"
      ],
      [
        "ĠÙ",
        "İ"
      ],
      [
        "le",
        "y"
      ],
      [
        "Ġf",
        "r"
      ],
      [
        "l",
        "in"
      ],
      [
        "A",
        "s"
      ],
      [
        "p",
        "d"
      ],
      [
        "e",
        "ff"
      ],
      [
        "ph",
        "s"
      ],
      [
        "ve",
        "m"
      ],
      [
        "L",
        "L"
      ],
      [
        "ur",
        "b"
      ],
      [
        "ew",
        "s"
      ],
      [
        "ĠØ",
        "£"
      ],
      [
        "ĠE",
        "N"
      ],
      [
        "ow",
        "s"
      ],
      [
        "Ġ<",
        "/"
      ],
      [
        "01",
        "8"
      ],
      [
        "A",
        "d"
      ],
      [
        "ĠA",
        "D"
      ],
      [
        "t",
        "ab"
      ],
      [
        "p",
        "es"
      ],
      [
        "AR",
        "T"
      ],
      [
        "ii",
        "i"
      ],
      [
        "Ġg",
        "l"
      ],
      [
        "ER",
        "S"
      ],
      [
        "s",
        "et"
      ],
      [
        "t",
        "ri"
      ],
      [
        "E",
        "n"
      ],
      [
        "ĠG",
        "e"
      ],
      [
        "ig",
        "u"
      ],
      [
        "ĠØ",
        "¨"
      ],
      [
        "F",
        "IG"
      ],
      [
        "st",
        "s"
      ],
      [
        "F",
        "OR"
      ],
      [
        "ur",
        "s"
      ],
      [
        "ne",
        "y"
      ],
      [
        "Ø",
        "©"
      ],
      [
        "ra",
        "y"
      ],
      [
        "t",
        "ak"
      ],
      [
        "g",
        "s"
      ],
      [
        "R",
        "eg"
      ],
      [
        "s",
        "um"
      ],
      [
        "S",
        "A"
      ],
      [
        "R",
        "A"
      ],
      [
        "ĠØ",
        "¹"
      ],
      [
        "24",
        "3"
      ],
      [
        "T",
        "it"
      ],
      [
        "ĠS",
        "o"
      ],
      [
        "Ġ",
        "Ã"
      ],
      [
        "ag",
        "n"
      ],
      [
        "ar",
        "r"
      ],
      [
        "Ġs",
        "k"
      ],
      [
        "I",
        "M"
      ],
      [
        "ic",
        "a"
      ],
      [
        ",",
        "-"
      ],
      [
        "F",
        "F"
      ],
      [
        "C",
        "l"
      ],
      [
        "t",
        "u"
      ],
      [
        "ed",
        "I"
      ],
      [
        "s",
        "on"
      ],
      [
        "C",
        "L"
      ],
      [
        "ĠÙ",
        "ģ"
      ],
      [
        "Ġ",
        "_"
      ],
      [
        "T",
        "ab"
      ],
      [
        "||",
        "|"
      ],
      [
        "or",
        "g"
      ],
      [
        "S",
        "c"
      ],
      [
        "R",
        "ef"
      ],
      [
        "Ġp",
        "p"
      ],
      [
        "Ġ",
        "%"
      ],
      [
        "il",
        "i"
      ],
      [
        "d",
        "et"
      ],
      [
        "3",
        "00"
      ],
      [
        "ĠN",
        "A"
      ],
      [
        "Ġ",
        "!"
      ],
      [
        "T",
        "ot"
      ],
      [
        "D",
        "E"
      ],
      [
        "Ù",
        "ģ"
      ],
      [
        "o",
        "ot"
      ],
      [
        "ĠO",
        "R"
      ],
      [
        "96",
        "2"
      ],
      [
        "ĠH",
        "e"
      ],
      [
        "ĠD",
        "o"
      ],
      [
        "O",
        "P"
      ],
      [
        "95",
        "4"
      ],
      [
        "ĠÙ",
        "Ħ"
      ],
      [
        "ĠC",
        "H"
      ],
      [
        "en",
        "n"
      ],
      [
        "in",
        "n"
      ],
      [
        "ct",
        "u"
      ],
      [
        "A",
        "B"
      ],
      [
        "ad",
        "s"
      ],
      [
        "at",
        "u"
      ],
      [
        "4",
        "00"
      ],
      [
        "ĠÎ",
        "¼"
      ],
      [
        "h",
        "ol"
      ],
      [
        "ĠA",
        "f"
      ],
      [
        "el",
        "f"
      ],
      [
        "d",
        "om"
      ],
      [
        "O",
        "M"
      ],
      [
        "Ġ7",
        "2"
      ],
      [
        "25",
        "0"
      ],
      [
        "c",
        "ed"
      ],
      [
        "Ġ9",
        "9"
      ],
      [
        "S",
        "S"
      ],
      [
        "ĠM",
        "e"
      ],
      [
        "an",
        "a"
      ],
      [
        "ĠL",
        "e"
      ],
      [
        "l",
        "er"
      ],
      [
        "AN",
        "D"
      ],
      [
        "n",
        "o"
      ],
      [
        "Ġ6",
        "8"
      ],
      [
        "I",
        "B"
      ],
      [
        "V",
        "E"
      ],
      [
        "ĠA",
        "C"
      ],
      [
        "23",
        "7"
      ],
      [
        "ĠG",
        "r"
      ],
      [
        "Ġ9",
        "5"
      ],
      [
        "ĠF",
        "l"
      ],
      [
        "ed",
        "s"
      ],
      [
        "um",
        "m"
      ],
      [
        "Ġ6",
        "7"
      ],
      [
        "p",
        "o"
      ],
      [
        "i",
        "pp"
      ],
      [
        "in",
        "o"
      ],
      [
        "v",
        "an"
      ],
      [
        ".",
        "\""
      ],
      [
        "un",
        "t"
      ],
      [
        "pd",
        "f"
      ],
      [
        "ĠB",
        "l"
      ],
      [
        "Ġ",
        "ir"
      ],
      [
        "1",
        "10"
      ],
      [
        "g",
        "t"
      ],
      [
        "f",
        "i"
      ],
      [
        "I",
        "ON"
      ],
      [
        "Ġ9",
        "3"
      ],
      [
        "N",
        "G"
      ],
      [
        "y",
        "pe"
      ],
      [
        "E",
        "PA"
      ],
      [
        "tt",
        "p"
      ],
      [
        "5",
        "94"
      ],
      [
        "Ġ9",
        "1"
      ],
      [
        "E",
        "A"
      ],
      [
        "Ġ7",
        "4"
      ],
      [
        "um",
        "p"
      ],
      [
        "on",
        "y"
      ],
      [
        "Ġ9",
        "8"
      ],
      [
        "Ġg",
        "e"
      ],
      [
        "i",
        "ef"
      ],
      [
        "Ġc",
        "r"
      ],
      [
        "ĠD",
        "C"
      ],
      [
        "ĠS",
        "O"
      ],
      [
        "95",
        "6"
      ],
      [
        "F",
        "ed"
      ],
      [
        "al",
        "k"
      ],
      [
        "IT",
        "Y"
      ],
      [
        ")",
        "-"
      ],
      [
        "96",
        "5"
      ],
      [
        "W",
        "h"
      ],
      [
        "Ġc",
        "y"
      ],
      [
        "v",
        "al"
      ],
      [
        "b",
        "o"
      ],
      [
        "Ġ7",
        "1"
      ],
      [
        "ĠC",
        "D"
      ],
      [
        "O",
        "T"
      ],
      [
        "A",
        "G"
      ],
      [
        "g",
        "ro"
      ],
      [
        "38",
        "1"
      ],
      [
        "g",
        "ag"
      ],
      [
        ".",
        "**"
      ],
      [
        "i",
        "ol"
      ],
      [
        "Ġ8",
        "5"
      ],
      [
        "ĠE",
        "d"
      ],
      [
        "Â",
        "·"
      ],
      [
        "'",
        "'"
      ],
      [
        "Ġ7",
        "8"
      ],
      [
        "ĠT",
        "R"
      ],
      [
        "U",
        "B"
      ],
      [
        "am",
        "s"
      ],
      [
        "al",
        "t"
      ],
      [
        "Ġ8",
        "4"
      ],
      [
        "Ġ7",
        "6"
      ],
      [
        "P",
        "R"
      ],
      [
        "U",
        "C"
      ],
      [
        "A",
        "r"
      ],
      [
        "In",
        "f"
      ],
      [
        "d",
        "es"
      ],
      [
        "Ġ7",
        "7"
      ],
      [
        "m",
        "en"
      ],
      [
        "id",
        "s"
      ],
      [
        "W",
        "e"
      ],
      [
        "d",
        "is"
      ],
      [
        "L",
        "C"
      ],
      [
        "ur",
        "g"
      ],
      [
        "Ġ9",
        "6"
      ],
      [
        "Ġ6",
        "9"
      ],
      [
        "Ī",
        "Ĵ"
      ],
      [
        "ap",
        "e"
      ],
      [
        "8",
        "00"
      ],
      [
        "b",
        "ly"
      ],
      [
        "m",
        "on"
      ],
      [
        "p",
        "re"
      ],
      [
        "M",
        "od"
      ],
      [
        "I",
        "TI"
      ],
      [
        ",",
        "\""
      ],
      [
        "20",
        "2"
      ],
      [
        "01",
        "9"
      ],
      [
        "Ġm",
        "g"
      ],
      [
        "k",
        "g"
      ],
      [
        "p",
        "en"
      ],
      [
        "H",
        "S"
      ],
      [
        "f",
        "ol"
      ],
      [
        "U",
        "D"
      ],
      [
        "of",
        "t"
      ],
      [
        "Y",
        "es"
      ],
      [
        "Ġ8",
        "8"
      ],
      [
        "ol",
        "y"
      ],
      [
        "ur",
        "l"
      ],
      [
        "a",
        "ut"
      ],
      [
        "U",
        "T"
      ],
      [
        "ib",
        "r"
      ],
      [
        "e",
        "u"
      ],
      [
        "Ġ7",
        "3"
      ],
      [
        "ep",
        "s"
      ],
      [
        "S",
        "O"
      ],
      [
        "Ġ0",
        "5"
      ],
      [
        "il",
        "s"
      ],
      [
        "ul",
        "f"
      ],
      [
        "if",
        "t"
      ],
      [
        "Ø",
        "Ń"
      ],
      [
        "ĠA",
        "c"
      ],
      [
        "23",
        "0"
      ],
      [
        "n",
        "d"
      ],
      [
        "ol",
        "s"
      ],
      [
        "O",
        "W"
      ],
      [
        ".",
        ";"
      ],
      [
        "Ġ9",
        "4"
      ],
      [
        "t",
        "d"
      ],
      [
        "m",
        "s"
      ],
      [
        "b",
        "m"
      ],
      [
        "AR",
        "Y"
      ],
      [
        "Ġ8",
        "9"
      ],
      [
        "č",
        "Ċ"
      ],
      [
        "aw",
        "s"
      ],
      [
        "6",
        "00"
      ],
      [
        "ĠE",
        "v"
      ],
      [
        "Ù",
        "ī"
      ],
      [
        "ol",
        "t"
      ],
      [
        "22",
        "4"
      ],
      [
        "g",
        "or"
      ],
      [
        "k",
        "n"
      ],
      [
        "O",
        "E"
      ],
      [
        "b",
        "se"
      ],
      [
        "m",
        "al"
      ],
      [
        "ĠS",
        "H"
      ],
      [
        "ĠS",
        "m"
      ],
      [
        "im",
        "p"
      ],
      [
        "ON",
        "T"
      ],
      [
        "Ġ9",
        "2"
      ],
      [
        "T",
        "C"
      ],
      [
        "c",
        "v"
      ],
      [
        "ĠI",
        "d"
      ],
      [
        "Ġ9",
        "7"
      ],
      [
        "ic",
        "o"
      ],
      [
        "C",
        "S"
      ],
      [
        "ĠD",
        "E"
      ],
      [
        "F",
        "ig"
      ],
      [
        "em",
        "n"
      ],
      [
        "N",
        "E"
      ],
      [
        "or",
        "w"
      ],
      [
        "m",
        "ay"
      ],
      [
        "ĠA",
        "R"
      ],
      [
        "ĠE",
        "U"
      ],
      [
        "22",
        "8"
      ],
      [
        "Ġ8",
        "7"
      ],
      [
        "12",
        "0"
      ],
      [
        "Ġ8",
        "1"
      ],
      [
        "R",
        "es"
      ],
      [
        "Ġ7",
        "9"
      ],
      [
        "Ġp",
        "a"
      ],
      [
        "h",
        "t"
      ],
      [
        "Ġ",
        "``"
      ],
      [
        "20",
        "3"
      ],
      [
        "es",
        "i"
      ],
      [
        "Ġ8",
        "2"
      ],
      [
        "ĠS",
        "e"
      ],
      [
        "d",
        "ex"
      ],
      [
        "ĠÙ",
        "Ĭ"
      ],
      [
        "L",
        "A"
      ],
      [
        "ĠR",
        "o"
      ],
      [
        "ad",
        "o"
      ],
      [
        "ĠB",
        "e"
      ],
      [
        "ad",
        "d"
      ],
      [
        "af",
        "e"
      ],
      [
        "g",
        "y"
      ],
      [
        "L",
        "ab"
      ],
      [
        "b",
        "ut"
      ],
      [
        "ra",
        "g"
      ],
      [
        "Ġ",
        "~"
      ],
      [
        "id",
        "a"
      ],
      [
        "un",
        "g"
      ],
      [
        "c",
        "r"
      ],
      [
        "s",
        "es"
      ],
      [
        "95",
        "5"
      ],
      [
        "R",
        "e"
      ],
      [
        "EN",
        "D"
      ],
      [
        "en",
        "z"
      ],
      [
        "fl",
        "u"
      ],
      [
        "ĠC",
        "A"
      ],
      [
        "P",
        "D"
      ],
      [
        "Ġ",
        ";"
      ],
      [
        "Ġw",
        "a"
      ],
      [
        "ĠA",
        "M"
      ],
      [
        "b",
        "r"
      ],
      [
        "9",
        "00"
      ],
      [
        "Ġo",
        "x"
      ],
      [
        "v",
        "o"
      ],
      [
        "Ø",
        "£"
      ],
      [
        "ap",
        "t"
      ],
      [
        ":",
        ":"
      ],
      [
        "ĠU",
        "N"
      ],
      [
        "Ġ8",
        "6"
      ],
      [
        "c",
        "ri"
      ],
      [
        "m",
        "y"
      ],
      [
        "ra",
        "p"
      ],
      [
        "Ġ8",
        "3"
      ],
      [
        "ĠB",
        "u"
      ],
      [
        "AC",
        "T"
      ],
      [
        "-",
        "."
      ],
      [
        "O",
        "n"
      ],
      [
        "Ù",
        "Ĳ"
      ],
      [
        "n",
        "ew"
      ],
      [
        "j",
        "ud"
      ],
      [
        "A",
        "Y"
      ],
      [
        "ad",
        "a"
      ],
      [
        "P",
        "ro"
      ],
      [
        "i",
        "pl"
      ],
      [
        "OR",
        "T"
      ],
      [
        "C",
        "o"
      ],
      [
        "u",
        "id"
      ],
      [
        "O",
        "ff"
      ],
      [
        "c",
        "ou"
      ],
      [
        "i",
        "k"
      ],
      [
        "ĠM",
        "c"
      ],
      [
        "d",
        "ef"
      ],
      [
        "um",
        "n"
      ],
      [
        "P",
        "l"
      ],
      [
        "ĠS",
        "E"
      ],
      [
        "ĠI",
        "V"
      ],
      [
        "Ġd",
        "r"
      ],
      [
        "N",
        "O"
      ],
      [
        "b",
        "it"
      ],
      [
        "Q",
        "U"
      ],
      [
        "ĠD",
        "r"
      ],
      [
        "ot",
        "s"
      ],
      [
        "1",
        "12"
      ],
      [
        "h",
        "ou"
      ],
      [
        "d",
        "ul"
      ],
      [
        "C",
        "u"
      ],
      [
        "om",
        "y"
      ],
      [
        "UR",
        "E"
      ],
      [
        "ĠA",
        "L"
      ],
      [
        "Ġn",
        "u"
      ],
      [
        "er",
        "o"
      ],
      [
        "ĠQ",
        "u"
      ],
      [
        "ĠF",
        "r"
      ],
      [
        "pp",
        "e"
      ],
      [
        "Ġ0",
        "2"
      ],
      [
        "n",
        "et"
      ],
      [
        "A",
        "ll"
      ],
      [
        "t",
        "ot"
      ],
      [
        "o",
        "or"
      ],
      [
        "24",
        "6"
      ],
      [
        "D",
        "IV"
      ],
      [
        "u",
        "c"
      ],
      [
        "e",
        "in"
      ],
      [
        "l",
        "ig"
      ],
      [
        "F",
        "S"
      ],
      [
        "m",
        "a"
      ],
      [
        "v",
        "il"
      ],
      [
        "i",
        "ab"
      ],
      [
        "ĠA",
        "N"
      ],
      [
        "T",
        "T"
      ],
      [
        "ec",
        "e"
      ],
      [
        "ar",
        "v"
      ],
      [
        "t",
        "re"
      ],
      [
        "11",
        "3"
      ],
      [
        "25",
        "2"
      ],
      [
        "ti",
        "s"
      ],
      [
        "15",
        "0"
      ],
      [
        "ĠG",
        "A"
      ],
      [
        "IC",
        "E"
      ],
      [
        "Ġc",
        "e"
      ],
      [
        "he",
        "l"
      ],
      [
        "7",
        "00"
      ],
      [
        "1",
        "01"
      ],
      [
        "ĠE",
        "X"
      ],
      [
        "94",
        "3"
      ],
      [
        "ap",
        "s"
      ],
      [
        "R",
        "C"
      ],
      [
        "t",
        "or"
      ],
      [
        "Ġ0",
        "3"
      ],
      [
        "O",
        "G"
      ],
      [
        "M",
        "ar"
      ],
      [
        "IN",
        "E"
      ],
      [
        "Ġ",
        "ri"
      ],
      [
        "An",
        "y"
      ],
      [
        "IL",
        "L"
      ],
      [
        "22",
        "7"
      ],
      [
        "10",
        "5"
      ],
      [
        "m",
        "at"
      ],
      [
        "b",
        "p"
      ],
      [
        "10",
        "3"
      ],
      [
        "ES",
        "T"
      ],
      [
        "RO",
        "D"
      ],
      [
        "z",
        "e"
      ],
      [
        "e",
        "am"
      ],
      [
        "M",
        "A"
      ],
      [
        "I",
        "AL"
      ],
      [
        "|",
        "--"
      ],
      [
        "r",
        "ig"
      ],
      [
        "â",
        "ĪĴ"
      ],
      [
        "us",
        "h"
      ],
      [
        "k",
        "s"
      ],
      [
        "S",
        "C"
      ],
      [
        "D",
        "R"
      ],
      [
        "ĠB",
        "y"
      ],
      [
        "it",
        "m"
      ],
      [
        "94",
        "0"
      ],
      [
        "M",
        "B"
      ],
      [
        "ig",
        "r"
      ],
      [
        "ul",
        "a"
      ],
      [
        "ce",
        "p"
      ],
      [
        "A",
        "cc"
      ],
      [
        "ĠN",
        "E"
      ],
      [
        "Ġ0",
        "9"
      ],
      [
        "w",
        "as"
      ],
      [
        "âĢ",
        "²"
      ],
      [
        "Ġd",
        "u"
      ],
      [
        "x",
        "ml"
      ],
      [
        "ot",
        "a"
      ],
      [
        "I",
        "t"
      ],
      [
        "ro",
        "s"
      ],
      [
        "D",
        "ec"
      ],
      [
        "10",
        "2"
      ],
      [
        "ER",
        "V"
      ],
      [
        "10",
        "6"
      ],
      [
        ")",
        "*"
      ],
      [
        "er",
        "a"
      ],
      [
        "ex",
        "p"
      ],
      [
        "T",
        "Y"
      ],
      [
        "ĠP",
        "R"
      ],
      [
        "C",
        "P"
      ],
      [
        "b",
        "ch"
      ],
      [
        "10",
        "4"
      ],
      [
        "c",
        "ol"
      ],
      [
        "Â",
        "«"
      ],
      [
        "Ġ",
        ">"
      ],
      [
        "il",
        "m"
      ],
      [
        "p",
        "ay"
      ],
      [
        "b",
        "i"
      ],
      [
        "Ø",
        "¬"
      ],
      [
        "D",
        "S"
      ],
      [
        "it",
        "n"
      ],
      [
        "23",
        "2"
      ],
      [
        "ĠP",
        "a"
      ],
      [
        "se",
        "h"
      ],
      [
        "13",
        "0"
      ],
      [
        "RE",
        "F"
      ],
      [
        "Ŀ",
        "."
      ],
      [
        "on",
        "v"
      ],
      [
        "f",
        "a"
      ],
      [
        "d",
        "at"
      ],
      [
        "Ø",
        "Į"
      ],
      [
        "ĠF",
        "Y"
      ],
      [
        "un",
        "n"
      ],
      [
        "**",
        ";"
      ],
      [
        "ĠO",
        "N"
      ],
      [
        "n",
        "ex"
      ],
      [
        "G",
        "en"
      ],
      [
        "g",
        "i"
      ],
      [
        "Ġ0",
        "6"
      ],
      [
        "Ġ0",
        "4"
      ],
      [
        "~",
        "~"
      ],
      [
        "O",
        "H"
      ],
      [
        "ĠÂ",
        "·"
      ],
      [
        "y",
        "th"
      ],
      [
        "h",
        "an"
      ],
      [
        "T",
        "o"
      ],
      [
        "ip",
        "t"
      ],
      [
        "IS",
        "T"
      ],
      [
        "m",
        "un"
      ],
      [
        "10",
        "7"
      ],
      [
        "96",
        "9"
      ],
      [
        "S",
        "ee"
      ],
      [
        "A",
        "g"
      ],
      [
        "o",
        "pp"
      ],
      [
        "EC",
        "T"
      ],
      [
        "M",
        "E"
      ],
      [
        "12",
        "5"
      ],
      [
        "ĠL",
        "o"
      ],
      [
        "11",
        "5"
      ],
      [
        "Ġ",
        "il"
      ],
      [
        "b",
        "ur"
      ],
      [
        "23",
        "1"
      ],
      [
        "U",
        "E"
      ],
      [
        "11",
        "1"
      ],
      [
        "ĠP",
        "L"
      ],
      [
        "qu",
        "e"
      ],
      [
        "m",
        "es"
      ],
      [
        "ĠA",
        "b"
      ],
      [
        "Ċ",
        "ĠĊ"
      ],
      [
        "Ġ0",
        "8"
      ],
      [
        "Ġf",
        "a"
      ],
      [
        "ph",
        "y"
      ],
      [
        "B",
        "ER"
      ],
      [
        "D",
        "D"
      ],
      [
        "U",
        "TI"
      ],
      [
        "Ġm",
        "m"
      ],
      [
        "b",
        "or"
      ],
      [
        "P",
        "L"
      ],
      [
        ".",
        "-"
      ],
      [
        "l",
        "u"
      ],
      [
        "ïģ",
        "´"
      ],
      [
        "p",
        "ir"
      ],
      [
        "P",
        "M"
      ],
      [
        "av",
        "y"
      ],
      [
        "E",
        "m"
      ],
      [
        "ĠP",
        "e"
      ],
      [
        "TA",
        "B"
      ],
      [
        "t",
        "ac"
      ],
      [
        "D",
        "e"
      ],
      [
        ".",
        "*"
      ],
      [
        "c",
        "m"
      ],
      [
        "ĠJ",
        "o"
      ],
      [
        "il",
        "t"
      ],
      [
        "N",
        "or"
      ],
      [
        "ïģ",
        "¥"
      ],
      [
        "č",
        "ĠĠ"
      ],
      [
        "ĠÂ",
        "°"
      ],
      [
        "i",
        "am"
      ],
      [
        "R",
        "ep"
      ],
      [
        "ï",
        "Ĥ"
      ],
      [
        "30",
        "6"
      ],
      [
        "R",
        "S"
      ],
      [
        "25",
        "9"
      ],
      [
        "3",
        "17"
      ],
      [
        "m",
        "et"
      ],
      [
        "b",
        "re"
      ],
      [
        "ĠV",
        "A"
      ],
      [
        "l",
        "o"
      ],
      [
        "P",
        "H"
      ],
      [
        "p",
        "ed"
      ],
      [
        "m",
        "od"
      ],
      [
        "on",
        "a"
      ],
      [
        ":",
        "**"
      ],
      [
        ";",
        ","
      ],
      [
        "97",
        "2"
      ],
      [
        "12",
        "1"
      ],
      [
        "z",
        "en"
      ],
      [
        "Ġ0",
        "7"
      ],
      [
        "U",
        "ND"
      ],
      [
        "F",
        "O"
      ],
      [
        "es",
        "e"
      ],
      [
        "C",
        "ON"
      ],
      [
        "94",
        "7"
      ],
      [
        "ĠP",
        "A"
      ],
      [
        "\\",
        "/"
      ],
      [
        "x",
        "x"
      ],
      [
        "S",
        "s"
      ],
      [
        "I",
        "E"
      ],
      [
        "R",
        "an"
      ],
      [
        "ut",
        "t"
      ],
      [
        "g",
        "ra"
      ],
      [
        "26",
        "9"
      ],
      [
        "P",
        "ub"
      ],
      [
        "ir",
        "p"
      ],
      [
        "z",
        "ed"
      ],
      [
        "Ġf",
        "t"
      ],
      [
        "94",
        "8"
      ],
      [
        "i",
        "at"
      ],
      [
        "II",
        "I"
      ],
      [
        "20",
        "5"
      ],
      [
        "h",
        "as"
      ],
      [
        "re",
        "w"
      ],
      [
        "94",
        "1"
      ],
      [
        "EN",
        "S"
      ],
      [
        "p",
        "ub"
      ],
      [
        "1",
        "19"
      ],
      [
        "oh",
        "n"
      ],
      [
        "D",
        "L"
      ],
      [
        "E",
        "X"
      ],
      [
        "el",
        "t"
      ],
      [
        "ĠÙ",
        "Ĥ"
      ],
      [
        "14",
        "0"
      ],
      [
        "id",
        "d"
      ],
      [
        "ĠE",
        "s"
      ],
      [
        "ĠF",
        "L"
      ],
      [
        "x",
        "ic"
      ],
      [
        "ĠL",
        "G"
      ],
      [
        "S",
        "D"
      ],
      [
        "O",
        "UR"
      ],
      [
        "N",
        "ew"
      ],
      [
        "H",
        "H"
      ],
      [
        "C",
        "D"
      ],
      [
        "Ġm",
        "o"
      ],
      [
        "p",
        "ur"
      ],
      [
        "F",
        "D"
      ],
      [
        "G",
        "S"
      ],
      [
        "Ġt",
        "w"
      ],
      [
        "Ø§",
        "Ø"
      ],
      [
        "13",
        "6"
      ],
      [
        "Ã",
        "©"
      ],
      [
        "g",
        "er"
      ],
      [
        "H",
        "A"
      ],
      [
        "f",
        "us"
      ],
      [
        "p",
        "ol"
      ],
      [
        "C",
        "T"
      ],
      [
        "]",
        ","
      ],
      [
        "D",
        "ep"
      ],
      [
        "U",
        "P"
      ],
      [
        "ar",
        "l"
      ],
      [
        "B",
        "S"
      ],
      [
        "ox",
        "y"
      ],
      [
        "10",
        "8"
      ],
      [
        "d",
        "in"
      ],
      [
        "V",
        "ER"
      ],
      [
        "ĠG",
        "l"
      ],
      [
        "UM",
        "E"
      ],
      [
        "ĠI",
        "S"
      ],
      [
        "p",
        "i"
      ],
      [
        "5",
        "90"
      ],
      [
        "UM",
        "M"
      ],
      [
        "n",
        "um"
      ],
      [
        "AL",
        "L"
      ],
      [
        "**",
        ","
      ],
      [
        "%",
        ")"
      ],
      [
        "]",
        "&#"
      ],
      [
        "k",
        "er"
      ],
      [
        "35",
        "3"
      ],
      [
        "1",
        "16"
      ],
      [
        "T",
        "r"
      ],
      [
        "v",
        "oc"
      ],
      [
        "C",
        "Y"
      ],
      [
        "h",
        "ly"
      ],
      [
        ":",
        "*"
      ],
      [
        "94",
        "2"
      ],
      [
        "Ġr",
        "s"
      ],
      [
        "R",
        "ec"
      ],
      [
        "ff",
        "s"
      ],
      [
        "ip",
        "i"
      ],
      [
        "18",
        "0"
      ],
      [
        "n",
        "a"
      ],
      [
        "d",
        "ra"
      ],
      [
        "E",
        "AR"
      ],
      [
        "3",
        "19"
      ],
      [
        "ip",
        "s"
      ],
      [
        "ĠC",
        "r"
      ],
      [
        "12",
        "2"
      ],
      [
        "g",
        "r"
      ],
      [
        "Ġo",
        "z"
      ],
      [
        "âĢ",
        "Ĳ"
      ],
      [
        "p",
        "id"
      ],
      [
        "ģ",
        "Ħ"
      ],
      [
        "p",
        "kg"
      ],
      [
        "AS",
        "A"
      ],
      [
        "ĠL",
        "a"
      ],
      [
        "M",
        "AN"
      ],
      [
        "a",
        "e"
      ],
      [
        "Ø",
        "°"
      ],
      [
        "22",
        "2"
      ],
      [
        "10",
        "9"
      ],
      [
        "F",
        "L"
      ],
      [
        "Ġy",
        "i"
      ],
      [
        "op",
        "s"
      ],
      [
        "P",
        "ar"
      ],
      [
        "Ġh",
        "y"
      ],
      [
        "h",
        "yd"
      ],
      [
        "-",
        "("
      ],
      [
        "20",
        "8"
      ],
      [
        "om",
        "a"
      ],
      [
        "ĠB",
        "L"
      ],
      [
        "op",
        "h"
      ],
      [
        "G",
        "A"
      ],
      [
        "Ġa",
        "x"
      ],
      [
        "Ġa",
        "p"
      ],
      [
        "23",
        "4"
      ],
      [
        "AN",
        "T"
      ],
      [
        "P",
        "C"
      ],
      [
        "or",
        "b"
      ],
      [
        "y",
        "r"
      ],
      [
        "n",
        "ov"
      ],
      [
        "A",
        "ct"
      ],
      [
        "c",
        "er"
      ],
      [
        "l",
        "f"
      ],
      [
        "]",
        "."
      ],
      [
        "A",
        "t"
      ],
      [
        "S",
        "I"
      ],
      [
        "11",
        "4"
      ],
      [
        "l",
        "im"
      ],
      [
        "12",
        "3"
      ],
      [
        "ub",
        "e"
      ],
      [
        "A",
        "f"
      ],
      [
        "w",
        "ou"
      ],
      [
        "35",
        "4"
      ],
      [
        "B",
        "B"
      ],
      [
        "24",
        "0"
      ],
      [
        "P",
        "ER"
      ],
      [
        "c",
        "it"
      ],
      [
        "A",
        "tt"
      ],
      [
        "ol",
        "v"
      ],
      [
        "AS",
        "S"
      ],
      [
        "e",
        "el"
      ],
      [
        "F",
        "in"
      ],
      [
        "p",
        "on"
      ],
      [
        "u",
        "x"
      ],
      [
        "14",
        "7"
      ],
      [
        "l",
        "ab"
      ],
      [
        "ĠL",
        "A"
      ],
      [
        "r",
        "m"
      ],
      [
        "Ġ",
        "Ì"
      ],
      [
        "c",
        "ap"
      ],
      [
        "al",
        "d"
      ],
      [
        "'",
        "#"
      ],
      [
        "20",
        "6"
      ],
      [
        "S",
        "R"
      ],
      [
        "g",
        "ic"
      ],
      [
        "Ġ",
        "ur"
      ],
      [
        "r",
        "d"
      ],
      [
        "ĠB",
        "i"
      ],
      [
        "12",
        "4"
      ],
      [
        "am",
        "b"
      ],
      [
        "j",
        "ac"
      ],
      [
        "am",
        "a"
      ],
      [
        "eg",
        "m"
      ],
      [
        "e",
        "y"
      ],
      [
        "EL",
        "L"
      ],
      [
        "ix",
        "t"
      ],
      [
        "Ġf",
        "o"
      ],
      [
        "S",
        "en"
      ],
      [
        "j",
        "ec"
      ],
      [
        "k",
        "i"
      ],
      [
        "or",
        "p"
      ],
      [
        "20",
        "4"
      ],
      [
        "ac",
        "i"
      ],
      [
        "A",
        "F"
      ],
      [
        "c",
        "en"
      ],
      [
        "20",
        "9"
      ],
      [
        "g",
        "es"
      ],
      [
        ">",
        "<"
      ],
      [
        "11",
        "7"
      ],
      [
        "B",
        "y"
      ],
      [
        "I",
        "d"
      ],
      [
        "ĠB",
        "r"
      ],
      [
        "ck",
        "s"
      ],
      [
        "O",
        "O"
      ],
      [
        "ed",
        "a"
      ],
      [
        "ic",
        "t"
      ],
      [
        "ĠP",
        "o"
      ],
      [
        "V",
        "A"
      ],
      [
        "h",
        "r"
      ],
      [
        "E",
        "E"
      ],
      [
        "at",
        "o"
      ],
      [
        "it",
        "r"
      ],
      [
        "Ġ",
        "##"
      ],
      [
        "n",
        "ti"
      ],
      [
        "P",
        "h"
      ],
      [
        "ĠD",
        "i"
      ],
      [
        "r",
        "b"
      ],
      [
        "nt",
        "e"
      ],
      [
        "I",
        "ES"
      ],
      [
        "ĠA",
        "G"
      ],
      [
        ".",
        ":"
      ],
      [
        "23",
        "8"
      ],
      [
        "p",
        "ow"
      ],
      [
        "ul",
        "s"
      ],
      [
        "c",
        "an"
      ],
      [
        "AR",
        "D"
      ],
      [
        "12",
        "7"
      ],
      [
        "P",
        "E"
      ],
      [
        "ĠF",
        "i"
      ],
      [
        "Ù",
        "Ģ"
      ],
      [
        "a",
        "a"
      ],
      [
        "3",
        "22"
      ],
      [
        "S",
        "u"
      ],
      [
        "ra",
        "z"
      ],
      [
        "op",
        "t"
      ],
      [
        "s",
        "m"
      ],
      [
        "ĠØ",
        "¥"
      ],
      [
        "14",
        "6"
      ],
      [
        "C",
        "F"
      ],
      [
        "Ã",
        "³"
      ],
      [
        "U",
        "G"
      ],
      [
        "ĠØ",
        "ª"
      ],
      [
        "X",
        "X"
      ],
      [
        "13",
        "2"
      ],
      [
        "M",
        "T"
      ],
      [
        "20",
        "7"
      ],
      [
        "95",
        "2"
      ],
      [
        "er",
        "k"
      ],
      [
        "se",
        "y"
      ],
      [
        "AS",
        "E"
      ],
      [
        "ĠS",
        "W"
      ],
      [
        "11",
        "8"
      ],
      [
        "g",
        "u"
      ],
      [
        ".",
        "--"
      ],
      [
        "ou",
        "l"
      ],
      [
        "Ġn",
        "d"
      ],
      [
        "am",
        "m"
      ],
      [
        "us",
        "i"
      ],
      [
        "in",
        "i"
      ],
      [
        "b",
        "u"
      ],
      [
        "D",
        "ef"
      ],
      [
        "13",
        "3"
      ],
      [
        "ĠA",
        "T"
      ],
      [
        "=\"",
        "/"
      ],
      [
        "'",
        "t"
      ],
      [
        "c",
        "ru"
      ],
      [
        "o",
        "o"
      ],
      [
        "Ġp",
        "i"
      ],
      [
        "12",
        "9"
      ],
      [
        "30",
        "3"
      ],
      [
        "g",
        "re"
      ],
      [
        "ĠD",
        "L"
      ],
      [
        "u",
        "ge"
      ],
      [
        "B",
        "tu"
      ],
      [
        "id",
        "i"
      ],
      [
        "D",
        "C"
      ],
      [
        "T",
        "ON"
      ],
      [
        "S",
        "IS"
      ],
      [
        "38",
        "2"
      ],
      [
        "17",
        "0"
      ],
      [
        "ĠÙ",
        "ı"
      ],
      [
        "P",
        "O"
      ],
      [
        "Ø",
        "µ"
      ],
      [
        "d",
        "oc"
      ],
      [
        ")-",
        "("
      ],
      [
        ">",
        "</"
      ],
      [
        "26",
        "1"
      ],
      [
        "Ġ",
        "]"
      ],
      [
        "86",
        "6"
      ],
      [
        "14",
        "2"
      ],
      [
        "ĠV",
        "e"
      ],
      [
        "E",
        "l"
      ],
      [
        "l",
        "aw"
      ],
      [
        "12",
        "6"
      ],
      [
        "at",
        "y"
      ],
      [
        "CO",
        "M"
      ],
      [
        "3",
        "80"
      ],
      [
        "Ġ",
        "^"
      ],
      [
        "ĠC",
        "L"
      ],
      [
        "AN",
        "S"
      ],
      [
        "ĠÙ",
        "Ĵ"
      ],
      [
        "d",
        "i"
      ],
      [
        ")",
        ");"
      ],
      [
        "ĠM",
        "s"
      ],
      [
        "b",
        "b"
      ],
      [
        "M",
        "s"
      ],
      [
        "B",
        "R"
      ],
      [
        "96",
        "7"
      ],
      [
        "14",
        "8"
      ],
      [
        "17",
        "5"
      ],
      [
        "I",
        "Z"
      ],
      [
        "3",
        "27"
      ],
      [
        "A",
        "ss"
      ],
      [
        "d",
        "em"
      ],
      [
        "3",
        "18"
      ],
      [
        "ĠD",
        "R"
      ],
      [
        "t",
        "op"
      ],
      [
        "as",
        "p"
      ],
      [
        "I",
        "O"
      ],
      [
        ")",
        "]"
      ],
      [
        "ĠÙ",
        "ĥ"
      ],
      [
        "ĠT",
        "e"
      ],
      [
        "ĠA",
        "v"
      ],
      [
        "L",
        "Y"
      ],
      [
        "il",
        "k"
      ],
      [
        "%",
        ","
      ],
      [
        "Ġl",
        "b"
      ],
      [
        "Ġo",
        "m"
      ],
      [
        "n",
        "ow"
      ],
      [
        "f",
        "it"
      ],
      [
        "30",
        "9"
      ],
      [
        "g",
        "um"
      ],
      [
        "30",
        "5"
      ],
      [
        "14",
        "5"
      ],
      [
        "Ø",
        "¥"
      ],
      [
        "Ġo",
        "v"
      ],
      [
        "Ġ",
        "\\"
      ],
      [
        "25",
        "3"
      ],
      [
        "TI",
        "C"
      ],
      [
        "3",
        "10"
      ],
      [
        "g",
        "ed"
      ],
      [
        "M",
        "ay"
      ],
      [
        "13",
        "4"
      ],
      [
        "26",
        "0"
      ],
      [
        "ĠI",
        "L"
      ],
      [
        "B",
        "I"
      ],
      [
        "H",
        "R"
      ],
      [
        "S",
        "EC"
      ],
      [
        "12",
        "8"
      ],
      [
        "2",
        "20"
      ],
      [
        "ĠM",
        "A"
      ],
      [
        "UR",
        "T"
      ],
      [
        "f",
        "ac"
      ],
      [
        "Ĺ",
        "ı"
      ],
      [
        "S",
        "h"
      ],
      [
        "AC",
        "K"
      ],
      [
        "13",
        "5"
      ],
      [
        "ĠN",
        "C"
      ],
      [
        "IC",
        "T"
      ],
      [
        "m",
        "ak"
      ],
      [
        "15",
        "1"
      ],
      [
        "97",
        "4"
      ],
      [
        "B",
        "A"
      ],
      [
        "G",
        "G"
      ],
      [
        "ec",
        "u"
      ],
      [
        "d",
        "ec"
      ],
      [
        "24",
        "5"
      ],
      [
        "ĠA",
        "S"
      ],
      [
        "H",
        "T"
      ],
      [
        "j",
        "un"
      ],
      [
        "3",
        "01"
      ],
      [
        "ĠÙ",
        "Ĩ"
      ],
      [
        "U",
        "TH"
      ],
      [
        "19",
        "9"
      ],
      [
        "Ġd",
        "w"
      ],
      [
        "an",
        "o"
      ],
      [
        "14",
        "4"
      ],
      [
        "Ġn",
        "g"
      ],
      [
        "Q",
        "S"
      ],
      [
        "p",
        "th"
      ],
      [
        "â",
        "ģĦ"
      ],
      [
        "h",
        "at"
      ],
      [
        "h",
        "ab"
      ],
      [
        "ĠN",
        "Y"
      ],
      [
        "c",
        "i"
      ],
      [
        "ĠS",
        "P"
      ],
      [
        "Ù",
        "ı"
      ],
      [
        "Ġx",
        "l"
      ],
      [
        "ĠP",
        "O"
      ],
      [
        "y",
        "e"
      ],
      [
        "f",
        "ec"
      ],
      [
        "19",
        "0"
      ],
      [
        ":",
        "&#"
      ],
      [
        "2",
        "10"
      ],
      [
        "ri",
        "z"
      ],
      [
        "al",
        "m"
      ],
      [
        "3",
        "50"
      ],
      [
        "ĠM",
        "S"
      ],
      [
        "ĠB",
        "R"
      ],
      [
        "A",
        "pr"
      ],
      [
        "F",
        "C"
      ],
      [
        "AL",
        "S"
      ],
      [
        "ĠE",
        "L"
      ],
      [
        "ip",
        "e"
      ],
      [
        "15",
        "7"
      ],
      [
        "ĠS",
        "w"
      ],
      [
        "W",
        "A"
      ],
      [
        "n",
        "on"
      ],
      [
        "k",
        "a"
      ],
      [
        "em",
        "p"
      ],
      [
        "2",
        "23"
      ],
      [
        "K",
        "E"
      ],
      [
        "22",
        "6"
      ],
      [
        "Ġr",
        "u"
      ],
      [
        "ĠN",
        "e"
      ],
      [
        "as",
        "c"
      ],
      [
        "l",
        "an"
      ],
      [
        "ĉ",
        "Ċ"
      ],
      [
        "30",
        "4"
      ],
      [
        "ïĤ",
        "·"
      ],
      [
        "ur",
        "v"
      ],
      [
        "ĠØ",
        "±"
      ],
      [
        "f",
        "il"
      ],
      [
        "24",
        "1"
      ],
      [
        "CC",
        "M"
      ],
      [
        "T",
        "O"
      ],
      [
        "ĠC",
        "R"
      ],
      [
        "h",
        "io"
      ],
      [
        "AL",
        "E"
      ],
      [
        "ym",
        "b"
      ],
      [
        "Ġ",
        "ul"
      ],
      [
        "\\",
        "\""
      ],
      [
        "M",
        "O"
      ],
      [
        "97",
        "3"
      ],
      [
        "ĠM",
        "O"
      ],
      [
        "c",
        "us"
      ],
      [
        "7",
        "50"
      ],
      [
        "14",
        "9"
      ],
      [
        "Ġ",
        "ï"
      ],
      [
        "ro",
        "y"
      ],
      [
        "I",
        "m"
      ],
      [
        "M",
        "R"
      ],
      [
        "28",
        "1"
      ],
      [
        "26",
        "3"
      ],
      [
        "I",
        "s"
      ],
      [
        "o",
        "ke"
      ],
      [
        "l",
        "a"
      ],
      [
        "AT",
        "A"
      ],
      [
        "D",
        "is"
      ],
      [
        "ĠH",
        "E"
      ],
      [
        "t",
        "ly"
      ],
      [
        "9",
        "17"
      ],
      [
        "e",
        "ak"
      ],
      [
        "Ġc",
        "u"
      ],
      [
        "ub",
        "p"
      ],
      [
        "T",
        "N"
      ],
      [
        "Ġo",
        "k"
      ],
      [
        "15",
        "5"
      ],
      [
        "ok",
        "s"
      ],
      [
        "ĠE",
        "C"
      ],
      [
        "0",
        "50"
      ],
      [
        "13",
        "9"
      ],
      [
        "u",
        "ck"
      ],
      [
        "ti",
        "p"
      ],
      [
        "D",
        "oc"
      ],
      [
        "ĠÙ",
        "ĩ"
      ],
      [
        "g",
        "th"
      ],
      [
        "95",
        "0"
      ],
      [
        "ĠE",
        "R"
      ],
      [
        "96",
        "6"
      ],
      [
        "PD",
        "F"
      ],
      [
        "ri",
        "p"
      ],
      [
        "AC",
        "E"
      ],
      [
        ";",
        "."
      ],
      [
        "An",
        "n"
      ],
      [
        "Ã",
        "¡"
      ],
      [
        "b",
        "ec"
      ],
      [
        "ĠM",
        "E"
      ],
      [
        "30",
        "2"
      ],
      [
        "b",
        "c"
      ],
      [
        "ĠØ",
        "Ń"
      ],
      [
        "U",
        "LE"
      ],
      [
        "27",
        "0"
      ],
      [
        "Ø",
        "®"
      ],
      [
        "4",
        "50"
      ],
      [
        "N",
        "S"
      ],
      [
        "f",
        "s"
      ],
      [
        "Ġ",
        "{"
      ],
      [
        "F",
        "A"
      ],
      [
        "p",
        "ag"
      ],
      [
        "D",
        "ER"
      ],
      [
        "18",
        "4"
      ],
      [
        "Ġt",
        "i"
      ],
      [
        ")",
        ")."
      ],
      [
        "er",
        "r"
      ],
      [
        "16",
        "1"
      ],
      [
        "19",
        "8"
      ],
      [
        "14",
        "1"
      ],
      [
        "3",
        "25"
      ],
      [
        "16",
        "5"
      ],
      [
        "35",
        "5"
      ],
      [
        "An",
        "d"
      ],
      [
        "22",
        "9"
      ],
      [
        "P",
        "RO"
      ],
      [
        "0",
        "20"
      ],
      [
        "m",
        "t"
      ],
      [
        "Ġl",
        "l"
      ],
      [
        "ri",
        "a"
      ],
      [
        "IT",
        "H"
      ],
      [
        "13",
        "1"
      ],
      [
        "M",
        "C"
      ],
      [
        "n",
        "am"
      ],
      [
        "gg",
        "s"
      ],
      [
        "30",
        "7"
      ],
      [
        "o",
        "ir"
      ],
      [
        "Ġd",
        "a"
      ],
      [
        "M",
        "I"
      ],
      [
        "Ø",
        "¶"
      ],
      [
        "ĠO",
        "f"
      ],
      [
        "IG",
        "N"
      ],
      [
        "in",
        "v"
      ],
      [
        "AN",
        "C"
      ],
      [
        "et",
        "e"
      ],
      [
        "ĠU",
        "s"
      ],
      [
        "N",
        "B"
      ],
      [
        "30",
        "8"
      ],
      [
        "h",
        "y"
      ],
      [
        "13",
        "7"
      ],
      [
        "0",
        "40"
      ],
      [
        "16",
        "4"
      ],
      [
        "Ø",
        "«"
      ],
      [
        "24",
        "4"
      ],
      [
        "ĠO",
        "k"
      ],
      [
        "Ġe",
        "u"
      ],
      [
        "ĠT",
        "X"
      ],
      [
        "17",
        "6"
      ],
      [
        "ce",
        "i"
      ],
      [
        "p",
        "ot"
      ],
      [
        "AC",
        "H"
      ],
      [
        "i",
        "j"
      ],
      [
        "0",
        "70"
      ],
      [
        "3",
        "40"
      ],
      [
        "**",
        "*"
      ],
      [
        "23",
        "5"
      ],
      [
        "15",
        "2"
      ],
      [
        "AM",
        "E"
      ],
      [
        "t",
        "m"
      ],
      [
        "n",
        "ec"
      ],
      [
        "15",
        "8"
      ],
      [
        "h",
        "w"
      ],
      [
        "Ġn",
        "c"
      ],
      [
        "g",
        "le"
      ],
      [
        "g",
        "ar"
      ],
      [
        "F",
        "eb"
      ],
      [
        "19",
        "5"
      ],
      [
        "b",
        "us"
      ],
      [
        "24",
        "8"
      ],
      [
        "M",
        "IN"
      ],
      [
        "it",
        "o"
      ],
      [
        "W",
        "R"
      ],
      [
        "16",
        "2"
      ],
      [
        "16",
        "6"
      ],
      [
        "3",
        "60"
      ],
      [
        "13",
        "8"
      ],
      [
        "TI",
        "T"
      ],
      [
        "25",
        "7"
      ],
      [
        "ĠS",
        "C"
      ],
      [
        "Ġo",
        "l"
      ],
      [
        "15",
        "6"
      ],
      [
        "28",
        "0"
      ],
      [
        "AD",
        "E"
      ],
      [
        "OR",
        "P"
      ],
      [
        "al",
        "i"
      ],
      [
        "d",
        "ur"
      ],
      [
        "F",
        "IC"
      ],
      [
        "14",
        "3"
      ],
      [
        "s",
        "i"
      ],
      [
        "2",
        "90"
      ],
      [
        "k",
        "en"
      ],
      [
        "b",
        "en"
      ],
      [
        "y",
        "ch"
      ],
      [
        "TE",
        "E"
      ],
      [
        "Ù",
        "ĳ"
      ],
      [
        "Ġm",
        "i"
      ],
      [
        "ke",
        "y"
      ],
      [
        "F",
        "I"
      ],
      [
        "H",
        "Q"
      ],
      [
        "S",
        "ep"
      ],
      [
        "22",
        "1"
      ],
      [
        "v",
        "it"
      ],
      [
        "ĠV",
        "I"
      ],
      [
        "Ã",
        "Ń"
      ],
      [
        "n",
        "u"
      ],
      [
        "ag",
        "o"
      ],
      [
        "IS",
        "S"
      ],
      [
        "33",
        "3"
      ],
      [
        "W",
        "at"
      ],
      [
        "Z",
        "M"
      ],
      [
        "P",
        "AR"
      ],
      [
        "33",
        "7"
      ],
      [
        "34",
        "5"
      ],
      [
        "Ġo",
        "b"
      ],
      [
        "ĠL",
        "i"
      ],
      [
        "M",
        "in"
      ],
      [
        "ON",
        "E"
      ],
      [
        "\"",
        ":"
      ],
      [
        "33",
        "5"
      ],
      [
        "3",
        "20"
      ],
      [
        "16",
        "7"
      ],
      [
        "ĠM",
        "o"
      ],
      [
        "0",
        "60"
      ],
      [
        "23",
        "6"
      ],
      [
        "C",
        "ol"
      ],
      [
        "25",
        "5"
      ],
      [
        "en",
        "y"
      ],
      [
        "ĠM",
        "D"
      ],
      [
        "ur",
        "r"
      ],
      [
        "24",
        "2"
      ],
      [
        "40",
        "4"
      ],
      [
        "15",
        "9"
      ],
      [
        "at",
        "f"
      ],
      [
        "d",
        "a"
      ],
      [
        "W",
        "S"
      ],
      [
        "B",
        "as"
      ],
      [
        "24",
        "9"
      ],
      [
        "19",
        "6"
      ],
      [
        "j",
        "ur"
      ],
      [
        "ce",
        "l"
      ],
      [
        "h",
        "am"
      ],
      [
        "16",
        "8"
      ],
      [
        "A",
        "ug"
      ],
      [
        "RO",
        "M"
      ],
      [
        "15",
        "3"
      ],
      [
        "Ad",
        "d"
      ],
      [
        "16",
        "9"
      ],
      [
        "O",
        "F"
      ],
      [
        "Ġ",
        "=="
      ],
      [
        "g",
        "at"
      ],
      [
        "L",
        "IC"
      ],
      [
        "it",
        "a"
      ],
      [
        "IN",
        "T"
      ],
      [
        "15",
        "4"
      ],
      [
        "oc",
        "r"
      ],
      [
        "â",
        "Ĺı"
      ],
      [
        "ĠO",
        "P"
      ],
      [
        "C",
        "on"
      ],
      [
        "B",
        "l"
      ],
      [
        "h",
        "al"
      ],
      [
        "40",
        "2"
      ],
      [
        "r",
        "as"
      ],
      [
        "ĠC",
        "T"
      ],
      [
        "M",
        "D"
      ],
      [
        "sf",
        "y"
      ],
      [
        "2",
        "11"
      ],
      [
        "b",
        "et"
      ],
      [
        "c",
        "as"
      ],
      [
        "us",
        "p"
      ],
      [
        "17",
        "4"
      ],
      [
        "Ġn",
        "t"
      ],
      [
        "t",
        "es"
      ],
      [
        "le",
        "l"
      ],
      [
        "B",
        "O"
      ],
      [
        "ĠB",
        "Y"
      ],
      [
        "27",
        "5"
      ],
      [
        "40",
        "5"
      ],
      [
        "18",
        "6"
      ],
      [
        "94",
        "6"
      ],
      [
        "b",
        "ts"
      ],
      [
        "K",
        "S"
      ],
      [
        "27",
        "9"
      ],
      [
        "ĠM",
        "R"
      ],
      [
        "e",
        "a"
      ],
      [
        "ĠÙ",
        "ĳ"
      ],
      [
        "C",
        "al"
      ],
      [
        "M",
        "an"
      ],
      [
        "y",
        "er"
      ],
      [
        "P",
        "T"
      ],
      [
        "I",
        "X"
      ],
      [
        "3",
        "13"
      ],
      [
        "ĠL",
        "E"
      ],
      [
        "25",
        "4"
      ],
      [
        "O",
        "r"
      ],
      [
        "u",
        "Cu"
      ],
      [
        "ĠS",
        "l"
      ],
      [
        "M",
        "L"
      ],
      [
        "Ø",
        "´"
      ],
      [
        "Ġ(",
        "$"
      ],
      [
        "j",
        "u"
      ],
      [
        "18",
        "5"
      ],
      [
        "M",
        "e"
      ],
      [
        "UL",
        "T"
      ],
      [
        "H",
        "G"
      ],
      [
        "k",
        "t"
      ],
      [
        "s",
        "l"
      ],
      [
        "S",
        "K"
      ],
      [
        "c",
        "um"
      ],
      [
        "L",
        "oc"
      ],
      [
        "af",
        "t"
      ],
      [
        "u",
        "er"
      ],
      [
        "Ġâ",
        "ģ"
      ],
      [
        "N",
        "on"
      ],
      [
        "PP",
        "E"
      ],
      [
        "19",
        "4"
      ],
      [
        "an",
        "i"
      ],
      [
        "M",
        "ed"
      ],
      [
        "Ġn",
        "a"
      ],
      [
        "ru",
        "p"
      ],
      [
        "3",
        "11"
      ],
      [
        "4",
        "60"
      ],
      [
        "m",
        "ar"
      ],
      [
        "H",
        "E"
      ],
      [
        "V",
        "ol"
      ],
      [
        "c",
        "s"
      ],
      [
        "ĠS",
        "A"
      ],
      [
        "n",
        "ts"
      ],
      [
        "27",
        "4"
      ],
      [
        "ER",
        "C"
      ],
      [
        "aw",
        "a"
      ],
      [
        "40",
        "7"
      ],
      [
        "ot",
        "o"
      ],
      [
        "og",
        "s"
      ],
      [
        "3",
        "12"
      ],
      [
        "y",
        "ou"
      ],
      [
        "ro",
        "d"
      ],
      [
        "P",
        "r"
      ],
      [
        "s",
        "in"
      ],
      [
        "34",
        "7"
      ],
      [
        "Ġo",
        "d"
      ],
      [
        "0",
        "80"
      ],
      [
        "s",
        "ch"
      ],
      [
        "j",
        "o"
      ],
      [
        ".",
        "("
      ],
      [
        "o",
        "z"
      ],
      [
        "Ġa",
        "u"
      ],
      [
        "v",
        "a"
      ],
      [
        "ĠN",
        "D"
      ],
      [
        "ĠC",
        "M"
      ],
      [
        "ĠB",
        "E"
      ],
      [
        "18",
        "8"
      ],
      [
        "sc",
        "m"
      ],
      [
        "\"",
        "/"
      ],
      [
        "\"",
        ")"
      ],
      [
        "18",
        "2"
      ],
      [
        "19",
        "2"
      ],
      [
        "17",
        "8"
      ],
      [
        "en",
        "a"
      ],
      [
        "S",
        "U"
      ],
      [
        "Ġ",
        "q"
      ],
      [
        "AS",
        "T"
      ],
      [
        "ĠØ",
        "³"
      ],
      [
        "18",
        "7"
      ],
      [
        "N",
        "Y"
      ],
      [
        "N",
        "M"
      ],
      [
        "40",
        "9"
      ],
      [
        "28",
        "3"
      ],
      [
        "ĠI",
        "T"
      ],
      [
        "ur",
        "t"
      ],
      [
        "R",
        "em"
      ],
      [
        "ĠÂ",
        "±"
      ],
      [
        "35",
        "2"
      ],
      [
        "B",
        "ut"
      ],
      [
        "n",
        "g"
      ],
      [
        "ĠI",
        "C"
      ],
      [
        "z",
        "er"
      ],
      [
        "F",
        "T"
      ],
      [
        "l",
        "ay"
      ],
      [
        "I",
        "AN"
      ],
      [
        "18",
        "1"
      ],
      [
        "18",
        "3"
      ],
      [
        "ra",
        "b"
      ],
      [
        "c",
        "a"
      ],
      [
        "Ċ",
        "ĉĉ"
      ],
      [
        "l",
        "b"
      ],
      [
        "y",
        "le"
      ],
      [
        "25",
        "1"
      ],
      [
        "ĠN",
        "u"
      ],
      [
        "ht",
        "m"
      ],
      [
        "ad",
        "c"
      ],
      [
        "en",
        "u"
      ],
      [
        "B",
        "L"
      ],
      [
        "16",
        "3"
      ],
      [
        "ĠR",
        "O"
      ],
      [
        "P",
        "OS"
      ],
      [
        "17",
        "2"
      ],
      [
        "ĠE",
        "D"
      ],
      [
        "ub",
        "j"
      ],
      [
        "Ġo",
        "w"
      ],
      [
        "19",
        "7"
      ],
      [
        "h",
        "o"
      ],
      [
        "G",
        "O"
      ],
      [
        "*",
        "("
      ],
      [
        "ĠC",
        "y"
      ],
      [
        "95",
        "8"
      ],
      [
        "70",
        "3"
      ],
      [
        "17",
        "1"
      ],
      [
        "19",
        "1"
      ],
      [
        "5",
        "50"
      ],
      [
        "ec",
        "o"
      ],
      [
        "ra",
        "v"
      ],
      [
        "ĠO",
        "H"
      ],
      [
        "u",
        "ff"
      ],
      [
        "ar",
        "p"
      ],
      [
        "2",
        "12"
      ],
      [
        "ri",
        "k"
      ],
      [
        "Ġc",
        "m"
      ],
      [
        "eb",
        "r"
      ],
      [
        "ec",
        "k"
      ],
      [
        "c",
        "od"
      ],
      [
        "G",
        "D"
      ],
      [
        "#",
        "'#"
      ],
      [
        "p",
        "ri"
      ],
      [
        "r",
        "um"
      ],
      [
        "ra",
        "q"
      ],
      [
        "S",
        "ou"
      ],
      [
        "Ġy",
        "e"
      ],
      [
        "IS",
        "H"
      ],
      [
        "Ã³",
        "n"
      ],
      [
        "C",
        "or"
      ],
      [
        "70",
        "6"
      ],
      [
        "ol",
        "o"
      ],
      [
        "5",
        "37"
      ],
      [
        "et",
        "l"
      ],
      [
        "ĠE",
        "S"
      ],
      [
        "\">",
        "<"
      ],
      [
        "Ġ-",
        "."
      ],
      [
        "4",
        "10"
      ],
      [
        "23",
        "9"
      ],
      [
        "u",
        "k"
      ],
      [
        "17",
        "3"
      ],
      [
        "17",
        "7"
      ],
      [
        "s",
        "is"
      ],
      [
        "z",
        "z"
      ],
      [
        "0",
        "28"
      ],
      [
        "ĠN",
        "W"
      ],
      [
        "C",
        "K"
      ],
      [
        "TH",
        "E"
      ],
      [
        "ĠS",
        "U"
      ],
      [
        "Ġc",
        "a"
      ],
      [
        "V",
        "I"
      ],
      [
        "H",
        "O"
      ],
      [
        "4",
        "13"
      ],
      [
        "T",
        "D"
      ],
      [
        "ĠS",
        "Y"
      ],
      [
        "E",
        "EC"
      ],
      [
        "37",
        "1"
      ],
      [
        "AS",
        "H"
      ],
      [
        "s",
        "im"
      ],
      [
        "Î",
        "¼"
      ],
      [
        "Ġ",
        "ic"
      ],
      [
        "m",
        "il"
      ],
      [
        "A",
        "IR"
      ],
      [
        "AN",
        "K"
      ],
      [
        "IG",
        "S"
      ],
      [
        ".",
        "</"
      ],
      [
        "ĠO",
        "p"
      ],
      [
        "g",
        "a"
      ],
      [
        "18",
        "9"
      ],
      [
        "2",
        "14"
      ],
      [
        "V",
        "IS"
      ],
      [
        "D",
        "o"
      ],
      [
        "i",
        "et"
      ],
      [
        "ĠĊ",
        "Ġ"
      ],
      [
        "n",
        "ed"
      ],
      [
        "OR",
        "S"
      ],
      [
        "L",
        "P"
      ],
      [
        "26",
        "7"
      ],
      [
        "b",
        "el"
      ],
      [
        "35",
        "1"
      ],
      [
        "37",
        "5"
      ],
      [
        "Ġe",
        "p"
      ],
      [
        "S",
        "p"
      ],
      [
        "S",
        "B"
      ],
      [
        "\"/",
        ">"
      ],
      [
        "e",
        "ur"
      ],
      [
        "24",
        "7"
      ],
      [
        ".",
        "),"
      ],
      [
        "25",
        "6"
      ],
      [
        "ĠI",
        "R"
      ],
      [
        "4",
        "70"
      ],
      [
        "3",
        "90"
      ],
      [
        ";",
        "%"
      ],
      [
        "26",
        "6"
      ],
      [
        "4",
        "20"
      ],
      [
        "t",
        "a"
      ],
      [
        "th",
        "s"
      ],
      [
        "un",
        "s"
      ],
      [
        "th",
        "w"
      ],
      [
        "os",
        "u"
      ],
      [
        "ah",
        "o"
      ],
      [
        "40",
        "6"
      ],
      [
        "le",
        "e"
      ],
      [
        "ri",
        "x"
      ],
      [
        "Ġ",
        "ut"
      ],
      [
        "9",
        "80"
      ],
      [
        "ir",
        "y"
      ],
      [
        "OC",
        "K"
      ],
      [
        "2",
        "13"
      ],
      [
        "ul",
        "k"
      ],
      [
        "E",
        "u"
      ],
      [
        "g",
        "el"
      ],
      [
        "17",
        "9"
      ],
      [
        "19",
        "3"
      ],
      [
        "n",
        "i"
      ],
      [
        "ĠG",
        "R"
      ],
      [
        "25",
        "8"
      ],
      [
        "ad",
        "l"
      ],
      [
        "s",
        "k"
      ],
      [
        "26",
        "5"
      ],
      [
        "ac",
        "u"
      ],
      [
        "N",
        "C"
      ],
      [
        "2",
        "99"
      ],
      [
        "5",
        "39"
      ],
      [
        "8",
        "40"
      ],
      [
        "T",
        "X"
      ],
      [
        "AR",
        "B"
      ],
      [
        "Ø",
        "·"
      ],
      [
        "26",
        "4"
      ],
      [
        "n",
        "at"
      ],
      [
        "p",
        "y"
      ],
      [
        "i",
        "od"
      ],
      [
        "Ġ<",
        "."
      ],
      [
        "G",
        "o"
      ],
      [
        "Ġm",
        "a"
      ],
      [
        "ĠB",
        "O"
      ],
      [
        "S",
        "o"
      ],
      [
        "s",
        "or"
      ],
      [
        "A",
        "ut"
      ],
      [
        "L",
        "e"
      ],
      [
        "m",
        "ic"
      ],
      [
        "35",
        "7"
      ],
      [
        "4",
        "80"
      ],
      [
        ")",
        ".."
      ],
      [
        "B",
        "C"
      ],
      [
        "b",
        "a"
      ],
      [
        "J",
        "I"
      ],
      [
        "c",
        "at"
      ],
      [
        "D",
        "P"
      ],
      [
        "b",
        "al"
      ],
      [
        "%",
        "%"
      ],
      [
        "3",
        "28"
      ],
      [
        "Ġo",
        "u"
      ],
      [
        "Ù",
        "Ĵ"
      ],
      [
        "U",
        "s"
      ],
      [
        "ĠF",
        "O"
      ],
      [
        "th",
        "y"
      ],
      [
        "UN",
        "T"
      ],
      [
        "6",
        "50"
      ],
      [
        "ï",
        "Ģ"
      ],
      [
        "x",
        "A"
      ],
      [
        "s",
        "ys"
      ],
      [
        "34",
        "4"
      ],
      [
        "H",
        "OC"
      ],
      [
        "ur",
        "i"
      ],
      [
        "60",
        "2"
      ],
      [
        "]",
        "]"
      ],
      [
        "Ø",
        "²"
      ],
      [
        "on",
        "o"
      ],
      [
        "T",
        "M"
      ],
      [
        "S",
        "H"
      ],
      [
        "33",
        "1"
      ],
      [
        "70",
        "7"
      ],
      [
        "ĠS",
        "k"
      ],
      [
        "ur",
        "a"
      ],
      [
        "4",
        "23"
      ],
      [
        "b",
        "ef"
      ],
      [
        "ep",
        "a"
      ],
      [
        "L",
        "O"
      ],
      [
        "Ã",
        "®"
      ],
      [
        "2",
        "15"
      ],
      [
        "J",
        "an"
      ],
      [
        "0",
        "90"
      ],
      [
        "os",
        "a"
      ],
      [
        "o",
        "bj"
      ],
      [
        "5",
        "10"
      ],
      [
        "ak",
        "s"
      ],
      [
        "B",
        "M"
      ],
      [
        "E",
        "O"
      ],
      [
        "3",
        "30"
      ],
      [
        "ĠN",
        "M"
      ],
      [
        "28",
        "8"
      ],
      [
        "LE",
        "M"
      ],
      [
        "G",
        "e"
      ],
[...]
