{"<|start|>":0,"<|end|>":1,"<|pad|>":2,"<|unk|>":3,"<|sep|>":4,"<|cls|>":5,"<|mask|>":6,"<|system|>":7,"</|system|>":8,"<|user|>":9,"</|user|>":10,"<|instruction|>":11,"</|instruction|>":12,"\u0000":13,"\u0001":14,"\u0002":15,"\u0003":16,"\u0004":17,"\u0005":18,"\u0006":19,"\u0007":20,"\b":21,"\t":22,"\n":23,"\u000b":24,"\f":25,"\r":26,"\u000e":27,"\u000f":28,"\u0010":29,"\u0011":30,"\u0012":31,"\u0013":32,"\u0014":33,"\u0015":34,"\u0016":35,"\u0017":36,"\u0018":37,"\u0019":38,"\u001a":39,"\u001b":40,"\u001c":41,"\u001d":42,"\u001e":43,"\u001f":44," ":45,"!":46,"\"":47,"#":48,"$":49,"%":50,"&":51,"'":52,"(":53,")":54,"*":55,"+":56,",":57,"-":58,".":59,"/":60,"0":61,"1":62,"2":63,"3":64,"4":65,"5":66,"6":67,"7":68,"8":69,"9":70,":":71,";":72,"<":73,"=":74,">":75,"?":76,"@":77,"A":78,"B":79,"C":80,"D":81,"E":82,"F":83,"G":84,"H":85,"I":86,"J":87,"K":88,"L":89,"M":90,"N":91,"O":92,"P":93,"Q":94,"R":95,"S":96,"T":97,"U":98,"V":99,"W":100,"X":101,"Y":102,"Z":103,"[":104,"\\":105,"]":106,"^":107,"_":108,"`":109,"a":110,"b":111,"c":112,"d":113,"e":114,"f":115,"g":116,"h":117,"i":118,"j":119,"k":120,"l":121,"m":122,"n":123,"o":124,"p":125,"q":126,"r":127,"s":128,"t":129,"u":130,"v":131,"w":132,"x":133,"y":134,"z":135,"{":136,"|":137,"}":138,"~":139,"":140,"":141,"":142,"":143,"":144,"":145,"":146,"":147,"":148,"":149,"":150,"":151,"":152,"":153,"":154,"":155,"":156,"":157,"":158,"":159,"":160,"":161,"":162,"":163,"":164,"":165,"":166,"":167,"":168,"":169,"":170,"":171,"":172," ":173,"¡":174,"¢":175,"£":176,"¤":177,"¥":178,"¦":179,"§":180,"¨":181,"©":182,"ª":183,"«":184,"¬":185,"­":186,"®":187,"¯":188,"°":189,"±":190,"²":191,"³":192,"´":193,"µ":194,"¶":195,"·":196,"¸":197,"¹":198,"º":199,"»":200,"¼":201,"½":202,"¾":203,"¿":204,"À":205,"Á":206,"Â":207,"Ã":208,"Ä":209,"Å":210,"Æ":211,"Ç":212,"È":213,"É":214,"Ê":215,"Ë":216,"Ì":217,"Í":218,"Î":219,"Ï":220,"Ð":221,"Ñ":222,"Ò":223,"Ó":224,"Ô":225,"Õ":226,"Ö":227,"×":228,"Ø":229,"Ù":230,"Ú":231,"Û":232,"Ü":233,"Ý":234,"Þ":235,"ß":236,"à":237,"á":238,"â":239,"ã":240,"ä":241,"å":242,"æ":243,"ç":244,"è":245,"é":246,"ê":247,"ë":248,"ì":249,"í":250,"î":251,"ï":252,"ð":253,"ñ":254,"ò":255,"ó":256,"ô":257,"õ":258,"ö":259,"÷":260,"ø":261,"ù":262,"ú":263,"û":264,"ü":265,"ý":266,"þ":267,"Ā":268,"ā":269,"Ă":270,"ă":271,"Ą":272,"ą":273,"Ć":274,"ć":275,"Ĉ":276,"ĉ":277,"Ċ":278,"ċ":279,"Č":280,"č":281,"Ď":282,"ď":283,"Đ":284,"đ":285,"Ē":286,"ē":287,"Ĕ":288,"ĕ":289,"Ė":290,"ė":291,"ę":292,"Ě":293,"ě":294,"Ĝ":295,"ĝ":296,"Ğ":297,"ğ":298,"Ġ":299,"ġ":300,"Ģ":301,"ģ":302,"Ĥ":303,"ĥ":304,"Ħ":305,"ħ":306,"Ĩ":307,"ĩ":308,"Ī":309,"ī":310,"Ĭ":311,"ĭ":312,"Į":313,"į":314,"İ":315,"ı":316,"Ĳ":317,"ĳ":318,"Ĵ":319,"ĵ":320,"Ķ":321,"ķ":322,"ĸ":323,"Ĺ":324,"ĺ":325,"Ļ":326,"ļ":327,"Ľ":328,"ľ":329,"Ŀ":330,"ŀ":331,"Ł":332,"ł":333,"Ń":334,"ĠĠ":335,"Ġt":336,"Ġa":337,"in":338,"..":339,"he":340,"on":341,"re":342,"Ġo":343,"er":344,"ti":345,"en":346,"--":347,"Ġs":348,"or":349,"ed":350,"Ġp":351,"es":352,"Ġc":353,"al":354,"Ġof":355,"at":356,"is":357,"an":358,"Ġan":359,"Ġin":360,"it":361,"Ġf":362,"ar":363,"Ġb":364,"ing":365,"Ġ1":366,"ro":367,"Ġw":368,"ic":369,"Ġto":370,"ĠĊ":371,"Ġd":372,"ent":373,"ec":374,"Ġm":375,"ati":376,"Ġre":377,"Ġ2":378,"le":379,"00":380,"as":381,"Ġ(":382,"Ġe":383,"ou":384,"Ġth":385,"âĢ":386,"ĠS":387,"ĠC":388,"ĠA":389,"om":390,"Ġn":391,"##":392,"ce":393,"ons":394,"&#":395,"il":396,"Ġ.":397,"Ġor":398,"ve":399,"st":400,"Ġbe":401,"ĠT":402,"Ġl":403,"Ġh":404,"id":405,"ur":406,"__":407,"Ġ3":408,"un":409,"ĠI":410,"et":411,"ot":412,"ol":413,"ac":414,"ĠP":415,"Ġis":416,"im":417,"ly":418,"Ġsu":419,"Ġ0":420,"se":421,"ate":422,"Ġas":423,"ut":424,"ĠF":425,"ra":426,"pp":427,"ul":428,"ch":429,"ith":430,"ĠĠĠ":431,"ab":432,"Ġ4":433,"ĠM":434,"Ġon":435,"ay":436,"Ġby":437,"ĠD":438,"ig":439,"ĠR":440,"ers":441,"em":442,"qu":443,"ct":444,"Ġg":445,"the":446,"ag":447,"el":448,"01":449,"ow":450,"ĠN":451,"ir":452,"ĠE":453,"ect":454,"ter":455,"if":456,"od":457,"Ġ5":458,"ri":459,"um":460,"am":461,"res":462,"us":463,"os":464,"**":465,"ity":466,"iti":467,"Ġst":468,"ver":469,"ion":470,"der":471,"Ġex":472,"xD":473,"ess":474,"ad":475,"and":476,"ont":477,"Ġun":478,"Ġ19":479,"ĠĠĊ":480,"Ġ6":481,"Ġsh":482,"red":483,"ĠO":484,"ĠB":485,"ĠâĢ":486,"ort":487,"Ġwh":488,"ist":489,"all":490,"oc":491,"ain":492,"ant":493,"Ġv":494,"end":495,"du":496,"Ġde":497,"omp":498,"Ġac":499,"oun":500,"Ġal":501,"art":502,"Ġat":503,";&#":504,"orm":505,"ud":506,"omm":507,"ff":508,"Ġr":509,"ĠU":510,"est":511,"ĠIn":512,"rom":513,"Ġ7":514,"ĠL":515,"sp":516,"ure":517,"10":518,"ĠH":519,"###":520,"ĠW":521,"Ġ8":522,"rov":523,"per":524,"),":525,"Ġit":526,"Ġ9":527,"ere":528,"ich":529,"ill":530,"our":531,"tic":532,"ĊĊ":533,"th":534,"Ġy":535,"iv":536,"16":537,"ĠG":538,"ore":539,"cl":540,"âĢĻ":541,"12":542,"Ġ-":543,"ary":544,"ĠSt":545,"ard":546,"ial":547,"19":548,"pl":549,"ire":550,"ub":551,"Ġad":552,"ord":553,"Ġhe":554,"ep":555,"ld":556,"20":557,"ber":558,"op":559,"igh":560,"ies":561,"000":562,"ak":563,"ice":564,"age":565,"ans":566,"Ġha":567,"ear":568,"11":569,"lic":570,"ge":571,"Ġen":572,"ust":573,"act":574,"Ġ10":575,"ew":576,"cti":577,"âĢĶ":578,"ase":579,"erm":580,"Ġch":581,"pos":582,"erv":583,"23":584,"Ġu":585,"Ġsp":586,"ap":587,"95":588,"ip":589,"ond":590,"low":591,"tit":592,"iss":593,"bs":594,"ĠJ":595,"Ġim":596,"ph":597,"22":598,"ine":599,"96":600,"Ġle":601,"Ġme":602,"ied":603,")(":604,"Ġ**":605,"200":606,").":607,"ts":608,"13":609,"iz":610,"ue":611,"ign":612,"ĊĠĠ":613,"ON":614,"eg":615,"Ġpl":616,"ass":617,"Ġam":618,"ual":619,"ee":620,"15":621,"tif":622,"14":623,"94":624,"ef":625,"25":626,"ide":627,"ru":628,"her":629,"ted":630,"og":631,"Ġcl":632,"Ġus":633,"Ġ|":634,"17":635,"ex":636,"24":637,"ens":638,"The":639,"30":640,"ĠV":641,"ER":642,".&#":643,"Ġtr":644,"Ġ..":645,"ail":646,"ll":647,"ĠUn":648,"ach":649,"Ġab":650,"ib":651,"201":652,"Ġ$":653,"Ġem":654,"ost":655,"99":656,"roc":657,"18":658,"are":659,"rib":660,"âĢĿ":661,"to":662,"Ġar":663,"Ġ20":664,"ous":665,"ast":666,"enc":667,"vel":668,"ram":669,"ric":670,"Ġag":671,"ose":672,"ry":673,"rop":674,"uti":675,"Ġno":676,"TI":677,"hen":678,"ome":679,"rou":680,"50":681,"Ġ12":682,"ork":683,"gh":684,"ĠÙ":685,"Ġ&#":686,"rog":687,"und":688,"anc":689,"Ġ13":690,"hor":691,"Ġ14":692,"160":693,"In":694,"Ġwe":695,"ia":696,"ĠØ":697,"âĢĵ":698,"li":699,"Ġ<":700,"ell":701,"vi":702,"ory":703,"26":704,"EN":705,"ty":706,"ata":707,"Ġ15":708,"ov":709,"yst":710,"out":711,"27":712,"ple":713,"Ġqu":714,"28":715,"erc":716,"40":717,"ime":718,"ace":719,"ove":720,"Ġif":721,"Ġ18":722,"ES":723,"nt":724,"Ġ16":725,"ors":726,"su":727,"ong":728,"any":729,"90":730,"ood":731,"Ġk":732,"OR":733,"of":734,"Â§":735,"33":736,"Ġi":737,"\",":738,"Ġdo":739,"ĠTh":740,"ade":741,"ult":742,"ack":743,"=\"":744,"IN":745,"Ġj":746,"pti":747,".,":748,"ven":749,"ark":750,"...":751,"ish":752,"Ġ17":753,"oy":754,"97":755,"one":756,"ax":757,"80":758,"35":759,"au":760,"fer":761,"che":762,"ise":763,"Ġ--":764,"ÙĦ":765,"Ġpr":766,"AR":767,"Ġ11":768,"pe":769,"21":770,"eri":771,"pt":772,"AL":773,"its":774,"ĠCh":775,"Ķ-":776,"==":777,"ĠAn":778,"\",\"":779,"ive":780,"60":781,"AN":782,"ake":783,"ame":784,"itt":785,"ock":786,"98":787,"cc":788,"so":789,"abl":790,"gul":791,"Ġso":792,"ĠK":793,"38":794,"</":795,"34":796,"70":797,"ang":798,"'s":799,"Ġel":800,"ann":801,"tim":802,"ss":803,"int":804,"Ġ30":805,"eed":806,"ĠNo":807,"lat":808,"36":809,"qui":810,"AT":811,"82":812,"Ġ[":813,"45":814,"Ġco":815,"eth":816,"aw":817,"37":818,"min":819,"cre":820,"ite":821,"FR":822,"rol":823,"ys":824,"fic":825,"ech":826,"ces":827,"ree":828,"IS":829,"ank":830,"av":831,"EC":832,"Sch":833,"86":834,"own":835,"als":836,"Ø§":837,"ind":838,"âĢ¢":839,"55":840,"old":841,"lem":842,"bj":843,"Ġse":844,"ile":845,"Ġ,":846,"hey":847,"PA":848,"we":849,"oll":850,"ext":851,"ild":852,"cts":853,"nce":854,"ara":855,"rad":856,"Ġ24":857,"âĢĺ":858,"rot":859,"Ġ25":860,"75":861,"Ġli":862,"88":863,"ĠAm":864,"isc":865,"esc":866,"ĠY":867,"05":868,"ret":869,"29":870,"onc":871,"af":872,"ves":873,"ĠAd":874,"arg":875,"44":876,"ert":877,"for":878,"ii":879,"Ġev":880,"IC":881,"ED":882,")**":883,"ude":884,"ĠEn":885,"Ġaf":886,"ppl":887,"isi":888,"Ġup":889,"aim":890,"46":891,"hed":892,"rat":893,"85":894,"not":895,"ĊĠ":896,"ke":897,"76":898,"wn":899,"AS":900,"ĠÂ§":901,"ix":902,"31":903,"pro":904,"ww":905,"Ġ26":906,"ari":907,"Ġro":908,"onf":909,"ĠEx":910,"onn":911,"sh":912,"Ġ40":913,"sec":914,"74":915,"tt":916,"ĠCO":917,"Ġgo":918,"hem":919,"air":920,"rea":921,"Ġty":922,"39":923,"ule":924,"ĠOF":925,"bt":926,"ĠRe":927,"aid":928,"ked":929,"77":930,"erg":931,"Ġ21":932,"06":933,"edu":934,"yl":935,"ute":936,"vol":937,"IT":938,"ays":939,"irc":940,"\">":941,"iff":942,"oss":943,"56":944,"Ġav":945,"duc":946,"Ġ28":947,"ĠAr":948,"Ġ\"":949,"Ġid":950,"32":951,"eal":952,"par":953,"UR":954,"pr":955,"04":956,"92":957,"te":958,"div":959,"78":960,"ne":961,"me":962,"por":963,"AC":964,"ran":965,"Ġ22":966,"93":967,"twe":968,"tiv":969,"IG":970,"ĉĉ":971,"ĠAg":972,");":973,"RO":974,"dic":975,"mit":976,"gan":977,"oci":978,"ici":979,"erf":980,"Ġ*":981,"ÙĨ":982,"lev":983,"84":984,"91":985,"wo":986,"ENT":987,"nm":988,"54":989,"Ġfl":990,"81":991,"Ġ27":992,"ob":993,"urn":994,"ÙĬ":995,"aym":996,"Ġ23":997,"Ġsc":998,"oth":999,"ink":1000,"arm":1001,"ren":1002,"alu":1003,"Ġ&":1004,"Ùħ":1005,"ND":1006,"66":1007,"ĠFR":1008,"87":1009,"tem":1010,"fin":1011,"ĠPl":1012,"Ġet":1013,"ps":1014,"ets":1015,"ĠĊĊ":1016,"ATI":1017,"ode":1018,"Not":1019,"onm":1020,"vis":1021,"ern":1022,"---":1023,"anu":1024,"Ġ50":1025,"Ġdi":1026,"ft":1027,"ale":1028,"ĠCl":1029,"ety":1030,"ok":1031,"LE":1032,"Ġ:":1033,",,":1034,"Ġes":1035,"II":1036,"ĠAl":1037,"ier":1038,"Ġ31":1039,"89":1040,"roj":1041,"72":1042,"Ġve":1043,"ten":1044,"65":1045,"gov":1046,"lt":1047,"¿½":1048,"ï¿½":1049,"ĊĊĊ":1050,"rit":1051,"ash":1052,"Ġgr":1053,"ser":1054,"eld":1055,"Ġlo":1056,"ĠIN":1057,"med":1058,"ref":1059,"vir":1060,"Ġpe":1061,"US":1062,"Ġph":1063,"Ġ35":1064,"No":1065,"Ġpo":1066,"sel":1067,"64":1068,"07":1069,"02":1070,"||":1071,"Ġop":1072,"ium":1073,"ĠCo":1074,"ĠOr":1075,"ems":1076,"ie":1077,"ean":1078,"hip":1079,"app":1080,"til":1081,"rec":1082,"ĠWe":1083,"ize":1084,"ĠIf":1085,"09":1086,"47":1087,"tr":1088,"Ġfe":1089,"83":1090,"ĠØ§":1091,"005":1092,"bod":1093,"ĠQ":1094,"de":1095,"ïģ":1096,"ton":1097,"03":1098,"ily":1099,"opm":1100,"ian":1101,"amp":1102,"led":1103,"up":1104,"ug":1105,"Ġvi":1106,"Ġ29":1107,"Ġkn":1108,"EL":1109,"Ġ36":1110,"nb":1111,"ox":1112,"les":1113,"100":1114,"Th":1115,"omb":1116,"get":1117,"08":1118,"inc":1119,"bst":1120,"cem":1121,"An":1122,"rep":1123,"isk":1124,"//":1125,"EM":1126,"ath":1127,"ien":1128,"owe":1129,"be":1130,"cil":1131,"Ġ__":1132,"tal":1133,"Ġra":1134,"io":1135,"002":1136,"42":1137,"row":1138,"ron":1139,"Ùĩ":1140,"ogy":1141,"79":1142,"ĠEu":1143,".)":1144,"Ġ#":1145,"48":1146,"ipm":1147,"006":1148,"rem":1149,"by":1150,"Ġbl":1151,"ĠX":1152,"reg":1153,"ĠAs":1154,"co":1155,"007":1156,"010":1157,"inu":1158,"hic":1159,"://":1160,"Ġgu":1161,"Ġ45":1162,"41":1163,"003":1164,"IL":1165,"Sec":1166,"71":1167,"233":1168,"St":1169,"ĠSu":1170,"49":1171,"001":1172,"AM":1173,"43":1174,"ĠÂ":1175,"sub":1176,"59":1177,"pec":1178,"man":1179,"73":1180,"put":1181,"TR":1182,"ING":1183,"CO":1184,"equ":1185,"alc":1186,"ĠNO":1187,"CFR":1188,"riv":1189,"Ġ42":1190,"ify":1191,"rob":1192,"orn":1193,"ĠDe":1194,"emb":1195,"AP":1196,"TH":1197,"urp":1198,"urf":1199,"tru":1200,"âĢľ":1201,"fl":1202,"Ġ60":1203,"Ġsm":1204,"Ø±":1205,"sul":1206,"009":1207,"ck":1208,"ote":1209,"Sub":1210,"ĠUS":1211,"AA":1212,"012":1213,"008":1214,"Ġ)":1215,"ĠIt":1216,"ris":1217,"ees":1218,"Ġ39":1219,"UM":1220,"RE":1221,"ool":1222,"004":1223,"Ġ32":1224,"une":1225,"bl":1226,"ane":1227,"asu":1228,",&#":1229,"ism":1230,"Ġbu":1231,"rim":1232,"oti":1233,"ful":1234,"67":1235,"ĠTH":1236,"ins":1237,"58":1238,"52":1239,"rof":1240,"ÙĪ":1241,"Ġ41":1242,"53":1243,"ody":1244,"nol":1245,"Ġ33":1246,"wh":1247,"68":1248,"013":1249,"ĠMr":1250,"57":1251,"aj":1252,"arb":1253,"www":1254,"ett":1255,"eng":1256,"Ġ34":1257,"sed":1258,"ds":1259,"ĠBo":1260,"rw":1261,"51":1262,"ha":1263,"Ġ/":1264,"uel":1265,"eb":1266,"Ġec":1267,"ĠSc":1268,"ĠTr":1269,"ick":1270,"ID":1271,"OL":1272,"011":1273,"Ġ44":1274,"Ġz":1275,"att":1276,"Ġ38":1277,"Ġ=":1278,"Ġ43":1279,"ods":1280,"ÙĦØ":1281,"icy":1282,"63":1283,"62":1284,"cur":1285,"yd":1286,"945":1287,"fen":1288,"CH":1289,"nal":1290,"Ġ37":1291,"vic":1292,"gin":1293,"ĠII":1294,"69":1295,"aff":1296,"sid":1297,"sur":1298,"leg":1299,"atm":1300,"ury":1301,"OC":1302,"ĠGo":1303,"rel":1304,"ull":1305,"ife":1306,"mm":1307,"tig":1308,"den":1309,"way":1310,"uly":1311,"61":1312,"IV":1313,"whe":1314,"TA":1315,"inf":1316,"014":1317,"964":1318,"irt":1319,"cle":1320,"@@":1321,"Ġfi":1322,"Ġte":1323,"EP":1324,"ead":1325,"015":1326,"ole":1327,"hes":1328,"AD":1329,"999":1330,"For":1331,"IP":1332,"arn":1333,"ene":1334,"rox":1335,"eek":1336,"IR":1337,"rn":1338,"ĠÙĪ":1339,"Ġla":1340,"ral":1341,"Ø¨":1342,"Ġer":1343,"CC":1344,"oym":1345,"gg":1346,"lor":1347,"ĠST":1348,"str":1349,"959":1350,"ved":1351,"ST":1352,"vey":1353,"arc":1354,"OJ":1355,"ded":1356,"alf":1357,"NA":1358,"Ġ49":1359,"ĠWh":1360,"DA":1361,"Ø³":1362,"Ġ46":1363,"sc":1364,"ars":1365,"rs":1366,"Ch":1367,"Ġ47":1368,"Ġ48":1369,"ĠEm":1370,"ET":1371,"Ġ63":1372,"udy":1373,"Ġ51":1374,"ask":1375,"hib":1376,"953":1377,"Ġsl":1378,"aus":1379,"nic":1380,"els":1381,"Ġ54":1382,"ONS":1383,"Ġ55":1384,"ecl":1385,"UN":1386,"htt":1387,"ird":1388,"day":1389,"Ġx":1390,"uch":1391,"Ġ52":1392,"see":1393,"rev":1394,"500":1395,"Ġ53":1396,"ubl":1397,"ATE":1398,"Un":1399,"irm":1400,"UL":1401,"cy":1402,"acc":1403,"opy":1404,"sem":1405,"ym":1406,"ume":1407,"esp":1408,"ues":1409,"Ġ64":1410,"ĠEl":1411,"mov":1412,"sf":1413,"IF":1414,"CE":1415,"gl":1416,"cor":1417,"Ġ01":1418,"eli":1419,"TS":1420,"``":1421,"Ġbo":1422,"Ġne":1423,"Ø¯":1424,"eti":1425,"Ġ65":1426,"Ø¹":1427,"ah":1428,"PP":1429,"MM":1430,"az":1431,"Ex":1432,"sue":1433,"949":1434,"ĠIs":1435,"ĠTO":1436,"ĠIm":1437,"ïģ²":1438,"lie":1439,"iqu":1440,"ĠPt":1441,"957":1442,"Ġwr":1443,"ĠZ":1444,"Ġbr":1445,"yn":1446,"eas":1447,"ner":1448,"Ġaw":1449,"fr":1450,"raw":1451,"CR":1452,"Ġed":1453,"ogn":1454,"Mr":1455,"osp":1456,"sol":1457,"TER":1458,"uty":1459,"etw":1460,"hs":1461,"Ġ56":1462,"rug":1463,"acy":1464,"ĠSh":1465,"OS":1466,"ave":1467,"Ġ61":1468,"use":1469,"OD":1470,"Ġke":1471,"ÙĤ":1472,"GE":1473,"225":1474,"try":1475,"loc":1476,"tra":1477,"con":1478,"ĠPh":1479,"If":1480,"Al":1481,"GR":1482,"ope":1483,"Ġjo":1484,"uss":1485,"MP":1486,"___":1487,"ĠÎ":1488,"ght":1489,"Ġ00":1490,"Ġ62":1491,"ady":1492,"Ġ70":1493,"ery":1494,"ev":1495,"uts":1496,"ns":1497,"ina":1498,"ble":1499,"gis":1500,"ĠTo":1501,"ĠÙħ":1502,"ĠGu":1503,"Whe":1504,"SE":1505,"IA":1506,"uit":1507,"Øª":1508,"Ġ+":1509,"ppo":1510,"Ġ80":1511,"dep":1512,"lex":1513,"Ġ59":1514,"isp":1515,"bas":1516,";&":1517,"udg":1518,"umb":1519,"fe":1520,"ĠRi":1521,"ats":1522,"pic":1523,"Ġ90":1524,"oad":1525,"Â°":1526,"Ġ57":1527,"Ġ58":1528,"let":1529,"do":1530,"ml":1531,"TE":1532,"SP":1533,"sw":1534,"):":1535,"ĠAt":1536,"go":1537,"com":1538,"ĠOn":1539,"ĠID":1540,"Ġbi":1541,"App":1542,"ESS":1543,"Ġ75":1544,"016":1545,".]":1546,"ept":1547,"off":1548,"Ġss":1549,"Ġâ":1550,"lp":1551,"CA":1552,"aly":1553,"Ġ66":1554,"ĠPM":1555,"ror":1556,"Ġmy":1557,"cto":1558,"itu":1559,"otl":1560,"oh":1561,"rid":1562,"teg":1563,"Am":1564,"ior":1565,"))":1566,"951":1567,"ics":1568,"ĠRE":1569,"PS":1570,"Ùĥ":1571,"gen":1572,"Num":1573,"oms":1574,"961":1575,"ai":1576,"tro":1577,"Ùİ":1578,"MS":1579,"Ġsw":1580,"oid":1581,"gal":1582,"wat":1583,"017":1584,"ott":1585,"ĠPr":1586,"cid":1587,"EU":1588,"Ġ'":1589,"ĠSp":1590,"963":1591,"cal":1592,"960":1593,"ĠÙİ":1594,"ley":1595,"Ġfr":1596,"lin":1597,"As":1598,"pd":1599,"eff":1600,"phs":1601,"vem":1602,"LL":1603,"urb":1604,"ews":1605,"ĠØ£":1606,"ĠEN":1607,"ows":1608,"Ġ</":1609,"018":1610,"Ad":1611,"ĠAD":1612,"tab":1613,"pes":1614,"ART":1615,"iii":1616,"Ġgl":1617,"ERS":1618,"set":1619,"tri":1620,"En":1621,"ĠGe":1622,"igu":1623,"ĠØ¨":1624,"FIG":1625,"sts":1626,"FOR":1627,"urs":1628,"ney":1629,"Ø©":1630,"ray":1631,"tak":1632,"gs":1633,"Reg":1634,"sum":1635,"SA":1636,"RA":1637,"ĠØ¹":1638,"243":1639,"Tit":1640,"ĠSo":1641,"ĠÃ":1642,"agn":1643,"arr":1644,"Ġsk":1645,"IM":1646,"ica":1647,",-":1648,"FF":1649,"Cl":1650,"tu":1651,"edI":1652,"son":1653,"CL":1654,"ĠÙģ":1655,"Ġ_":1656,"Tab":1657,"|||":1658,"org":1659,"Sc":1660,"Ref":1661,"Ġpp":1662,"Ġ%":1663,"ili":1664,"det":1665,"300":1666,"ĠNA":1667,"Ġ!":1668,"Tot":1669,"DE":1670,"Ùģ":1671,"oot":1672,"ĠOR":1673,"962":1674,"ĠHe":1675,"ĠDo":1676,"OP":1677,"954":1678,"ĠÙĦ":1679,"ĠCH":1680,"enn":1681,"inn":1682,"ctu":1683,"AB":1684,"ads":1685,"atu":1686,"400":1687,"ĠÎ¼":1688,"hol":1689,"ĠAf":1690,"elf":1691,"dom":1692,"OM":1693,"Ġ72":1694,"250":1695,"ced":1696,"Ġ99":1697,"SS":1698,"ĠMe":1699,"ana":1700,"ĠLe":1701,"ler":1702,"AND":1703,"no":1704,"Ġ68":1705,"IB":1706,"VE":1707,"ĠAC":1708,"237":1709,"ĠGr":1710,"Ġ95":1711,"ĠFl":1712,"eds":1713,"umm":1714,"Ġ67":1715,"po":1716,"ipp":1717,"ino":1718,"van":1719,".\"":1720,"unt":1721,"pdf":1722,"ĠBl":1723,"Ġir":1724,"110":1725,"gt":1726,"fi":1727,"ION":1728,"Ġ93":1729,"NG":1730,"ype":1731,"EPA":1732,"ttp":1733,"594":1734,"Ġ91":1735,"EA":1736,"Ġ74":1737,"ump":1738,"ony":1739,"Ġ98":1740,"Ġge":1741,"ief":1742,"Ġcr":1743,"ĠDC":1744,"ĠSO":1745,"956":1746,"Fed":1747,"alk":1748,"ITY":1749,")-":1750,"965":1751,"Wh":1752,"Ġcy":1753,"val":1754,"bo":1755,"Ġ71":1756,"ĠCD":1757,"OT":1758,"AG":1759,"gro":1760,"381":1761,"gag":1762,".**":1763,"iol":1764,"Ġ85":1765,"ĠEd":1766,"Â·":1767,"''":1768,"Ġ78":1769,"ĠTR":1770,"UB":1771,"ams":1772,"alt":1773,"Ġ84":1774,"Ġ76":1775,"PR":1776,"UC":1777,"Ar":1778,"Inf":1779,"des":1780,"Ġ77":1781,"men":1782,"ids":1783,"We":1784,"dis":1785,"LC":1786,"urg":1787,"Ġ96":1788,"Ġ69":1789,"ĪĴ":1790,"ape":1791,"800":1792,"bly":1793,"mon":1794,"pre":1795,"Mod":1796,"ITI":1797,",\"":1798,"202":1799,"019":1800,"Ġmg":1801,"kg":1802,"pen":1803,"HS":1804,"fol":1805,"UD":1806,"oft":1807,"Yes":1808,"Ġ88":1809,"oly":1810,"url":1811,"aut":1812,"UT":1813,"ibr":1814,"eu":1815,"Ġ73":1816,"eps":1817,"SO":1818,"Ġ05":1819,"ils":1820,"ulf":1821,"ift":1822,"ØŃ":1823,"ĠAc":1824,"230":1825,"nd":1826,"ols":1827,"OW":1828,".;":1829,"Ġ94":1830,"td":1831,"ms":1832,"bm":1833,"ARY":1834,"Ġ89":1835,"čĊ":1836,"aws":1837,"600":1838,"ĠEv":1839,"Ùī":1840,"olt":1841,"224":1842,"gor":1843,"kn":1844,"OE":1845,"bse":1846,"mal":1847,"ĠSH":1848,"ĠSm":1849,"imp":1850,"ONT":1851,"Ġ92":1852,"TC":1853,"cv":1854,"ĠId":1855,"Ġ97":1856,"ico":1857,"CS":1858,"ĠDE":1859,"Fig":1860,"emn":1861,"NE":1862,"orw":1863,"may":1864,"ĠAR":1865,"ĠEU":1866,"228":1867,"Ġ87":1868,"120":1869,"Ġ81":1870,"Res":1871,"Ġ79":1872,"Ġpa":1873,"ht":1874,"Ġ``":1875,"203":1876,"esi":1877,"Ġ82":1878,"ĠSe":1879,"dex":1880,"ĠÙĬ":1881,"LA":1882,"ĠRo":1883,"ado":1884,"ĠBe":1885,"add":1886,"afe":1887,"gy":1888,"Lab":1889,"but":1890,"rag":1891,"Ġ~":1892,"ida":1893,"ung":1894,"cr":1895,"ses":1896,"955":1897,"Re":1898,"END":1899,"enz":1900,"flu":1901,"ĠCA":1902,"PD":1903,"Ġ;":1904,"Ġwa":1905,"ĠAM":1906,"br":1907,"900":1908,"Ġox":1909,"vo":1910,"Ø£":1911,"apt":1912,"::":1913,"ĠUN":1914,"Ġ86":1915,"cri":1916,"my":1917,"rap":1918,"Ġ83":1919,"ĠBu":1920,"ACT":1921,"-.":1922,"On":1923,"ÙĲ":1924,"new":1925,"jud":1926,"AY":1927,"ada":1928,"Pro":1929,"ipl":1930,"ORT":1931,"Co":1932,"uid":1933,"Off":1934,"cou":1935,"ik":1936,"ĠMc":1937,"def":1938,"umn":1939,"Pl":1940,"ĠSE":1941,"ĠIV":1942,"Ġdr":1943,"NO":1944,"bit":1945,"QU":1946,"ĠDr":1947,"ots":1948,"112":1949,"hou":1950,"dul":1951,"Cu":1952,"omy":1953,"URE":1954,"ĠAL":1955,"Ġnu":1956,"ero":1957,"ĠQu":1958,"ĠFr":1959,"ppe":1960,"Ġ02":1961,"net":1962,"All":1963,"tot":1964,"oor":1965,"246":1966,"DIV":1967,"uc":1968,"ein":1969,"lig":1970,"FS":1971,"ma":1972,"vil":1973,"iab":1974,"ĠAN":1975,"TT":1976,"ece":1977,"arv":1978,"tre":1979,"113":1980,"252":1981,"tis":1982,"150":1983,"ĠGA":1984,"ICE":1985,"Ġce":1986,"hel":1987,"700":1988,"101":1989,"ĠEX":1990,"943":1991,"aps":1992,"RC":1993,"tor":1994,"Ġ03":1995,"OG":1996,"Mar":1997,"INE":1998,"Ġri":1999,"Any":2000,"ILL":2001,"227":2002,"105":2003,"mat":2004,"bp":2005,"103":2006,"EST":2007,"ROD":2008,"ze":2009,"eam":2010,"MA":2011,"IAL":2012,"|--":2013,"rig":2014,"âĪĴ":2015,"ush":2016,"ks":2017,"SC":2018,"DR":2019,"ĠBy":2020,"itm":2021,"940":2022,"MB":2023,"igr":2024,"ula":2025,"cep":2026,"Acc":2027,"ĠNE":2028,"Ġ09":2029,"was":2030,"âĢ²":2031,"Ġdu":2032,"xml":2033,"ota":2034,"It":2035,"ros":2036,"Dec":2037,"102":2038,"ERV":2039,"106":2040,")*":2041,"era":2042,"exp":2043,"TY":2044,"ĠPR":2045,"CP":2046,"bch":2047,"104":2048,"col":2049,"Â«":2050,"Ġ>":2051,"ilm":2052,"pay":2053,"bi":2054,"Ø¬":2055,"DS":2056,"itn":2057,"232":2058,"ĠPa":2059,"seh":2060,"130":2061,"REF":2062,"Ŀ.":2063,"onv":2064,"fa":2065,"dat":2066,"ØĮ":2067,"ĠFY":2068,"unn":2069,"**;":2070,"ĠON":2071,"nex":2072,"Gen":2073,"gi":2074,"Ġ06":2075,"Ġ04":2076,"~~":2077,"OH":2078,"ĠÂ·":2079,"yth":2080,"han":2081,"To":2082,"ipt":2083,"IST":2084,"mun":2085,"107":2086,"969":2087,"See":2088,"Ag":2089,"opp":2090,"ECT":2091,"ME":2092,"125":2093,"ĠLo":2094,"115":2095,"Ġil":2096,"bur":2097,"231":2098,"UE":2099,"111":2100,"ĠPL":2101,"que":2102,"mes":2103,"ĠAb":2104,"ĊĠĊ":2105,"Ġ08":2106,"Ġfa":2107,"phy":2108,"BER":2109,"DD":2110,"UTI":2111,"Ġmm":2112,"bor":2113,"PL":2114,".-":2115,"lu":2116,"ïģ´":2117,"pir":2118,"PM":2119,"avy":2120,"Em":2121,"ĠPe":2122,"TAB":2123,"tac":2124,"De":2125,".*":2126,"cm":2127,"ĠJo":2128,"ilt":2129,"Nor":2130,"ïģ¥":2131,"čĠĠ":2132,"ĠÂ°":2133,"iam":2134,"Rep":2135,"ïĤ":2136,"306":2137,"RS":2138,"259":2139,"317":2140,"met":2141,"bre":2142,"ĠVA":2143,"lo":2144,"PH":2145,"ped":2146,"mod":2147,"ona":2148,":**":2149,";,":2150,"972":2151,"121":2152,"zen":2153,"Ġ07":2154,"UND":2155,"FO":2156,"ese":2157,"CON":2158,"947":2159,"ĠPA":2160,"\\/":2161,"xx":2162,"Ss":2163,"IE":2164,"Ran":2165,"utt":2166,"gra":2167,"269":2168,"Pub":2169,"irp":2170,"zed":2171,"Ġft":2172,"948":2173,"iat":2174,"III":2175,"205":2176,"has":2177,"rew":2178,"941":2179,"ENS":2180,"pub":2181,"119":2182,"ohn":2183,"DL":2184,"EX":2185,"elt":2186,"ĠÙĤ":2187,"140":2188,"idd":2189,"ĠEs":2190,"ĠFL":2191,"xic":2192,"ĠLG":2193,"SD":2194,"OUR":2195,"New":2196,"HH":2197,"CD":2198,"Ġmo":2199,"pur":2200,"FD":2201,"GS":2202,"Ġtw":2203,"Ø§Ø":2204,"136":2205,"Ã©":2206,"ger":2207,"HA":2208,"fus":2209,"pol":2210,"CT":2211,"],":2212,"Dep":2213,"UP":2214,"arl":2215,"BS":2216,"oxy":2217,"108":2218,"din":2219,"VER":2220,"ĠGl":2221,"UME":2222,"ĠIS":2223,"pi":2224,"590":2225,"UMM":2226,"num":2227,"ALL":2228,"**,":2229,"%)":2230,"]&#":2231,"ker":2232,"353":2233,"116":2234,"Tr":2235,"voc":2236,"CY":2237,"hly":2238,":*":2239,"942":2240,"Ġrs":2241,"Rec":2242,"ffs":2243,"ipi":2244,"180":2245,"na":2246,"dra":2247,"EAR":2248,"319":2249,"ips":2250,"ĠCr":2251,"122":2252,"gr":2253,"Ġoz":2254,"âĢĲ":2255,"pid":2256,"ģĦ":2257,"pkg":2258,"ASA":2259,"ĠLa":2260,"MAN":2261,"ae":2262,"Ø°":2263,"222":2264,"109":2265,"FL":2266,"Ġyi":2267,"ops":2268,"Par":2269,"Ġhy":2270,"hyd":2271,"-(":2272,"208":2273,"oma":2274,"ĠBL":2275,"oph":2276,"GA":2277,"Ġax":2278,"Ġap":2279,"234":2280,"ANT":2281,"PC":2282,"orb":2283,"yr":2284,"nov":2285,"Act":2286,"cer":2287,"lf":2288,"].":2289,"At":2290,"SI":2291,"114":2292,"lim":2293,"123":2294,"ube":2295,"Af":2296,"wou":2297,"354":2298,"BB":2299,"240":2300,"PER":2301,"cit":2302,"Att":2303,"olv":2304,"ASS":2305,"eel":2306,"Fin":2307,"pon":2308,"ux":2309,"147":2310,"lab":2311,"ĠLA":2312,"rm":2313,"ĠÌ":2314,"cap":2315,"ald":2316,"'#":2317,"206":2318,"SR":2319,"gic":2320,"Ġur":2321,"rd":2322,"ĠBi":2323,"124":2324,"amb":2325,"jac":2326,"ama":2327,"egm":2328,"ey":2329,"ELL":2330,"ixt":2331,"Ġfo":2332,"Sen":2333,"jec":2334,"ki":2335,"orp":2336,"204":2337,"aci":2338,"AF":2339,"cen":2340,"209":2341,"ges":2342,"><":2343,"117":2344,"By":2345,"Id":2346,"ĠBr":2347,"cks":2348,"OO":2349,"eda":2350,"ict":2351,"ĠPo":2352,"VA":2353,"hr":2354,"EE":2355,"ato":2356,"itr":2357,"Ġ##":2358,"nti":2359,"Ph":2360,"ĠDi":2361,"rb":2362,"nte":2363,"IES":2364,"ĠAG":2365,".:":2366,"238":2367,"pow":2368,"uls":2369,"can":2370,"ARD":2371,"127":2372,"PE":2373,"ĠFi":2374,"ÙĢ":2375,"aa":2376,"322":2377,"Su":2378,"raz":2379,"opt":2380,"sm":2381,"ĠØ¥":2382,"146":2383,"CF":2384,"Ã³":2385,"UG":2386,"ĠØª":2387,"XX":2388,"132":2389,"MT":2390,"207":2391,"952":2392,"erk":2393,"sey":2394,"ASE":2395,"ĠSW":2396,"118":2397,"gu":2398,".--":2399,"oul":2400,"Ġnd":2401,"amm":2402,"usi":2403,"ini":2404,"bu":2405,"Def":2406,"133":2407,"ĠAT":2408,"=\"/":2409,"'t":2410,"cru":2411,"oo":2412,"Ġpi":2413,"129":2414,"303":2415,"gre":2416,"ĠDL":2417,"uge":2418,"Btu":2419,"idi":2420,"DC":2421,"TON":2422,"SIS":2423,"382":2424,"170":2425,"ĠÙı":2426,"PO":2427,"Øµ":2428,"doc":2429,")-(":2430,"></":2431,"261":2432,"Ġ]":2433,"866":2434,"142":2435,"ĠVe":2436,"El":2437,"law":2438,"126":2439,"aty":2440,"COM":2441,"380":2442,"Ġ^":2443,"ĠCL":2444,"ANS":2445,"ĠÙĴ":2446,"di":2447,"));":2448,"ĠMs":2449,"bb":2450,"Ms":2451,"BR":2452,"967":2453,"148":2454,"175":2455,"IZ":2456,"327":2457,"Ass":2458,"dem":2459,"318":2460,"ĠDR":2461,"top":2462,"asp":2463,"IO":2464,")]":2465,"ĠÙĥ":2466,"ĠTe":2467,"ĠAv":2468,"LY":2469,"ilk":2470,"%,":2471,"Ġlb":2472,"Ġom":2473,"now":2474,"fit":2475,"309":2476,"gum":2477,"305":2478,"145":2479,"Ø¥":2480,"Ġov":2481,"Ġ\\":2482,"253":2483,"TIC":2484,"310":2485,"ged":2486,"May":2487,"134":2488,"260":2489,"ĠIL":2490,"BI":2491,"HR":2492,"SEC":2493,"128":2494,"220":2495,"ĠMA":2496,"URT":2497,"fac":2498,"Ĺı":2499,"Sh":2500,"ACK":2501,"135":2502,"ĠNC":2503,"ICT":2504,"mak":2505,"151":2506,"974":2507,"BA":2508,"GG":2509,"ecu":2510,"dec":2511,"245":2512,"ĠAS":2513,"HT":2514,"jun":2515,"301":2516,"ĠÙĨ":2517,"UTH":2518,"199":2519,"Ġdw":2520,"ano":2521,"144":2522,"Ġng":2523,"QS":2524,"pth":2525,"âģĦ":2526,"hat":2527,"hab":2528,"ĠNY":2529,"ci":2530,"ĠSP":2531,"Ùı":2532,"Ġxl":2533,"ĠPO":2534,"ye":2535,"fec":2536,"190":2537,":&#":2538,"210":2539,"riz":2540,"alm":2541,"350":2542,"ĠMS":2543,"ĠBR":2544,"Apr":2545,"FC":2546,"ALS":2547,"ĠEL":2548,"ipe":2549,"157":2550,"ĠSw":2551,"WA":2552,"non":2553,"ka":2554,"emp":2555,"223":2556,"KE":2557,"226":2558,"Ġru":2559,"ĠNe":2560,"asc":2561,"lan":2562,"ĉĊ":2563,"304":2564,"ïĤ·":2565,"urv":2566,"ĠØ±":2567,"fil":2568,"241":2569,"CCM":2570,"TO":2571,"ĠCR":2572,"hio":2573,"ALE":2574,"ymb":2575,"Ġul":2576,"\\\"":2577,"MO":2578,"973":2579,"ĠMO":2580,"cus":2581,"750":2582,"149":2583,"Ġï":2584,"roy":2585,"Im":2586,"MR":2587,"281":2588,"263":2589,"Is":2590,"oke":2591,"la":2592,"ATA":2593,"Dis":2594,"ĠHE":2595,"tly":2596,"917":2597,"eak":2598,"Ġcu":2599,"ubp":2600,"TN":2601,"Ġok":2602,"155":2603,"oks":2604,"ĠEC":2605,"050":2606,"139":2607,"uck":2608,"tip":2609,"Doc":2610,"ĠÙĩ":2611,"gth":2612,"950":2613,"ĠER":2614,"966":2615,"PDF":2616,"rip":2617,"ACE":2618,";.":2619,"Ann":2620,"Ã¡":2621,"bec":2622,"ĠME":2623,"302":2624,"bc":2625,"ĠØŃ":2626,"ULE":2627,"270":2628,"Ø®":2629,"450":2630,"NS":2631,"fs":2632,"Ġ{":2633,"FA":2634,"pag":2635,"DER":2636,"184":2637,"Ġti":2638,")).":2639,"err":2640,"161":2641,"198":2642,"141":2643,"325":2644,"165":2645,"355":2646,"And":2647,"229":2648,"PRO":2649,"020":2650,"mt":2651,"Ġll":2652,"ria":2653,"ITH":2654,"131":2655,"MC":2656,"nam":2657,"ggs":2658,"307":2659,"oir":2660,"Ġda":2661,"MI":2662,"Ø¶":2663,"ĠOf":2664,"IGN":2665,"inv":2666,"ANC":2667,"ete":2668,"ĠUs":2669,"NB":2670,"308":2671,"hy":2672,"137":2673,"040":2674,"164":2675,"Ø«":2676,"244":2677,"ĠOk":2678,"Ġeu":2679,"ĠTX":2680,"176":2681,"cei":2682,"pot":2683,"ACH":2684,"ij":2685,"070":2686,"340":2687,"***":2688,"235":2689,"152":2690,"AME":2691,"tm":2692,"nec":2693,"158":2694,"hw":2695,"Ġnc":2696,"gle":2697,"gar":2698,"Feb":2699,"195":2700,"bus":2701,"248":2702,"MIN":2703,"ito":2704,"WR":2705,"162":2706,"166":2707,"360":2708,"138":2709,"TIT":2710,"257":2711,"ĠSC":2712,"Ġol":2713,"156":2714,"280":2715,"ADE":2716,"ORP":2717,"ali":2718,"dur":2719,"FIC":2720,"143":2721,"si":2722,"290":2723,"ken":2724,"ben":2725,"ych":2726,"TEE":2727,"Ùĳ":2728,"Ġmi":2729,"key":2730,"FI":2731,"HQ":2732,"Sep":2733,"221":2734,"vit":2735,"ĠVI":2736,"ÃŃ":2737,"nu":2738,"ago":2739,"ISS":2740,"333":2741,"Wat":2742,"ZM":2743,"PAR":2744,"337":2745,"345":2746,"Ġob":2747,"ĠLi":2748,"Min":2749,"ONE":2750,"\":":2751,"335":2752,"320":2753,"167":2754,"ĠMo":2755,"060":2756,"236":2757,"Col":2758,"255":2759,"eny":2760,"ĠMD":2761,"urr":2762,"242":2763,"404":2764,"159":2765,"atf":2766,"da":2767,"WS":2768,"Bas":2769,"249":2770,"196":2771,"jur":2772,"cel":2773,"ham":2774,"168":2775,"Aug":2776,"ROM":2777,"153":2778,"Add":2779,"169":2780,"OF":2781,"Ġ==":2782,"gat":2783,"LIC":2784,"ita":2785,"INT":2786,"154":2787,"ocr":2788,"âĹı":2789,"ĠOP":2790,"Con":2791,"Bl":2792,"hal":2793,"402":2794,"ras":2795,"ĠCT":2796,"MD":2797,"sfy":2798,"211":2799,"bet":2800,"cas":2801,"usp":2802,"174":2803,"Ġnt":2804,"tes":2805,"lel":2806,"BO":2807,"ĠBY":2808,"275":2809,"405":2810,"186":2811,"946":2812,"bts":2813,"KS":2814,"279":2815,"ĠMR":2816,"ea":2817,"ĠÙĳ":2818,"Cal":2819,"Man":2820,"yer":2821,"PT":2822,"IX":2823,"313":2824,"ĠLE":2825,"254":2826,"Or":2827,"uCu":2828,"ĠSl":2829,"ML":2830,"Ø´":2831,"Ġ($":2832,"ju":2833,"185":2834,"Me":2835,"ULT":2836,"HG":2837,"kt":2838,"sl":2839,"SK":2840,"cum":2841,"Loc":2842,"aft":2843,"uer":2844,"Ġâģ":2845,"Non":2846,"PPE":2847,"194":2848,"ani":2849,"Med":2850,"Ġna":2851,"rup":2852,"311":2853,"460":2854,"mar":2855,"HE":2856,"Vol":2857,"cs":2858,"ĠSA":2859,"nts":2860,"274":2861,"ERC":2862,"awa":2863,"407":2864,"oto":2865,"ogs":2866,"312":2867,"you":2868,"rod":2869,"Pr":2870,"sin":2871,"347":2872,"Ġod":2873,"080":2874,"sch":2875,"jo":2876,".(":2877,"oz":2878,"Ġau":2879,"va":2880,"ĠND":2881,"ĠCM":2882,"ĠBE":2883,"188":2884,"scm":2885,"\"/":2886,"\")":2887,"182":2888,"192":2889,"178":2890,"ena":2891,"SU":2892,"Ġq":2893,"AST":2894,"ĠØ³":2895,"187":2896,"NY":2897,"NM":2898,"409":2899,"283":2900,"ĠIT":2901,"urt":2902,"Rem":2903,"ĠÂ±":2904,"352":2905,"But":2906,"ng":2907,"ĠIC":2908,"zer":2909,"FT":2910,"lay":2911,"IAN":2912,"181":2913,"183":2914,"rab":2915,"ca":2916,"Ċĉĉ":2917,"lb":2918,"yle":2919,"251":2920,"ĠNu":2921,"htm":2922,"adc":2923,"enu":2924,"BL":2925,"163":2926,"ĠRO":2927,"POS":2928,"172":2929,"ĠED":2930,"ubj":2931,"Ġow":2932,"197":2933,"ho":2934,"GO":2935,"*(":2936,"ĠCy":2937,"958":2938,"703":2939,"171":2940,"191":2941,"550":2942,"eco":2943,"rav":2944,"ĠOH":2945,"uff":2946,"arp":2947,"212":2948,"rik":2949,"Ġcm":2950,"ebr":2951,"eck":2952,"cod":2953,"GD":2954,"#'#":2955,"pri":2956,"rum":2957,"raq":2958,"Sou":2959,"Ġye":2960,"ISH":2961,"Ã³n":2962,"Cor":2963,"706":2964,"olo":2965,"537":2966,"etl":2967,"ĠES":2968,"\"><":2969,"Ġ-.":2970,"410":2971,"239":2972,"uk":2973,"173":2974,"177":2975,"sis":2976,"zz":2977,"028":2978,"ĠNW":2979,"CK":2980,"THE":2981,"ĠSU":2982,"Ġca":2983,"VI":2984,"HO":2985,"413":2986,"TD":2987,"ĠSY":2988,"EEC":2989,"371":2990,"ASH":2991,"sim":2992,"Î¼":2993,"Ġic":2994,"mil":2995,"AIR":2996,"ANK":2997,"IGS":2998,".</":2999,"ĠOp":3000,"ga":3001,"189":3002,"214":3003,"VIS":3004,"Do":3005,"iet":3006,"ĠĊĠ":3007,"ned":3008,"ORS":3009,"LP":3010,"267":3011,"bel":3012,"351":3013,"375":3014,"Ġep":3015,"Sp":3016,"SB":3017,"\"/>":3018,"eur":3019,"247":3020,".),":3021,"256":3022,"ĠIR":3023,"470":3024,"390":3025,";%":3026,"266":3027,"420":3028,"ta":3029,"ths":3030,"uns":3031,"thw":3032,"osu":3033,"aho":3034,"406":3035,"lee":3036,"rix":3037,"Ġut":3038,"980":3039,"iry":3040,"OCK":3041,"213":3042,"ulk":3043,"Eu":3044,"gel":3045,"179":3046,"193":3047,"ni":3048,"ĠGR":3049,"258":3050,"adl":3051,"sk":3052,"265":3053,"acu":3054,"NC":3055,"299":3056,"539":3057,"840":3058,"TX":3059,"ARB":3060,"Ø·":3061,"264":3062,"nat":3063,"py":3064,"iod":3065,"Ġ<.":3066,"Go":3067,"Ġma":3068,"ĠBO":3069,"So":3070,"sor":3071,"Aut":3072,"Le":3073,"mic":3074,"357":3075,"480":3076,")..":3077,"BC":3078,"ba":3079,"JI":3080,"cat":3081,"DP":3082,"bal":3083,"%%":3084,"328":3085,"Ġou":3086,"ÙĴ":3087,"Us":3088,"ĠFO":3089,"thy":3090,"UNT":3091,"650":3092,"ïĢ":3093,"xA":3094,"sys":3095,"344":3096,"HOC":3097,"uri":3098,"602":3099,"]]":3100,"Ø²":3101,"ono":3102,"TM":3103,"SH":3104,"331":3105,"707":3106,"ĠSk":3107,"ura":3108,"423":3109,"bef":3110,"epa":3111,"LO":3112,"Ã®":3113,"215":3114,"Jan":3115,"090":3116,"osa":3117,"obj":3118,"510":3119,"aks":3120,"BM":3121,"EO":3122,"330":3123,"ĠNM":3124,"288":3125,"LEM":3126,"Ge":3127,"ARK":3128,"ĠMI":3129,"egu":3130,"408":3131,"295":3132,"AFF":3133,"isl":3134,"lea":3135,",,,":3136,"nor":3137,"504":3138,"car":3139,"030":3140,"rar":3141,"Ac":3142,"ARE":3143,"iev":3144,"SON":3145,"ĠAP":3146,"hum":3147,"BT":3148,"je":3149,"268":3150,"za":3151,"ĠPC":3152,"FIN":3153,";*":3154,"ĠJr":3155,"401":3156,"ls":3157,"285":3158,"nde":3159,"VEN":3160,"âĸ":3161,"FE":3162,"ael":3163,"utc":3164,"ORY":3165,"Gr":3166,"AMS":3167,"ITE":3168,"uis":3169,"OND":3170,"Hz":3171,"otw":3172,"imm":3173,"455":3174,"503":3175,"ĠMy":3176,"560":3177,"ĠÂ£":3178,"505":3179,"Ġ).":3180,"ĠÙĲ":3181,"Ins":3182,"aud":3183,"ĠFe":3184,"370":3185,"888":3186,"ued":3187,"lis":3188,"etr":3189,"Day":3190,"ïĥ":3191,"rub":3192,"fal":3193,"276":3194,"ĠWy":3195,"CES":3196,"Pre":3197,"á»":3198,"Mis":3199,"ĠCS":3200,"Ġč":3201,"aph":3202,"316":3203,"IAT":3204,"bro":3205,"oic":3206,"UAL":3207,"GT":3208,"RES":3209,"ĠPH":3210,"Bef":3211,"801":3212,"Ġ#:":3213,"ĠNS":3214,"289":3215,"TIN":3216,"278":3217,"292":3218,"\".":3219,"277":3220,"sen":3221,"ĉĉĉ":3222,"fun":3223,"who":3224,"339":3225,"356":3226,"Â»":3227,"ERG":3228,"870":3229,"Ed":3230,"LR":3231,"ori":3232,"Ġ?":3233,"oud":3234,"Val":3235,"502":3236,"905":3237,"dim":3238,"880":3239,"NI":3240,"hin":3241,"Ġ(\"":3242,"ĠNR":3243,"815":3244,"506":3245,"nav":3246,"ĠUK":3247,"lot":3248,"286":3249,"DEP":3250,"emy":3251,"219":3252,"iar":3253,"Air":3254,"273":3255,".).":3256,"363":3257,"ums":3258,"820":3259,"Ġho":3260,",.":3261,"580":3262,"334":3263,"324":3264,"364":3265,"sam":3266,"ĠIP":3267,"680":3268,"vas":3269,"tah":3270,"336":3271,"217":3272,"[[":3273,"Ġsi":3274,"BP":3275,"agg":3276,"ORD":3277,"*)":3278,"262":3279,"365":3280,"ĠÐ":3281,"FP":3282,"ZZ":3283,"HAP":3284,"chm":3285,"quo":3286,"ags":3287,"ola":3288,"ĠAw":3289,"Â£":3290,"366":3291,"RY":3292,"sib":3293,"rac":3294,"ĠIr":3295,"314":3296,"284":3297,"TAL":3298,"ja":3299,"218":3300,"272":3301,"mem":3302,"604":3303,"348":3304,"271":3305,"346":3306,"(\"":3307,"Ġju":3308,"Bo":3309,"VAL":3310,"454":3311,"332":3312,"ĠWH":3313,"367":3314,"tax":3315,"362":3316,"ora":3317,"025":3318,"JEC":3319,"usa":3320,"ICH":3321,"owa":3322,"386":3323,"Es":3324,"mo":3325,"456":3326,"391":3327,"One":3328,"ĠFA":3329,"she":3330,"ĠNH":3331,"ios":3332,"TP":3333,"Ver":3334,"440":3335,"VES":3336,"plo":3337,"452":3338,"bed":3339,"FER":3340,"wr":3341,"Leg":3342,"862":3343,"čĊč":3344,"ĠEG":3345,"Dr":3346,"ĠSR":3347,")),":3348,"bud":3349,"Eff":3350,"ĠFE":3351,"298":3352,"unl":3353,"970":3354,"emi":3355,"WK":3356,"eit":3357,"ĠLO":3358,"NR":3359,"sa":3360,"ROC":3361,"ĠWA":3362,"216":3363,"416":3364,"ocy":3365,"ĠÂ¶":3366,"uto":3367,"430":3368,"ĠNI":3369,"nan":3370,"ubc":3371,"ĠpH":3372,"Fir":3373,"385":3374,"fra":3375,"Se":3376,"uth":3377,"deg":3378,"ima":3379,"403":3380,"603":3381,"mg":3382,"fir":3383,"606":3384,"291":3385,"338":3386,"287":3387,"ECH":3388,"704":3389,"SM":3390,"ĠTy":3391,"378":3392,"520":3393,"PX":3394,"315":3395,"297":3396,"his":3397,"ORK":3398,"CM":3399,"846":3400,"DI":3401,"Ġml":3402,"BE":3403,"607":3404,"605":3405,"esh":3406,"fig":3407,"usb":3408,"AZ":3409,"Î¼g":3410,"DF":3411,"293":3412,"IGH":3413,"358":3414,"cu":3415,"490":3416,"oys":3417,"342":3418,"ĠDO":3419,"ĠÂ©":3420,"urd":3421,"499":3422,"osc":3423,"ROL":3424,"fur":3425,"Fur":3426,"ĠBS":3427,"two":3428,"Wal":3429,"AV":3430,"507":3431,"IND":3432,"ĠHz":3433,"Ġps":3434,"WH":3435,"610":3436,"807":3437,"425":3438,"ĠMa":3439,"',":3440,"349":3441,"ĠØ¯":3442,"adv":3443,"rey":3444,"388":3445,"369":3446,"ELD":3447,"Sm":3448,"508":3449,"lah":3450,"Det":3451,"412":3452,"282":3453,"Net":3454,"bac":3455,"rin":3456,"379":3457,"bil":3458,"kyl":3459,"055":3460,"ius":3461,"EMS":3462,"ĠØµ":3463,"022":3464,"AK":3465,"ĠOS":3466,"GC":3467,"ĊĊĠ":3468,"540":3469,"wid":3470,"GUL":3471,"uan":3472,"You":3473,"Ŀ,":3474,"Ġsy":3475,"368":3476,"ERE":3477,"868":3478,"343":3479,"359":3480,"341":3481,"La":3482,"oro":3483,"AGE":3484,"Fl":3485,"387":3486,"916":3487,"805":3488,"--|":3489,"erp":3490,"620":3491,".&":3492,"075":3493,"ANY":3494,"ORE":3495,"ĠGO":3496,"907":3497,"Â±":3498,"utu":3499,"MY":3500,"ĠEP":3501,"361":3502,"074":3503,"906":3504,"Ind":3505,"cub":3506,"417":3507,"ÃĹ":3508,",..":3509,"Gu":3510,"NH":3511,"701":3512,"rie":3513,"nes":3514,"Ġum":3515,"PRI":3516,"YS":3517,"CV":3518,"985":3519,"444":3520,"Ġwi":3521,"389":3522,"TED":3523,"Ð¾":3524,"850":3525,"ĠSM":3526,"384":3527,"FY":3528,"USE":3529,"fed":3530,"zy":3531,"054":3532,"nul":3533,"Max":3534,"530":3535,"erh":3536,"??":3537,"ĠWr":3538,"990":3539,"ĠUE":3540,"424":3541,"\"(":3542,"Int":3543,"~**":3544,":\\":3545,"Oct":3546,"ĠmL":3547,"Che":3548,"Mem":3549,"ĠSi":3550,"RTN":3551,"Inc":3552,"609":3553,"IDE":3554,"RI":3555,"ĠCP":3556,"dar":3557,"377":3558,"===":3559,"806":3560,"tir":3561,"hea":3562,"âĶ":3563,"awn":3564,"SW":3565,";]":3566,"705":3567,"323":3568,"adj":3569,"392":3570,"CIT":3571,"864":3572,"OLD":3573,"920":3574,"465":3575,"ERN":3576,"702":3577,")&#":3578,"onw":3579,"987":3580,"ws":3581,"xbr":3582,"nn":3583,"cf":3584,"lam":3585,"due":3586,"812":3587,"872":3588,";**":3589,"464":3590,"fam":3591,"*\"":3592,"Tex":3593,"Ġvo":3594,"He":3595,"376":3596,"âĢķ":3597,"446":3598,"ĠØ¬":3599,"Ro":3600,"Cap":3601,"Ev":3602,"oli":3603,"458":3604,"Hou":3605,"isa":3606,"ĠÂ«":3607,"ike":3608,"808":3609,"804":3610,"374":3611,"904":3612,"âĸł":3613,"TF":3614,"998":3615,"ffe":3616,"cd":3617,"DAT":3618,"ĠSN":3619,"wa":3620,"ĠUp":3621,"thc":3622,"AID":3623,"Â®":3624,"het":3625,"Mat":3626,"Pa":3627,"720":3628,"San":3629,"fre":3630,"Ġje":3631,"VD":3632,"md":3633,"ky":3634,"415":3635,"hec":3636,"ÂŃ":3637,"Dur":3638,"024":3639,"GL":3640,"mi":3641,"EF":3642,"^^":3643,"457":3644,"Ġhi":3645,".'":3646,"Ġrt":3647,"eer":3648,"944":3649,"373":3650,"ĠOx":3651,"810":3652,"rif":3653,"Ġâī":3654,"had":3655,"oe":3656,"Run":3657,"640":3658,"321":3659,"gue":3660,"326":3661,"LEY":3662,"giv":3663,"975":3664,"453":3665,"EMA":3666,"383":3667,"411":3668,"ĠSD":3669,"443":3670,"555":3671,"fo":3672,"deb":3673,"968":3674,"INS":3675,"Ab":3676,"eef":3677,"dd":3678,"910":3679,"CAP":3680,"),*":3681,"857":3682,"760":3683,"%.":3684,"ICS":3685,"Pt":3686,"399":3687,"372":3688,"\":\"":3689,"ĠKe":3690,"442":3691,"ĠHO":3692,"utl":3693,"448":3694,"âĶĤ":3695,"SN":3696,"982":3697,"ĠCC":3698,"902":3699,"asi":3700,"ĠAF":3701,"447":3702,"*.":3703,"oat":3704,"Exp":3705,"ĠTA":3706,"708":3707,"idn":3708,"Top":3709,"WN":3710,"*,":3711,"rc":3712,"obs":3713,"(#":3714,"501":3715,"575":3716,"462":3717,")[":3718,"660":3719,"ĠPE":3720,"076":3721,"UST":3722,"DO":3723,"451":3724,"pou":3725,"488":3726,"601":3727,"554":3728,"Dat":3729,"nc":3730,"erb":3731,"860":3732,"469":3733,"Mc":3734,"Ðµ":3735,"APH":3736,"459":3737,"rio":3738,"del":3739,"GIS":3740,"VN":3741,"Ġkm":3742,"Â¶":3743,"597":3744,"Nov":3745,"occ":3746,"how":3747,"asy":3748,"ZA":3749,"903":3750,"085":3751,"913":3752,"816":3753,"gun":3754,"bar":3755,"VP":3756,"986":3757,"pts":3758,"usc":3759,"570":3760,"GI":3761,"Pol":3762,"Cur":3763,"Ne":3764,"VEL":3765,"SL":3766,"igs":3767,"pat":3768,"766":3769,"296":3770,"UF":3771,"Ġnm":3772,"757":3773,"unc":3774,"871":3775,"468":3776,"780":3777,"Qu":3778,"pa":3779,"Ġ.,":3780,"pai":3781,"023":3782,"393":3783,"ĠNG":3784,"Br":3785,"=\\\"":3786,"ĠâĪ":3787,"Gre":3788,"Sal":3789,"lon":3790,"ĠØ°":3791,"tid":3792,"ORM":3793,"Ð°":3794,"630":3795,"PV":3796,"ĠCF":3797,"463":3798,"map":3799,"861":3800,";(":3801,"OK":3802,"ĠEM":3803,"993":3804,"ATT":3805,"!!":3806,"ĠDu":3807,"Low":3808,"lla":3809,"yo":3810,"cet":3811,"yes":3812,"oni":3813,"Ġta":3814,"Ġkg":3815,"ORG":3816,"Tax":3817,"oa":3818,"Sin":3819,"ĠĠč":3820,"raf":3821,"AW":3822,"ĠÌĪ":3823,"ĠOz":3824,"ITS":3825,"âĪ":3826,"lls":3827,"ego":3828,"sta":3829,"509":3830,"Imp":3831,"ĠØ´":3832,"777":3833,"ĠRF":3834,"ncy":3835,"LES":3836,"Tre":3837,"ply":3838,"764":3839,"072":3840,"Â¥":3841,"329":3842,"sto":3843,"ĠCY":3844,"Ã¸":3845,"Ġly":3846,"Ġ@":3847,"467":3848,"ĠMT":3849,"Ġïģ":3850,"vii":3851,"558":3852,"ISA":3853,"ANN":3854,"Car":3855,"449":3856,"740":3857,"BD":3858,"048":3859,"sU":3860,"pop":3861,"YE":3862,"709":3863,"466":3864,"adi":3865,"tiz":3866,"890":3867,"027":3868,"885":3869,"Gl":3870,"log":3871,"ĠÃĹ":3872,"TRY":3873,"Ŀ;":3874,"\"\"":3875,"Ġ||":3876,"ĠÃ¸":3877,"784":3878,"iew":3879,"ORN":3880,"unk":3881,"ua":3882,"Pur":3883,"coo":3884,"PAT":3885,"rok":3886,"Pow":3887,"441":3888,"Ãĭ":3889,"eta":3890,"Ġsn":3891,"984":3892,"033":3893,"294":3894,"865":3895,"pra":3896,"alo":3897,"AMP":3898,"710":3899,"CU":3900,"ĠÙĭ":3901,"989":3902,"556":3903,"Ġ(*":3904,"imb":3905,"397":3906,"884":3907,"ïĥŃ":3908,"026":3909,"Mon":3910,"512":3911,"Ġts":3912,"Nat":3913,"ala":3914,"988":3915,"irw":3916,"ĠØ«":3917,"NN":3918,"UH":3919,"475":3920,"max":3921,"tw":3922,"ira":3923,"sly":3924,"803":3925,"VIR":3926,"991":3927,"GEN":3928,"ICK":3929,"cro":3930,"625":3931,"mer":3932,"ji":3933,"YL":3934,"765":3935,"tin":3936,"069":3937,"arf":3938,"bsc":3939,"690":3940,"ĠGE":3941,"PI":3942,"Rel":3943,"548":3944,"714":3945,"656":3946,"ANG":3947,"ĠNJ":3948,"YR":3949,"ĠÏ":3950,"552":3951,"ISC":3952,"ny":3953,"OTH":3954,"461":3955,"edi":3956,"VID":3957,"035":3958,"414":3959,"Ġai":3960,"VOC":3961,"ĠTw":3962,"RED":3963,"dig":3964,"Ġsa":3965,"ĠEr":3966,"wns":3967,"919":3968,"utd":3969,"ĠSI":3970,"Fre":3971,"802":3972,"Dra":3973,"abs":3974,"Inv":3975,"llm":3976,"395":3977,"liv":3978,"ĠPs":3979,"Bro":3980,"Ð¸":3981,"695":3982,"TIS":3983,"Fr":3984,"cry":3985,"770":3986,"Fi":3987,"EG":3988,"bg":3989,"549":3990,"gas":3991,"ubs":3992,"768":3993,"901":3994,"UK":3995,"ĠEF":3996,"ĠOm":3997,"LD":3998,"sce":3999,"áº":4000,"cra":4001,"981":4002,"SCR":4003,"'-":4004,"751":4005,"Equ":4006,"741":4007,"`@":4008,"608":4009,"HC":4010,"Te":4011,"ĠHa":4012,"670":4013,"WO":4014,"ETY":4015,"809":4016,"alv":4017,"747":4018,"ĠHy":4019,"GM":4020,"787":4021,"ĠFD":4022,"Est":4023,"WI":4024,"976":4025,"666":4026,"ĠGU":4027,"Tra":4028,"peu":4029,"tl":4030,"ĠAB":4031,"ĠRT":4032,"och":4033,"UAS":4034,"829":4035,"ĠØĮ":4036,"396":4037,"039":4038,"OGY":4039,"Ġpt":4040,"Av":4041,"don":4042,"Po":4043,"URI":4044,"Ġ}":4045,"754":4046,"MN":4047,"Be":4048,"769":4049,"adm":4050,"445":4051,"559":4052,"'re":4053,"WIn":4054,"itz":4055,"422":4056,"hex":4057,"Des":4058,"VL":4059,"ko":4060,"Sam":4061,"ĠUA":4062,"efs":4063,"978":4064,"ĠIM":4065,"fat":4066,",**":4067,"GRO":4068,"WD":4069,"uor":4070,"Gas":4071,"xi":4072,"758":4073,"ĠCu":4074,"Øº":4075,"971":4076,"748":4077,"][":4078,"ĠRu":4079,"ĠUR":4080,"992":4081,"REA":4082,"rul":4083,"983":4084,"Can":4085,"Ġns":4086,"ste":4087,"ulp":4088,"419":4089,"Ġ),":4090,"clo":4091,"928":4092,"Ext":4093,"Cle":4094,"908":4095,"SF":4096,"**.":4097,"858":4098,"ĠNa":4099,"Â©":4100,"ĠCa":4101,"mor":4102,"uo":4103,"553":4104,"667":4105,"ĠFI":4106,"zi":4107,"Ġct":4108,"047":4109,"STR":4110,"una":4111,"ĠTN":4112,"dy":4113,"522":4114,"TOT":4115,"Rev":4116,"Met":4117,"551":4118,"ifi":4119,"841":4120,"565":4121,"TOG":4122,"ĠEE":4123,"LOR":4124,"566":4125,".''":4126,"ek":4127,"ONM":4128,"ova":4129,"NJ":4130,"909":4131,"043":4132,"612":4133,"ICA":4134,"ĠRA":4135,"XT":4136,"APP":4137,"889":4138,"._":4139,"ĠMC":4140,"997":4141,"Ġvs":4142,"515":4143,"021":4144,"045":4145,"dev":4146,"MW":4147,"ĠDA":4148,"036":4149,"749":4150,"781":4151,"886":4152,"cin":4153,"Ri":4154,"ĠSf":4155,"zo":4156,"557":4157,"elc":4158,"ĠVO":4159,"GP":4160,"585":4161,"062":4162,"irl":4163,"651":4164,"Ct":4165,"730":4166,"!(":4167,"742":4168,"js":4169,"Fac":4170,"994":4171,"=&":4172,"SCH":4173,"426":4174,"Ġug":4175,"ĠØ®":4176,"772":4177,"Ġot":4178,"830":4179,"owl":4180,",*":4181,"Sim":4182,"BY":4183,"ĠAA":4184,"ĠKn":4185,"648":4186,"756":4187,"IED":4188,"esU":4189,"778":4190,"761":4191,"ETS":4192,"541":4193,"038":4194,"OU":4195,"OLL":4196,"930":4197,"kin":4198,"VS":4199,"OAR":4200,"516":4201,"713":4202,"Bu":4203,"485":4204,"lar":4205,"569":4206,"867":4207,"aqu":4208,"ĠIA":4209,"435":4210,"563":4211,"Use":4212,"432":4213,"847":4214,"ÑĤ":4215,"vy":4216,"ROE":4217,"Ġpy":4218,"onU":4219,";-":4220,"ĠOK":4221,"977":4222,"cho":4223,"659":4224,"gm":4225,"ĠTC":4226,"067":4227,"922":4228,"Som":4229,"542":4230,"767":4231,"762":4232,"789":4233,",]":4234,"ait":4235,"Ġïĥ":4236,"ĠSF":4237,"dri":4238,"bab":4239,"472":4240,"Don":4241,"omo":4242,"979":4243,"ULL":4244,"Sl":4245,"WE":4246,"oil":4247,"HI":4248,"ĠLP":4249,"743":4250,"olf":4251,"ĠSB":4252,"511":4253,"nut":4254,"saf":4255,"066":4256,"siz":4257,";;":4258,"763":4259,"bra":4260,"059":4261,"++":4262,"ĠIX":4263,"790":4264,"REE":4265,"sth":4266,"ĠCt":4267,"\"),":4268,"ĠHR":4269,"WL":4270,"924":4271,"ui":4272,"ayl":4273,"-,":4274,"037":4275,"ĠIF":4276,"Bec":4277,"san":4278,"lm":4279,"ckl":4280,"WP":4281,"MIT":4282,"FEN":4283,"Ġcc":4284,"433":4285,"065":4286,"881":4287,"ARS":4288,"loy":4289,"779":4290,"628":4291,"ĠMP":4292,"029":4293,"547":4294,"iny":4295,"418":4296,"Bal":4297,"879":4298,"YY":4299,"pha":4300,")&":4301,"658":4302,"ĠSy":4303,"Ret":4304,"664":4305,"525":4306,"roe":4307,"562":4308,"ido":4309,"say":4310,"ĠAp":4311,"759":4312,"FG":4313,"Cer":4314,"034":4315,"oon":4316,"ATM":4317,"fsh":4318,"Gro":4319,"WV":4320,"ĠÂ»":4321,"neg":4322,"752":4323,"053":4324,"ema":4325,"mis":4326,"mul":4327,"ĠTY":4328,"udi":4329,"068":4330,"NEY":4331,"Bud":4332,"OPE":4333,"892":4334,"031":4335,"586":4336,"Ġaz":4337,"ydr":4338,"igg":4339,"ĠWL":4340,"tia":4341,"Div":4342,"783":4343,"ĠPB":4344,"WY":4345,"849":4346,"ĠRh":4347,"ĠWI":4348,"ppm":4349,"848":4350,"ln":4351,"($":4352,"ARR":4353,"kra":4354,"514":4355,"056":4356,"OMB":4357,"ĉĠ":4358,"bon":4359,"INC":4360,"ĠRD":4361,"VOL":4362,"434":4363,"obt":4364,"853":4365,"ede":4366,"CRA":4367,"427":4368,"ALD":4369,"Ġos":4370,"ĠDD":4371,")/":4372,"VIL":4373,"931":4374,"-[":4375,"adr":4376,"ĠQU":4377,"428":4378,"051":4379,"567":4380,"Hav":4381,"bul":4382,"uci":4383,"HV":4384,"856":4385,"044":4386,"773":4387,"bat":4388,"ez":4389,"Fil":4390,"046":4391,"rt":4392,"omf":4393,"665":4394,"UJ":4395,"DIS":4396,"ĠCN":4397,"755":4398,"hl":4399,"479":4400,"486":4401,"042":4402,"sof":4403,"Lo":4404,"sit":4405,"061":4406,"Ġ/>":4407,"OB":4408,"ĠÌģ":4409,"049":4410,"064":4411,"EV":4412,"cce":4413,"Ġoc":4414,"071":4415,"FM":4416,"771":4417,"854":4418,"875":4419,"ami":4420,"ĠHA":4421,"564":4422,"ĠWO":4423,"sat":4424,"883":4425,"Ð½":4426,"pm":4427,"615":4428,"iaz":4429,"Out":4430,"tn":4431,"erl":4432,"ulg":4433,"496":4434,"odd":4435,"852":4436,"OHN":4437,"524":4438,"win":4439,"APR":4440,"ĠMM":4441,"887":4442,"(*":4443,"ONG":4444,"PRM":4445,"ogg":4446,"sb":4447,"394":4448,"528":4449,"ĠïĢ":4450,"ĠVa":4451,"ĠHo":4452,"SIn":4453,"orc":4454,"641":4455,"OFF":4456,"dan":4457,"Our":4458,"tte":4459,"NW":4460,"KA":4461,"596":4462,"ĠMN":4463,"eto":4464,"RR":4465,"438":4466,"Hon":4467,"IEF":4468,"esk":4469,"Ste":4470,"HF":4471,"Of":4472,"HD":4473,"esn":4474,"How":4475,"eni":4476,"543":4477,"647":4478,"513":4479,"915":4480,"llo":4481,"Ġ(-":4482,"ĠTB":4483,"057":4484,"ASB":4485,"Per":4486,"842":4487,"adb":4488,"roa":4489,"063":4490,"$$":4491,"PUT":4492,"546":4493,"NV":4494,"Jo":4495,"ENN":4496,"619":4497,"544":4498,"ACC":4499,"ĠCE":4500,"086":4501,"041":4502,"517":4503,"las":4504,"Ġni":4505,"**)":4506,"626":4507,"CB":4508,",#":4509,"Ø¸":4510,"anz":4511,"Bi":4512,"EY":4513,"'m":4514,"ĠAK":4515,"ĠCV":4516,"568":4517,"473":4518,"hi":4519,"fg":4520,"dr":4521,"481":4522,"ĊĉĊ":4523,"ATH":4524,"STM":4525,"beg":4526,"471":4527,"hqu":4528,"WAY":4529,"Ġee":4530,"519":4531,"spa":4532,"873":4533,"073":4534,"Ben":4535,"uni":4536,"yal":4537,"823":4538,"642":4539,"Rej":4540,"ĠSa":4541,"Di":4542,"Fax":4543,"eat":4544,"Dry":4545,"828":4546,"421":4547,"ĠAZ":4548,"398":4549,"616":4550,"REC":4551,"ais":4552,"WC":4553,"ĠLC":4554,"Mob":4555,"925":4556,"ĠNV":4557,"soc":4558,"lap":4559,"882":4560,"tog":4561,"sha":4562,";'":4563,"jus":4564,"437":4565,"rak":4566,"932":4567,"NP":4568,"idw":4569,"ĠHg":4570,"lll":4571,"ubm":4572,"vin":4573,"814":4574,">>":4575,"735":4576,"FAA":4577,"asm":4578,"ĠSS":4579,"\").":4580,"SEs":4581,"722":4582,"ïģĿ":4583,"dry":4584,"edy":4585,"bry":4586,"898":4587,"IME":4588,"KY":4589,"ĠPb":4590,"ayb":4591,"Ùĭ":4592,"652":4593,"634":4594,"657":4595,"ĠWE":4596,"624":4597,"PAC":4598,"wy":4599,"NT":4600,"HU":4601,"645":4602,"wer":4603,"Ñģ":4604,"592":4605,"436":4606,"olk":4607,"MAR":4608,"675":4609,"ctr":4610,"ATO":4611,"IPM":4612,"662":4613,"927":4614,"712":4615,"sil":4616,"495":4617,"TRE":4618,"536":4619,"ĠWR":4620,"SUB":4621,"WW":4622,"ĠOl":4623,"ĠÂ¥":4624,"IDS":4625,"623":4626,"ĠTE":4627,"box":4628,"px":4629,"Saf":4630,"728":4631,"XML":4632,"NL":4633,"MED":4634,"TEC":4635,"Ã¤":4636,"719":4637,"ĠOv":4638,"];":4639,"933":4640,"dam":4641,"rut":4642,"dia":4643,"sex":4644,"869":4645,"SIP":4646,"Ple":4647,"./":4648,"Pet":4649,"725":4650,"Si":4651,"hig":4652,"IEW":4653,"uma":4654,"HP":4655,"miz":4656,"518":4657,">\\":4658,"Pen":4659,"ĠFS":4660,"614":4661,"âī":4662,"tio":4663,"032":4664,"622":4665,"Sol":4666,"935":4667,"535":4668,"mas":4669,"rr":4670,"533":4671,"'.":4672,"ARA":4673,"538":4674,"ila":4675,"494":4676,"Mil":4677,"685":4678,"*#":4679,"sal":4680,"ĠXX":4681,"DM":4682,"ĠBa":4683,"kl":4684,"ĠTS":4685,"Str":4686,"UU":4687,"477":4688,"JM":4689,"613":4690,"ĠSL":4691,"545":4692,"636":4693,"ruc":4694,"oln":4695,"QQ":4696,"527":4697,"ava":4698,"ldw":4699,"opl":4700,"Own":4701,"ARC":4702,"058":4703,"Ð¾Ð":4704,"uba":4705,"ALY":4706,"484":4707,"BUR":4708,"utf":4709,"iln":4710,"098":4711,"tag":4712,"rh":4713,"ESP":4714,"526":4715,"She":4716,"431":4717,"ARM":4718,"561":4719,"SEQ":4720,"617":4721,"ENE":4722,"sti":4723,"482":4724,"649":4725,"Ġry":4726,"534":4727,")=":4728,"VC":4729,"083":4730,"ĠOb":4731,"ľ[":4732,"maj":4733,"oos":4734,"ĠCI":4735,"ÃĨ":4736,"478":4737,"Fe":4738,"476":4739,"591":4740,"RIN":4741,"668":4742,"]-":4743,"EPT":4744,"='":4745,"523":4746,"923":4747,"Ġwt":4748,"Ġhr":4749,"095":4750,"Gra":4751,";:":4752,"hav":4753,"*&#":4754,"627":4755,"611":4756,"Ã±":4757,"Pac":4758,"899":4759,"igm":4760,"ĠEA":4761,"Ġwo":4762,"429":4763,"Old":4764,"EMP":4765,"joy":4766,"cos":4767,"653":4768,"ya":4769,"498":4770,"ĠSn":4771,"INO":4772,"MPL":4773,"irs":4774,"UCT":4775,"=.":4776,"736":4777,"COD":4778,"ĠFM":4779,"599":4780,"ela":4781,"715":4782,"aso":4783,"531":4784,"CG":4785,"DOE":4786,"OUT":4787,"863":4788,"egl":4789,"052":4790,"uar":4791,"var":4792,"NOL":4793,"UNC":4794,"878":4795,"094":4796,"811":4797,"atc":4798,"toc":4799,"OI":4800,"077":4801,"gpo":4802,")\"":4803,"ĠPP":4804,"093":4805,"813":4806,"TL":4807,"pog":4808,"lps":4809,"744":4810,"646":4811,"876":4812,"LIN":4813,"IEC":4814,"618":4815,",''":4816,"655":4817,"822":4818,"aux":4819,"VR":4820,"ĠCB":4821,"GAO":4822,"ĠOJ":4823,"577":4824,"Ġci":4825,"Å½":4826,"ĠIl":4827,"ÑĢ":4828,"ECO":4829,"492":4830,"DB":4831,"emo":4832,"Red":4833,"ĠMW":4834,"izz":4835,"ĠFF":4836,"OWN":4837,"ias":4838,"089":4839,"084":4840,"uv":4841,"532":4842,"sou":4843,"mir":4844,"663":4845,"Civ":4846,"QL":4847,"654":4848,"ĠGS":4849,"Tel":4850,"785":4851,"Dom":4852,"753":4853,"737":4854,"584":4855,"ĠPS":4856,"!--":4857,"NOR":4858,"Ser":4859,"km":4860,"`!":4861,"IOR":4862,"Lim":4863,"onp":4864,"Ã´":4865,"elg":4866,"mob":4867,"487":4868,"Ġdy":4869,"684":4870,"Sw":4871,"745":4872,"ubb":4873,"721":4874,"`\"":4875,"mL":4876,"osh":4877,"ĠEQ":4878,"CI":4879,"ĠTM":4880,"912":4881,"827":4882,"utb":4883,"576":4884,"638":4885,"Cro":4886,"Coo":4887,"497":4888,"pan":4889,"082":4890,"TIM":4891,"<\\/":4892,"dm":4893,"YM":4894,"Bus":4895,"877":4896,"Cr":4897,"643":4898,"669":4899,"ĠNi":4900,"Sur":4901,".\\":4902,"AMA":4903,"Dav":4904,"493":4905,"**~":4906,"DES":4907,"733":4908,"QG":4909,"abe":4910,"yan":4911,"GIN":4912,"ogl":4913,"IPS":4914,"umf":4915,"amf":4916,"CER":4917,"ldn":4918,"Sel":4919,"078":4920,"521":4921,"097":4922,"474":4923,"pep":4924,"gib":4925,"tmn":4926,"711":4927,"088":4928,"erw":4929,"724":4930,"ao":4931,"tol":4932,"ĠXI":4933,"upy":4934,"835":4935,"YD":4936,"sE":4937,"ĠML":4938,"096":4939,"DOC":4940,")}":4941,"CAS":4942,"688":4943,"MWh":4944,"FGD":4945,"Pri":4946,":]":4947,"AI":4948,"079":4949,"718":4950,"Ġ(.":4951,"595":4952,"tie":4953,"FW":4954,"UI":4955,"Nam":4956,"Aff":4957,"oj":4958,"TSA":4959,"661":4960,"851":4961,"Ġtu":4962,"874":4963,"439":4964,"819":4965,"Bs":4966,"mot":4967,"859":4968,"629":4969,"/#":4970,"644":4971,"572":4972,"IVE":4973,"Nav":4974,"RD":4975,"oen":4976,"573":4977,"nas":4978,"ATS":4979,"Ġoo":4980,"825":4981,"NER":4982,"aug":4983,"ĠUP":4984,"chy":4985,"vat":4986,"483":4987,"@`":4988,"ĠHP":4989,"633":4990,"onE":4991,"632":4992,"ycl":4993,"087":4994,"ĠGP":4995,",,!":4996,"588":4997,"Ġpu":4998,"esE":4999,"ket":5000,"775":5001,"ely":5002,"yp":5003,"FED":5004,"Vs":5005,"831":5006,"DW":5007,"ÃĲ":5008,"-$":5009,"Pot":5010,"tel":5011,"\"'":5012,"lit":5013,"DEC":5014,"ESC":5015,"ISE":5016,"ĠAu":5017,"USC":5018,"637":5019,"ARP":5020,"676":5021,"hn":5022,"OSS":5023,"VIC":5024,"ĠIG":5025,"895":5026,")</":5027,"672":5028,"671":5029,"cau":5030,"717":5031,"TG":5032,"ĠGi":5033,"bid":5034,"REP":5035,"ĠNF":5036,"937":5037,"NON":5038,"URR":5039,"579":5040,"NET":5041,"Ġiv":5042,"ĠLD":5043,"Ġ[<":5044,"699":5045,"run":5046,"Fol":5047,"726":5048,"vot":5049,"855":5050,"587":5051,"635":5052,"Ġff":5053,"SPS":5054,"chl":5055,"RAW":5056,"QA":5057,"921":5058,"081":5059,"698":5060,"598":5061,"LS":5062,"idy":5063,"QJ":5064,"734":5065,"pty":5066,"My":5067,"Tem":5068,"akn":5069,"593":5070,"AEL":5071,"sup":5072,"NUM":5073,"Hyd":5074,"-\"":5075,"ĠØº":5076,"ĠET":5077,"EFF":5078,"ouc":5079,"826":5080,"ERI":5081,"Ġrc":5082,"914":5083,"ANE":5084,"583":5085,"LI":5086,"UA":5087,"817":5088,"818":5089,"911":5090,"ĠHQ":5091,"imi":5092,"578":5093,"vd":5094,"eep":5095,"ERM":5096,"ïĢ©":5097,"iog":5098,"GAN":5099,"FH":5100,"wom":5101,"Ã£":5102,"529":5103,"674":5104,"574":5105,"KER":5106,"haz":5107,"926":5108,"nia":5109,"571":5110,"Ġef":5111,"ERY":5112,"686":5113,"786":5114,";)":5115,"Ãĩ":5116,"foc":5117,"JO":5118,"Ġay":5119,"tib":5120,"833":5121,"VY":5122,"ĠBM":5123,"Ġii":5124,"fav":5125,"ãĢ":5126,"723":5127,"Now":5128,"099":5129,"837":5130,"Î±":5131,"bk":5132,"%#":5133,"631":5134,"\\`":5135,"**(":5136,"Op":5137,"ryl":5138,"eno":5139,"obe":5140,"avi":5141,"cis":5142,"odg":5143,"ajo":5144,"gon":5145,"ĠMi":5146,"797":5147,"sv":5148,"RF":5149,"rl":5150,"489":5151,"697":5152,"Mul":5153,"iop":5154,"ĠLT":5155,"uce":5156,"ECD":5157,"Ġza":5158,"Law":5159,"Vir":5160,"ylp":5161,"PAv":5162,"Ġgi":5163,"âĢı":5164,"SEL":5165,"VO":5166,"Rul":5167,"746":5168,"Ill":5169,"Ġï£":5170,"enb":5171,"uag":5172,"692":5173,"792":5174,"kal":5175,"wan":5176,"ĠJu":5177,"091":5178,"ĉĊĊ":5179,"ims":5180,"GB":5181,"843":5182,"Soc":5183,"IEN":5184,"gim":5185,"CN":5186,"995":5187,"621":5188,"Up":5189,"niv":5190,"Ø¡":5191,"tet":5192,"tof":5193,"AE":5194,"687":5195,"ĠTi":5196,"wor":5197,"694":5198,"TES":5199,"Bri":5200,"UGH":5201,"589":5202,"918":5203,"ĠAQ":5204,"lym":5205,"efa":5206,".);":5207,"swe":5208,"oup":5209,"ïĤ§":5210,"738":5211,"Ãı":5212,"CAL":5213,"696":5214,"ĠAI":5215,")#":5216,"678":5217,"Aud":5218,"Del":5219,"ĠRH":5220,"PPS":5221,"ega":5222,"urk":5223,"732":5224,"727":5225,"ĠFa":5226,"XXX":5227,";/":5228,"824":5229,"OSH":5230,"REG":5231,"Two":5232,"IAB":5233,"795":5234,"cha":5235,"eve":5236,"ĠDM":5237,"673":5238,"UGS":5239,"897":5240,"hep":5241,"uz":5242,"NAA":5243,"ugg":5244,"elp":5245,"799":5246,"hm":5247,"Eng":5248,"491":5249,"OPM":5250,"ogo":5251,"Web":5252,"VT":5253,"NGL":5254,"qua":5255,"End":5256,"716":5257,"938":5258,"838":5259,"677":5260,";$":5261,"ĠHI":5262,"aza":5263,"844":5264,"iso":5265,"){":5266,"egi":5267,"ĠPD":5268,"dot":5269,"dl":5270,"ONC":5271,"AQ":5272,"832":5273,"ĠFH":5274,"Let":5275,"679":5276,"582":5277,"934":5278,"aze":5279,"RET":5280,"SEE":5281,"orr":5282,"ĠOw":5283,"ĠBB":5284,"AH":5285,"Bar":5286,"794":5287,"ĠUl":5288,"Ġmu":5289,"NEX":5290,"RM":5291,"ARG":5292,"anf":5293,"ĠLL":5294,"796":5295,"AU":5296,"JJ":5297,"776":5298,"ĠJO":5299,"lph":5300,"eab":5301,"798":5302,"092":5303,"793":5304,"ISO":5305,"ĠMg":5306,"Ent":5307,"Il":5308,"nit":5309,"NEW":5310,"USS":5311,"581":5312,"gom":5313,"nos":5314,"NEI":5315,"via":5316,",'":5317,"TIV":5318,"chs":5319,"Ġrm":5320,"ĠUT":5321,"bin":5322,"cav":5323,"ĠPi":5324,"Ø¦":5325,"mol":5326,"atr":5327,"Ġgy":5328,"ĠRC":5329,"682":5330,"896":5331,"VII":5332,"Hum":5333,"wp":5334,"SUR":5335,"uro":5336,"845":5337,"Ġrd":5338,"ĠKY":5339,"odi":5340,"rus":5341,"llf":5342,"'ve":5343,"ANA":5344,"edd":5345,"782":5346,"eft":5347,"lli":5348,"ĠOO":5349,"SY":5350,"BU":5351,"akd":5352,"ECA":5353,"Sod":5354,"788":5355,"fas":5356,"834":5357,"$/":5358,"ppy":5359,"NIC":5360,"Ġâĸ":5361,"Ġva":5362,"ïĢł":5363,"ĠRa":5364,"RNA":5365,"HIB":5366,"639":5367,"ĠRI":5368,"ĠEV":5369,"Ps":5370,"bd":5371,"fix":5372,"img":5373,"KL":5374,"raj":5375,"utw":5376,"996":5377,"ERT":5378,"894":5379,"yc":5380,"821":5381,"689":5382,"ĠGT":5383,"Ġ`":5384,"aby":5385,"WM":5386,"ELS":5387,"cip":5388,"ĠØ·":5389,"KG":5390,"ITT":5391,"aer":5392,"ugm":5393,"UV":5394,"yw":5395,"Fam":5396,"693":5397,"Ġea":5398,"774":5399,"ĠWa":5400,"liz":5401,"?@@":5402,"Pat":5403,"chw":5404,">.":5405,"OPP":5406,"mix":5407,"nl":5408,"hid":5409,"tle":5410,"ARL":5411,"ĠGa":5412,"ibb":5413,"ĠLI":5414,"lew":5415,"Ġfu":5416,"Ġzu":5417,"ĠRM":5418,"esa":5419,";</":5420,"Â¿":5421,"NRC":5422,"836":5423,"oin":5424,"ENC":5425,"TB":5426,"Ġ,\"":5427,"RP":5428,"yll":5429,"},":5430,"DV":5431,";\\":5432,"Fs":5433,"ĠTa":5434,"REL":5435,"onl":5436,"oom":5437,"936":5438,"WAT":5439,"ĠRS":5440,"/.":5441,"731":5442,"Rat":5443,"ĠFC":5444,"mb":5445,"BBB":5446,"Ter":5447,"HM":5448,"ĠTP":5449,"683":5450,"awk":5451,"893":5452,"}.":5453,"upp":5454,"KN":5455,"chi":5456,"ei":5457,"čĊĠ":5458,"929":5459,"Ġeg":5460,"Vis":5461,"```":5462,"GN":5463,"ĠLu":5464,"Mo":5465,"ERR":5466,"GH":5467,"fut":5468,"ups":5469,"-_":5470,"Ġ-$":5471,"KR":5472,"Ġå":5473,"itc":5474,"ODE":5475,"hom":5476,"did":5477,"xt":5478,"ĠÎ´":5479,"ĠRd":5480,"rax":5481,"Ãī":5482,"gam":5483,"oes":5484,"ĠEO":5485,"ĠTV":5486,"ĠIg":5487,"STE":5488,"lad":5489,"xxx":5490,"teb":5491,"Li":5492,"acf":5493,"utp":5494,"oyb":5495,"729":5496,"eo":5497,"cut":5498,"AAA":5499,"elo":5500,"OX":5501,"yre":5502,"spr":5503,"ĠDP":5504,"Key":5505,"Mex":5506,"erd":5507,"ĠGL":5508,"Ġog":5509,"ĠCW":5510,"JA":5511,"reb":5512,"inl":5513,"ĠÄ":5514,"ĠHM":5515,"OME":5516,"imo":5517,"SAN":5518,"iac":5519,";\"":5520,"enh":5521,"fro":5522,"839":5523,"VED":5524,"ĠÎ±":5525,"Obs":5526,"obl":5527,"CLE":5528,"EPH":5529,"TU":5530,"ĠFo":5531,"NF":5532,"Tim":5533,"ĠDI":5534,"ROW":5535,"681":5536,"Ve":5537,"IPs":5538,"Ren":5539,"ITZ":5540,"Ġiz":5541,"691":5542,"Jam":5543,"ÅĤ":5544,"_`":5545,"dc":5546,"Ton":5547,"BEL":5548,"ugh":5549,"svg":5550,"Ġud":5551,"QR":5552,"Aw":5553,"ĠHD":5554,"ĠDa":5555,"ĠOC":5556,"mou":5557,"bir":5558,"Cat":5559,"kel":5560,"ĠÂ¿":5561,"('":5562,"ige":5563,"891":5564,"Har":5565,"VU":5566,"edw":5567,".)(":5568,"ĠOt":5569,"=\"#":5570,"AO":5571,"ASK":5572,"len":5573,"ĠrH":5574,"leb":5575,"LV":5576,"Ð»":5577,"EUR":5578,"Åĵ":5579,"QP":5580,":\\/":5581,"cul":5582,"pet":5583,"bf":5584,"ĠRP":5585,"Mic":5586,"739":5587,"yb":5588,"IZE":5589,"FAC":5590,"/\"":5591,"dif":5592,"KH":5593,"rer":5594,"Jud":5595,"edf":5596,"ynd":5597,"apl":5598,"auk":5599,"ĠWi":5600,"ĠOW":5601,"791":5602,"ĠTF":5603,"ODS":5604,"TRA":5605,"onj":5606,"Jun":5607,"mab":5608,"ĠWY":5609,"eci":5610,"Pe":5611,"((":5612,"zym":5613,"Mor":5614,"stu":5615,"iph":5616,"INA":5617,"HIP":5618,"'d":5619,"ÃĿ":5620,"UDG":5621,"vok":5622,"iov":5623,"PUB":5624,"bsp":5625,"939":5626,"spl":5627,"ĠÃĨ":5628,"ENG":5629,"FRA":5630,"ICO":5631,"Lou":5632,"QC":5633,"Tri":5634,"Maj":5635,"WKH":5636,"LT":5637,"onz":5638,"ĵ-":5639,"sea":5640,"Ġio":5641,"ÃĪ":5642,";#":5643,"Spr":5644,"oda":5645,"him":5646,"HAL":5647,"OST":5648,"Ã©s":5649,"Ø¤":5650,"CUS":5651,"VV":5652,"]:":5653,"Ãł":5654,"ĠNP":5655,"css":5656,"'ll":5657,"Occ":5658,"amo":5659,"LU":5660,":.":5661,"egr":5662,"GAL":5663,"btr":5664,"Ġey":5665,"uj":5666,"USA":5667,"ĠVE":5668,"EPI":5669,"usk":5670,"COL":5671,"Fem":5672,"NOx":5673,"HY":5674,"ĠCe":5675,"ĠMB":5676,"Ox":5677,"Ġ\"[":5678,"ĠCz":5679,"ih":5680,"Lar":5681,"Ca":5682,"IFE":5683,"ĠAW":5684,"irk":5685,"abb":5686,"enm":5687,"Obj":5688,"ONN":5689,"CLA":5690,"oca":5691,"VM":5692,"aml":5693,"erj":5694,"ÃĦ":5695,"OSE":5696,"ĠPI":5697,"ULF":5698,"OGO":5699,"mp":5700,"ĠBA":5701,"LRQ":5702,"Age":5703,"LED":5704,"ĠØ²":5705,"UED":5706,"ĠOB":5707,"ä¸":5708,"GUE":5709,"EIS":5710,"LAS":5711,"Cs":5712,"oec":5713,"bnd":5714,";_":5715,"NOT":5716,"ĠÃĬ":5717,"Com":5718,"(&":5719,"asn":5720,")+":5721,"Ġtt":5722,"UTE":5723,"Ã°":5724,"dt":5725,"Ãº":5726,"RUP":5727,"yt":5728,"UMB":5729,"ĠEt":5730,"fri":5731,"six":5732,"oty":5733,"URY":5734,":-":5735,"Art":5736,"IDA":5737,"Gs":5738,"'&#":5739,"aga":5740,"ĠWV":5741,"ban":5742,"NES":5743,"`**":5744,"FB":5745,"wi":5746,"URN":5747,"ĠPV":5748,"]**":5749,"STS":5750,"LB":5751,"ĠLy":5752,"war":5753,"ï£":5754,"enk":5755,"Dem":5756,"MON":5757,"nih":5758,"ECE":5759,"oco":5760,"etz":5761,"GU":5762,"Oil":5763,"ĠÂŃ":5764,"cfm":5765,"âĹ":5766,"])":5767,"ĠØ¶":5768,"ILD":5769,"Os":5770,"UEL":5771,"ĠUJ":5772,"civ":5773,"Rad":5774,"ski":5775,"YN":5776,"DG":5777,"Ġsz":5778,"fy":5779,"ADA":5780,"nom":5781,"Ok":5782,"Adv":5783,"aco":5784,"ĠJR":5785,"**-":5786,"dn":5787,"~~~":5788,"LAN":5789,"Upp":5790,"tha":5791,"OV":5792,"ĠNN":5793,"fm":5794,"owm":5795,"ttn":5796,"yro":5797,"INI":5798,"DAY":5799,"ivo":5800,"Wil":5801,"IMS":5802,"NOX":5803,"bow":5804,"QUE":5805,"mom":5806,"UZ":5807,"Bor":5808,":&":5809,"uat":5810,"Cy":5811,"pil":5812,";?":5813,"uda":5814,"OCs":5815,"ĠHC":5816,"Aer":5817,"Ċĉ":5818,"unf":5819,"Ir":5820,"-'":5821,"dou":5822,"ĠKS":5823,"ROP":5824,"ĠMu":5825,"pg":5826,"KK":5827,",&":5828,"FWS":5829,"-#":5830,"\\\">":5831,"Ham":5832,"alp":5833,"LLC":5834,"TV":5835,"Fun":5836,"{\"":5837,"_.":5838,"PRE":5839,"FDA":5840,"Sil":5841,"APE":5842,"Lex":5843,"Lat":5844,"eme":5845,"RH":5846,"squ":5847,"ĠKG":5848,"HAM":5849,"lbs":5850,"sav":5851,"RIS":5852,"PB":5853,"Jul":5854,"OUS":5855,"ĠÂ®":5856,"Joh":5857,"IRS":5858,"idl":5859,"CHO":5860,"irf":5861,"Ol":5862,"ĠGM":5863,"Box":5864,"iro":5865,"EW":5866,"Eth":5867,"Ô½":5868,"atl":5869,"Hol":5870,"UX":5871,"ĠEp":5872,".#":5873,"VAC":5874,"bot":5875,"ĠNT":5876,"nie":5877,"Sk":5878,"Haz":5879,"anh":5880,"Pos":5881,"EQ":5882,"SG":5883,"ĠBU":5884,":'":5885,"TCY":5886,"ĠdB":5887,"ĠAV":5888,"()":5889,"Ã¶":5890,".~":5891,"AYM":5892,"Wor":5893,"GAG":5894,"ILY":5895,"tz":5896,"ľ(":5897,"bri":5898,"dre":5899,"\\\\":5900,"cz":5901,"ISP":5902,"Ġrr":5903,"Mrs":5904,"&&":5905,"noc":5906,"pu":5907,"lec":5908,"\";":5909,"OOK":5910,"CW":5911,"ku":5912,"bhe":5913,"ARN":5914,"DT":5915,"cdc":5916,"CAA":5917,"LQ":5918,"ZB":5919,"SX":5920,"+--":5921,"Wr":5922,".[":5923,"Ġá»":5924,"Ġsq":5925,"!#":5926,"VEY":5927,"Ġæ":5928,")--":5929,"ECC":5930,"ucl":5931,"ĠPG":5932,"ahl":5933,"ylm":5934,"nik":5935,"`%%":5936,"WF":5937,"obb":5938,"ICY":5939,"Ø¢":5940,"ISM":5941,"MSA":5942,"DOT":5943,"igi":5944,"onu":5945,"cop":5946,":::":5947,"aya":5948,"Bel":5949,"Liv":5950,"uas":5951,"Hg":5952,"som":5953,"DRA":5954,"Na":5955,"')":5956,"LEX":5957,"Ùį":5958,"ĠRR":5959,"ĠCJ":5960,"exc":5961,"orl":5962,"Sha":5963,"enw":5964,"Ty":5965,"rud":5966,"MF":5967,"PES":5968,"ĠUL":5969,"tat":5970,"Mot":5971,"yi":5972,"bpo":5973,"Ġln":5974,"DIC":5975,"°ÙĬ":5976,"sz":5977,"olu":5978,"dw":5979,"enl":5980,"awy":5981,"bey":5982,"ffi":5983,"HB":5984,"Urb":5985,"RAL":5986,"Giv":5987,"Ġrn":5988,")?":5989,"EQU":5990,"VAN":5991,"Ã¥":5992,"/(":5993,"Ã¨":5994,"SIC":5995,"oug":5996,"uli":5997,"BN":5998,"ĠHY":5999,"ecs":6000,"Ġnr":6001,"Win":6002,"Wes":6003,"'\"":6004,"ïĻ":6005,"Bay":6006,"FRI":6007,"Bac":6008,"ĠLU":6009,"PN":6010,"/-":6011,"oyd":6012,"OCI":6013,"TXT":6014,"LM":6015,"Ġze":6016,"gem":6017,"Den":6018,"upl":6019,"QI":6020,"ĠTI":6021,"soe":6022,"iza":6023,"CMS":6024,"oi":6025,"lav":6026,"ĠYi":6027,"Wet":6028,"çĶ":6029,"pyr":6030,"Map":6031,"SUM":6032,"tar":6033,"cb":6034,"alw":6035,";[":6036,"Pop":6037,"Ġba":6038,"MPs":6039,"ãĢĤ":6040,"BAS":6041,"GW":6042,"VK":6043,"Ġ~~":6044,"FAR":6045,"ĠHS":6046,"sd":6047,"ĠÎ²":6048,"Ġpm":6049,"CRO":6050,"%).":6051,"agi":6052,"Ġig":6053,"(^":6054,"cn":6055,"uld":6056,"bum":6057,"Bur":6058,"ĠUV":6059,"JD":6060,"@&":6061,"EEE":6062,"ĠDB":6063,"ftc":6064,"ĠMY":6065,"RT":6066,"çļ":6067,"FID":6068,"oct":6069,"vie":6070,"ĠOs":6071,"çļĦ":6072,"RL":6073,"Ġ(<":6074,"ECK":6075,"oga":6076,"QW":6077,"BW":6078,"rez":6079,"mum":6080,"dos":6081,"TIP":6082,"GV":6083,"DDD":6084,"ADD":6085,"AYS":6086,"Mag":6087,"ĠSr":6088,"rij":6089,"Ġ\"\"":6090,"ARI":6091,"ĠÌ§":6092,"ECF":6093,"tod":6094,"ofs":6095,"Syn":6096,"aca":6097,"CX":6098,"=\"\"":6099,"Mal":6100,"Mad":6101,"ulb":6102,"Cum":6103,"ĠQA":6104,"uy":6105,"ilo":6106,"IAM":6107,"lik":6108,"LAR":6109,"ETH":6110,"ĠBP":6111,"Ġao":6112,"GF":6113,"\"!":6114,":(":6115,"bis":6116,"HOL":6117,"VIN":6118,"sod":6119,"ĠVi":6120,"jan":6121,"sr":6122,"_**":6123,"EPL":6124,"FEM":6125,"hev":6126,"EDS":6127,"ĠJP":6128,"ĠCU":6129,"DOD":6130,"#:":6131,"Hs":6132,"ovo":6133,"Cam":6134,"LET":6135,"tow":6136,"arw":6137,"ĠLB":6138,"KO":6139,"Ma":6140,"AX":6141,"Ġ(+":6142,"Unl":6143,"cta":6144,"MH":6145,"Pou":6146,"%&":6147,"FDS":6148,"aba":6149,"ETT":6150,"Mas":6151,"ACI":6152,"df":6153,"BLM":6154,"hu":6155,"wur":6156,"-..":6157,"aro":6158,"lio":6159,"rys":6160,"HL":6161,"Ġ[(":6162,"BUS":6163,")(*":6164,"GRE":6165,"ylb":6166,"HRQ":6167,"VW":6168,"rg":6169,"KD":6170,"har":6171,"asa":6172,"Ġub":6173,"jam":6174,"mos":6175,"Los":6176,"tyl":6177,"mus":6178,"agr":6179,"Pan":6180,"HHS":6181,"zes":6182,"Her":6183,"ĠUM":6184,"lyw":6185,"ĠFT":6186,"nac":6187,".__":6188,"ldg":6189,")()":6190,"hee":6191,"GPS":6192,"Ni":6193,"ĠQC":6194,"QT":6195,"ĠKr":6196,"JV":6197,"mn":6198,"ibi":6199,"doi":6200,"ĠGC":6201,"Ġld":6202,"ĠXV":6203,"Í²":6204,"ROJ":6205,"Nu":6206,"ĠAk":6207,"ĠØ©":6208,"Vet":6209,"CDC":6210,"SAC":6211,"abo":6212,"ĠKu":6213,"ĠIE":6214,"\">&":6215,"ĠKl":6216,"FTA":6217,"UES":6218,"XY":6219,"Ġms":6220,"opa":6221,"AGO":6222,"pul":6223,"osi":6224,"atz":6225,"PG":6226,"Jus":6227,"âĪļ":6228,"orf":6229,"Ġia":6230,"ROS":6231,"UDY":6232,"FN":6233,"onk":6234,"jk":6235,"fly":6236,"Ġej":6237,"ĠIO":6238,"=$":6239,"QBM":6240,"lac":6241,"Bre":6242,"%;":6243,"MAY":6244,"WG":6245,"ĠDS":6246,"inj":6247,"EB":6248,"Lau":6249,"ĠÄĳ":6250,"ĠØ¢":6251,"FCA":6252,"mag":6253,"[&":6254,"lyn":6255,"Wy":6256,"/?":6257,"WB":6258,"Adj":6259,"NAL":6260,"ÃĬ":6261,"[(":6262,"LER":6263,"ĠIU":6264,"Pag":6265,"ĠSG":6266,"ĠHu":6267,"mu":6268,"tf":6269,"oyl":6270,"adw":6271,"mog":6272,"BAL":6273,"kes":6274,"epp":6275,"Ġdb":6276,"Jap":6277,"hg":6278,"ĉĊĠ":6279,"Bet":6280,"PU":6281,"<.":6282,"GER":6283,"Ã¼":6284,"Cas":6285,"etc":6286,"OMA":6287,"Mer":6288,"INF":6289,"ĠÃł":6290,"cht":6291,"_,":6292,"IJ":6293,"ĠKy":6294,"Rh":6295,"ĠHi":6296,"Ark":6297,"ĠïĤ":6298,"sy":6299,"Ãļ":6300,"bcl":6301,"ĠÙĮ":6302,"dp":6303,"URF":6304,"gly":6305,"mv":6306,"ANO":6307,"Ġ((":6308,"Ru":6309,"FIL":6310,"GCC":6311,"sia":6312,"RAY":6313,"Are":6314,"/&":6315,"JH":6316,"ACA":6317,"Ġ%,":6318,"ĠLt":6319,"ĠSK":6320,"Ts":6321,"DEN":6322,"Lin":6323,"dge":6324,"ĠÎ¸":6325,"Ul":6326,"ÃŃa":6327,"%),":6328,"ASC":6329,"OA":6330,"#*#":6331,"@@@":6332,"onb":6333,"sn":6334,"ĠIB":6335,"ATZ":6336,"LAM":6337,"ucc":6338,"ugs":6339,"VX":6340,"Ã¦":6341,"Ñĥ":6342,"=#":6343,"vs":6344,"ĠYe":6345,"ĠAE":6346,"ANI":6347,"~.":6348,"Ġib":6349,"auf":6350,"LRB":6351,"Ġ);":6352,"IMP":6353,"rej":6354,"RU":6355,"ĠCf":6356,";@":6357,"iae":6358,"PY":6359,"lc":6360,"avo":6361,"HAS":6362,"blo":6363,"čĊĉ":6364,"Ġdd":6365,"FK":6366,"Æ°":6367,"ois":6368,")'":6369,"hub":6370,")],":6371,"dup":6372,"LH":6373,"gae":6374,";^":6375,"WT":6376,"SPT":6377,"ilu":6378,"âĢł":6379,"MAQ":6380,"ĠmM":6381,"fon":6382,"lle":6383,"hp":6384,"Ã§":6385,"FET":6386,"aye":6387,"Åł":6388,"ĠÎĶ":6389,"ghn":6390,"FIR":6391,"ONY":6392,"ghs":6393,"Ġrv":6394,"zm":6395,"Ãª":6396,"txt":6397,"aka":6398,",</":6399,"VEM":6400,"->":6401,"QD":6402,"udo":6403,"SEN":6404,"MEs":6405,"itl":6406,"UMP":6407,"CSC":6408,"gao":6409,"TTO":6410,"ril":6411,"ĠEB":6412,"wet":6413,"lax":6414,"pit":6415,"QE":6416,"Ls":6417,"Ðº":6418,"TSD":6419,"ÕĮ":6420,"JS":6421,"ruz":6422,"Log":6423,"Oz":6424,"[&#":6425,"ĠTW":6426,"Qs":6427,"Ti":6428,"HIV":6429,"eca":6430,"EMB":6431,"*:":6432,"Cre":6433,"GAT":6434,"FAS":6435,"iom":6436,"Ġdt":6437,"ĠVo":6438,"AMO":6439,"JC":6440,"Ġeq":6441,"Mac":6442,"NAS":6443,"ĠOL":6444,"ľ,":6445,"UNE":6446,"otm":6447,"MET":6448,"Ã¡s":6449,"ERA":6450,"Ġds":6451,"oux":6452,"odo":6453,"ĠPT":6454,"ĠLR":6455,"viv":6456,"ĠBC":6457,"KI":6458,"uta":6459,"Sum":6460,"edo":6461,"amy":6462,"Eas":6463,"QF":6464,"GY":6465,"ĠNL":6466,",#`":6467,"FOL":6468,"APX":6469,"Cir":6470,"ej":6471,"ĠVP":6472,"Tur":6473,"(-":6474,"ERK":6475,"fis":6476,"aic":6477,"pb":6478,"ook":6479,"Ġ//":6480,"BRW":6481,"eru":6482,"ITC":6483,"UNG":6484,"fax":6485,"OOO":6486,";=":6487,"ĠÃ©":6488,"%-":6489,"cli":6490,"azz":6491,"jet":6492,"HUD":6493,"QM":6494,"lom":6495,"SKI":6496,"Ãĳ":6497,"agu":6498,"nis":6499,"DNA":6500,"BF":6501,"aki":6502,"RV":6503,"Ġâİ":6504,"ADO":6505,"]+":6506,"iu":6507,"Obl":6508,"'/":6509,"Vot":6510,"dg":6511,"HAR":6512,"eue":6513,"Bat":6514,"EI":6515,"vet":6516,"ONA":6517,"yy":6518,">,":6519,"isb":6520,"Ġyr":6521,":!":6522,"ĠBI":6523,"Jon":6524,"REM":6525,"mbH":6526,"ĠAO":6527,"Î²":6528,"gli":6529,"*%#":6530,"EZ":6531,"Ġnn":6532,"ivi":6533,"War":6534,"BG":6535,"ika":6536,"ACM":6537,"Spe":6538,"UER":6539,"Nit":6540,"DIR":6541,";!":6542,"fc":6543,"Tod":6544,"wt":6545,"#)#":6546,"ele":6547,"ķĲ":6548,"hd":6549,"CCC":6550,",(":6551,"inh":6552,"Lb":6553,"MAT":6554,"''.":6555,"WOR":6556,"icz":6557,"HER":6558,"Tox":6559,"ĠOM":6560,"FAL":6561,"STD":6562,"ĠMG":6563,"CEM":6564,"chr":6565,"Ġcn":6566,"Pil":6567,"zt":6568,"egg":6569,"Chr":6570,"kew":6571,"Ġlu":6572,"DOM":6573,"eav":6574,"*Â«":6575,"ĠÌĦ":6576,"PF":6577,"Lic":6578,"OTA":6579,"LOS":6580,"Ġtl":6581,"lyl":6582,"`&":6583,"too":6584,"ĠKN":6585,"CLD":6586,"Ġrh":6587,"LOC":6588,"Ïģ":6589,"Kn":6590,"Ġmp":6591,"CFA":6592,"ĠÃĩ":6593,"Ġga":6594,"uez":6595,"Ã½":6596,"Dou":6597,"HW":6598,"Ġko":6599,"Isl":6600,".\",":6601,"Mg":6602,"NGS":6603,"UPF":6604,"ZE":6605,"Ñĭ":6606,"AMM":6607,"Iss":6608,"een":6609,"cot":6610,"-^":6611,"die":6612,"sic":6613,"Rur":6614,"Ġ\"'":6615,"Ġja":6616,"elm":6617,"Wel":6618,"-__":6619,"uno":6620,"Ġpg":6621,"Nev":6622,"pin":6623,"Sup":6624,"BAN":6625,"wes":6626,"vex":6627,":,":6628,"Ð¼":6629,"Ap":6630,"ĠCi":6631,"pH":6632,"VJ":6633,".*)":6634,"PPD":6635,"nar":6636,"ĠMt":6637,"YES":6638,"ĠÌĥ":6639,"\"^":6640,"clu":6641,";.'":6642,"Ñı":6643,"udd":6644,"IUM":6645,"fu":6646,"ibl":6647,"odr":6648,"kov":6649,"Ð²":6650,"IRE":6651,"ACO":6652,"icr":6653,"~-":6654,"\\+":6655,"nem":6656,"KEY":6657,"JP":6658,"âī¤":6659,"UBJ":6660,"CAN":6661,"#(#":6662,"Dim":6663,"iel":6664,"/'":6665,"Ha":6666,"CHR":6667,"TW":6668,"Tw":6669,"CAM":6670,"pun":6671,"ĠUI":6672,"ynn":6673,"Blr":6674,"ADR":6675,"eia":6676,"ITN":6677,"hef":6678,"ACY":6679,"EAU":6680,"emm":6681,"hew":6682,"ĠkW":6683,"âķĲ":6684,"gif":6685,".'#":6686,"edl":6687,"RAM":6688,"TIL":6689,"onS":6690,"OY":6691,"TWh":6692,"EIA":6693,"Ġak":6694,"ĠDG":6695,"Ô¹":6696,";+":6697,"MAX":6698,"ĠOD":6699,"idu":6700,"HGs":6701,"Ġ(#":6702,"hez":6703,"BK":6704,"cam":6705,"rds":6706,"LAB":6707,".!":6708,"rux":6709,"jn":6710,"ĠWS":6711,"MV":6712,"eil":6713,"gc":6714,"LEV":6715,"Van":6716,"\"?":6717,"APS":6718,"Ġ$(":6719,"!**":6720,"ZL":6721,"kW":6722,"cov":6723,"ĠJe":6724,"DU":6725,"hot":6726,"YB":6727,"CFC":6728,"Du":6729,"ĠEq":6730,"iva":6731,"'&":6732,"NU":6733,"Alt":6734,"PSC":6735,"web":6736,"Ga":6737,"ilw":6738,"Hom":6739,"ssa":6740,"ynu":6741,"ĠPF":6742,"MIS":6743,"MOD":6744,"fd":6745,"tos":6746,"Îµ":6747,"idt":6748,"Kg":6749,"CAR":6750,"Kin":6751,"epr":6752,"MSO":6753,"MIC":6754,"enf":6755,"ACS":6756,"Ber":6757,"Ġht":6758,"Der":6759,"pez":6760,"POL":6761,"Ġip":6762,"RX":6763,"Ġlt":6764,"faa":6765,"\\'":6766,"Ġcv":6767,").]":6768,"ÃŁ":6769,"ENA":6770,"apa":6771,"MJ":6772,"Pay":6773,"Ġáº":6774,"uf":6775,"ymm":6776,":\"":6777,"Ġys":6778,"Å¡":6779,"/&#":6780,"ĠFP":6781,"hhs":6782,"syn":6783,"arz":6784,"ĠVT":6785,"akl":6786,"QV":6787,"ECR":6788,"Ġls":6789,"kk":6790,"GAA":6791,"cci":6792,"IPP":6793,"Ten":6794,"cgi":6795,"Ķ&#":6796,"ĠRG":6797,"oxo":6798,"dor":6799,"ĠJa":6800,"lts":6801,"utz":6802,"beh":6803,"\"#":6804,"ija":6805,"nh":6806,"JR":6807,"ĠAz":6808,"oub":6809,"far":6810,"YAR":6811,"JK":6812,"Äŀ":6813,"ĠGW":6814,"EET":6815,"trl":6816,"omi":6817,"Ġie":6818,"BLE":6819,"DY":6820,"Ġny":6821,"Õĩ":6822,"ocl":6823,"dro":6824,"AUG":6825,"ĉĠĠ":6826,"HSA":6827,"axi":6828,"Ci":6829,"Nut":6830,"XL":6831,"ĠUm":6832,"Ġ)(":6833,"VPT":6834,"*&":6835,"Imm":6836,"+,":6837,"UBS":6838,"-&#":6839,"IRM":6840,"ĠUC":6841,"=\"_":6842,"APs":6843,"ULD":6844,"Sn":6845,"JAN":6846,"Dev":6847,"owi":6848,"reh":6849,"MG":6850,"ecy":6851,"olc":6852,"ĨĴ":6853,"ĠÙį":6854,"=(":6855,"lr":6856,"ĠWW":6857,"ĠLS":6858,"CHL":6859,"NSR":6860,"*-":6861,"ISK":6862,"ZD":6863,"Ash":6864,"Hy":6865,"#/#":6866,"SEY":6867,"REV":6868,"OTW":6869,"ĠRB":6870,"Ġgh":6871,"HIC":6872,"EPS":6873,"Er":6874,"IFF":6875,"JUD":6876,"akf":6877,"äº":6878,"ICR":6879,"LF":6880,"XI":6881,"Ear":6882,"INV":6883,"CEN":6884,"Ã¡n":6885,"Ke":6886,"fem":6887,"ĠHH":6888,"ĠCG":6889,"Fis":6890,"dz":6891,"ADS":6892,"Cit":6893,"TEX":6894,"ĠOV":6895,"alU":6896,"Ġew":6897,"Ġka":6898,"ĠGB":6899,"spe":6900,"fD":6901,">-":6902,"XV":6903,"dx":6904,"$#":6905,"ESA":6906,"bic":6907,"Who":6908,"Ho":6909,"Î¿":6910,"Ġè":6911,"nr":6912,"lg":6913,"?)":6914,"ĠUB":6915,"eph":6916,"JL":6917,"NAl":6918,"?&":6919,"Sav":6920,"JU":6921,":~":6922,"ESE":6923,"API":6924,"akh":6925,"Õģ":6926,"Way":6927,"kh":6928,";`":6929,"UIS":6930,"**[":6931,"utm":6932,"TCT":6933,"+&":6934,"ahn":6935,"job":6936,"ä½":6937,"Deb":6938,"eh":6939,"Hen":6940,")%":6941,"$&":6942,"kr":6943,"_..":6944,"NAV":6945,"Hor":6946,"LCS":6947,"ÕĨ":6948,"ITA":6949,"AFT":6950,"ISI":6951,"COR":6952,"lag":6953,"TOM":6954,"eye":6955,"Flu":6956,"Ġ.-":6957,"RAE":6958,"heC":6959,"QH":6960,"few":6961,"OWS":6962,"Jer":6963,"-&":6964,"WIN":6965,"nea":6966,"tam":6967,"åħ":6968,"mut":6969,"RN":6970,"SV":6971,"rme":6972,"Qa":6973,"rex":6974,"IK":6975,"Big":6976,"ulu":6977,"DHS":6978,"Â¢":6979,"zon":6980,"ĠDF":6981,"PIC":6982,"IDD":6983,"jav":6984,"smo":6985,"/)":6986,"Wed":6987,"loo":6988,"EFD":6989,"DEL":6990,"yms":6991,"pip":6992,"ZC":6993,"cew":6994,"ĠOh":6995,"CBI":6996,"\");":6997,"moc":6998,"Ġ()":6999,"SAL":7000,"**$":7001,"Inb":7002,"Mid":7003,"Ġoh":7004,"ĠLM":7005,"CMA":7006,"buy":7007,"TIG":7008,"cU":7009,"Ves":7010,"Ġ$/":7011,"Beg":7012,"ieu":7013,"RB":7014,".|":7015,"OCA":7016,"lv":7017,"Rs":7018,"ATC":7019,"ybo":7020,"ĠTD":7021,"ijn":7022,"zM":7023,"SAR":7024,"iga":7025,"UTF":7026,"';":7027,"ĠDV":7028,"ĠÐ¿":7029,"\"-":7030,"Ġ(>":7031,"ĠOU":7032,":;":7033,"Ġae":7034,"EDs":7035,"~,":7036,"Ã²":7037,"Mn":7038,"von":7039,"Hex":7040,"utr":7041,"ATR":7042,"ĠOT":7043,"JAM":7044,"Ãĵ":7045,"IRD":7046,"Íĺ":7047,"UNA":7048,"³ÙĦ":7049,"nej":7050,"YER":7051,"PIT":7052,"Da":7053,"ICI":7054,"\\&":7055,"OCT":7056,"STA":7057,"sew":7058,"Pi":7059,"SUP":7060,"fee":7061,"uds":7062,"Ġdl":7063,"thi":7064,"ŃØ¯":7065,"kWh":7066,"ĠKa":7067,"ĠAX":7068,"kon":7069,"'^":7070,"KM":7071,"ĠMn":7072,"ĠÌĭ":7073,"ILS":7074,"yf":7075,"âĪĤ":7076,"!&":7077,"FU":7078,"GAS":7079,"[]":7080,"MEM":7081,"mst":7082,"IOX":7083,"Pal":7084,"CJ":7085,"ako":7086,"'_":7087,"-{":7088,"Due":7089,"Ba":7090,"Vic":7091,"ORA":7092,"ADI":7093,"ĠHF":7094,">&":7095,"Ġ.\"":7096,"/\">":7097,"tan":7098,"KW":7099,"Veg":7100,"ĠAx":7101,"pox":7102,"Avi":7103,"CUR":7104,"Dri":7105,"³Ø³":7106,"Dig":7107,"Ð´":7108,"NOV":7109,"Ġyo":7110,"\\\":":7111,"inm":7112,"roz":7113,"Asp":7114,"EXP":7115,"TTN":7116,"EXT":7117,"gn":7118,"?\"":7119,"UQ":7120,"aur":7121,"eq":7122,"IDI":7123,"axa":7124,"daq":7125,"~--":7126,"ĠAH":7127,"oce":7128,".Â·":7129,"%(":7130,"CZ":7131,"ĠÃĤ":7132,"unp":7133,"Ġç":7134,"Sed":7135,"db":7136,"orz":7137,"**&":7138,"Mix":7139,"dit":7140,",!":7141,"CIS":7142,"Pit":7143,"tc":7144,"fug":7145,"IRA":7146,"ĠAy":7147,"nib":7148,"RQ":7149,"UTY":7150,"Ġmb":7151,"PET":7152,"$)":7153,"ĠGI":7154,"ZO":7155,"ĠFt":7156,"xim":7157,"ĠÅĵ":7158,"lia":7159,"iba":7160,"UDE":7161,"Wom":7162,"obi":7163,"*),":7164,"-((":7165,"erz":7166,"grp":7167,"ĠUr":7168,"lO":7169,"aja":7170,"Ġ$.":7171,"yz":7172,"opk":7173,"laz":7174,"ACs":7175,"EME":7176,"ĠRL":7177,"Cop":7178,"xin":7179,"Ns":7180,"ZI":7181,"hle":7182,"':":7183,"ªÙĬ":7184,"ŃØ§":7185,"MIL":7186,"lyc":7187,"-*":7188,"chu":7189,"(.":7190,"CEQ":7191,"ÎĶ":7192,"ä»":7193,"xls":7194,"QO":7195,"oal":7196,"cp":7197,"Bra":7198,"RIG":7199,"ohl":7200,"vid":7201,"jpg":7202,"ĠZn":7203,"ĠPu":7204,"Hel":7205,"fif":7206,"GTT":7207,"Wa":7208,"ERO":7209,"Ġaj":7210,"\"]":7211,"ĠPW":7212,"GTR":7213,"GRA":7214,"JT":7215,"JUL":7216,"'';":7217,"ĠSz":7218,"Sug":7219,"Hay":7220,"Og":7221,"tom":7222,"¹ÙĦ":7223,"aat":7224,"ctl":7225,"MER":7226,"TSB":7227,"ĠOd":7228,":..":7229,"Fa":7230,"ĠPy":7231,"iej":7232,"dL":7233,"wai":7234,"-[(":7235,"JE":7236,"Mi":7237,"edn":7238,"Ã©n":7239,"ahr":7240,"ije":7241,"UO":7242,"Ãį":7243,"PSD":7244,"Ġ'\"":7245,"mw":7246,"ŃØ³":7247,"Ġki":7248,"Ġ\",":7249,"mc":7250,"ĠVS":7251,"AMC":7252,"Ãŀ":7253,"ryo":7254,"shi":7255,"irr":7256,"INK":7257,"PSE":7258,"eus":7259,"ERL":7260,"nez":7261,"eso":7262,"WIS":7263,"Unc":7264,"Ġhp":7265,"!.":7266,"ĠTs":7267,"Les":7268,"Cri":7269,"Bul":7270,"KT":7271,"zez":7272,"VH":7273,"alh":7274,"âİ":7275,"Unf":7276,"_&":7277,"^-":7278,"OLE":7279,"uM":7280,"]&":7281,"kom":7282,"seg":7283,"Bon":7284,"ĠÃ¦":7285,"pac":7286,"RG":7287,"RIA":7288,"CCA":7289,"alb":7290,"ĠUD":7291,"ync":7292,"ROF":7293,"GAR":7294,"bgr":7295,"UNI":7296,"CUL":7297,"MX":7298,"Ġ\"(":7299,"NPS":7300,"CRE":7301,"Ġ::":7302,"QMD":7303,"Ïĥ":7304,"ĠEc":7305,"Ot":7306,"#&":7307,"Ġà":7308,"efi":7309,"%$":7310,"Sus":7311,"Pb":7312,"sus":7313,"McC":7314,"ÕĬ":7315,"BOR":7316,"Ġ''":7317,"ĠRY":7318,"ZX":7319,"das":7320,"(%)":7321,"lez":7322,")].":7323,"otr":7324,"ĠCd":7325,"Hi":7326,"Fix":7327,"GAC":7328,"KC":7329,"ĠØ¦":7330,"tta":7331,"png":7332,"Ġĉ":7333,"Jl":7334,"ECs":7335,"YG":7336,"zu":7337,"gee":7338,"åı":7339,"Fal":7340,"ROB":7341,"UCK":7342,"ÏĦ":7343,"ewp":7344,"ilc":7345,"rur":7346,"VYT":7347,"âĹĭ":7348,"dil":7349,"GOs":7350,"cdn":7351,"tub":7352,"ÑĮ":7353,"ĠDW":7354,"Ġ%.":7355,"pel":7356,"Sun":7357,"BH":7358,"bol":7359,"RON":7360,"ODY":7361,"ĠGy":7362,"Ġcf":7363,"SEP":7364,"ĠRV":7365,"MCR":7366,"BJ":7367,"Ant":7368,"izi":7369,"atk":7370,"Ġdc":7371,"UNN":7372,"jb":7373,"IH":7374,"opo":7375,"lng":7376,"Arr":7377,"Sa":7378,"ĠAU":7379,"nen":7380,"fel":7381,"FRS":7382,"ĠJA":7383,"Atl":7384,"why":7385,"Ds":7386,"<?":7387,"COA":7388,"Cou":7389,"+#":7390,"AMI":7391,"Sat":7392,"pps":7393,"Sea":7394,"ETI":7395,"zn":7396,");\"":7397,"ĠNB":7398,"ËĨ":7399,"´Ø±":7400,"ELA":7401,"Ġcz":7402,"-**":7403,"Pin":7404,"hrs":7405,"Ġxx":7406,"DX":7407,"Î¹":7408,"QY":7409,"LEG":7410,"JW":7411,"STI":7412,"FAX":7413,"lln":7414,"lj":7415,"HON":7416,"Upb":7417,"SRD":7418,"Rob":7419,"^&":7420,"BEN":7421,"aln":7422,"Six":7423,"ĠTT":7424,"âĢĸ":7425,"%`":7426,"DN":7427,"atb":7428,"MOR":7429,"Por":7430,"}}":7431,",\\":7432,"ceU":7433,"Î¸":7434,"Nom":7435,"ĠDU":7436,"WHO":7437,"Ġnh":7438,"gia":7439,"rv":7440,"JOR":7441,"kil":7442,"Upd":7443,"ESI":7444,"ĠDw":7445,":/":7446,">]":7447,"EAK":7448,"ĠlO":7449,"ifl":7450,"HAN":7451,"AYE":7452,"COT":7453,"TEN":7454,"erD":7455,"TRI":7456,"ÄĻ":7457,"Ġaa":7458,"IFO":7459,"MU":7460,"Gow":7461,"Å¶":7462,"bag":7463,"ĠÏĨ":7464,"seq":7465,"oka":7466,"TIA":7467,"ïģ½":7468,"¯ÙĬ":7469,"´ÙĬ":7470,"INN":7471,"ÄĤ":7472,"Ġoi":7473,"RSP":7474,")|":7475,"ÃĶ":7476,"ĠKh":7477,"!'":7478,"Cot":7479,"ĠÎ»":7480,"Æļ":7481,"EAS":7482,"ĠMH":7483,"Las":7484,"ĀĀ":7485,"anj":7486,"ĠVL":7487,"Ġks":7488,"ĠOg":7489,"/\"]":7490,"ĠEH":7491,"Õĭ":7492,"ASD":7493,"Ã¬":7494,"~'":7495,"QN":7496,"ANF":7497,"|__":7498,"ALT":7499,"ĠÃį":7500,"jon":7501,"Î½":7502,"Why":7503,"ĠMd":7504,"PTO":7505,"hre":7506,"ĠTu":7507,"ĠÏĥ":7508,"bje":7509,"esl":7510,"æľ":7511,"IIU":7512,"GCT":7513,"EMO":7514,"lef":7515,"Eur":7516,"#,#":7517,"Mur":7518,"kan":7519,"Ġrg":7520,"ĠBD":7521,"ĠÐ²":7522,"ĠMF":7523,"OLS":7524,"URG":7525,"IER":7526,"ĠAi":7527,"xs":7528,"pho":7529,"|/":7530,"IFT":7531,"uad":7532,"los":7533,"Mun":7534,"JF":7535,"Ġ_.":7536,"ĠYO":7537,"hur":7538,"ÑĦ":7539,"ilv":7540,"IBR":7541,"DEF":7542,"Mel":7543,"Ġmt":7544,"Äħ":7545,"EK":7546,"*[":7547,"OIG":7548,"nz":7549,"idg":7550,"Ļ¦":7551,"tik":7552,"WER":7553,"dB":7554,"](":7555,"Men":7556,"Ra":7557,"¨ÙĬ":7558,"Sem":7559,"ceE":7560,"ulo":7561,"pli":7562,"ĠKo":7563,":#":7564,"IU":7565,"LAY":7566,"xl":7567,"Ĥ¬":7568,"CHS":7569,"Opp":7570,"CAI":7571,"ĠLH":7572,"ROX":7573,"ĠUF":7574,"DQ":7575,"phc":7576,"TSS":7577,"roo":7578,"Yea":7579,"hei":7580,"ĠHT":7581,"JUS":7582,"YP":7583,"ICs":7584,"ĠRy":7585,"zza":7586,"Cab":7587,"COs":7588,"inz":7589,"VG":7590,"mia":7591,")_":7592,"}-":7593,"ppb":7594,"ÃĢ":7595,"DON":7596,"Fif":7597,"onL":7598,"ocs":7599,"Ġrk":7600,"hos":7601,"gol":7602,"mid":7603,"Sex":7604,"JB":7605,"^.":7606,"yg":7607,"CLP":7608,"?,":7609,"Tru":7610,"«Ø§":7611,"Fly":7612,"YH":7613,"efl":7614,"usz":7615,"Neg":7616,"SCs":7617,"..,":7618,"Ġxt":7619,"frm":7620,"Ġ(%":7621,"ORR":7622,"TAC":7623,"Lay":7624,"pix":7625,"SSI":7626,"FLU":7627,"áº¿":7628,"ssl":7629,"Hig":7630,"ĠGH":7631,"SEA":7632,"YA":7633,"sky":7634,"Ft":7635,"ĠIo":7636,"INs":7637,"vos":7638,"aq":7639,"tex":7640,"iri":7641,"Set":7642,"KB":7643,"ntw":7644,"chb":7645,"ooo":7646,"+/":7647,"rz":7648,"Ġcs":7649,"KP":7650,"NQ":7651,"DoD":7652,"kf":7653,"ĠÎ³":7654,"Roy":7655,"Ñĩ":7656,"Bak":7657,"KV":7658,"bru":7659,"cab":7660,"uca":7661,"JOH":7662,"opi":7663,"nek":7664,"ÅĿ":7665,"EEL":7666,"dol":7667,"bes":7668,"DIF":7669,"JG":7670,"Vit":7671,"izu":7672,"edg":7673,"+)":7674,"iki":7675,"HUM":7676,"leo":7677,"ERP":7678,"ĠFc":7679,"Hab":7680,"Abs":7681,"Unp":7682,"evy":7683,"AMD":7684,"ĠLY":7685,"URS":7686,"lif":7687,"esb":7688,"doe":7689,"NBS":7690,"Ġ,,":7691,"vac":7692,").)":7693,"RAB":7694,"Fer":7695,"\"&":7696,"-)":7697,"Ġ._":7698,"php":7699,"Ĥ¨":7700,"leT":7701,"egs":7702,"Dkt":7703,"hon":7704,"Ġé":7705,"ĠBT":7706,"=-":7707,"agy":7708,"Ã±o":7709,"ĠÃ¡":7710,"Bir":7711,"Ġtn":7712,"tho":7713,"Î»":7714,"BIN":7715,"Lew":7716,"wra":7717,"+-":7718,"MPU":7719,"DEA":7720,"azi":7721,"ĠFW":7722,"luv":7723,"QZ":7724,"?.":7725,"#$":7726,"ĠKi":7727,"OCS":7728,"ĠTL":7729,"Tom":7730,"SAM":7731,"xon":7732,"[\"":7733,"Ãĺ":7734,"awm":7735,"ĠQJ":7736,"Â·-":7737,"ĠGN":7738,"LW":7739,"ewb":7740,"FCC":7741,"ESH":7742,"RUL":7743,"ĠVR":7744,"bad":7745,"USI":7746,"Lee":7747,"vew":7748,"xii":7749,"hus":7750,"vul":7751,"GWh":7752,"zhe":7753,"KIN":7754,"Tak":7755,"GOV":7756,"ewa":7757,"nap":7758,"Ġue":7759,"ACP":7760,"ĠÅ":7761,"BAR":7762,"tur":7763,"CRs":7764,"Fut":7765,"ĠIH":7766,"ĠKE":7767,"ITM":7768,"PHY":7769,"spi":7770,"SEM":7771,"stl":7772,"Ġ%)":7773,"GHG":7774,"olm":7775,"SCC":7776,"?**":7777,"THS":7778,",)":7779,"Ros":7780,"hoe":7781,"FCs":7782,"Sti":7783,"¹Ø±":7784,"TSF":7785,"ĠØ¸":7786,"'(":7787,"ĠFu":7788,"\\.":7789,"%\"":7790,"¬Ùħ":7791,")=>":7792,"tou":7793,"wed":7794,"NAT":7795,"NPO":7796,"Ġ,.":7797,"PPL":7798,"$!":7799,"Ta":7800,"UW":7801,"ĠWP":7802,"alE":7803,"-:":7804,"Î³":7805,"NSI":7806,"MAC":7807,"ãģ":7808,"rau":7809,"yel":7810,"hc":7811,"CED":7812,"¢.":7813,"bun":7814,"mac":7815,"RAD":7816,"uil":7817,"Amb":7818,"ogi":7819,"ABB":7820,"jj":7821,"%*":7822,"Ob":7823,"ILE":7824,"PUR":7825,"lde":7826,"tox":7827,"PLA":7828,"REW":7829,"ĠnR":7830,"ĠOX":7831,"ĠÑģ":7832,"Bea":7833,"obo":7834,"Oce":7835,"\"?>":7836,"XW":7837,"ĠBW":7838,"ggl":7839,"_-":7840,"vr":7841,"vee":7842,"Sac":7843,"Â°,":7844,"lys":7845,"cia":7846,"/).":7847,"LJ":7848,"'!":7849,"rai":7850,"zb":7851,"ZT":7852,"CCP":7853,"PRA":7854,"sS":7855,"CLI":7856,"ÃĮ":7857,"gaw":7858,"ÏĢ":7859,"uso":7860,"WIL":7861,"`%":7862,"ĠOA":7863,"orv":7864,"Mus":7865,"aje":7866,"]=":7867,"ysz":7868,"epe":7869,"),(":7870,"ilf":7871,"Ġgn":7872,"cg":7873,"ïģ¬":7874,"Ord":7875,"XJ":7876,"ĠCs":7877,":</":7878,"Fab":7879,"nog":7880,"*!":7881,"onM":7882,"BOE":7883,"´Ø§":7884,"SCO":7885,"]</":7886,"ĊĊĉ":7887,"âĢŀ":7888,"Â°.":7889,"SPs":7890,"ffn":7891,"Ju":7892,"ILA":7893,"Ov":7894,"ENR":7895,"LG":7896,"Agg":7897,"%/":7898,"AGR":7899,"ĠSV":7900,"gap":7901,"Îº":7902,"Cry":7903,"\\\",":7904,"tv":7905,"ĠSv":7906,"@#":7907,"RIC":7908,"CCT":7909,"æĪ":7910,"Kl":7911,"ĠMV":7912,"big":7913,"JN":7914,"IPA":7915,".+":7916,"Ġkt":7917,"???":7918,"Sy":7919,"ĠPU":7920,"lip":7921,"BIL":7922,"eem":7923,"ahu":7924,"oqu":7925,"dv":7926,"yto":7927,"yls":7928,"oya":7929,"kw":7930,"ECS":7931,"ĠGF":7932,"Ġ!(":7933,"CAT":7934,"awl":7935,"Avg":7936,"EDI":7937,"Ġrf":7938,"ĠÃ¢":7939,"ĠHB":7940,"Ġ))":7941,"esu":7942,"^^^":7943,"IRC":7944,"Mak":7945,"abi":7946,"vap":7947,"Did":7948,"ipo":7949,"nah":7950,"**:":7951,"UY":7952,"PW":7953,"¹Ø§":7954,"WAn":7955,"OOR":7956,"anm":7957,"oC":7958,"ĠBG":7959,"Ġsv":7960,"Sci":7961,"Ġ$-":7962,"SER":7963,"KES":7964,"GRJ":7965,"zh":7966,"owd":7967,"FPB":7968,"MK":7969,"ĠJJ":7970,"Deg":7971,"api":7972,"rH":7973,"Ġ.)":7974,"Bio":7975,"OSA":7976,"ĠMU":7977,"Ġdv":7978,"OGR":7979,"Onl":7980,"esS":7981,"esw":7982,"ĠVC":7983,"RW":7984,"BRO":7985,"BIA":7986,"gev":7987,",~":7988,"bn":7989,"mvw":7990,"ĠZZ":7991,"..&":7992,"heb":7993,"Ġ*(":7994,"hof":7995,"CTS":7996,"ĠÃĪ":7997,"IW":7998,"ĠâĹ":7999,"CHE":8000,"([":8001,"ĠBH":8002,"Fat":8003,"jor":8004,"Ġ!!":8005,"ÃŃs":8006,"ZH":8007,"afl":8008,"fle":8009,"DH":8010,"oac":8011,"âī¥":8012,"ssw":8013,"adn":8014,",_":8015,"Pip":8016,"SOC":8017,"ĠWT":8018,"Die":8019,"ïĢģ":8020,"DEQ":8021,"YO":8022,"Gi":8023,"Pes":8024,"oml":8025,"Ġtm":8026,"xer":8027,"Ġ\"$":8028,"ayo":8029,"ØŁ":8030,"MAP":8031,"Ce":8032,"NSF":8033,"PEG":8034,"%**":8035,"eln":8036,"ĠOE":8037,"çĶµ":8038,"Lam":8039,"gz":8040,"hh":8041,"CDF":8042,"Au":8043,"dal":8044,"Aqu":8045,"Ã¢":8046,"ĠJi":8047,"ELF":8048,"dip":8049,"POR":8050,"Ji":8051,"(!":8052,"PSI":8053,"-~":8054,"GCA":8055,"WAL":8056,"Cd":8057,"OPs":8058,"etb":8059,"USH":8060,"lov":8061,"acs":8062,"LK":8063,"nak":8064,"ĠBF":8065,"BAC":8066,"doj":8067,"unw":8068,"ĠGD":8069,"phi":8070,"Zn":8071,"IBE":8072,"bio":8073,"coa":8074,"XP":8075,"YC":8076,"rk":8077,"ppr":8078,"Rou":8079,"lau":8080,"itw":8081,"ouv":8082,"ĠEW":8083,"rah":8084,"stm":8085,"TEM":8086,"PDO":8087,"åĪ":8088,"NAJ":8089,"Edw":8090,"icc":8091,"KEN":8092,"ĠPf":8093,"ĠRN":8094,"XM":8095,"EIR":8096,"cms":8097,"Jac":8098,"ĠDT":8099,"Yi":8100,"Ack":8101,"--_":8102,"onC":8103,"UAV":8104,"ĠDy":8105,"Wi":8106,"nel":8107,"Dam":8108,"JDP":8109,"MCC":8110,"ĠÏģ":8111,"ysi":8112,"FQ":8113,"ĠÐ¸":8114,"è¡":8115,"ELY":8116,"ĠÃ£":8117,"cte":8118,"]/":8119,"GSA":8120,"OZ":8121,"kle":8122,"`*":8123,"ryp":8124,"ĠHU":8125,"pad":8126,"TAH":8127,"DOJ":8128,"ASs":8129,"TOX":8130,"uga":8131,"lds":8132,"TK":8133,"AFS":8134,"FX":8135,"Ur":8136,"geb":8137,"\"@":8138,"Ray":8139,"ĠPN":8140,"ĠÏĢ":8141,"nof":8142,"IMA":8143,"Ġcd":8144,"Ġnf":8145,"Hf":8146,"_\\`":8147,"upi":8148,"Oxy":8149,"/^":8150,"cfr":8151,"LOW":8152,"got":8153,"SBA":8154,"HRI":8155,"pc":8156,"Je":8157,"/,":8158,"fab":8159,"ctn":8160,"Ġ'.":8161,"=+":8162,"asz":8163,"~:":8164,"Ġui":8165,"kit":8166,"ÆĮ":8167,"TTT":8168,"ROV":8169,"yah":8170,"Esc":8171,"Hot":8172,"CRS":8173,"'*":8174,"Mol":8175,"dog":8176,"zem":8177,"thr":8178}